的 45490825
。 26193357
， 24681269
, 16679522
和 14374016
在 10419079
、 9528304
. 8059046
了 6439101
是 5933531
) 5262309
( 5235683
/ 4311971
年 4308411
对 3023501
: 2955178
与 2681606
中 2668753
- 2640865
或 2586682
我 2552113
月 2549365
为 2524992
并 2521613
有 2515975
" 2494876
将 2367669
第 2293776
一个 2128515
他 2044398
我们 2033598
委员会 2028794
不 2020806
； 2008197
你 2001273
《 1991161
》 1990381
提供 1966082
问题 1961514
国家 1897176
： 1862044
上 1855147
日 1833707
（ 1799689
） 1798998
到 1783213
人 1717295
会议 1698202
也 1693145
您 1683685
其 1615685
以 1560495
就 1501422
工作 1467258
1 1457533
发展 1435484
国际 1435247
联合国 1418690
以及 1413997
这 1385691
报告 1358680
其他 1354285
被 1331167
可以 1315790
包括 1311452
都 1296668
进行 1288272
所 1283452
关于 1276677
而 1268491
通过 1263779
这些 1245965
该 1218842
及 1215721
组织 1192664
所有 1170769
“ 1132651
可 1128147
2 1118813
使用 1117983
a 1094688
” 1087645
会 1084243
还 1078562
地 1069664
但 1058638
服务 1046073
情况 1045730
3 1043096
从 1037939
向 1028245
没有 1020551
社会 1004168
时 994279
他们 992045
有关 989647
说 973900
号 960827
她 944152
方案 939380
于 938521
下 912287
任何 910062
政府 907745
执行 904959
活动 900962
4 900110
方面 898900
酒店 878346
特别 877190
机构 875023
? 874873
更 870892
需要 859892
安全 838284
决议 836804
5 832093
· 832069
可能 830262
本 824080
项目 811928
经济 792205
由 791306
建议 788974
它 785851
来 785198
要 774681
个 769796
新 760498
10 759595
6 755640
行动 747434
妇女 742140
请 735133
根据 732912
多 729764
规定 728487
人权 718194
信息 707905
公约 704871
技术 703549
等 701978
使 701550
如果 700785
应 688834
区域 685882
大会 677880
支持 677233
12 675626
系统 672424
已 671007
合作 667870
后 662949
必须 661862
提出 660393
重要 657523
决定 655118
7 653171
儿童 639113
要求 627086
理事会 625917
公司 621729
内 616317
这个 615430
代表 609409
法律 607752
权利 604576
着 604380
把 602013
一些 600444
最 598532
中国 597566
管理 594257
影响 584046
主要 582218
继续 581871
政策 580990
给 580096
已经 576142
保护 573665
很 571935
; 570008
认为 566801
8 556438
9 555985
能 549946
作为 548444
研究 539585
各 538708
11 535529
网站 532290
确保 527233
世界 524567
请求 523689
能力 522597
目标 522033
自己 518932
b 516265
计划 513255
者 512984
促进 510261
因为 510113
时间 508117
让 505224
这种 504741
秘书长 503118
文件 500577
美国 500286
条 498104
因此 497885
采取 496427
加强 492427
相关 492169
建立 486503
一 486443
措施 485404
提交 485211
和平 483983
注意 480115
获得 477169
至 475192
— 463815
地区 462757
之间 458643
实现 455201
中心 453492
里 450177
努力 449253
c 445348
他的 441981
去 439291
资源 439023
表示 436832
全球 436181
其中 432303
环境 431741
缔约国 430682
期间 426474
能够 425800
教育 425303
开始 424080
得到 423372
人员 422472
方式 420887
段 420160
主席 419593
行为 418306
做 418096
但是 414658
! 412391
用 412095
举行 411593
先生 411526
什么 407288
领域 405898
我们的 405142
又 404974
产品 400593
这一 399351
性 399342
？ 393979
增加 393475
成员 391750
数据 391350
前 390696
你的 387567
方法 387271
考虑 385753
审议 384398
一种 382755
显示 381705
实施 380319
各国 379795
好 379096
草案 378527
s 377225
持续 375996
url 374278
审查 370779
这样 370003
大 369816
由于 368270
不是 367674
基金 366894
15 366271
我的 365015
资料 364998
处理 364747
选择 361596
参与 360742
开展 359053
程序 358941
许多 357727
有效 357522
不同 356898
帮助 356736
标准 356629
同时 355256
援助 353209
成为 352404
现在 351163
那 351070
正在 347365
战略 344423
内容 344381
20 343990
知道 342179
部分 342016
30 341736
名 339013
地方 337413
间 335539
e 335189
目前 334278
政治 334265
作出 334159
具有 333067
作用 332868
就是 332483
一项 331175
想 330444
提高 329858
之 329618
接受 328251
讨论 325049
工作人员 324921
生活 323010
协调 321233
企业 319668
如 317633
发生 314746
如何 313391
吗 313032
支助 312506
人民 312459
解决 312408
各种 311930
设计 309895
为了 309707
议程 309647
或者 309093
及其 308775
对于 308439
分析 307396
小组 307344
说明 307002
d 306455
预算 305925
参加 305679
存在 304924
过 304663
用于 304650
[ 304588
指出 304247
代表团 303299
法 303178
进一步 302757
任务 301455
文化 301398
而且 301374
次 301357
美元 300842
希望 300384
-- 299401
得 299301
当 298897
目的 297166
利用 297119
则 296129
以下 296119
] 295428
减少 295083
价格 293875
取得 292554
意见 291992
确定 290005
是否 289929
一@@ 289734
* 289265
国 288863
培训 287689
完成 287101
非洲 287002
不能 286230
人口 285627
并且 285377
机制 284568
特派团 281875
事务 281617
它们 281505
费用 281180
调查 280811
设备 280672
大@@ 280510
评估 279431
制定 278968
同 277211
应该 275609
14 275539
关系 275282
生产 275011
条约 274887
范围 273666
13 273656
16 271584
结果 271470
部门 270567
出 270449
原则 269971
18 269925
市场 269456
此外 268793
秘书处 265475
自由 265414
2008 265360
框架 265175
产生 264812
例如 264536
区 264062
「 263592
控制 263299
即 262322
造成 261625
此 261424
条件 261389
过程 261061
21 260745
24 260286
不@@ 260180
以便 259702
应当 259516
最后 259454
两个 259135
2005 258919
这是 258462
发展中国家 258003
非常 257346
2010 256732
」 256158
按照 255480
进程 254592
因 254497
同意 254023
地图 253198
投资 252705
受 252586
负责 252200
一次 251684
家庭 251430
基础 250935
2006 250735
非 250414
需 250384
2009 250008
一切 249566
承诺 248657
於 248603
高 248349
比 248093
责任 246646
们 245284
受到 245107
时候 244144
aspx 243283
专家 242859
强调 242462
i 242429
有限公司 242164
必要 242082
机会 242011
业务 241239
2007 240843
个人 240112
协议 239392
平等 238808
工作组 238223
适用 237789
不会 237175
适当 236918
形式 236611
19 235919
制度 235838
了解 235668
行政 235198
17 235095
_ 233964
网络 233667
全面 233269
2011 232681
之前 232045
之后 231410
com 230684
建设 230022
维持 228948
出现 228819
设施 228762
25 228253
英语 227966
那些 227911
2004 227742
发言 226615
免费 226591
发现 226110
直接 225473
设立 225217
他们的 223966
各项 223503
条款 223210
会员国 223124
采用 221900
缔约方 221576
款 220333
人们 220178
城市 220162
消除 220059
查看 219862
2012 219750
共同 219463
无法 217858
拥有 217835
办法 216416
具体 216195
协助 216087
以色列 216049
作 215802
贸易 215742
办事处 215430
保证 215373
你们 215343
用户 215145
材料 214978
应用 214863
司法 213910
2000 213897
期 213144
22 212707
联系 212541
自 211026
未 210641
安排 209889
鼓励 209806
访问 209612
欢迎 208838
充分 208614
尤其 208206
' 207937
000 207462
基本 207367
咨询 206790
再 204949
位于 204773
资金 204432
进展 204208
只 203824
一般 203750
家 203559
严重 203363
2003 203195
起 203093
23 202284
原因 201769
中@@ 201696
法院 201519
见 201449
小 201346
涉及 201206
欧洲 200918
小@@ 200738
做法 200437
健康 199445
义务 199429
介绍 199297
31 199135
性别 198887
按 198752
之一 198735
来自 197369
一直 196789
2002 196179
数据表 196029
办公室 195981
监测 194703
然而 194049
大学 193563
p 193546
虽然 193502
均 193438
需求 193106
2013 193052
状况 193006
最大 192764
批准 192002
挑战 191778
完全 191768
她的 190931
独立 190314
事 190069
仍然 189754
点 189389
尽管 189385
议定书 189247
却 189176
犯罪 188432
事项 187884
章 187811
认识 187650
限制 187538
只有 187495
导致 187415
国内 187244
这方面 186830
改革 186643
為 186639
仍 186445
公里 185954
看 184874
2001 184650
冲突 184578
另 184190
部队 184117
还是 183787
日本 183675
集团 183468
日至 183355
社区 183284
结构 181792
歧视 181346
改善 181142
过去 180560
像 180524
距离 180275
这里 180262
部 179279
结束 179273
然后 178873
非政府 178866
子 178406
呢 178318
增长 177775
利益 177684
关注 177367
公寓 176970
带 176839
预订 176783
吧 176684
外 176250
超过 175959
约 175581
成功 175375
最近 175138
客户 175084
选举 174958
整个 174547
page 173026
28 172981
附件 172955
武器 172188
一样 172123
n@@ 171971
成果 171921
才 171457
水 171375
开发 171357
26 171289
类型 171283
m 171153
式 171078
f 171033
禁止 171031
加入 170507
datasheet 170488
风险 170354
一起 170322
现有 169719
协定 169642
每个 169501
工具 169497
27 169085
表明 168886
某些 168670
多@@ 168498
分 168282
人类 168270
o 167922
法国 167717
以来 167231
联合 167168
d@@ 167021
稳定 166729
岁 166440
所以 165605
看到 165382
进入 164998
还有 164987
难民 164431
两年 164354
很多 164330
经 164227
小时 164225
防止 164069
详情 163770
针对 163142
方 163135
评价 163120
曾 163110
收到 162710
案件 162559
附近 162302
专业 162051
优先 161894
1999 161516
经验 161254
临时 161170
e@@ 161143
k@@ 160783
违反 160576
每 160276
化 160190
关切 160043
广泛 159633
学校 159325
t@@ 158469
事件 158395
较 157435
准备 156998
人道主义 156855
最新 156514
起来 156428
50 156424
保持 156325
基于 156203
29 155947
软件 155924
那么 155837
符合 155811
最佳 155782
一份 155708
功能 155639
这项 155520
积极 155430
the 155393
c@@ 155333
因素 155195
运动 154966
履行 154828
当地 154740
> 154696
规则 154660
重新 154413
站 154339
申请 154188
报告员 154186
下列 154120
德 153947
明确 153874
6@@ 153456
视频 153414
当局 153091
暴力 152805
英国 152785
承认 152672
空间 152620
从而 152318
立法 152050
网 151866
允许 151786
斯 151712
g 151533
阿@@ 151377
总统 151267
综合 151162
论坛 150895
遵守 150406
地位 150167
1998 150111
学生 149977
重申 149874
实际 149648
@ 149565
类 149299
g@@ 149269
记录 149235
8@@ 149164
2014 149128
． 148914
未来 148644
不断 148470
只是 148327
统计 148171
正式 148101
全国 147878
拉@@ 147340
达到 147199
s@@ 147189
日期 147077
孩子 147035
推动 146631
无@@ 146535
更加 145499
其它 145332
道 145286
客房 145216
7@@ 145189
处 145055
找到 144941
确认 144878
位置 144770
经费 144675
恢复 144565
不过 144517
打击 144226
监督 143825
住宿 143816
满足 143644
质量 143561
高@@ 143090
p@@ 143061
科学 142690
通常 142634
巴勒斯坦 142419
机场 142210
成立 142013
权 141974
恐怖主义 141852
x 141787
喜欢 141748
上述 141674
内部 141657
住 141237
对话 141229
收入 141159
走 141122
表 141095
下载 140577
保障 140539
支付 140269
安理会 139973
无 139957
带来 139911
指导 139897
m@@ 139644
通知 139583
二 139582
人@@ 139565
历史 139504
仅 139486
变化 139456
机 139307
t 139136
呼吁 139005
规划 138760
40 138401
成 138083
同样 138068
纳入 137830
达 137645
程度 137423
o@@ 137414
领土 137414
y@@ 137282
改变 137091
长期 137067
传统 137052
语言 136920
扩大 136866
定期 136462
项 136411
on 136361
协商 136320
in 136307
面临 136086
神 135919
学习 135710
军事 135643
一部分 135574
n 135538
一名 135377
i@@ 135287
以上 134877
土著 134781
厅 134525
9@@ 134524
警察 134348
f@@ 134282
宣言 134107
威胁 133960
水平 133818
保留 133793
h@@ 133597
of 133400
60 133128
天 133084
收集 132972
侵犯 132904
德国 132854
宗教 132806
且 132766
土地 132688
b@@ 132635
经常 132615
声明 132551
占 132399
谈判 132369
游戏 132156
有些 132046
！ 131983
正 131859
一定 131694
银行 131597
工业 131523
型 131461
公共 131062
大量 130988
价值 130916
非法 130629
三@@ 130602
交易 130411
审计 129976
汽车 129863
授权 129696
制订 129485
之@@ 129357
k 129197
发挥 129091
客人 129028
5@@ 128993
感到 128744
损失 128661
今天 128619
不要 128562
r@@ 128069
新@@ 128025
若 127985
做出 127904
页面 127873
公民 127825
发布 127792
香港 127551
印度 127278
伊拉克 127210
渡轮 127152
重点 127102
米 127022
预防 126921
版本 126718
上@@ 126692
浏览 126199
合同 126068
解释 125906
分钟 125891
该国 125669
l 125282
v@@ 125146
特 124880
2015 124828
应对 124478
模式 124295
位 124191
数量 124008
旨在 123866
知识 123807
改进 123772
发达国家 123675
hotel 123662
法庭 123644
加拿大 123283
卡@@ 123186
享有 123006
检查 122995
爱 122554
$ 122293
告诉 122288
地点 122150
人数 122112
一点 121880
财政 121704
100 121592
克 121589
水@@ 121412
市 121291
re@@ 121086
in@@ 120842
成员国 120823
甚至 120602
副 120509
一位 120449
女性 120411
员额 120147
有助于 120142
de 119932
马@@ 119894
宣布 119814
自@@ 119802
普遍 119622
意大利 119589
照片 119575
给予 119138
可@@ 119088
z@@ 119080
低 118991
有@@ 118923
线 118859
举办 118716
al@@ 118586
治疗 118350
u@@ 118200
在线 118103
私人 118040
阶段 117989
另外 117811
证明 117631
h 117393
组成 117275
年度 117252
我国 116856
r 116343
to 116320
器 115974
媒体 115843
伙伴关系 115489
x@@ 115197
构成 115171
特殊 115058
j@@ 115044
包含 115014
全部 114836
那里 114618
西@@ 114356
宪法 114353
與 114303
课程 114179
资产 114152
调整 114058
民主 113991
它的 113874
亚洲 113801
千年 113769
来说 113558
卡 113516
出来 113280
反映 113041
三 112854
啊 112768
率 112620
享受 112454
斯@@ 112373
l@@ 112323
地@@ 112236
协会 112225
适合 112121
新闻 112037
三个 111934
宣传 111932
事情 111778
商业 111763
境内 111745
船票 111650
承担 111198
旅游 111047
怎么 110977
实体 110901
属于 110641
反对 110559
行业 110551
如此 110442
结论 110392
就业 110365
科 110202
行 110186
成本 110177
最终 110155
重大 110130
准则 110126
群体 110062
理由 110027
除了 109912
第一 109892
更好 109876
东西 109860
特定 109786
1997 109761
真正 109703
州 109692
连接 109600
女士 109569
修改 109560
量 109459
战争 109375
後 109366
单位 109339
相信 109273
％ 109254
编写 109252
评论 109163
本国 108932
比较 108932
简单 108903
的话 108809
| 108704
0@@ 108455
现象 108390
再次 108348
缺乏 108267
拉 108217
法官 108181
维护 108078
称 108065
所述 108055
最高 107939
信 107929
回顾 107926
不得 107873
长 107721
y 107471
－ 107218
创造 107126
头 106972
指标 106917
总 106892
w@@ 106733
关键 106668
大多数 106499
谁 106450
解决方案 106427
农业 106409
每年 106026
刑事 105999
手段 105913
组 105705
1996 105690
出口 105635
电子 105544
创建 105507
西班牙 105034
跟 105031
手 104919
and 104912
注册 104831
朋友 104650
尊重 104514
生物 104288
路 104243
提到 104218
主题 104155
条例 104073
倡议 104014
官员 103973
纽约 103657
an@@ 103595
计算 103427
除 103330
受害者 103315
财产 103262
危险 103206
ar@@ 103058
有权 103058
领导 103014
保健 102907
200 102789
特@@ 102749
登记 102647
理解 102477
意义 102444
世纪 102356
最好 102297
房 102178
35 102149
贩运 102088
以前 102002
引起 101760
加 101705
至少 101641
快速 101560
联盟 101536
海@@ 101419
00 101335
避免 101332
描述 101252
最低 101205
下午 101179
便 101115
列入 101033
第二 101031
销售 101028
安装 101027
没 101025
本@@ 100706
落实 100427
担任 100351
为此 100300
死 100201
有人 100161
危机 100060
形成 99989
艾滋病 99836
32 99715
后续 99709
德@@ 99667
高级 99551
45 99397
电话 99393
森林 99385
发表 99244
两@@ 99227
管制 99220
不仅 99181
工程 99057
几个 99000
为什么 98960
1994 98872
达成 98843
分配 98827
补充 98792
& 98755
v 98689
签署 98588
立即 98309
al 98307
le@@ 98245
基金会 98234
当前 98225
民间 98075
伙伴 97929
1995 97868
如下 97862
车 97821
加@@ 97787
局势 97733
数字 97718
容易 97710
用途 97653
国际法 97486
移民 97422
在内 97405
通信 97322
定义 97206
图 97076
实行 97073
能源 97043
青年 96998
生命 96987
更新 96804
增强 96726
错误 96709
测试 96560
步骤 96396
力 96262
1@@ 96208
降低 96207
拘留 96113
困难 96099
下@@ 96040
体 95951
更改 95933
核心 95871
度 95840
u 95757
局 95671
此类 95638
采购 95548
一下 95540
才能 95469
死亡 95379
心 95328
ro@@ 95321
随着 95213
精神 95153
主任 95117
提议 95043
那个 95034
平台 95015
运输 95005
比例 94957
总部 94890
十分 94872
医疗 94752
供 94614
酷刑 94538
地址 94445
贫穷 94434
获取 94432
an 94410
交流 94281
核武器 94234
一年 94166
财务 94116
a@@ 94109
不可 94072
ch@@ 94065
km 93986
55 93967
概念 93837
数 93771
北京 93729
良好 93643
2@@ 93620
团体 93605
建筑 93580
巴@@ 93579
似乎 93506
权力 93494
– 93476
而言 93332
贡献 93329
修订 93254
行动计划 93180
表现 93067
离开 93061
证据 93058
设有 92971
出@@ 92828
背景 92779
专门 92773
购买 92728
心@@ 92717
澳大利亚 92716
从事 92710
指定 92699
供货商 92628
团 92569
文书 92515
节 92502
2016 92223
编辑 91969
de@@ 91963
制造 91888
公开 91796
80 91758
各方 91728
正确 91706
几乎 91599
天@@ 91422
内@@ 91421
经过 91166
金@@ 91146
问 90815
主 90786
迅速 90753
房间 90743
生 90714
阿富汗 90685
33 90663
外国 90619
省 90533
物 90472
类似 90372
58 90361
设置 90328
首先 90152
门 89956
利@@ 89939
拒绝 89926
来源 89715
+ 89652
越来越 89547
寻求 89520
57 89517
外@@ 89488
赔偿 89406
er 89403
基础设施 89355
非正式 89256
as@@ 89246
艾滋病毒 89165
支出 89133
听 89083
残疾人 89079
重要性 89019
山 88999
安@@ 88875
利 88829
文 88742
系列 88723
万美元 88615
统一 88491
共和国 88486
34 88458
城 88406
尚未 88360
36 88286
亿美元 88228
第五 87892
苏丹 87838
创新 87783
预计 87669
职能 87434
作品 87404
一致 87345
扩散 87342
吃 87337
员工 87307
据 87279
编制 87211
议会 87198
公众 87158
一系列 87078
依照 87071
罗@@ 86944
10@@ 86932
旅行 86854
64 86830
指 86775
题为 86732
书 86725
48 86674
值 86563
分别 86504
想要 86468
部署 86281
en@@ 86259
若干 86070
尔 86005
年代 85933
相同 85878
4@@ 85833
裁军 85788
62 85743
运行 85709
加以 85688
1993 85648
损害 85610
分@@ 85604
65 85591
其@@ 85556
今后 85455
金融 85350
离 85335
愿意 85291
3@@ 85201
第一次 85184
观点 85090
觉得 84979
即使 84905
气候变化 84880
59 84771
搜索 84605
详细 84560
毒品 84526
自动 84379
身份 84301
事实 84066
民族 84059
提案 83966
一家 83767
署 83767
疾病 83748
账户 83693
双方 83618
岛 83586
37 83508
18@@ 83464
效率 83435
光 83366
唯一 83352
首脑会议 83351
性质 83340
org 83252
拟议 83219
传播 83122
任命 83116
面 83093
压力 83065
科@@ 83012
停止 82872
操作 82828
叫 82774
會 82573
自然 82512
日@@ 82493
级 82461
开@@ 82433
克@@ 82390
co@@ 82348
us 82339
运作 82280
司 82270
尼 82191
li@@ 82136
发@@ 82074
意味着 81943
估计 81932
很大 81886
金 81770
53 81726
罪 81680
自愿 81611
钱 81543
效果 81502
训练 81479
黎巴嫩 81459
体系 81443
52 81439
美@@ 81389
反 81372
61 81348
当时 81340
对@@ 81258
召开 81243
万 81233
状态 81216
发 81203
发出 81199
花 81147
邀请 81113
室 81111
力量 81057
500 80991
am@@ 80949
54 80926
西 80861
供应 80827
39 80784
列 80750
以后 80615
南@@ 80588
答复 80563
分享 80474
南 80410
拟订 80372
返回 80333
观察员 80236
上海 80203
感谢 80174
纳 80132
上帝 80123
全@@ 80121
法@@ 80020
农村 79932
趋势 79896
56 79879
宪章 79830
感觉 79797
公平 79758
居民 79746
职业 79678
以@@ 79501
这么 79396
商品 79381
当然 79355
人士 79352
纲领 79351
罪行 79295
敦促 79276
工人 79260
第六 79182
学 79128
餐厅 79064
同@@ 78993
一级 78975
鉴于 78972
大部分 78967
那@@ 78943
移徙 78902
47 78853
债务 78819
语 78802
66 78714
巨大 78713
入 78688
票 78641
职位 78615
移动 78590
ad@@ 78576
常驻 78550
反应 78522
遭受 78435
食品 78393
42 78169
回答 78006
预期 77996
欧洲联盟 77924
41 77860
海洋 77746
is@@ 77724
点击 77671
四 77574
多边 77574
38 77468
本身 77401
格 77374
致力于 77331
长@@ 77309
高级专员 77296
那样 77288
mo@@ 77266
多个 77202
话 77156
依据 77108
埃及 77098
明显 77092
予以 77075
清单 76995
及时 76930
这次 76671
巴西 76664
额外 76648
接触 76640
49 76622
63 76577
模型 76558
身体 76545
白@@ 76526
制 76414
所@@ 76217
日内瓦 76210
四@@ 76203
派 76178
我@@ 75944
重@@ 75931
尼@@ 75896
亚 75859
这@@ 75852
下降 75806
主@@ 75766
大约 75701
ing 75669
一天 75669
母亲 75627
44 75612
车辆 75546
墨西哥 75335
核 75308
er@@ 75274
电影 75248
物质 75126
文@@ 75118
索赔 75067
现代 75020
平均 75003
合理 74988
古巴 74986
51 74945
女孩 74903
阿拉伯 74898
视为 74863
儿子 74772
律师 74762
荷兰 74759
來 74682
合作伙伴 74664
食物 74612
寻找 74511
es 74496
俄罗斯 74470
父亲 74465
la 74354
复杂 74343
打@@ 74223
破坏 74196
体制 74180
{ 74126
场 74126
女 74123
足够 74112
理论 74107
删除 74106
卫生 74018
商定 74008
46 73947
广告 73772
瑞士 73726
音乐 73715
= 73631
流离失所 73506
哈@@ 73502
有限 73476
前@@ 73439
en 73391
万@@ 73344
开放 73261
前往 73226
核准 73183
而是 73170
台 73063
处于 73041
’ 73025
z 72820
十年 72817
j 72796
二@@ 72788
制作 72663
方向 72658
te@@ 72612
费 72378
马 72355
办 72338
耶和华 72322
意识 72306
艺术 72143
生效 72107
性能 72099
第三方 72026
亚@@ 72024
相@@ 72019
布@@ 72018
43 72002
主管 71974
粮食 71972
顾问 71932
指控 71811
变得 71588
速度 71561
平民 71555
之外 71527
障碍 71500
以外 71458
帐户 71347
时@@ 71312
药物 71297
名称 71260
} 71175
平衡 71174
科技 71112
开 71078
伊@@ 71035
不再 70978
出席 70954
举措 70944
部长 70939
列表 70905
以此 70863
妈妈 70852
耶稣 70822
0 70811
st@@ 70780
学院 70694
时期 70658
竞争 70653
往往 70638
许可 70551
第三 70425
决策 70303
土耳其 70279
68 70268
塔 70239
令 70222
案 70175
大家 69962
件 69954
进 69951
每天 69899
她们 69753
只要 69692
神@@ 69688
對 69663
net 69649
使得 69643
圣@@ 69502
行使 69442
浴室 69368
阅读 69365
cookie 69297
令人 69285
攻击 69263
亦 69260
me@@ 69222
欧盟 69222
业 69218
1990 68978
供应商 68907
数据库 68840
直到 68705
贸发 68688
住房 68639
磋商 68613
官方 68490
和@@ 68484
届 68451
名单 68391
真的 68310
货物 68263
须 68179
采取行动 68098
联邦 68085
占领 68053
找 68009
随后 67993
资助 67946
链接 67937
适应 67899
完整 67864
全 67851
载 67786
机关 67781
di@@ 67712
维基百科 67678
领导人 67456
启动 67455
电视 67355
版 67333
俄罗斯联邦 67280
审判 67237
\ 67168
花@@ 67148
生@@ 67052
贫困 67034
le 67029
未能 67009
女人 66945
老@@ 66930
公正 66905
w 66904
份 66888
辩论 66878
研究所 66870
基 66836
清楚 66763
男人 66752
父母 66658
中央 66601
板 66579
面前 66577
紧急 66547
未经 66508
终止 66489
探讨 66487
写 66473
指南 66335
十@@ 66316
应用程序 66314
17@@ 66281
将会 66030
测量 65987
无论 65957
翻译 65955
非@@ 65944
公园 65900
实质性 65862
太 65714
今年 65602
股份 65586
队 65540
也许 65528
se@@ 65478
打 65426
基@@ 65416
团队 65376
起诉 65373
南非 65362
比@@ 65347
便利 65333
联合王国 65321
67 65293
放在 65285
侵害 65236
旅馆 65146
技能 65109
外部 65105
70 65023
飞机 64991
两性 64970
多少 64925
正@@ 64908
结合 64847
成@@ 64837
捐款 64730
地球 64684
手@@ 64609
互联网 64445
少数 64444
总是 64440
电@@ 64393
at@@ 64388
es@@ 64382
各级 64300
称为 64266
层 64256
体验 64237
纳@@ 64207
各自 64130
夫 64104
上诉 64095
格@@ 64095
比赛 64051
研讨会 64025
上午 63990
光@@ 63938
不到 63883
河 63878
el@@ 63800
管 63668
而@@ 63592
国际公约 63575
至关重要 63573
取消 63466
经营 63459
讲习班 63433
高级别 63362
多年 63313
会议室 63271
打算 63258
道路 63236
口 63206
转让 63199
是因为 63139
一条 63076
大规模 63015
巴基斯坦 62922
专题 62898
气 62808
国@@ 62770
ab@@ 62745
各个 62712
开发署 62701
预测 62666
… 62637
片 62610
sh@@ 62593
截至 62496
资格 62488
主义 62487
所作 62412
年@@ 62374
重视 62372
捐助 62307
电子邮件 62307
奥@@ 62213
专家组 62179
热@@ 62176
规范 62140
后来 62133
出版 62007
集中 61982
一個 61970
一般性 61930
单@@ 61817
股 61807
如@@ 61788
只能 61580
男子 61558
名字 61498
分类 61476
配置 61463
1992 61462
员 61420
检测 61407
ti@@ 61367
实际上 61362
lo@@ 61283
计算机 61246
我要 61227
哪些 61216
po@@ 61200
可是 61175
特点 61175
服务器 61173
制造商 61155
种 61139
原@@ 61133
高度 61117
空房 61099
索马里 61088
拿 61079
布 60988
维也纳 60946
私营部门 60925
流 60884
准确 60882
儿 60827
正常 60798
be@@ 60761
年龄 60748
买 60736
html 60730
医生 60719
立场 60719
转移 60628
bo@@ 60508
延长 60505
医院 60488
与会者 60428
90 60409
300 60395
人权委员会 60272
装置 60272
快 60262
公布 60204
so@@ 60040
动物 60019
雷@@ 60005
太平洋 59951
共 59901
数额 59889
监狱 59865
既 59833
遭到 59794
or@@ 59721
货币 59681
之中 59611
不足 59564
除非 59531
添加 59445
名@@ 59356
赞赏 59356
理想 59297
as 59268
ag@@ 59235
ri@@ 59217
海滩 59216
瓦@@ 59201
回@@ 59193
近 59191
电脑 59176
展示 59162
皮@@ 59124
旅客 59099
年轻 59094
里@@ 58965
ho@@ 58954
维@@ 58948
15@@ 58934
书面 58932
登录 58920
系 58894
此种 58736
保存 58702
病 58655
在于 58625
时代 58616
元 58608
数目 58603
波@@ 58512
任 58463
16@@ 58424
巴黎 58409
早餐 58393
试图 58392
页 58376
对此 58373
姆 58340
時 58327
干事 58304
五 58300
明@@ 58296
windows 58245
任择 58216
表达 58183
相当 58177
林 58145
声音 58117
卢旺达 57933
风@@ 57915
第一个 57854
重建 57844
摩洛哥 57795
故事 57781
77 57750
优惠 57739
球 57702
事实上 57666
泰国 57647
is 57554
品牌 57475
贷款 57466
可靠 57426
五@@ 57385
尔@@ 57383
2017 57377
全世界 57274
有时 57261
通@@ 57078
筹备 57043
提及 57031
恩 57028
投入 56974
相对 56974
集 56953
69 56932
山@@ 56928
后果 56864
几@@ 56831
转@@ 56739
从@@ 56717
相应 56675
相互 56637
诉讼 56625
后@@ 56624
对象 56575
先 56569
每@@ 56543
待遇 56526
武装冲突 56513
观察 56505
ac@@ 56483
态度 56403
出售 56398
瑞典 56347
空调 56338
罗马 56317
地雷 56316
un@@ 56295
受@@ 56253
75 56156
多样性 56144
分发 56135
ic@@ 56121
反@@ 56087
大型 56083
外地 56049
网上 56040
可能性 55992
公@@ 55971
合 55962
它们的 55920
信托 55883
方便 55814
职责 55797
回到 55758
伦敦 55743
品 55728
% 55696
输入 55664
筹资 55639
依然 55605
劳动 55528
萨@@ 55492
to@@ 55405
角 55390
埃@@ 55355
北@@ 55324
指示 55314
新加坡 55278
家@@ 55270
治理 55259
经历 55258
命令 55155
日益 55110
途径 55036
古@@ 55030
加工 54999
ap@@ 54997
所涉 54960
居住 54950
加勒比 54932
增进 54886
肯定 54880
军队 54867
at 54828
林@@ 54826
1991 54787
首次 54774
密码 54757
正如 54707
规模 54703
特别是在 54675
el 54618
信任 54588
色 54578
过渡 54569
救济 54538
证书 54535
隐私 54524
q@@ 54514
on@@ 54491
过@@ 54423
巴 54400
设 54397
报道 54394
美 54380
安保 54379
应@@ 54283
海 54251
武装 54170
永远 54170
重 54170
王@@ 54116
博@@ 54096
言 53986
开发计划署 53935
下来 53880
制裁 53843
用品 53824
挪威 53788
工作队 53744
作@@ 53720
用来 53686
看见 53678
好@@ 53604
塔@@ 53592
热 53591
专员 53545
角色 53512
th@@ 53490
科威特 53484
ne@@ 53474
打开 53460
心理 53417
si@@ 53397
ar 53354
提升 53348
森 53341
修正 53294
拉丁美洲 53286
黑@@ 53259
回 53212
流@@ 53139
爱尔兰 53122
流动 53116
现场 53040
仲裁 52985
合@@ 52970
米@@ 52911
co 52813
福利 52742
气候 52683
各@@ 52670
爾@@ 52649
助理 52629
混合 52601
取决于 52597
担保 52591
付款 52565
头@@ 52547
相比 52539
相 52529
文章 52494
期限 52439
12@@ 52418
会@@ 52398
代理 52385
声 52376
双@@ 52349
塞@@ 52322
罗 52315
莫@@ 52309
基地 52258
该@@ 52240
迪 52230
images 52184
舒适 52180
行@@ 52170
配有 52164
13@@ 52120
少 52090
气@@ 52007
类别 52006
表决 52004
坚持 51994
it@@ 51988
沙@@ 51949
ia 51942
新西兰 51927
清洁 51909
上升 51876
告知 51866
高兴 51866
关联 51839
为@@ 51821
商 51779
独特 51778
机械 51765
展开 51754
全体会议 51749
来到 51724
低@@ 51708
刚果民主共和国 51689
保险 51687
阿根廷 51665
身上 51638
驻 51615
达@@ 51564
卫星 51554
丰富 51542
单独 51542
長 51541
看法 51515
进口 51511
普@@ 51452
英文 51433
思想 51420
两 51397
限于 51372
it 51333
攸关 51292
国民 51272
红@@ 51191
科索沃 51148
太@@ 51071
阿 51034
随时 51023
安 51016
确实 51002
乌克兰 50998
希腊 50992
六@@ 50971
港 50963
所有人 50917
之下 50903
14@@ 50893
得@@ 50811
认证 50810
王 50804
争议 50800
百@@ 50778
法规 50758
优势 50755
海地 50716
男性 50695
百科全书 50694
多种 50693
讲 50583
查询 50536
吉@@ 50512
妻子 50456
申诉 50443
提@@ 50403
图像 50391
或是 50362
座 50359
表面 50330
油 50315
la@@ 50293
特征 50293
un 50249
艾@@ 50234
并非 50227
石油 50197
袭击 50179
委会 50175
同一 50131
遇到 50096
东@@ 50092
消息 50070
属 50065
法案 50045
for 50027
教授 49992
初步 49934
动 49928
船 49910
合并 49858
do@@ 49850
勒 49793
源 49773
博物馆 49756
授予 49755
一旦 49746
吸引 49728
到达 49706
总体 49702
便宜 49673
1.@@ 49671
边 49664
试验 49661
剂 49632
叙利亚 49614
個 49597
伊 49588
感 49570
军 49534
mar@@ 49494
储存 49484
平@@ 49475
人力资源 49470
伊朗 49458
图片 49444
界 49440
可用 49435
种族歧视 49393
第二次 49379
显然 49361
意思 49339
伤害 49327
协作 49315
担心 49298
潜在 49294
差异 49293
根本 49291
关闭 49283
门@@ 49283
波兰 49281
失去 49273
总@@ 49239
来文 49234
怎样 49231
法治 49227
判决 49209
托@@ 49201
洛@@ 49178
奖 49173
乘客 49156
附属 49124
空@@ 49102
场所 49092
面对 49092
周围 49019
严格 49015
消费者 49010
us@@ 48919
患者 48919
认可 48869
爱@@ 48843
资本 48827
400 48781
现实 48781
texas 48761
本文 48717
奇 48707
选项 48696
投票 48686
他人 48643
别人 48632
最初 48632
成就 48623
贝@@ 48607
教师 48595
组成部分 48550
自身 48513
尽可能 48512
替代 48478
劳工 48445
掉 48431
虐待 48379
大使 48354
民众 48328
实践 48326
网页 48285
发送 48268
残疾 48267
印度尼西亚 48243
il@@ 48227
起@@ 48224
四个 48222
instruments 48215
种族 48210
曾经 48174
比如 48141
包 48116
供资 48102
刷新 48080
八@@ 48008
某 47998
产业 47981
é 47973
化学品 47944
迪@@ 47919
县 47914
合法 47899
入@@ 47896
建造 47865
ts 47844
共享 47827
下面 47808
进步 47804
帕@@ 47793
更为 47742
协调员 47724
利比里亚 47719
物品 47708
l.@@ 47692
酌情 47623
很快 47621
ma@@ 47613
候选人 47609
奥地利 47597
不利 47525
推广 47520
检察官 47518
报 47480
特性 47455
原 47375
张 47375
托 47325
con@@ 47304
爾 47302
主持 47276
策略 47275
梅@@ 47269
士 47266
中东 47264
当@@ 47223
女@@ 47209
身 47181
会员 47175
想法 47110
他@@ 47106
华@@ 47062
满意 47026
明 47014
查明 46970
强迫 46963
库 46959
看着 46925
鱼 46919
娱乐 46913
例子 46888
早期 46859
美丽 46825
交@@ 46794
灾害 46785
扩展 46780
普通 46730
现金 46719
得以 46644
2018 46629
推出 46627
真实 46616
温度 46609
收@@ 46605
主流 46599
总额 46597
提请 46566
老师 46566
单 46532
整体 46506
q 46486
于是 46424
真 46422
mi@@ 46396
第四 46302
子女 46295
® 46285
真@@ 46285
马来西亚 46266
起草 46179
此@@ 46170
细胞 46152
始终 46146
no@@ 46126
入住 46098
美利坚合众国 46073
放弃 46048
干预 46007
大小 45988
强 45977
眼睛 45960
步行 45891
教@@ 45861
有所 45854
店 45827
广场 45818
边界 45788
jpg 45784
菲律宾 45782
著 45763
裁决 45682
阁下 45671
变@@ 45659
中期 45657
执行局 45644
采取措施 45631
外交 45621
交通 45592
别 45558
污染 45527
诺 45490
干 45484
ur@@ 45454
波 45439
南部 45421
著名 45415
半@@ 45375
党 45371
用@@ 45369
雇员 45365
旅舍 45316
游泳池 45307
因而 45288
监管 45287
剥夺 45242
消费 45179
最@@ 45160
象 45160
多数 45069
李@@ 45041
轮渡 45019
pro@@ 45018
芬兰 44998
去年 44984
感染 44979
兴趣 44975
尽 44927
希@@ 44904
通讯 44893
哥伦比亚 44892
add.1 44885
调@@ 44782
直@@ 44779
看看 44769
字 44763
教 44734
格式 44704
通报 44691
逮捕 44682
诸如 44638
因@@ 44607
架 44607
苏@@ 44597
优化 44578
青少年 44539
伯@@ 44537
燃料 44532
代@@ 44492
工 44488
推进 44433
层面 44412
透明 44412
配备 44390
即将 44379
角度 44376
街 44358
核查 44353
教堂 44348
集体 44346
出生 44330
具备 44306
男女 44277
税 44253
词 44248
差距 44245
任期 44229
法令 44213
额 44203
北 44192
he@@ 44172
体现 44171
科特迪瓦 44158
清@@ 44139
火 44131
全球化 44112
有利于 44104
送 44094
目录 44059
明白 44052
ra@@ 43971
两种 43966
族 43952
家人 43897
强烈 43886
值得 43800
形 43778
超@@ 43771
组合 43722
有着 43713
手册 43688
作者 43678
双边 43666
曼 43655
ed 43653
参考 43631
定 43577
sp@@ 43565
600 43543
种族主义 43532
病毒 43531
st 43524
lu@@ 43511
个人信息 43510
vi@@ 43465
气体 43463
ko@@ 43458
听到 43448
pdf 43447
存储 43429
回应 43428
未@@ 43397
星级 43389
厨房 43386
核@@ 43352
植物 43326
主权 43313
养 43277
透明度 43273
表格 43245
摘要 43235
探索 43218
任何人 43174
云 43171
主席团 43113
性@@ 43075
go@@ 43036
风 43016
风格 43008
里面 43002
排放 43000
老 42999
花园 42991
gu@@ 42969
运用 42968
这家 42946
释放 42861
六 42852
火@@ 42844
秘书 42844
工发 42839
常常 42826
0.@@ 42778
妇女地位 42756
取代 42742
航空 42732
数@@ 42699
一场 42697
莱@@ 42689
赋予 42642
72 42635
订正 42622
事务部 42610
机@@ 42583
道德 42560
正是 42441
by 42437
暴力行为 42437
俱乐部 42425
倒 42395
通 42326
首页 42323
te 42321
争取 42321
语文 42306
图@@ 42283
根 42279
或@@ 42258
知识产权 42248
维和 42243
预防犯罪 42222
投资者 42217
信号 42214
波斯尼亚 42212
牌 42204
共有 42203
防@@ 42171
qu@@ 42156
皮 42154
执法 42153
商店 42146
特设 42139
代码 42137
统计数据 42133
金属 42107
国家一级 42097
学@@ 42087
阻止 42071
往 42045
交付 42015
以期 41980
容忍 41971
精@@ 41922
世界各地 41911
实时 41904
显著 41883
证实 41868
失踪 41847
图书馆 41821
工厂 41820
av@@ 41815
石@@ 41786
价 41755
手机 41755
空气 41751
议事规则 41747
效力 41730
深@@ 41706
保@@ 41672
达尔富尔 41640
女童 41625
现行 41611
01 41606
提前 41586
床 41548
基督 41545
et 41536
任意 41508
成绩 41506
总理 41485
逐步 41468
仅仅 41458
su@@ 41451
还要 41449
套房 41423
文本 41402
不想 41401
www 41368
转 41329
互动 41314
车@@ 41300
雷 41256
减轻 41255
三年 41252
处罚 41238
颁布 41210
衣服 41185
常设 41168
大楼 41122
inc 41106
几年 41102
工艺 41094
记者 41088
ter 41077
剥削 41072
馬 41058
圣 41030
房子 41025
石 41022
星 41019
派遣 41019
顿 41010
强大 40960
识别 40958
越南 40895
院 40883
800 40857
抵达 40822
颜色 40811
解决办法 40808
更大 40775
变成 40753
比利时 40745
联@@ 40726
实验 40722
装 40711
突然 40682
由@@ 40645
---- 40634
丹麦 40620
美國 40617
南斯拉夫 40616
agriaffaires 40611
装备 40600
葡萄牙 40586
瓦 40546
村 40512
方@@ 40499
载有 40491
一套 40451
所载 40392
阻碍 40382
远 40366
后勤 40362
怀疑 40343
突出 40341
流程 40339
木@@ 40325
危害 40321
microsoft 40309
索@@ 40300
共识 40285
早 40259
出版物 40258
参数 40258
指数 40254
教会 40253
分布 40246
世界银行 40239
难民署 40236
干@@ 40205
油@@ 40188
飞@@ 40187
事业 40171
融资 40130
涵盖 40128
意 40127
管辖 40127
声称 40083
惩罚 40059
tr@@ 40046
期待 40030
非洲联盟 40022
痛苦 39960
完美 39932
自我 39910
指@@ 39897
韩国 39875
交换 39820
尼日利亚 39819
切实 39813
人力 39793
赞扬 39770
黄@@ 39768
ak@@ 39765
群 39745
供求信息 39736
七@@ 39717
楼 39712
决心 39696
吁请 39695
兰 39660
列@@ 39643
津贴 39622
业绩 39616
晚上 39588
不得不 39576
以往 39555
帮 39511
子@@ 39493
动态 39478
千@@ 39466
次级 39466
求 39464
绝对 39452
da 39436
71 39418
酒吧 39411
引用 39404
表@@ 39400
补救 39395
口@@ 39360
制@@ 39342
中有 39315
尝试 39300
接近 39295
car@@ 39279
本地 39277
来@@ 39268
视 39260
足球 39252
列出 39240
塞拉利昂 39230
防治 39193
工资 39171
先进 39161
先@@ 39157
小型 39154
原子能 39150
坐在 39134
埃塞俄比亚 39097
婚姻 39029
度假 39021
咖啡 38991
密切 38977
众多 38961
伟大 38908
连 38907
usd 38903
概述 38879
团结 38873
泰@@ 38872
东帝汶 38853
丈夫 38852
其实 38841
轻松 38815
案例 38802
点@@ 38798
相反 38797
收益 38783
年底 38770
man@@ 38752
智利 38746
北部 38732
完善 38730
目的地 38663
拟定 38658
许可证 38648
am 38644
ni@@ 38622
绿色 38598
化学 38592
制止 38509
20@@ 38479
树 38466
信仰 38431
将来 38414
议题 38407
联 38380
亿 38375
国籍 38313
赛 38245
推@@ 38238
联合会 38204
接@@ 38187
现代化 38175
工程处 38164
2.@@ 38110
ex@@ 38103
包装 38103
並@@ 38100
回来 38066
阿尔及利亚 38054
塞浦路斯 38042
证 38042
开支 38035
飞行 37967
重复 37960
越 37955
充满 37893
事@@ 37876
加上 37866
期望 37865
或许 37819
空 37817
读 37800
升级 37772
浏览器 37772
逐渐 37755
争端 37754
鲁@@ 37746
不管 37741
标志 37739
废物 37710
欧元 37688
依赖 37684
标签 37648
身@@ 37646
加快 37626
穿 37622
mon@@ 37611
笑 37610
如今 37603
失败 37596
约翰 37571
周期 37557
该项 37511
以为 37500
分子 37500
促使 37496
面@@ 37483
ation 37464
bi@@ 37463
联络 37461
连续 37457
推荐 37445
事先 37422
种类 37405
进@@ 37398
76 37375
酒 37337
掌握 37323
放@@ 37312
恩@@ 37300
无线网络 37281
难 37277
哪 37246
威@@ 37223
谴责 37214
斯特 37204
斗争 37192
管理局 37187
情形 37170
跨国 37150
博士 37149
自治 37141
os 37121
女儿 37106
上文 37096
环境署 37068
发行 37065
很少 37046
台湾 37042
化@@ 37015
人道主义法 37014
力@@ 37006
這@@ 37003
首@@ 36997
利比亚 36927
机器 36911
些 36905
付出 36904
与其 36886
东 36877
特色 36877
暂停 36876
73 36875
阐述 36852
情@@ 36846
杜@@ 36831
ver@@ 36819
好处 36819
出口商 36789
信@@ 36775
et@@ 36760
工@@ 36727
共同体 36718
出于 36716
护理 36715
95 36706
83 36693
修@@ 36688
轮 36684
有用 36644
教学 36636
张@@ 36623
英@@ 36603
每日 36578
运营 36534
查@@ 36517
融入 36490
乌@@ 36482
效益 36477
尽快 36476
传感器 36463
排除 36463
租赁 36455
照顾 36433
ferryto 36425
ci@@ 36420
高效 36418
喜爱 36394
难以 36380
商标 36379
固定 36379
体育 36370
一张 36361
五年 36347
pe@@ 36345
款项 36337
street 36324
职务 36323
当事人 36307
ma 36293
永久 36285
靠 36281
ter@@ 36252
88 36205
man 36176
se 36174
腐败 36172
看@@ 36168
高专 36165
赞同 36152
已有 36130
出去 36113
元素 36110
人物 36059
克罗地亚 36055
其他人 36049
筹措 36029
某个 36007
提名 35999
facebook 35984
深入 35981
哪里 35964
阿塞拜疆 35961
一体化 35952
说话 35941
布隆迪 35913
等等 35907
中华人民共和国 35902
否则 35871
彻底 35857
萨 35846
跑 35837
刑法 35830
月份 35772
共@@ 35732
81 35728
肯尼亚 35718
匈牙利 35707
询问 35687
灵活 35678
弹药 35630
民@@ 35619
低于 35596
获 35590
公务员 35588
情 35537
关心 35528
军@@ 35518
一道 35516
99 35502
一件 35491
习惯 35488
74 35485
盘 35474
调动 35472
你们的 35469
敏感 35469
小岛屿 35443
加速 35439
格鲁吉亚 35427
罗马尼亚 35422
块 35408
负担 35399
自行 35396
立@@ 35352
变 35347
市中心 35343
全体 35337
兵 35332
案文 35303
文字 35284
ch 35277
http 35266
從 35259
口头 35241
理@@ 35210
血@@ 35172
巩固 35159
班 35146
在@@ 35134
事故 35130
家庭暴力 35120
示范 35112
电 35091
亞@@ 35088
79 35066
动@@ 35058
78 35057
取 35047
估计数 35041
遵循 35022
切@@ 35014
死刑 35003
中文 34971
友好 34953
反恐 34947
放 34947
technology 34939
失@@ 34934
模块 34923
料 34922
潜力 34897
蒙@@ 34872
所谓 34867
乌干达 34861
缅甸 34855
02 34838
要@@ 34837
覆盖 34791
两次 34779
域名 34770
一只 34757
等待 34751
审理 34747
86 34746
看来 34745
定@@ 34695
信息技术 34693
伊斯兰 34683
游客 34677
快乐 34673
士兵 34661
眼 34654
作业 34650
诺@@ 34643
结婚 34634
黑塞哥维那 34622
主张 34621
85 34588
上面 34587
劳动力 34581
细则 34572
卧室 34566
宗旨 34566
首席 34566
本次 34562
厂 34552
选 34549
修正案 34539
php 34518
更@@ 34518
促请 34499
续 34486
实验室 34472
自然资源 34464
营销 34460
注重 34452
确立 34446
发起 34440
妨碍 34435
国际@@ 34426
各类 34409
论 34394
并未 34371
购物 34330
智能 34323
塞 34311
什 34301
提示 34283
史 34241
完 34220
师 34176
中间 34146
抗@@ 34144
82 34136
ii 34108
星期 34106
商务 34101
附加 34037
例 34029
港口 34014
微@@ 33990
西方 33971
me 33961
披露 33932
or 33916
排@@ 33881
卷 33874
没@@ 33869
轻@@ 33868
然 33865
活@@ 33856
是不是 33851
意愿 33848
衡量 33844
具 33836
各地 33832
申诉人 33829
放松 33822
会计 33816
他們 33804
150 33803
复制 33787
汇率 33787
信心 33770
沟通 33759
豪华 33736
革命 33729
战 33712
过境 33699
天气 33686
不久 33636
灯 33629
专门机构 33626
所在 33595
已@@ 33594
考试 33589
常@@ 33587
愿 33587
一半 33581
08 33580
af@@ 33577
药 33570
官 33561
海外 33543
转换 33542
提 33538
间接 33525
网@@ 33485
第一@@ 33469
代 33456
有点 33456
体@@ 33455
渠道 33444
证人 33436
區 33429
湖 33415
跟踪 33415
面积 33374
05 33372
兄弟 33312
一座 33310
template 33308
转变 33283
秘鲁 33277
质 33276
整@@ 33273
受理 33267
ca 33192
细节 33188
png 33183
ta 33150
玩 33138
无需 33133
管辖权 33111
培养 33094
验证 33082
ai@@ 33074
250 33056
政治权利 33052
93 33042
满 33011
兹 33004
par@@ 32999
这位 32995
犯 32982
总数 32974
生成 32942
提醒 32915
武装部队 32905
刚果 32902
軍 32900
分摊 32898
赢得 32878
左右 32861
赫@@ 32860
恶化 32858
700 32847
铁路 32831
福@@ 32807
fi@@ 32801
受益 32796
认真 32792
普 32778
大陆 32766
状 32766
经@@ 32757
镇 32747
必@@ 32732
学会 32728
撤销 32719
施@@ 32702
支援 32692
hi@@ 32687
族裔 32685
持久 32677
连@@ 32676
skin 32631
压 32621
84 32595
一步 32587
五个 32580
外层空间 32572
底 32543
3d 32535
尺寸 32526
立 32509
english 32508
脆弱 32505
白俄罗斯 32502
房屋 32493
we@@ 32492
雇主 32488
road 32486
病人 32485
ds 32472
心里 32472
差 32471
铁@@ 32463
主动 32450
旧 32443
合适 32433
斯里兰卡 32429
this 32427
情报 32421
生殖 32409
带有 32401
咨 32397
白 32394
望 32390
杀 32372
第三次 32372
海关 32351
每月 32350
配合 32329
96 32308
融合 32307
下去 32306
委员 32256
庇护 32245
个人资料 32239
瑞@@ 32222
限度 32198
冷@@ 32195
地中海 32174
就此 32165
薪金 32165
能量 32153
原始 32143
祂 32128
响应 32109
克服 32099
监控 32090
试@@ 32080
含有 32072
狗 32072
加沙 32067
霍@@ 32061
补偿 32057
87 32052
ana 32045
mac 32033
死亡率 32023
信贷 32016
包@@ 32001
玻璃 32001
短 31993
路@@ 31985
待 31984
展 31979
bu@@ 31976
web 31969
接收 31939
荒漠化 31920
名义 31919
国王 31915
形@@ 31913
98 31908
自动化 31901
內 31900
家具 31896
常 31896
3.@@ 31882
复@@ 31874
線 31872
du@@ 31852
流行 31850
秘密 31839
奇@@ 31825
办理 31786
节目 31768
当中 31754
好像 31752
监禁 31746
二十@@ 31730
inn 31724
无核武器 31693
婴儿 31644
修复 31637
约旦 31614
說 31614
警告 31602
建@@ 31591
有利 31589
来看 31582
ru@@ 31571
多次 31555
共计 31542
档案 31540
诊断 31528
留下 31521
路程 31520
公路 31499
点评 31499
杂志 31496
凯@@ 31476
压@@ 31459
持有 31456
孟加拉国 31433
经理 31433
温@@ 31425
老人 31417
蒂 31408
星@@ 31401
娜 31394
大韩民国 31390
时间表 31390
投诉 31385
bar@@ 31377
利润 31368
重返 31360
柬埔寨 31351
受害人 31338
与此同时 31333
坐 31327
city 31325
本人 31322
解@@ 31308
朝 31303
异@@ 31253
伊朗伊斯兰共和国 31252
先前 31245
穆斯林 31224
突尼斯 31216
男孩 31181
维修 31179
条@@ 31165
输出 31160
停车场 31152
球@@ 31148
em@@ 31145
意@@ 31137
世 31132
120 31124
做到 31124
au@@ 31095
國@@ 31091
肉 31091
胡@@ 31091
07 31087
捐助者 31086
酸 31083
产出 31070
金融机构 31069
标题 31067
清除 31052
幸福 31044
华 31042
草 31026
感兴趣 31023
和解 31022
淋浴 31017
sa 30984
看起来 30976
实@@ 30974
索 30969
董事会 30960
克斯 30958
姓名 30937
要素 30926
预@@ 30918
日子 30915
紧张 30914
费@@ 30908
ph@@ 30897
地震 30868
厄立特里亚 30863
能@@ 30859
cd 30858
音 30816
冰@@ 30815
平 30810
min@@ 30803
食 30796
兰@@ 30782
屏幕 30773
92 30765
09 30762
应急 30746
空缺 30745
last 30731
ers 30716
专@@ 30716
死@@ 30716
公共部门 30699
康@@ 30653
离@@ 30644
物理 30643
塞尔维亚 30623
部长级 30609
当选 30607
每次 30596
法语 30594
老年人 30564
及@@ 30560
生存 30549
别墅 30547
集成 30539
引@@ 30534
di 30516
改@@ 30511
不论 30497
百分比 30492
工会 30488
per@@ 30483
陈述 30464
即@@ 30460
结@@ 30459
不够 30456
讲话 30454
洛 30452
级别 30446
眼@@ 30440
别@@ 30431
bid 30409
血 30409
讨论会 30409
膜 30406
取@@ 30403
伦 30364
sch@@ 30363
第二个 30358
欧@@ 30348
語 30341
one 30321
• 30321
91 30303
沃@@ 30302
蒂@@ 30284
库@@ 30282
原来 30267
界定 30264
马里 30260
缺陷 30256
规划署 30249
观念 30243
年轻人 30231
远@@ 30228
纪念 30199
专利 30198
wifi 30194
兼 30192
cn 30190
订单 30188
设想 30178
澄清 30165
# 30159
地理 30152
再@@ 30145
九@@ 30136
94 30135
半 30132
危地马拉 30102
湾 30097
ine 30081
科学家 30080
素 30074
house 30056
常见 30045
签证 30045
财富 30033
尼泊尔 30010
97 29998
七 29993
报@@ 29988
汉@@ 29985
营养 29981
装@@ 29965
美洲 29960
脱@@ 29958
avg 29950
前景 29934
议员 29917
驱逐 29911
优质 29909
刺激 29905
冲@@ 29895
简化 29895
两名 29880
青@@ 29859
開始 29857
引渡 29854
世@@ 29851
订立 29847
病@@ 29822
愿望 29810
近@@ 29797
某种 29793
安哥拉 29784
农民 29750
聚@@ 29744
阿拉伯叙利亚共和国 29742
外国人 29741
89 29736
少数民族 29732
诉 29721
管@@ 29701
发射 29694
推迟 29680
实地 29669
端 29669
陈@@ 29665
是从 29662
注 29660
落 29656
led 29650
听取 29649
车程 29613
试 29609
hu@@ 29607
理 29606
照 29604
刀 29599
並 29594
过来 29591
带@@ 29585
设法 29582
豁免 29575
被告 29561
th 29523
强化 29522
模拟 29514
航行 29503
< 29493
年度报告 29491
gi@@ 29472
短期 29459
靠近 29446
木 29444
密@@ 29426
jo@@ 29423
稱 29417
left 29416
后者 29391
商@@ 29379
维 29374
for@@ 29372
福 29372
套 29365
金额 29347
区别 29338
ay@@ 29334
警方 29303
son 29298
画 29297
认定 29285
2.0 29275
惯例 29266
动力 29252
委内瑞拉 29242
经委会 29242
行预 29242
凡 29234
邦 29224
假 29214
销毁 29203
龙 29198
弗@@ 29196
im@@ 29180
gr@@ 29161
装饰 29158
箱 29151
这份 29140
倍 29138
ed@@ 29132
恐怖 29131
负责人 29114
─ 29088
地面 29087
pi@@ 29083
將 29083
人居 29078
应付 29034
04 29024
前提 29024
梅 29022
lin@@ 29021
厄瓜多尔 29020
活 29010
征聘 29000
° 28972
可行 28971
色@@ 28932
國 28918
1989 28911
不错 28910
约束 28895
赞成 28880
利率 28878
邮件 28873
另一方面 28864
㈠ 28859
想到 28852
雇用 28852
核裁军 28840
脸 28839
就要 28838
简要 28837
裁定 28826
对待 28808
顾客 28807
爆炸 28798
被@@ 28791
步 28790
西亚 28788
国外 28762
效应 28757
ad 28750
即可 28747
想@@ 28727
曼@@ 28710
定于 28703
意外 28692
體 28681
民 28675
设定 28631
約 28618
家里 28612
提供援助 28590
西非 28587
㈡ 28580
国务院 28578
单元 28576
船上 28569
脚 28563
人人 28554
ul@@ 28531
真是 28529
茨 28528
必 28506
答案 28500
周 28497
出发 28463
强@@ 28462
03 28436
new 28425
单一 28405
拨款 28405
变更 28400
桥 28379
走@@ 28377
les 28363
ka 28329
仔细 28324
藏 28316
算法 28307
該 28299
驱动 28289
喝 28278
快@@ 28276
人格 28250
研发 28250
暂时 28243
sc@@ 28239
错 28234
谅解 28232
为期 28208
极大 28201
台@@ 28200
政党 28187
ki@@ 28183
900 28182
钻石 28178
运@@ 28170
文明 28169
有害 28160
向@@ 28150
满@@ 28146
ton 28138
削减 28109
无线 28105
id 28104
周@@ 28090
缺少 28076
观察团 28067
色情 28024
06 28011
尼亚 28006
生态系统 27996
公民权利 27991
中国@@ 27986
文档 27975
房地产 27963
堡 27947
哥斯达黎加 27936
那种 27933
ta@@ 27930
方针 27924
首都 27923
优秀 27922
浴缸 27922
群岛 27918
规约 27912
密切合作 27909
菜 27896
美国@@ 27889
液 27867
初级 27856
目 27840
改为 27837
战@@ 27828
乐@@ 27818
home 27788
无论是 27783
麦@@ 27772
用作 27765
奥 27760
音乐会 27754
登@@ 27750
但@@ 27741
症 27741
限 27717
亚美尼亚 27713
外勤 27711
职 27708
保密 27699
何@@ 27696
尊严 27693
semiconductor 27692
至今 27691
发放 27649
達 27649
战斗 27644
雅@@ 27637
最高法院 27634
期@@ 27622
30@@ 27617
印刷 27612
4.@@ 27611
美食 27599
于@@ 27598
供@@ 27594
wikipedia 27589
补贴 27586
到底 27584
ang 27581
ge@@ 27560
br@@ 27533
依靠 27530
其余 27499
这场 27483
表演 27480
经济体 27476
教科文组织 27464
深 27451
透过 27448
丁 27444
得出 27434
充足 27430
电子@@ 27428
彼此 27427
批评 27409
sa@@ 27408
ms 27386
mm 27380
fm 27378
查 27378
配@@ 27360
品质 27344
收费 27338
asp 27336
伤 27319
备忘录 27289
含 27273
新闻部 27260
按钮 27251
谈 27250
一边 27236
空中 27227
耶路撒冷 27223
领袖 27220
國家 27207
太阳 27205
设在 27202
八 27198
数学 27197
极@@ 27184
调 27179
白色 27175
index 27169
很@@ 27169
说道 27162
囚犯 27155
终于 27138
圣经 27128
杰@@ 27124
轨道 27122
有趣 27109
住宅 27104
渔业 27103
建设性 27079
资讯 27069
引发 27065
一部 27062
转型 27061
羅 27056
皇家 27055
假设 27054
退休 27052
道@@ 27049
董事 27036
检验 27035
追求 27031
北爱尔兰 27019
1980 27004
财务报表 26997
会上 26992
有机 26990
亲@@ 26972
滥用 26934
安置 26920
ai 26915
废除 26902
产 26895
速 26893
杯 26879
无效 26874
传输 26865
通道 26853
选@@ 26849
解 26846
塞内加尔 26844
發@@ 26843
沙特阿拉伯 26834
权限 26816
循环 26811
竞争力 26806
news 26801
客@@ 26796
若@@ 26788
母@@ 26787
成长 26785
恤金 26777
信用卡 26759
耶@@ 26755
海上 26753
ah 26740
汇编 26739
减贫 26738
管理人员 26738
呀 26728
保加利亚 26702
整合 26683
失业 26681
纸 26679
谨 26661
晚 26660
土@@ 26651
um 26610
发言者 26607
函数 26601
总结 26601
乌拉圭 26576
马上 26572
线@@ 26566
本届 26550
路线 26533
所说 26532
思考 26521
东部 26520
红 26516
至于 26497
op@@ 26494
冰箱 26493
夫人 26489
捷克共和国 26489
那时 26482
签订 26475
感受 26460
由此 26451
do 26450
被迫 26441
名额 26418
乐 26417
軍@@ 26405
现状 26404
时刻 26397
吉 26384
依法 26376
易@@ 26374
极 26374
受伤 26352
1988 26345
别的 26342
越@@ 26329
年前 26325
接 26322
近年来 26315
声@@ 26314
签名 26306
阳台 26304
裁军谈判 26300
第四次 26287
一段 26285
药品 26272
曲 26270
之内 26265
卢@@ 26262
land 26257
圈 26256
入侵 26247
法定 26236
ing@@ 26235
劳@@ 26234
只@@ 26213
ber@@ 26207
不少 26203
pr@@ 26199
雪@@ 26193
地上 26175
东道国 26174
ly 26165
易 26165
持 26148
记 26147
坚定 26141
主办 26136
人群 26135
弄 26134
永@@ 26129
代理人 26114
四年 26105
库存 26104
组件 26104
莱 26103
货 26097
ir@@ 26094
通用 26081
pc 26079
展览 26078
环@@ 26055
ra 26040
记得 26029
热门 26025
伯 26012
阿尔@@ 26004
参观 25975
mp@@ 25968
班@@ 25962
可持续性 25959
制品 25957
00@@ 25955
file 25936
基准 25925
文龙 25920
节省 25913
十一届 25888
人才 25883
时尚 25873
碳 25873
玛@@ 25868
证券 25866
兩@@ 25863
南方 25863
首 25861
康复 25848
韦@@ 25839
ste@@ 25833
职等 25823
广播 25808
景点 25807
国际贸易 25802
形象 25772
推行 25752
加剧 25748
高于 25734
支@@ 25733
爆发 25715
京都 25714
必需 25704
松@@ 25701
當@@ 25697
考@@ 25690
5% 25689
丝 25675
备选 25657
面向 25653
极端 25649
taiwantrade 25645
并@@ 25639
说法 25637
正义 25636
.1 25614
庆祝 25610
建 25560
回收 25530
ce 25529
加纳 25526
麽 25520
技巧 25519
属性 25513
愉快 25504
到@@ 25492
灵活性 25469
鲜花 25453
从未 25447
税收 25442
ke@@ 25436
缔结 25434
移交 25428
反馈 25407
不用 25398
成熟 25393
独@@ 25379
ga 25374
日常 25368
社 25354
市@@ 25339
居 25327
受欢迎 25324
短@@ 25316
勒@@ 25302
积极参与 25294
宗 25280
哈萨克斯坦 25242
一间 25224
定制 25222
自然灾害 25220
直至 25206
游览 25202
萨尔瓦多 25184
礼物 25167
分为 25162
岛屿 25150
票价 25147
哈 25134
穆@@ 25129
国际法庭 25125
地带 25125
大幅 25073
休闲 25072
接口 25072
刚 25044
粮农组织 25042
航线 25035
日起 25023
har@@ 25014
回家 25013
调解 25005
何种 25001
物体 24999
阿尔巴尼亚 24987
英 24976
28@@ 24957
手术 24956
关 24952
现@@ 24952
and@@ 24945
卖淫 24916
苏联 24905
使@@ 24904
場 24896
則 24890
着手 24886
东欧 24881
损坏 24871
减@@ 24839
预定 24824
音@@ 24813
紧@@ 24812
继承 24805
成人 24802
ut@@ 24798
製 24798
政@@ 24785
室外 24760
桑@@ 24760
星期一 24759
雅 24754
龙@@ 24753
命 24739
ina 24734
专用 24728
消失 24725
课 24721
健身 24710
报纸 24703
电池 24699
秩序 24699
约束力 24696
情绪 24689
c.2 24678
中国政府 24669
内罗毕 24659
内陆 24652
查找 24648
申请人 24640
缓解 24632
节@@ 24622
构建 24621
大不列颠 24619
行李 24617
san 24614
印发 24601
分离 24598
甲@@ 24590
环保 24583
集@@ 24566
丽@@ 24560
人生 24545
回复 24545
list 24543
犹太人 24536
mat@@ 24529
用餐 24527
理念 24526
样子 24523
工程师 24506
草@@ 24499
park 24491
后面 24485
落@@ 24479
造@@ 24473
核定 24469
黑 24467
这件 24459
外交部 24450
辅导 24450
6.@@ 24445
客 24434
摊款 24425
资源管理 24422
會@@ 24414
做好 24412
副@@ 24412
华盛顿 24410
比率 24393
船@@ 24371
协商一致 24370
解答 24370
激光 24368
社会主义 24360
随@@ 24345
难@@ 24338
ltd 24336
极为 24336
典型 24321
例外 24314
全新 24309
领@@ 24298
博 24293
驻地 24287
换@@ 24276
不应 24270
计 24267
數 24261
交给 24257
变革 24254
所得 24246
余额 24240
要是 24235
求@@ 24234
上网 24228
毛@@ 24210
古 24201
前面 24196
论文 24188
为何 24187
命名 24181
算 24178
自从 24169
cor@@ 24161
形势 24158
近东 24150
增@@ 24149
佩@@ 24147
企图 24143
城@@ 24143
边境 24139
星期五 24124
改造 24121
一方面 24118
學@@ 24118
收取 24112
姆@@ 24091
切 24075
3% 24071
吸收 24063
卖 24061
红色 24060
创作 24057
將@@ 24051
4.0 24045
关@@ 24035
菲@@ 24032
ig@@ 24024
对方 24019
接着 24019
因為 24012
ip@@ 24004
营 23994
组@@ 23989
明天 23982
no 23978
留@@ 23978
国会 23971
中学 23969
西部 23964
从来 23963
站点 23949
曼谷 23948
高速 23948
协同 23942
次数 23924
wi@@ 23923
相似 23904
判断 23902
消耗 23902
结 23895
物@@ 23894
ts@@ 23892
倾向 23887
程 23886
景 23884
ol@@ 23879
有力 23877
生态 23867
造 23867
隐藏 23864
宇宙 23853
忘记 23848
么 23838
盖 23835
吨 23833
ct@@ 23832
的确 23830
最为 23828
斯洛伐克 23825
分散 23820
一方 23808
传@@ 23808
交友 23782
同事 23781
玩家 23766
^ 23754
承担责任 23748
邻国 23744
隊 23744
另有 23743
辅助 23743
cn.4 23734
fo@@ 23731
威 23720
今日 23713
游@@ 23711
社交 23709
食@@ 23693
洗@@ 23689
火车 23688
5.@@ 23683
本书 23681
堂 23662
窗口 23662
电力 23657
医学 23656
此次 23645
很难 23638
» 23635
孔 23624
致@@ 23624
度假村 23616
现 23608
斯洛文尼亚 23599
‘ 23579
海岸 23557
骨 23555
个别 23540
影 23531
智慧 23531
google 23525
引导 23512
aw@@ 23509
立陶宛 23501
view 23496
香@@ 23490
登 23478
110 23474
编@@ 23468
怀孕 23453
玻利维亚 23453
硬件 23445
特遣队 23420
所有权 23405
田 23398
大大 23379
小学 23370
依@@ 23369
行事 23366
基因 23363
电源 23355
思@@ 23354
客运 23353
句 23352
富@@ 23345
故障 23345
繁荣 23339
强奸 23338
耐@@ 23336
c.3 23334
der 23332
印 23331
尼加拉瓜 23331
等级 23323
说@@ 23322
农@@ 23319
c.1 23314
不人道 23313
上市 23307
部件 23306
航班 23300
灾难 23292
毫米 23288
动作 23284
志愿人员 23278
武力 23275
卡塔尔 23274
零@@ 23259
奥运会 23248
收 23245
能否 23241
谢谢 23239
自行车 23236
初@@ 23229
每周 23227
糖 23225
建筑物 23213
排 23212
不幸 23210
史@@ 23192
罪犯 23185
奖励 23182
有罪 23182
~ 23177
发言人 23169
私营 23169
腿 23166
哦 23159
获悉 23159
server 23143
成分 23130
概算 23128
月@@ 23124
部@@ 23123
欣赏 23097
睡 23094
爸爸 23092
投@@ 23088
全权 23087
想象 23084
name 23081
留在 23069
长度 23058
無@@ 23056
武@@ 23041
股票 23037
导言 23032
折扣 23022
标@@ 23012
開@@ 23008
马耳他 23007
抱 23006
穷人 22999
此项 22997
坚决 22991
汞 22989
ve@@ 22982
处境 22965
顶 22960
新型 22956
饭店 22950
修 22948
基督教 22944
叶 22943
播放 22942
书@@ 22932
绩效 22929
药@@ 22921
大卫 22912
标记 22911
via 22903
性暴力 22900
號 22895
丧失 22890
怎么样 22889
强度 22874
据称 22871
休息 22868
秒 22868
學 22865
2% 22851
处决 22849
任@@ 22847
international 22846
埃 22842
有益 22830
蒙古 22820
毁灭性 22818
影@@ 22802
收购 22792
all 22790
政权 22788
残忍 22788
为止 22782
两人 22766
6% 22762
維@@ 22742
拟 22741
海洋法 22730
过度 22721
哥 22716
实例 22709
委 22695
退@@ 22694
pre@@ 22681
撒 22681
ic 22678
精确 22677
出色 22675
召集 22675
可靠性 22670
船舶 22661
毛里求斯 22660
na 22659
各位 22650
职员 22646
季 22639
也门 22634
听@@ 22634
零 22631
较大 22628
支 22625
处置 22621
】 22613
男@@ 22601
射@@ 22600
升@@ 22596
复员 22596
盖@@ 22592
屋 22588
见到 22587
纲要 22583
产量 22564
耶 22544
贵 22537
機 22527
一支 22519
事态 22519
車 22512
ah@@ 22507
义 22502
遗憾 22492
外交部长 22484
味 22481
广州 22481
1% 22478
朝鲜 22473
紧急情况 22473
统治 22473
25@@ 22472
id@@ 22455
合格 22447
美好 22438
本法 22435
细@@ 22435
查阅 22429
io 22425
国际法院 22421
屬 22419
依 22398
咨询服务 22394
拍 22379
付 22366
主页 22356
暴@@ 22356
皮肤 22356
女子 22355
牙买加 22349
az@@ 22344
环 22341
退出 22340
逻辑 22323
这儿 22322
牛 22320
少年 22319
前台 22317
感@@ 22311
century 22286
观看 22268
黑色 22267
了@@ 22265
妈 22265
打印 22257
相当于 22255
css 22254
ps 22246
户 22245
英里 22244
反腐败 22236
提起 22236
杀害 22236
会计准则 22218
有效性 22217
家族 22206
1000 22203
所属 22200
编号 22196
问责制 22193
实质 22189
变动 22185
ve 22179
联合国开发计划署 22175
经济@@ 22174
宝贵 22166
任职 22163
谷歌 22161
给出 22146
社会保障 22139
降@@ 22138
上空 22134
交 22124
kar@@ 22120
墙 22117
超出 22111
专门知识 22097
含@@ 22089
条目 22084
一国 22067
宝 22067
管理系统 22067
区分 22052
园 22050
不必 22040
茶 22033
断@@ 22026
久 22025
架构 22024
塑料 22023
探@@ 22013
印@@ 22011
亿@@ 21993
丁@@ 21992
室内 21991
一篇 21990
50@@ 21989
引入 21975
熟悉 21972
除@@ 21965
men@@ 21963
分庭 21961
第二@@ 21960
her@@ 21958
啦 21958
有没有 21956
学术 21955
边缘 21937
野@@ 21931
朝鲜民主主义人民共和国 21928
土 21917
地板 21917
首长 21904
嘉@@ 21898
破产 21897
汇报 21896
服 21893
進行 21886
云@@ 21882
下述 21881
质疑 21876
ang@@ 21863
松 21852
质@@ 21848
仪 21847
物流 21846
亞 21835
余@@ 21828
最多 21823
开幕 21816
早@@ 21815
刚刚 21814
网址 21810
种植 21809
单方面 21808
维尔 21801
归@@ 21797
害怕 21789
笔 21769
偿还 21767
江@@ 21765
xhamster 21754
户外 21751
流量 21749
伦@@ 21748
一所 21747
上次 21723
作家 21701
升 21697
中非共和国 21688
電@@ 21687
總@@ 21683
导弹 21678
如同 21677
中亚 21671
河@@ 21666
权@@ 21664
夏季 21656
【 21654
vo@@ 21652
菜单 21622
ec@@ 21617
存 21616
希 21613
.2 21606
戰@@ 21605
賽 21601
守则 21587
脱离 21587
ti 21585
拖延 21583
频率 21582
形状 21575
莫斯科 21575
翻@@ 21574
含量 21550
见@@ 21547
顺利 21535
停@@ 21527
玛 21527
柏林 21519
辐射 21517
坐落 21514
用以 21511
ler 21494
黑山 21489
模板 21488
两项 21487
ne 21477
sal@@ 21477
采@@ 21473
远程 21472
ong 21471
主管部门 21459
爱沙尼亚 21448
虚拟 21443
温室 21440
万人 21439
酒@@ 21437
导航 21434
gar@@ 21431
净 21427
不妨 21413
北非 21411
佛@@ 21407
往返 21404
多样化 21399
临床 21398
漂亮 21396
南南合作 21395
yo@@ 21394
领取 21393
本来 21379
贸易法 21378
链 21373
毒@@ 21368
ss@@ 21354
212 21344
火车站 21327
拉脱维亚 21326
尚 21318
坏 21311
滑@@ 21309
framework 21308
40@@ 21307
喀麦隆 21292
8% 21291
必要性 21281
谈到 21279
一台 21278
點 21270
藏@@ 21268
初 21253
手中 21250
地域 21237
更换 21233
4% 21228
脸上 21222
这类 21218
行政当局 21216
观测 21210
轴 21207
强制 21203
莫 21193
物资 21185
排名 21184
谢@@ 21176
样 21160
毛 21160
ur 21147
免受 21147
实在 21133
扫描 21132
校@@ 21131
父 21119
领先 21100
bel@@ 21094
根@@ 21092
指令 21091
选出 21084
政 21078
果 21076
毕业 21068
中部 21061
所列 21057
高质量 21056
负债 21050
陷入 21040
阴@@ 21030
做@@ 21012
仪式 21010
嘴 21006
認為 20998
域 20997
沙 20989
不了 20985
演出 20985
应有 20983
朗 20979
围绕 20977
my@@ 20969
胜利 20969
载于 20968
第一届 20956
乳@@ 20937
數@@ 20936
运动员 20931
遣返 20930
夫@@ 20912
仇外 20909
加大 20904
守@@ 20901
ate 20898
列为 20886
gh@@ 20882
现已 20879
影片 20871
这时 20869
拯救 20867
参照 20866
规章 20865
content 20846
没收 20844
选定 20844
思 20835
排雷 20833
版权 20831
ant 20830
篇 20830
司@@ 20829
1986 20825
卢森堡 20823
蒙 20814
巴勒斯坦人 20808
聊天 20808
歌曲 20807
一句 20806
隆 20798
後@@ 20797
7.@@ 20796
底@@ 20795
黑暗 20792
戈@@ 20787
真相 20785
背@@ 20784
软@@ 20784
语@@ 20782
头发 20778
安全性 20772
息 20769
11@@ 20767
年初 20765
此后 20747
敌人 20743
氏 20741
馆 20740
至@@ 20738
灵 20737
info 20732
中断 20717
宫 20717
深刻 20711
痛 20708
生产总值 20706
ce@@ 20700
民事 20693
平板电视 20689
几天 20677
平面 20677
á 20666
发动机 20666
不好 20658
乍得 20649
101 20639
va 20630
ya 20629
抱歉 20622
纠正 20611
電影 20610
转向 20594
甘@@ 20575
救 20571
甲 20570
add.@@ 20569
射 20563
核可 20554
网络@@ 20551
援助团 20550
国际标准 20544
承受 20544
产@@ 20538
有辱 20537
多么 20532
清理 20525
超越 20520
警@@ 20518
拍摄 20506
tor@@ 20501
尤@@ 20489
除外 20486
乱 20484
换 20483
年间 20480
不仅仅 20479
遭 20477
张贴 20476
进度 20476
对外 20473
促成 20456
夜 20452
封@@ 20443
长时间 20436
29@@ 20434
博客 20427
新兴 20423
c.5 20421
偏@@ 20417
冠军 20415
解除 20415
免费音乐 20413
ac 20406
apartment 20403
9.@@ 20392
com@@ 20392
阀 20387
假期 20385
假@@ 20372
殖民地 20362
脑@@ 20362
目@@ 20358
客厅 20356
操作系统 20350
旁边 20347
规格 20346
协调一致 20339
银@@ 20335
事宜 20332
mu@@ 20330
大西洋 20329
23@@ 20328
刚才 20328
定位 20326
每晚 20320
清 20310
足 20305
摆脱 20301
一致性 20298
星期四 20296
时限 20294
迷你 20294
宽敞 20288
27@@ 20287
电梯 20283
.@@ 20250
赛@@ 20247
运 20227
气氛 20224
委托 20220
linux 20219
大众 20217
沉@@ 20215
强调指出 20209
按摩 20207
富有 20196
招聘 20195
参与者 20194
身边 20185
症状 20184
电邮 20172
详细信息 20171
调节 20163
物种 20160
中等 20158
就业机会 20158
减 20156
間 20156
价值观 20153
纸@@ 20153
ica 20152
西班牙语 20151
第三@@ 20147
波罗的海 20136
手续 20135
场合 20132
队伍 20132
国别 20129
星期二 20128
记住 20121
当代 20115
使用者 20114
一块 20112
双 20111
街道 20102
袋 20102
默@@ 20102
亮 20101
沙发 20087
犯下 20086
演@@ 20075
冰岛 20073
饥饿 20073
8.@@ 20059
大多 20058
拼写 20053
常规 20043
卓越 20042
印象 20042
冲击 20034
航空公司 20033
跳 20033
审评 20028
轻武器 20027
尽量 20021
浮@@ 20003
公认 20000
私@@ 19995
首选 19989
十五届 19987
虫 19985
树@@ 19982
致 19978
這些 19975
选民 19974
大门 19970
齐@@ 19967
审 19966
因特网 19962
小姐 19961
圆@@ 19959
干扰 19959
mc@@ 19957
露台 19956
0.1 19944
den@@ 19941
版本信息 19934
个@@ 19933
学者 19932
追@@ 19931
定罪 19928
罚款 19925
小行星 19921
还@@ 19916
奥巴马 19914
時@@ 19912
总干事 19907
雪 19904
大道 19894
戈 19893
灵@@ 19887
赞比亚 19887
差别 19886
鸟 19884
product 19882
实 19882
近期 19880
這個 19878
羅@@ 19868
机遇 19865
根源 19855
分销 19846
事物 19806
广@@ 19798
ny 19797
fe@@ 19795
转递 19794
太阳能 19788
go 19779
ven@@ 19779
恐惧 19771
暗示 19769
代价 19763
灵魂 19760
周年 19746
归 19744
sk@@ 19731
曲@@ 19730
职权范围 19729
请@@ 19714
终了 19701
枪 19700
泵 19699
记忆 19699
世贸组织 19697
成為 19697
教训 19689
延迟 19681
抗议 19679
公告 19677
意图 19675
就@@ 19673
言@@ 19666
首要 19666
梦想 19650
吃@@ 19649
老板 19644
携带 19639
衣 19627
线路 19622
迄今 19621
沿海 19612
忽视 19594
mer@@ 19593
dvd 19592
违背 19585
哥@@ 19580
问责 19572
像是 19571
约定 19568
蓝色 19557
视察 19546
城堡 19540
奧@@ 19524
字@@ 19520
叶@@ 19511
影响力 19502
干净 19497
枚 19497
26@@ 19480
免遭 19479
热情 19476
rev.1 19475
mb@@ 19467
照料 19465
宝@@ 19460
ke 19455
赫 19454
基本上 19443
梦 19429
均衡 19426
区域合作 19425
副本 19423
津巴布韦 19410
１ 19410
hrc 19404
九 19403
饮料 19403
重量 19401
负 19396
牛@@ 19391
朝@@ 19388
简介 19387
对付 19382
利亚 19371
电信 19370
粉 19369
花费 19366
指挥 19355
尽@@ 19352
铭记 19351
平方米 19339
朱@@ 19334
一片 19333
粮食安全 19332
spa 19331
动员 19328
摩@@ 19327
贩卖 19324
阐明 19323
跨 19322
预算外 19317
码 19314
1987 19301
最小 19301
404 19290
净额 19290
星期三 19286
极其 19275
10% 19274
校 19274
ak 19273
喷@@ 19267
谷 19265
合成 19257
莉 19254
纪律 19249
王国 19247
订阅 19242
一词 19241
1985 19237
和谐 19232
beach 19230
英國 19217
还应 19216
公报 19214
扎@@ 19211
会谈 19210
star 19208
约@@ 19208
传 19205
难道 19195
折@@ 19193
莫桑比克 19190
足以 19189
互相 19188
一段时间 19185
田@@ 19184
第二届 19183
需@@ 19183
迹象 19176
保 19169
之日起 19159
治@@ 19158
干旱 19156
开会 19155
土壤 19152
坐@@ 19152
元@@ 19150
投 19149
温 19147
早上 19145
夜@@ 19141
互@@ 19132
旧@@ 19128
侵略 19127
包容性 19123
招募 19122
阳光 19120
布基纳法索 19115
法律援助 19108
机器人 19104
所示 19095
dis@@ 19087
弹@@ 19081
排放量 19080
裔 19073
量@@ 19073
生长 19070
简@@ 19066
接待 19059
cas@@ 19055
频道 19052
cr@@ 19049
发给 19047
散@@ 19047
进去 19041
角@@ 19040
san@@ 19038
慢慢 19038
进来 19034
人民法院 19033
钢 19031
忙 19030
走向 19030
小说 19024
森@@ 19024
第二条 19023
国家@@ 19018
阿拉伯联合酋长国 19016
一款 19010
着重 19007
原理 18999
寿命 18999
€ 18997
听见 18997
营地 18985
解除武装 18984
讲@@ 18984
動 18979
古老 18979
高等教育 18978
承@@ 18975
9% 18968
admin 18966
客观 18950
击败 18946
那儿 18938
黄金 18938
cam@@ 18934
多哈 18932
free 18927
单击 18925
传真 18918
age 18914
学科 18908
监察 18902
开设 18900
帝国 18899
my 18892
计量 18889
7% 18888
飓风 18887
保安 18885
村庄 18880
全球性 18878
抽@@ 18877
种种 18874
da@@ 18869
戴@@ 18865
分列 18864
餐馆 18857
经典 18854
追踪 18852
湖@@ 18849
定为 18838
巴拿马 18834
同等 18832
硬@@ 18832
席位 18828
gen@@ 18813
峰 18812
品@@ 18801
演讲 18796
displaystyle 18791
经验教训 18784
找出 18776
大學 18772
cu@@ 18768
办公 18765
对策 18759
爱情 18751
巴林 18739
降 18737
ant@@ 18736
130 18734
抓住 18734
歌 18733
蘭@@ 18731
船只 18730
接下来 18726
颁发 18721
视@@ 18719
成效 18716
圣灵 18712
房@@ 18698
保罗 18691
领空 18691
心中 18690
小册子 18687
105 18681
作物 18677
ge 18676
矛盾 18661
术语 18660
母 18649
铁 18647
ay 18645
往@@ 18644
左@@ 18643
清晰 18638
安全部队 18637
ty@@ 18635
迷@@ 18630
類 18629
mal@@ 18628
with 18613
尔斯 18613
控制器 18603
仪器 18596
一周 18593
同步 18586
使命 18583
模@@ 18572
传递 18570
人为 18568
乡村 18563
失望 18561
丽 18555
传送 18552
必要措施 18552
代表性 18551
实用 18546
床上 18546
呆 18543
帕 18543
昨天 18543
tri@@ 18539
待@@ 18536
补@@ 18533
脚@@ 18526
疫苗 18525
等@@ 18525
扎 18519
环境保护 18519
1970 18514
下次 18508
天然气 18505
缓慢 18500
微 18498
退化 18498
监察员 18485
少@@ 18483
的@@ 18478
re 18477
态 18476
家属 18466
倡导 18459
游 18457
夏@@ 18454
对抗 18454
il 18450
1967 18449
去世 18449
1982 18447
惊@@ 18446
航 18445
活力 18438
ip 18431
支柱 18427
ten@@ 18424
算@@ 18424
香 18414
洞 18413
标准化 18408
基督徒 18380
码头 18379
转化 18377
买卖 18376
右@@ 18369
national 18360
常会 18360
地理位置 18353
编 18351
50% 18346
保险箱 18339
急@@ 18339
十 18334
击 18333
60@@ 18325
标识 18325
分开 18323
对应 18320
施工 18318
ju@@ 18317
个性化 18317
吹风机 18312
省@@ 18307
乌兹别克斯坦 18303
苦@@ 18299
联刚 18298
什@@ 18283
距 18283
迫使 18280
再生能源 18277
护@@ 18277
骨@@ 18277
修建 18267
封锁 18262
tm 18248
天然 18244
发展权 18242
corr.1 18235
恰当 18234
热带 18229
丢失 18228
app 18220
行政部门 18214
taxonomy 18210
男女平等 18210
airport 18209
制约 18204
彼得 18204
轮@@ 18198
经营者 18196
飞 18192
城镇 18179
激励 18177
立刻 18175
蛋白 18170
绿@@ 18163
亲 18154
发动 18149
海军 18147
果@@ 18145
分歧 18139
水资源 18134
号码 18129
艺术家 18128
强有力 18126
禁@@ 18122
入境 18115
較 18108
饮食 18103
这座 18096
吸@@ 18089
类@@ 18089
富 18073
步@@ 18070
捐助国 18067
举 18059
非殖民化 18057
奈@@ 18051
filehippo 18045
24@@ 18044
名为 18042
102 18041
几内亚 18030
某@@ 18029
代替 18028
活跃 18025
清洗 18017
ser@@ 18012
导@@ 18012
污染物 18012
到来 17987
mor@@ 17984
○ 17981
简报 17979
英寸 17969
cal@@ 17968
存@@ 17967
当事方 17964
we 17960
超级 17960
领 17960
包容 17956
内部监督 17940
其次 17936
消灭 17936
你@@ 17935
china 17934
暗@@ 17932
优@@ 17931
照@@ 17930
剩余 17916
创意 17908
即时 17901
开关 17890
并于 17882
显得 17882
所用 17878
联合国大会 17874
疟疾 17869
岩 17865
哪个 17863
会见 17861
納@@ 17861
生产力 17856
蓝@@ 17853
差@@ 17850
can@@ 17849
化学武器 17849
丹@@ 17848
val@@ 17843
０ 17842
索赔人 17838
键 17835
关税 17832
会晤 17830
配偶 17825
还会 17817
111 17813
此时 17813
玩@@ 17810
發現 17810
天主教 17806
公 17804
排斥 17803
恶@@ 17788
金融危机 17785
混@@ 17781
系統 17781
之上 17780
米兰 17778
eng@@ 17777
主人 17776
绑架 17776
des 17775
微波炉 17774
80@@ 17772
迄今为止 17772
作出贡献 17770
data 17765
麻烦 17757
時間 17752
撒@@ 17750
附@@ 17750
却是 17747
祝贺 17745
class 17744
记@@ 17740
市民 17730
航@@ 17730
刘@@ 17725
ment 17724
大厦 17713
草坪 17713
一贯 17703
转交 17701
按@@ 17696
借助 17693
优点 17688
ele@@ 17687
观@@ 17684
朗@@ 17683
破@@ 17681
dr 17680
货@@ 17678
東@@ 17673
未成年人 17672
技术支持 17668
插@@ 17656
份额 17653
六个 17646
江 17644
人体 17639
害 17638
人均 17637
fer@@ 17627
福音 17625
肉@@ 17621
干涉 17615
报表 17614
中方 17606
文学 17603
机票 17603
密钥 17593
划分 17590
迁移 17583
苹果 17574
工作者 17569
登记册 17558
强制性 17556
cl@@ 17555
起到 17555
否认 17552
密 17552
棒 17551
液体 17550
巴塞尔 17541
启用 17540
样品 17540
2.5 17533
sen@@ 17530
縣 17530
躺 17529
缴纳 17528
变量 17525
不当 17524
級 17524
断 17523
普及 17522
過 17516
show 17514
信通 17512
人民政府 17498
巴拉圭 17498
负有 17496
马德里 17496
澳门 17492
身心 17484
书籍 17481
ss 17480
一百@@ 17480
葡萄酒 17476
可怕 17469
丹 17468
此处 17466
国家元首 17461
关押 17460
球队 17455
免疫 17446
命运 17444
路上 17444
坐落于 17441
图形 17432
instagram 17431
sr.@@ 17429
休@@ 17429
180 17428
贝宁 17423
ck@@ 17421
边@@ 17421
跳@@ 17417
切割 17397
削弱 17397
几内亚比绍 17392
浓度 17388
處 17385
薪酬 17383
js 17380
顶级 17378
住所 17376
小心 17373
广大 17369
纤维 17369
旋转 17359
坦桑尼亚联合共和国 17357
厘米 17355
杀伤 17351
屁股 17350
1.2 17336
黨 17332
ba@@ 17330
退款 17328
` 17313
独立性 17313
部落 17308
位@@ 17296
渴望 17288
20% 17286
一生 17285
股东 17285
批 17271
多项 17256
盛@@ 17256
观众 17247
士@@ 17242
ent 17240
服装 17235
即便 17234
you 17233
债券 17229
del 17226
激烈 17226
术 17220
消@@ 17219
超 17212
买@@ 17209
附 17206
引擎 17204
ku@@ 17194
家长 17194
磨@@ 17194
center 17192
好好 17189
內@@ 17188
辆 17183
参@@ 17175
远远 17175
该法 17166
十三届 17164
谨慎 17160
对不起 17156
技术@@ 17156
横@@ 17146
泰 17143
置 17135
享用 17127
xi@@ 17125
发了 17114
外面 17110
1.1 17109
前进 17101
农场 17095
唐@@ 17095
直 17095
齐 17093
company 17086
木材 17085
卫生间 17079
言论 17076
可见 17075
务 17074
吸烟 17071
部份 17067
她们的 17066
核实 17066
灰@@ 17063
特权 17062
真理 17061
尽早 17053
... 17052
养@@ 17048
治 17046
鱼@@ 17037
绝@@ 17035
瑞 17033
电子商务 17029
置于 17026
160 17025
sm@@ 17025
呼吸 17021
tu@@ 17018
将军 17018
旅游业 17007
ff@@ 17002
宏观经济 17002
打破 17000
信息系统 16993
籍 16992
汉 16990
纳米比亚 16986
球员 16978
一人 16976
呼@@ 16968
家庭成员 16967
初次 16965
sam@@ 16964
雨 16963
异常 16961
对比 16958
巴塞罗那 16958
bal@@ 16956
本站 16956
被捕 16950
助@@ 16942
众 16941
人民币 16936
随 16928
兴@@ 16926
天使 16923
杆 16916
送到 16912
西藏 16911
波动 16910
子公司 16909
㈢ 16908
常规武器 16903
月底 16900
卡尔 16894
复苏 16890
莎 16881
功率 16880
驾驶 16877
配件 16876
洪都拉斯 16874
结论性 16874
决策者 16868
电压 16868
分裂 16867
烟@@ 16865
发达 16861
专注 16859
素@@ 16859
自主 16853
增多 16851
最早 16841
馬@@ 16838
欺诈 16832
短缺 16829
耳@@ 16827
婚@@ 16823
出租 16820
地區 16819
麻@@ 16816
答 16812
镜 16810
nor@@ 16790
截止 16787
门口 16787
简称 16781
呈 16780
恐怖分子 16779
感情 16779
较@@ 16777
脆弱性 16775
池 16773
讓 16771
个人@@ 16767
機@@ 16765
填补 16763
停车 16760
防 16760
电缆 16756
柜 16753
言论自由 16747
巨@@ 16743
ner 16742
自决 16741
延@@ 16739
令人@@ 16736
ian 16734
der@@ 16728
侧 16728
透露 16725
收藏 16724
提高认识 16719
li 16716
常用 16712
标 16711
汇@@ 16711
联邦政府 16708
培训班 16703
侧重于 16699
离职 16699
色彩 16693
稳定性 16691
足@@ 16687
局面 16684
出租车 16683
招@@ 16678
编列 16670
毛巾 16663
坦@@ 16656
管理员 16655
乔@@ 16653
地下 16646
计@@ 16643
盒 16638
怎么办 16637
ba 16635
男 16634
一流 16633
录 16631
猫 16631
1.5 16628
写作 16627
写@@ 16622
知@@ 16620
开办 16619
马其顿共和国 16619
家园 16611
弗 16610
数据@@ 16605
冻结 16604
上涨 16595
备份 16594
bur@@ 16593
je@@ 16592
ls 16582
运送 16581
群@@ 16573
移@@ 16572
初期 16567
债权人 16566
吻 16562
概览 16558
經@@ 16552
阳 16547
亚太 16546
顺@@ 16546
电机 16545
府 16544
摧毁 16542
此事 16536
咨商 16528
100% 16522
判例 16520
han@@ 16514
报酬 16506
增长率 16504
紧密 16504
送@@ 16498
车站 16497
应由 16495
打电话 16492
安全@@ 16490
遗产 16485
测@@ 16481
鲁 16481
cre@@ 16475
我能 16471
政府首脑 16468
有线电视 16466
胶@@ 16465
ao 16463
旁 16459
着@@ 16459
另@@ 16455
税务 16454
bor@@ 16450
冠 16444
suites 16442
剩下 16440
予 16438
复原 16435
140 16414
ca@@ 16409
健全 16409
war@@ 16406
期内 16406
呈现 16396
ry 16391
合法性 16383
洛杉矶 16378
洗钱 16376
十二届 16375
贾@@ 16375
stmicroelectronics 16371
哭 16371
斯德哥尔摩 16367
缩小 16366
评分 16364
散 16361
ks 16358
顺序 16356
∶ 16350
区@@ 16348
om@@ 16340
时至 16340
北美 16339
编程 16338
办@@ 16337
插入 16334
救@@ 16334
遭遇 16334
散发 16326
原料 16325
che@@ 16324
主教 16324
world 16323
支配 16322
题 16322
离婚 16317
email 16316
善@@ 16312
两位 16311
一架 16308
癌症 16305
世界卫生组织 16302
辩护 16302
担忧 16297
一同 16292
提取 16290
管道 16290
mil@@ 16287
其后 16287
ie 16285
重组 16280
塔吉克斯坦 16271
技术转让 16267
营@@ 16266
舞 16257
station 16255
易于 16253
歲 16243
深度 16239
亚太经社会 16234
103 16230
对本 16230
多名 16225
蒙特利尔 16225
pe 16222
si 16221
skip 16218
知 16215
們 16210
动机 16210
积累 16208
静@@ 16207
聚集 16199
深圳 16185
指挥官 16184
零件 16181
1984 16180
辛@@ 16179
mr 16178
ha 16175
存款 16175
ati@@ 16168
将@@ 16168
权益 16162
试点 16155
king 16153
停 16152
化合物 16151
无疑 16150
拉斯 16148
假如 16147
入口 16146
iii 16145
villa 16144
一组 16142
施加 16134
图表 16125
弹 16125
军备 16124
练习 16124
访客 16124
冷 16122
溴 16122
共同努力 16118
然@@ 16110
android 16108
usb 16106
社会@@ 16104
无障碍 16100
得不到 16096
照明 16095
win@@ 16090
104 16089
故意 16089
大概 16087
某一 16078
扬 16076
bas@@ 16074
贝 16066
获@@ 16064
东京 16059
鞋 16053
管理层 16043
1978 16041
be 16041
演员 16039
禁运 16037
奇怪 16036
地说 16034
pp@@ 16017
周末 16013
第六条 16009
填写 16004
隔离 16003
魔@@ 16003
观 16000
歌@@ 15983
抗 15980
控制@@ 15978
杂@@ 15976
一个月 15974
ity 15968
kh@@ 15966
該@@ 15959
宁 15955
工作文件 15954
采访 15948
本质 15946
cookies 15940
养护 15932
我会 15930
将要 15925
条文 15924
gre@@ 15923
進 15923
iso 15915
金钱 15915
高层 15911
材 15908
被占领土 15902
席 15901
读@@ 15892
尚@@ 15885
char@@ 15882
ha@@ 15878
必然 15873
较为 15873
不知 15872
含义 15869
第四@@ 15867
sar@@ 15851
user 15849
仇恨 15845
106 15839
次@@ 15836
adobe 15835
知情 15834
英雄 15832
司机 15827
国内法 15827
十届 15818
垃圾 15815
天空 15815
巴士 15814
mi 15812
据说 15804
民兵 15801
mas@@ 15800
舍@@ 15798
university 15797
发明 15796
看出 15793
隆@@ 15792
画@@ 15789
洗 15786
参见 15785
怕 15781
拿@@ 15777
字母 15770
开采 15767
调查结果 15766
匹配 15763
pen@@ 15761
总共 15758
吸引力 15753
聖@@ 15752
洗衣 15739
不愿 15734
0.2 15731
赞助 15731
ck 15729
菲 15722
彩@@ 15720
完@@ 15719
不予 15718
划@@ 15716
紧 15716
会费 15713
康 15701
mo 15697
存放 15690
伤@@ 15689
路径 15688
团@@ 15683
inter@@ 15682
ft 15680
衣@@ 15679
组建 15678
郡 15678
境 15666
不受 15665
尾 15664
默认 15664
服务@@ 15663
处理器 15658
963 15655
對@@ 15653
第二天 15653
荣誉 15653
ly@@ 15652
响 15647
109 15637
倒@@ 15637
mis@@ 15636
去@@ 15626
安静 15625
西岸 15625
充分利用 15621
瓶 15620
一会儿 15619
便@@ 15613
北方 15612
宾馆 15608
挂 15607
问@@ 15602
行星 15594
回去 15593
下文 15586
正当 15575
经济委员会 15574
习俗 15573
生育 15561
和平利用 15554
港@@ 15553
司长 15546
型号 15546
两者 15540
优良 15540
护照 15538
马达加斯加 15537
盐 15534
108 15533
景@@ 15533
指导方针 15532
界面 15528
不安 15527
权威 15525
懂 15522
置@@ 15514
1960 15506
论述 15505
六个月 15500
撰写 15499
风暴 15496
导 15495
祷告 15492
歧视性 15488
為@@ 15486
map 15485
势 15482
夏天 15482
回报 15481
完整性 15480
舍 15480
pro 15470
定居点 15469
抑制 15469
撤回 15468
储备 15463
党@@ 15459
主体 15456
種 15456
帐号 15455
cd@@ 15453
java 15451
延伸 15449
列支敦士登 15446
1981 15445
人权法 15438
末 15438
风景 15433
荣耀 15427
密度 15426
之际 15423
列车 15418
lo 15410
res 15410
这笔 15410
中非 15401
107 15399
皆 15399
容@@ 15398
吉尔吉斯斯坦 15397
dp 15391
季@@ 15385
sc 15382
ard 15379
粗@@ 15375
诗 15374
乡 15371
实物 15364
社@@ 15362
不锈钢 15359
發 15357
一辆 15356
惠@@ 15356
缩短 15355
佛 15349
微笑 15349
迫切需要 15348
指称 15339
童工 15339
舒服 15323
戴 15319
三十@@ 15316
输@@ 15316
述 15303
炎 15299
哲学 15297
員 15296
島 15296
多米尼加共和国 15289
便于 15279
风险管理 15273
交通@@ 15267
努@@ 15267
中止 15265
订购 15264
威廉 15263
调用 15257
矿@@ 15253
pa@@ 15252
ja 15248
苏 15248
商业@@ 15246
充@@ 15241
柯@@ 15238
仅@@ 15234
营办 15232
las 15228
世界人权宣言 15226
ko 15224
拖@@ 15221
哪@@ 15220
bc 15219
卫@@ 15218
申明 15216
生计 15212
犯罪行为 15208
聪明 15208
原本 15207
范畴 15206
粉@@ 15205
既然 15203
tro@@ 15202
ted 15201
iz@@ 15190
接入 15185
ano 15173
雨@@ 15152
大脑 15151
tw 15150
sy@@ 15147
耳 15145
损害赔偿 15133
国际劳工组织 15129
联网 15129
思维 15128
计划生育 15126
丝@@ 15115
少女 15113
布拉格 15109
审查会议 15108
股@@ 15107
酶 15101
chi@@ 15100
多哥 15097
施行 15096
为主 15094
酸@@ 15092
过于 15088
乙@@ 15071
容器 15071
í 15070
显@@ 15070
穿着 15068
相机 15067
all@@ 15066
一类 15053
司法部 15052
關 15049
久@@ 15048
33@@ 15046
片@@ 15045
申@@ 15044
间@@ 15043
安全部门 15036
ice 15034
文献 15030
幕 15029
斐济 15026
fi 15022
当天 15022
沒有 15022
钢@@ 15022
達@@ 15021
作战 15019
隐@@ 15019
毫无 15017
援引 15015
弱 15012
当作 15009
booking 15006
衍生 15004
已知 14999
大力 14997
112 14996
花店 14996
ki 14993
度@@ 14992
30% 14985
春@@ 14978
所在地 14972
无害 14970
视觉 14961
幅 14953
下跌 14952
权能 14951
企业家 14950
第十四条 14948
from 14946
守 14946
确切 14943
ut 14937
自由化 14936
谈话 14932
1949 14928
刻@@ 14928
2019 14926
卫生组织 14925
裁谈会 14925
音频 14915
吹@@ 14912
务@@ 14906
可爱 14906
line 14904
可用性 14900
m2 14899
发挥作用 14895
契约 14893
sho@@ 14891
双人间 14889
硬 14889
锁 14888
愛@@ 14884
燃烧 14883
1979 14880
居@@ 14880
fccc 14878
奠定 14874
乐趣 14872
刺@@ 14872
2.2 14871
坎@@ 14870
捷克 14869
分段 14868
友 14862
走进 14856
浪费 14849
剧院 14848
疑问 14829
听课 14827
竞选 14826
第三届 14826
联合国环境规划署 14825
洋@@ 14819
獲得 14817
此前 14811
何时 14808
孔@@ 14808
隔@@ 14802
tal@@ 14801
击@@ 14798
东盟 14797
吉布提 14795
肯 14794
海事 14791
宣称 14788
报价 14778
flash 14773
该部 14773
层次 14770
糖尿病 14770
不满 14764
糟糕 14763
向前 14758
ada 14753
.4 14752
派@@ 14751
峰会 14750
必不可少 14748
仓库 14742
福祉 14741
磁@@ 14740
系统@@ 14732
薩@@ 14731
main 14728
神经 14726
学家 14712
pl@@ 14710
× 14709
唱 14704
而已 14704
戰 14698
fu@@ 14694
弱势群体 14691
创@@ 14687
实业 14686
防范 14685
一種 14684
想起 14679
日历 14670
赌场 14664
2.1 14661
ji@@ 14657
ren@@ 14657
unep 14651
冒险 14649
有时候 14646
ham@@ 14643
喜@@ 14628
不罚 14624
痛@@ 14622
破 14620
au 14616
欧 14616
竟然 14611
门票 14609
举@@ 14608
暂行 14608
水果 14608
先知 14606
艰难 14603
法人 14600
30.00 14599
art@@ 14594
三分之一 14594
心脏 14593
手指 14588
土库曼斯坦 14570
country 14568
青年人 14565
略@@ 14562
沒 14558
读者 14558
兑换 14557
1973 14549
玩具 14545
浪漫 14543
are 14540
115 14533
政治@@ 14531
混乱 14528
某人 14526
资@@ 14526
农村妇女 14525
荷 14523
当今 14518
扣 14516
肯@@ 14515
宁@@ 14513
胜 14513
德班 14511
神圣 14511
认@@ 14511
突@@ 14509
难民营 14509
驳回 14508
三种 14504
microchip 14500
tur@@ 14499
家中 14497
深圳市 14496
炉 14492
进出口 14484
业余 14483
仆人 14480
旅程 14480
一声 14476
宽 14476
一面 14474
近似 14471
编码 14470
一本 14469
奉 14455
电流 14445
125 14443
应为 14443
國際 14441
不变 14440
洗浴 14439
致使 14439
2020 14437
pu@@ 14437
兹@@ 14425
圆桌会议 14424
ley 14422
刺 14421
dr@@ 14418
违法 14418
class@@ 14416
摩西 14414
特使 14413
我谨 14408
盟约 14407
放置 14406
永恒 14395
ap 14394
本条 14394
煽动 14393
要点 14392
集合 14381
114 14376
资 14375
主导 14373
持@@ 14372
ino 14368
甚@@ 14360
谈论 14360
等于 14359
判处 14350
ty 14349
饼 14349
笔@@ 14348
创 14346
取得成功 14346
沃 14346
主机 14344
情感 14338
分区 14336
韩@@ 14333
义@@ 14332
本着 14331
冬季 14329
留 14320
采纳 14319
马尔代夫 14319
三次 14318
失业率 14312
頭 14312
救援 14309
游泳 14306
产品@@ 14305
购@@ 14298
保险@@ 14294
各个方面 14289
日志 14288
内在 14283
公主 14282
振@@ 14281
结果表明 14281
毛额 14280
高达 14279
挑选 14277
便是 14275
针对性 14274
新鲜 14272
供应链 14271
que 14264
什么样 14264
教练 14263
预防性 14263
師 14257
庭 14256
ari@@ 14255
型@@ 14254
第七条 14253
累 14253
配 14252
免@@ 14245
祖@@ 14239
type 14231
品种 14229
布鲁塞尔 14220
电台 14220
移 14220
背后 14220
車@@ 14220
数值 14219
柱 14217
场地 14215
业@@ 14214
明示 14209
百 14209
1983 14208
系数 14208
容量 14204
合金 14203
巡逻 14203
替 14203
早晨 14202
so 14201
live 14194
着重指出 14189
筹备工作 14188
聚会 14186
53@@ 14183
帶 14176
章程 14175
茶@@ 14172
圭亚那 14171
第二十@@ 14171
与@@ 14169
ben@@ 14164
一把 14162
113 14160
鬼 14159
cc 14158
刑事法庭 14156
世紀 14155
振兴 14154
交易所 14146
忘 14138
受害 14137
州@@ 14135
增编 14128
核试验 14124
潮 14124
亲爱 14121
太空 14119
工业@@ 14118
自定义 14113
贴 14105
文职人员 14103
hyip 14099
同次 14099
por@@ 14098
餐 14095
ger@@ 14093
兵@@ 14092
人家 14090
乘 14083
执@@ 14083
注意力 14083
打造 14082
宠物 14077
板@@ 14077
究竟 14074
general 14073
pal@@ 14072
斗 14072
两国 14069
牙@@ 14068
more 14064
愤怒 14061
载@@ 14055
要么 14052
牺牲 14051
恶劣 14050
万一 14045
草稿 14044
伊斯兰教 14035
about 14028
人事 14028
世界贸易组织 14023
定牌 14021
全文 14013
納 14011
當時 14006
远离 14005
萨摩亚 14001
group 14000
凭借 14000
考察 13999
乱@@ 13995
卡车 13994
united 13990
iphone 13986
有意 13986
羊 13986
几次 13985
租金 13984
lar@@ 13983
必填 13980
托管 13980
鱼类 13979
各种各样 13977
跨界 13977
联合国秘书处 13975
林业 13970
摆@@ 13962
听说 13961
残@@ 13960
评@@ 13958
高中 13958
个体 13956
联黎 13952
第十@@ 13951
弥补 13949
任用 13948
cc@@ 13945
达成协议 13944
不足以 13935
睡眠 13935
符号 13935
内存 13934
摸 13933
拜@@ 13926
从中 13919
中小企业 13916
工业化 13913
服@@ 13913
巴巴多斯 13911
承包商 13909
直升机 13907
116 13905
way 13903
中國 13902
力求 13902
陆@@ 13901
处@@ 13900
左侧 13897
書 13897
出現 13896
有待 13896
联塞 13894
英格兰 13894
hy@@ 13893
救助 13890
驱动器 13886
故@@ 13883
© 13881
不但 13878
创业 13874
徒 13874
预先 13874
骚扰 13870
客户服务 13868
你自己的 13860
ó 13858
迷人 13858
称@@ 13855
捐赠 13854
物业 13851
采集 13850
知名 13849
终@@ 13849
得知 13841
阿曼 13839
带到 13838
再度 13829
狂@@ 13828
官@@ 13827
悉尼 13826
pa 13819
眼前 13818
采矿 13818
沿着 13817
生物@@ 13816
轉@@ 13815
博茨瓦纳 13813
经合组织 13812
dc 13811
信用 13805
抵抗 13805
那天 13804
触@@ 13800
侵权行为 13799
缺@@ 13799
英尺 13799
118 13798
avenue 13797
补助金 13796
联合国儿童基金会 13795
贴@@ 13794
容 13793
封 13790
序言 13789
利息 13786
轴承 13783
净@@ 13782
经济学 13777
旅费 13775
栏 13774
中美洲 13770
批款 13770
群众 13767
ban@@ 13766
ale 13765
答应 13762
领土完整 13756
设计师 13750
za 13749
加密 13748
告 13747
科学技术 13745
尊敬 13739
粘@@ 13739
速@@ 13734
地铁 13727
ram@@ 13726
blackberry 13724
第三个 13724
事务处 13721
度过 13720
一群 13718
精神@@ 13718
爆炸物 13716
文件夹 13715
氛围 13713
测定 13712
分担 13710
碎片 13709
杨@@ 13707
诸@@ 13706
見 13704
卷@@ 13703
话题 13698
火箭 13697
展@@ 13693
核能 13689
應 13688
剧 13687
非正规 13682
制造业 13678
虚@@ 13676
石头 13671
毒 13665
惊讶 13664
尽力 13662
支持者 13662
止@@ 13662
比额 13660
职工 13656
购置 13654
创立 13651
尼日尔 13651
hostel 13649
明星 13649
乔治 13644
新闻@@ 13644
铜@@ 13644
冰 13641
兼容 13632
勘探 13629
市区 13626
ave 13622
团长 13619
一眼 13616
相结合 13604
纯@@ 13600
玛丽 13599
著作 13599
望@@ 13598
众人 13594
ob@@ 13593
公斤 13582
欧洲委员会 13577
婚礼 13575
微软 13574
买方 13570
殿 13570
考 13568
座位 13566
具@@ 13561
湿@@ 13560
122 13558
景观 13558
john 13556
撒哈拉 13556
bro@@ 13554
马拉维 13550
信念 13549
尽管如此 13548
扮演 13547
复兴 13544
怪 13544
br 13541
种子 13535
善 13532
有线 13531
填@@ 13526
志 13526
123 13523
实力 13521
不敢 13517
莉@@ 13516
绝大多数 13513
演变 13512
卫生部 13511
撤出 13511
搞 13510
不结盟运动 13509
不行 13507
只会 13506
cat 13505
平板 13504
乘坐 13501
業 13498
略 13491
工作量 13488
王子 13484
一大 13482
窗 13482
性虐待 13479
更正 13471
商人 13469
反对派 13468
智@@ 13465
解放 13465
接到 13464
署长 13464
免 13458
合约 13458
备 13458
无限 13458
基本@@ 13454
大幅度 13452
之所以 13451
動@@ 13449
软 13448
零部件 13446
残疾儿童 13444
int 13443
api 13442
三名 13438
係 13438
端@@ 13437
血液 13437
晚餐 13436
种@@ 13435
今晚 13434
积分 13433
比賽 13432
背 13431
cedaw 13425
专辑 13425
精品 13422
二氧化碳 13415
马克 13414
夫妇 13410
志@@ 13404
外观 13403
祭 13402
進@@ 13401
琳 13399
炸弹 13394
提倡 13390
卖@@ 13382
麻醉药品 13378
頓 13376
傳@@ 13364
东耶路撒冷 13363
第二章 13363
cho@@ 13361
穆罕默德 13358
尼斯 13356
弱势 13355
正规 13353
优越 13336
第十届 13334
讯 13334
双重 13332
ent@@ 13331
tre@@ 13328
sn@@ 13321
见解 13321
美国政府 13320
跨@@ 13318
透@@ 13316
罪@@ 13307
证件 13307
亲自 13305
储蓄 13301
sr@@ 13299
曾@@ 13297
激@@ 13297
签发 13290
黑人 13287
失 13285
书记 13283
叙述 13282
看上去 13281
礼 13281
苏格兰 13281
备@@ 13280
对手 13279
控制系统 13279
经济危机 13273
日前 13271
轻 13265
小孩 13258
偏见 13257
准许 13257
样本 13257
审核 13255
怀@@ 13254
看作 13252
诉诸 13246
fre@@ 13245
管理@@ 13241
露@@ 13241
ann@@ 13240
遊戲 13240
pan@@ 13234
申报 13234
监视 13232
赠款 13231
俄 13230
旧金山 13230
回归 13228
国防 13228
接纳 13223
第三条 13223
ib@@ 13219
牛奶 13219
默 13217
蘭 13216
象征 13213
体育@@ 13203
行政@@ 13203
穿过 13199
报复 13195
117 13193
场景 13192
学员 13192
第四条 13189
跳转 13185
号@@ 13183
海盗 13183
菌 13181
军官 13177
艇 13173
紧迫 13172
替换 13163
治安 13162
／ 13161
指责 13159
玉@@ 13158
上学 13157
32@@ 13155
法律文书 13145
10.@@ 13138
嗯 13138
准 13137
圆 13136
wal@@ 13135
art 13134
not 13134
系@@ 13133
34@@ 13127
今@@ 13127
见证 13123
nu@@ 13120
谢 13118
增至 13110
职类 13109
vi 13103
加热 13099
控 13096
xxx 13094
119 13092
蛋 13087
税@@ 13086
明年 13084
壁 13083
正面 13081
集会 13081
两天 13077
双手 13077
扩张 13075
the@@ 13072
干什么 13071
院@@ 13067
布达佩斯 13065
矿 13065
严@@ 13064
忽略 13055
作出努力 13052
困境 13047
啤酒 13046
專@@ 13043
象@@ 13043
萬@@ 13040
睡@@ 13039
无条件 13038
杰 13038
ou@@ 13037
以南 13037
自治区 13031
一届 13030
经济社会 13028
解决问题 13022
损毁 13021
ong@@ 13016
天堂 13013
民警 13010
奖学金 13009
兴 13008
館 13008
良@@ 13007
基本权利 13005
准确性 13004
權 13003
芝加哥 12998
争论 12997
课@@ 12992
职@@ 12990
无线电 12989
持久性 12985
观光 12982
桌子 12981
泽@@ 12979
不停 12977
體@@ 12976
占据 12975
市场@@ 12974
稿 12972
一体 12964
占@@ 12961
薄@@ 12958
联利 12956
译 12953
ro 12951
首相 12950
兴奋 12949
告@@ 12943
海底 12937
渡船 12937
频繁 12933
成年人 12930
蔬菜 12930
快递 12927
故 12927
欢@@ 12925
纠纷 12918
漏洞 12917
产品名称 12916
指明 12908
單@@ 12907
版权所有 12907
尔德 12905
摩尔多瓦共和国 12905
主意 12904
80% 12902
促销 12899
ver 12894
尾@@ 12894
回返 12892
偷@@ 12888
停留 12880
柏@@ 12875
租 12875
征求 12873
自由@@ 12872
贝尔 12871
缴款 12870
购 12864
力度 12863
购物中心 12862
街头 12860
续@@ 12858
這 12856
租车 12855
概况 12854
减缓 12853
肌肉 12850
vs 12849
發展 12846
诸多 12844
search 12840
警察部队 12840
zh@@ 12838
装修 12838
计划署 12835
精密 12833
邮政 12831
检@@ 12830
自助 12828
供水 12825
給 12822
模具 12818
零售 12817
lan@@ 12815
送交 12812
体内 12811
曲线 12810
心情 12806
年份 12805
七个 12804
參@@ 12802
井@@ 12800
世界@@ 12799
自然@@ 12798
销 12792
ri 12788
昂贵 12788
ical 12786
科技咨询 12786
迫害 12785
200@@ 12783
负@@ 12782
col@@ 12779
凡@@ 12776
慈善 12774
第五次 12769
大酒店 12767
深信 12767
整理 12763
经社理事会 12761
並且 12760
脂肪 12757
毛里塔尼亚 12755
脱 12755
节点 12755
系统地 12754
德语 12751
大气 12747
阻@@ 12740
十二 12736
和平解决 12730
碎 12730
論 12730
山区 12728
ville 12725
裂变 12720
引进 12718
服务中心 12716
ff 12709
1975 12704
同年 12704
實@@ 12704
谋求 12699
发电 12698
胶 12697
遗传 12691
幼@@ 12690
雖然 12690
患 12689
cp@@ 12687
魅力 12684
有所不同 12679
玻利瓦尔 12679
开列 12677
壳 12676
跨国公司 12676
歷史 12672
流通 12672
19@@ 12671
收回 12661
继 12660
俩 12658
ist 12655
建成 12655
西撒哈拉 12654
tech 12653
积@@ 12651
市长 12648
ye@@ 12647
环境@@ 12640
門 12638
player 12637
伊斯坦布尔 12637
倾@@ 12637
经济学家 12636
第五条 12635
负面影响 12633
产妇 12632
第三者 12632
東 12631
ü 12629
烟 12629
吩咐 12628
est@@ 12627
围@@ 12624
内阁 12616
是@@ 12616
这部 12614
专长 12611
獎 12610
ale@@ 12607
地铁站 12603
apartments 12600
javascript 12595
所指 12592
分公司 12590
节能 12586
看待 12584
更是 12583
fa 12581
斯特@@ 12581
教育部 12577
饮用水 12577
停火 12576
构架 12576
国内外 12575
service 12574
疯狂 12573
露 12573
ub@@ 12572
项下 12569
无关 12568
总务 12567
mac@@ 12566
社會 12566
套@@ 12565
河流 12565
无人 12564
国际原子能机构 12559
更多地 12559
节日 12559
寺 12545
餐饮 12542
妹妹 12541
２ 12535
中央@@ 12532
客户端 12531
体面 12520
杀死 12518
确信 12517
女生 12512
game 12504
经由 12504
過@@ 12502
更具 12500
局@@ 12488
鉴定 12488
禁令 12485
新增 12482
劳动者 12478
温暖 12478
家伙 12476
种族灭绝 12474
捍卫 12472
示威 12472
不丹 12470
够 12468
签字 12468
境外 12464
制成 12463
邮票 12462
121 12461
开心 12458
鸡巴 12452
门徒 12450
舞台 12448
款@@ 12446
几十年 12443
tel 12442
平静 12442
演示 12441
毫无疑问 12440
电视台 12439
哥哥 12437
机票价格 12437
翼 12436
睡觉 12432
细菌 12430
乐观 12429
定居 12428
復 12428
假日 12427
威尼斯 12423
生产率 12423
dar@@ 12422
东南亚 12420
假定 12418
128 12417
ion 12417
庞大 12413
话@@ 12411
惊人 12408
day 12407
暴露 12407
成千上万 12406
ure 12404
遗@@ 12404
晶@@ 12402
一阵 12401
原子 12400
针 12400
上去 12394
妮 12393
uk 12391
论@@ 12391
指引 12388
异 12387
之間 12386
流入 12382
cs 12381
内心 12381
锡@@ 12381
保养 12380
会议议程 12379
支撑 12377
生气 12371
测 12370
详尽 12370
请参阅 12369
既定 12367
影響 12364
订@@ 12364
防护 12364
cn.9 12362
歐洲 12362
第一章 12362
神秘 12359
box 12358
同時 12355
摩纳哥 12355
路线图 12355
到期 12354
处在 12350
筒 12346
节约 12346
公式 12345
顾及 12345
盘@@ 12343
卫生@@ 12341
舱 12339
教育@@ 12338
chinese 12337
付@@ 12337
估算 12331
东方 12329
丰@@ 12327
烧@@ 12327
钱@@ 12326
理事 12322
露出 12322
伴随 12318
ron@@ 12317
汤姆 12316
哪儿 12311
刑事责任 12310
ct 12304
口译 12302
法文 12302
迈@@ 12302
steam 12300
中将 12298
每一 12297
1974 12295
100@@ 12293
楼@@ 12293
乌 12291
占有 12288
古代 12288
订 12287
势力 12285
临@@ 12283
挺 12282
案情 12281
0.5 12278
泽 12278
视图 12278
犹太 12276
突破 12276
慢 12274
街@@ 12272
感激 12271
宿舍 12269
用户名 12268
studio 12263
元件 12254
军事行动 12251
微型 12246
半岛 12245
章节 12244
罗斯 12241
巴哈马 12240
统筹 12232
祈祷 12231
1.3 12228
ico 12228
军事@@ 12228
逃@@ 12226
穿@@ 12219
126 12218
焊接 12213
令@@ 12210
除此之外 12209
出版社 12208
第四届 12207
up 12205
卖方 12205
祝福 12205
弹性 12201
财务@@ 12201
道理 12201
俄@@ 12200
str@@ 12199
每间 12194
往来 12191
明亮 12190
层@@ 12188
德尔 12187
钥匙 12187
組織 12185
容纳 12184
损伤 12169
模 12166
同一个 12165
闭会 12165
du 12159
牙 12159
夏 12158
那位 12157
del@@ 12156
协@@ 12156
命@@ 12156
麦 12154
秀 12153
mb 12152
碳@@ 12151
前述 12150
橡胶 12150
遏制 12146
两级 12145
低收入 12144
爬 12143
當 12143
认捐 12140
追加 12136
百万 12135
拉加 12134
井 12133
认知 12133
中所载 12129
似的 12128
目前为止 12124
医疗保健 12123
复活 12123
电动 12123
癌 12123
级@@ 12121
杰出 12119
贸易@@ 12119
寫 12117
开启 12115
内地 12114
ali 12111
老年 12111
尊重人权 12104
同性恋 12103
顶@@ 12103
十字架 12101
› 12100
comp@@ 12097
协调会 12097
萊@@ 12094
临 12093
百姓 12092
单个 12091
不适 12089
荷@@ 12086
桌面 12085
tes 12083
负载 12083
崩溃 12080
劳动@@ 12078
武 12072
合作社 12070
同行 12062
主义者 12059
弃权 12059
疗法 12056
tripadvisor 12054
万元 12054
欣见 12051
版@@ 12049
判@@ 12046
寄@@ 12046
大街 12041
干燥 12041
苦 12041
诊所 12041
众@@ 12040
0.3 12039
心灵 12039
存档 12035
警官 12028
ab 12025
放射性 12025
次序 12025
动画 12024
孙@@ 12018
源自 12016
薪 12016
锻炼 12012
原先 12010
萬 12010
奴隶 12009
塞族 12007
有所增加 12006
ata 12000
gs 11998
赛季 11997
rue 11990
乐队 11985
焦点 11982
臭氧 11981
吴@@ 11980
桥梁 11979
体重 11978
摄影 11978
营养不良 11977
构想 11976
邮@@ 11975
专业人士 11974
顶部 11973
耶稣基督 11972
sub@@ 11971
千 11968
鸡 11968
再也 11966
谱 11963
1976 11960
优雅 11959
关键作用 11955
气象 11946
170 11945
佛罗伦萨 11944
南部非洲 11944
派出 11943
书桌 11941
旗 11941
小额 11938
den 11937
行动者 11934
压缩 11927
届会 11927
拆除 11923
束 11923
延误 11922
误@@ 11921
華@@ 11919
一笔 11917
加州 11916
通货膨胀 11915
仿真 11914
反而 11914
350 11911
淘汰 11909
撤离 11908
岸 11907
录@@ 11903
胜@@ 11903
fr@@ 11900
孕妇 11899
产地 11898
苏丹政府 11893
联科 11892
van 11890
mag@@ 11887
bre@@ 11886
认同 11884
布什 11882
汇 11878
人工 11876
竞赛 11876
般 11875
餐@@ 11875
可行性 11873
妇发 11873
姑娘 11872
70@@ 11870
欲 11869
谋杀 11866
1977 11865
201@@ 11864
宽@@ 11864
范@@ 11862
迪拜 11862
助 11860
展望 11860
复杂性 11858
细 11856
12.@@ 11855
贫@@ 11854
138 11849
递交 11848
幸运 11845
公共行政 11842
重叠 11837
预警 11837
季度 11836
ze@@ 11832
蛇 11832
蘇@@ 11829
屋顶 11828
混凝土 11827
称赞 11823
ash@@ 11822
你自己 11822
施 11822
奉@@ 11818
已經 11818
胆@@ 11817
hr 11816
抱怨 11816
乘@@ 11815
flower 11813
币 11810
订约 11809
多人 11805
追究 11803
ick 11802
联赛 11799
冲 11798
cy@@ 11793
坦 11791
综合性 11789
add.2 11785
像素 11782
明确规定 11782
勤 11781
74@@ 11779
联检 11779
媒介 11778
亨利 11777
澳洲 11777
父@@ 11773
舞@@ 11772
40% 11769
外联 11763
大使馆 11763
lis@@ 11761
难以@@ 11760
手里 11759
sp 11758
抵押 11758
可否 11756
聘用 11753
麻 11752
相关性 11751
册 11750
手工 11748
苦难 11748
理性 11747
that 11745
养恤 11742
民主@@ 11740
猪 11740
xx@@ 11738
ics 11737
gb 11736
学位 11735
补编 11734
吊@@ 11730
1972 11729
姐姐 11726
聚 11726
gdp 11723
振动 11717
rd 11713
改 11708
54@@ 11707
pas@@ 11706
页次 11706
許多 11704
防御 11703
叫做 11702
主持人 11701
自杀 11701
市镇 11697
特立尼达和多巴哥 11697
吃饭 11694
she@@ 11691
嘛 11690
蛋白质 11689
职权 11688
齐全 11688
ath@@ 11687
sd@@ 11684
system 11684
激活 11682
校长 11681
简直 11680
截@@ 11675
行程 11673
过分 11673
分支 11669
code 11664
之旅 11662
记载 11662
sur@@ 11661
他会 11659
波多黎各 11659
老公 11657
表情 11656
卻 11653
艘 11652
念 11651
隐私权 11650
手动 11644
124 11642
午餐 11641
牧师 11641
360 11640
問題 11639
祭司 11639
凯 11638
纪录 11637
鼠 11636
已于 11634
生产线 11630
经销商 11629
舒@@ 11627
民主党 11623
通往 11622
窗户 11621
層 11618
将近 11617
教徒 11615
阵线 11613
高速公路 11612
梦@@ 11610
佈 11609
布局 11608
yu@@ 11607
布朗 11607
旅@@ 11606
勇气 11600
普遍性 11599
进而 11598
選@@ 11593
列举 11588
专业知识 11582
筛选 11581
發生 11577
ao@@ 11576
解散 11575
礼@@ 11569
拍@@ 11568
传染病 11567
晚@@ 11567
面包 11565
原籍 11561
准备金 11558
消极 11554
智能手机 11553
项@@ 11546
fin@@ 11541
补助 11541
大厅 11533
减免 11531
堕胎 11526
外汇 11524
仍@@ 11523
友谊 11521
汁 11520
凭 11518
战斗人员 11518
椅子 11513
控@@ 11510
cap@@ 11509
抓@@ 11509
赶@@ 11509
拍卖 11507
结余 11507
川 11506
公共卫生 11505
不良 11498
迎接 11497
率@@ 11496
塔利班 11495
强制执行 11491
宾@@ 11490
危及 11486
铜 11484
初始 11483
圣诞节 11480
跟着 11479
惩治 11476
过滤 11476
势头 11475
link 11470
经共体 11470
缺点 11465
135 11463
休息区 11463
stars 11462
司法制度 11457
给@@ 11455
虽 11455
陆地 11454
ali@@ 11453
运转 11453
抓 11451
模糊 11451
村@@ 11450
许@@ 11449
军火 11447
第九条 11447
柔@@ 11446
拜 11445
節 11442
具体情况 11441
衣柜 11431
意志 11430
ka@@ 11429
真诚 11429
90@@ 11428
维护者 11427
联系人 11424
涂@@ 11423
毁 11421
社会福利 11420
区内 11415
疼痛 11415
wordpress 11414
bri@@ 11413
推 11409
个案 11408
墨尔本 11408
提供者 11407
身子 11407
生于 11406
香港@@ 11406
联合国总部 11405
讲座 11405
固@@ 11402
黄色 11399
eur 11398
槽 11396
尸体 11395
外债 11392
七月 11390
规律 11390
退 11390
概要 11389
1971 11388
blog 11387
犯有 11387
端口 11385
132 11381
友@@ 11378
评级 11377
隧道 11376
club 11374
作法 11371
真空 11370
第一步 11370
婚 11369
确保您 11369
基本建设 11367
36@@ 11364
dan@@ 11364
profile 11364
交叉 11363
加蓬 11363
son@@ 11360
目光 11360
大臣 11356
拓展 11354
童@@ 11354
一个@@ 11352
精度 11351
章@@ 11346
air 11342
硬盘 11337
奖金 11335
入学 11333
巴布亚新几内亚 11333
十四届 11332
設計 11332
阵 11330
共产党 11328
季节 11327
ys 11326
统@@ 11324
黄 11322
植@@ 11321
值@@ 11320
电气 11319
表示感谢 11314
早就 11313
伴侣 11311
样@@ 11308
fl@@ 11305
crc 11300
倫@@ 11300
式@@ 11300
事务所 11297
前任 11291
护士 11290
增 11289
有个 11289
ung 11287
名叫 11287
兩個 11286
三项 11285
泛@@ 11283
哥本哈根 11281
二世 11280
饭 11277
农 11275
太太 11275
绘制 11273
展现 11272
韦 11272
tran@@ 11269
租@@ 11269
走出 11264
转换器 11262
kb 11261
段落 11261
玫瑰 11260
聖 11260
坦克 11258
信函 11253
resort 11252
new@@ 11251
内外 11249
征@@ 11247
严峻 11246
詹姆斯 11245
错@@ 11245
攻@@ 11244
雅典 11235
急 11233
律 11232
英语@@ 11230
六月 11229
般的 11228
课题 11226
一再 11222
泡 11220
地毯 11219
接送 11219
味道 11209
劳 11207
薄 11207
沙漠 11205
pat@@ 11204
west 11203
下令 11203
瑟@@ 11203
一日 11202
毕竟 11202
ger 11200
現@@ 11195
倘若 11194
维生素 11194
還@@ 11193
羁押 11192
3.1 11187
讨厌 11182
应予 11181
盛 11181
自信 11180
恨 11179
公公 11177
桶 11176
银 11176
会期 11175
團 11175
公共服务 11173
天上 11172
信件 11171
月球 11169
220 11168
大理石 11168
运营商 11167
舞蹈 11166
豪@@ 11165
潘@@ 11163
wi 11161
喝@@ 11159
电路 11159
专 11155
病例 11153
这会 11153
几种 11152
骑 11152
龍 11152
pri@@ 11151
模特 11145
ol 11144
state 11144
从前 11144
第五十九 11141
纵@@ 11140
上来 11139
贴牌 11135
打印机 11127
莱索托 11127
字符 11126
没什么 11126
镜头 11125
contact 11123
佛教 11121
公务 11118
生日 11118
義@@ 11118
科学@@ 11112
审讯 11110
参加者 11109
生产商 11109
光学 11105
55@@ 11102
圖 11102
127 11100
刊登 11099
多达 11098
粒子 11098
联系方式 11098
hi 11096
注射 11096
155 11095
老龄 11093
马尔@@ 11091
裡 11090
名册 11086
警察局 11086
动荡 11085
讲述 11085
sun@@ 11083
最具 11075
巧克力 11074
一批 11072
研制 11072
示@@ 11072
决@@ 11071
信赖 11070
用水 11070
也就是说 11069
卡拉 11068
延期 11068
操守 11066
售 11065
bl@@ 11064
dl 11064
虚假 11062
边缘化 11061
mp 11058
134 11054
说服 11054
lam@@ 11053
采取有效 11052
1950 11050
回合 11049
氧 11049
指派 11046
职业培训 11046
fs 11045
涉嫌 11045
处以 11044
皇帝 11044
tar@@ 11039
料@@ 11038
闪@@ 11037
ator 11032
抽烟 11032
高级官员 11030
mar 11027
折 11027
中午 11026
致命 11025
detail 11022
埋@@ 11021
国民议会 11020
公共政策 11019
滚@@ 11017
1373 11016
开车 11016
諾@@ 11016
杜 11015
设@@ 11012
泥@@ 11010
阳@@ 11010
进攻 11009
燃油 11007
９ 11007
美國@@ 11002
報 10999
密封 10999
蔓延 10999
仙@@ 10998
岩石 10998
瑟 10998
研@@ 10998
南亚 10997
挂@@ 10992
址 10990
核算 10990
禁毒 10990
est 10989
戒指 10989
鲍@@ 10989
功@@ 10988
举报 10987
不让 10985
夹@@ 10984
末@@ 10978
水域 10977
暖气 10976
实务 10975
online 10966
数据中心 10965
不必要 10959
全面禁止 10958
惩处 10957
厚 10956
cn@@ 10955
era 10955
1961 10953
框 10950
精简 10950
货运 10945
启@@ 10943
该司 10940
per 10938
亲属 10936
岩@@ 10936
育@@ 10936
共和 10935
政府部门 10928
宗@@ 10927
外空 10926
获益 10926
形态 10925
湿 10925
sel@@ 10923
局长 10919
聯@@ 10918
据此 10917
抵消 10915
益处 10913
献@@ 10912
罗姆人 10912
屈@@ 10911
词@@ 10909
序列 10907
科技股份 10905
修理 10902
精 10901
器官 10899
三分之二 10897
两份 10896
inf@@ 10893
七年 10893
欧洲人 10892
觉 10885
生意 10884
连接器 10883
劇 10882
一颗 10880
汇款 10880
2.3 10879
洪水 10874
伯利兹 10872
日后 10872
营业 10872
止 10870
院长 10867
place 10864
很小 10861
煤@@ 10860
词汇 10860
sql 10858
后裔 10855
著@@ 10854
该条 10854
best 10852
现任 10847
家庭@@ 10846
股市 10845
采取任何 10842
险 10842
三大 10839
共用 10839
恒@@ 10838
或本 10834
第五十八 10832
133 10830
eg@@ 10829
不如 10829
先决条件 10826
证@@ 10822
检查组 10821
劇@@ 10820
严厉 10816
五月 10815
臺 10811
運@@ 10811
洋 10807
精力 10803
153 10800
牵头 10800
22@@ 10799
储@@ 10799
話 10798
太多 10797
刻 10795
国际货币基金组织 10795
难题 10793
高性能 10793
功 10786
可信 10786
时机 10785
坚信 10782
世卫 10781
机械@@ 10781
本案 10780
回忆 10779
組 10779
医@@ 10777
粒 10776
廉价 10775
而定 10767
借口 10764
conf.@@ 10763
早已 10761
环节 10761
老婆 10754
個@@ 10753
一事 10752
民族@@ 10752
累积 10752
闲@@ 10748
诚实 10746
动议 10743
交往 10741
过时 10738
几分钟 10737
普通照会 10732
演 10727
fc 10723
丘@@ 10721
甜@@ 10720
农产品 10719
經 10718
数字化 10717
脑 10717
sw@@ 10716
枪@@ 10713
附录 10713
露营地 10712
mer 10710
延续 10710
检察长 10708
top 10706
脸@@ 10703
约翰内斯堡 10699
apple 10698
这篇 10698
同情 10697
频 10696
违法行为 10693
椅 10690
所有者 10689
都@@ 10689
原有 10687
瓦尔 10684
二十一 10682
荣幸 10682
瘤 10679
时光 10677
洪@@ 10672
渔@@ 10671
广 10667
戏 10666
炮 10664
烤箱 10664
题目 10664
淡@@ 10663
北约 10658
文化遗产 10658
救灾 10654
法律事务 10654
wood 10653
town 10650
129 10649
iv 10649
恶 10648
土著人 10647
论点 10647
塞人 10645
信徒 10640
咱们 10639
二手 10638
水疗 10638
介入 10637
连同 10636
以供 10635
宣告 10631
执法人员 10631
dy 10630
监@@ 10626
皇@@ 10624
销@@ 10622
当年 10620
捕捞 10614
西欧 10614
人民@@ 10613
益@@ 10612
bs 10605
視 10602
涅@@ 10600
卢 10599
影像 10597
措辞 10597
垂直 10596
孤@@ 10596
免除 10595
centre 10593
联海 10587
can 10586
保护@@ 10586
tion 10585
矿物 10584
园@@ 10579
tr 10577
tan@@ 10575
解雇 10567
ance 10566
发电机 10565
捕@@ 10564
戰爭 10562
遗留 10561
刀@@ 10559
毒性 10559
雷斯 10557
第七 10556
141 10555
妥善 10554
ps@@ 10548
筹集 10545
原文 10544
殺 10543
注入 10543
喊 10541
性格 10539
公爵 10538
轨 10538
多久 10536
幅度 10536
ary 10535
练 10532
浅@@ 10531
杀@@ 10530
刑法典 10529
珠@@ 10528
ev@@ 10526
无数 10522
患有 10520
90% 10519
氟 10519
dna 10517
迷 10516
逝世 10516
特拉 10513
德拉 10509
central 10504
冷却 10503
25% 10502
征收 10501
剧@@ 10500
沙滩 10500
比尔 10496
电话号码 10496
适足 10495
las@@ 10494
精彩 10492
wil@@ 10487
违约 10485
開 10485
物料 10484
具体措施 10483
依赖于 10480
壁纸 10479
焦@@ 10478
限@@ 10478
志愿 10476
印尼 10473
明智 10473
法律法规 10473
无论如何 10470
金融@@ 10470
就算 10469
闭@@ 10469
web@@ 10458
洗衣机 10453
播@@ 10450
驻@@ 10450
说完 10448
三角 10446
早日 10446
军人 10444
technologies 10443
铺 10443
检索 10442
original 10440
律法 10440
行径 10440
房价 10439
推翻 10439
其他用户 10438
沿 10435
張 10434
佛得角 10433
审@@ 10433
ek 10431
芬@@ 10431
尖@@ 10425
扬@@ 10425
统计数字 10425
厄@@ 10422
志愿者 10422
布拉@@ 10420
文化@@ 10418
附带 10418
过滤器 10416
局部性 10414
mit@@ 10406
1969 10403
这使 10403
感到遗憾 10402
樂@@ 10402
美景 10402
汽车@@ 10394
海牙 10392
15% 10386
熔@@ 10384
轻轻 10384
limited 10380
界限 10380
俄国 10379
史密斯 10378
ir 10374
life 10374
裁@@ 10374
泳池 10373
第一条 10372
构造 10371
适@@ 10371
蒙特雷 10370
补救措施 10367
ö 10365
只不过 10363
杰克 10363
design 10360
反复 10360
sd 10359
弄@@ 10359
议定 10356
身份证 10354
平面设计 10352
德斯 10352
图标 10350
配额 10350
仿佛 10349
大于 10346
策划 10346
抽象 10344
選 10341
魯@@ 10340
累@@ 10339
科技@@ 10336
ag 10335
manager 10332
台灣 10331
闭门 10330
纯 10326
『 10325
垂@@ 10323
帝 10321
候@@ 10320
敬@@ 10320
毕业生 10320
团伙 10319
佐@@ 10318
效@@ 10318
ters 10317
同学 10316
愿景 10315
非索 10315
老挝人民民主共和国 10314
适宜 10314
活性 10311
财政部 10311
日常生活 10310
第九届 10310
内政部 10307
胸@@ 10307
针@@ 10302
得出结论 10301
可怜 10300
底部 10300
強@@ 10299
彩 10297
总量 10294
熊 10292
移除 10292
归还 10291
2.4 10287
电视@@ 10287
差不多 10286
全年 10283
火山 10282
教学@@ 10279
红十字国际委员会 10276
阶层 10276
hel@@ 10275
最快 10274
伏 10269
bar 10268
遮@@ 10268
征 10266
液压 10266
繁@@ 10266
而成 10266
九月 10265
唱片 10265
辞职 10265
』 10261
一处 10261
犹大 10258
负担得起 10256
cer@@ 10255
mark 10255
总裁 10255
灭 10255
刑事诉讼 10252
3.5 10249
参议院 10248
極@@ 10247
伤亡 10244
不可@@ 10238
工作@@ 10237
盐@@ 10237
刚@@ 10232
ings 10231
佳 10231
独家 10231
连续性 10230
各州 10228
bon@@ 10226
ite 10223
抢@@ 10222
浆 10222
你好 10218
建模 10214
业界 10213
问道 10212
克里@@ 10211
变为 10211
芯片 10209
重定向 10209
刑罚 10207
idb.@@ 10201
终端 10201
领导者 10198
氣@@ 10197
醒 10196
鹰 10195
部位 10194
枪支 10193
财政@@ 10193
招标 10189
无国籍 10189
1.4 10188
甚 10188
噪音 10186
tic 10183
預@@ 10182
240 10171
ford 10171
对面 10171
缓存 10170
野 10167
价@@ 10166
示例 10166
顺 10165
坏@@ 10164
直径 10162
欲@@ 10161
剪@@ 10160
八个 10158
无力 10158
摩 10157
前所未有 10156
安娜 10154
铁艺 10154
健@@ 10153
cm 10149
38@@ 10148
序 10147
恐吓 10147
财务报告 10144
爸 10143
颗粒 10143
able 10142
卫星电视 10139
英特尔 10139
高品质 10137
钟 10136
不過 10135
源于 10135
画面 10134
泡沫 10133
附上 10129
擁有 10128
女王 10127
根除 10126
保守 10125
医药 10124
現 10124
貝@@ 10124
制备 10123
卫生保健 10122
佳@@ 10121
裂 10119
270 10118
lar 10118
wa 10116
1.6 10113
210 10112
則@@ 10111
谷@@ 10111
租用 10110
don@@ 10107
特朗普 10107
ade 10106
green 10106
内战 10104
否 10104
逃离 10104
房地 10102
批@@ 10098
瓜 10098
原则上 10095
普查 10095
借@@ 10094
氯@@ 10093
源@@ 10092
邪恶 10092
阿里 10092
具体@@ 10088
ise 10086
第一款 10085
ara 10081
cat@@ 10078
到处 10077
校园 10077
量化 10076
自决权 10075
氣 10071
非国家 10071
岛上 10069
根據 10069
收养 10067
艾 10066
ran@@ 10065
max 10064
燃@@ 10064
作為 10061
众议院 10058
改动 10056
铝 10056
固有 10053
拿出 10053
令人满意 10052
穷国 10051
证词 10051
轴@@ 10051
过渡时期 10049
len@@ 10046
1945 10045
朝着 10045
ten 10044
妥协 10044
阿姆斯特丹 10043
鼓@@ 10042
赛事 10038
走廊 10038
大学生 10037
通告 10037
绘画 10033
警 10030
销售@@ 10027
核证 10025
周边 10024
暂@@ 10020
前来 10019
强劲 10019
35@@ 10018
氢 10016
便捷 10014
酒精 10014
上传 10013
揭示 10004
替代品 9998
烟草 9998
usa 9996
多元化 9996
确@@ 9996
遵照 9996
ura 9992
慕尼黑 9992
成年 9991
撞 9991
因子 9990
乃是 9986
剂量 9984
抛@@ 9984
相互作用 9981
tv 9979
旅行者 9979
缩@@ 9977
雇佣 9977
肿瘤 9976
岭 9975
良心 9975
活着 9974
缝@@ 9973
震@@ 9973
坛 9971
罐 9970
传媒 9969
琴 9966
益 9964
威尔 9963
见面 9962
市场准入 9961
欣@@ 9959
變@@ 9959
俄语 9958
plus 9957
伯爵 9957
树木 9952
don 9951
加深 9950
语音 9949
gif 9948
化学@@ 9946
拼@@ 9946
排列 9946
三天 9944
質 9944
逊 9944
寻@@ 9943
project 9942
介@@ 9941
编辑器 9940
生境 9939
潜@@ 9937
导演 9936
预见 9936
cen@@ 9934
不可或缺 9932
禁 9930
活動 9929
灯@@ 9929
灭绝种族 9927
应力 9926
景色 9926
车客 9925
春 9924
剑 9921
复合 9921
states 9920
人会 9915
法國 9913
之类 9912
本款 9912
座@@ 9910
案@@ 9904
穿越 9904
侵权 9902
� 9902
eb@@ 9901
交谈 9901
70% 9899
罢工 9899
信中 9896
斗@@ 9895
结构性 9895
续会 9895
tt 9894
ile 9889
沉 9889
空运 9887
詞 9886
财@@ 9885
ach@@ 9884
见下文 9882
搬 9875
直播 9873
文中 9872
卷入 9865
起源 9864
131 9860
效 9860
中小型 9859
儿基会 9855
教导 9854
182 9853
借鉴 9853
正好 9852
沉重 9852
贵@@ 9850
一根 9849
兽 9849
收获 9849
堆 9846
用尽 9846
芬 9845
一层 9843
第五十七届 9842
伸@@ 9840
受过 9840
敌对行动 9840
30319 9837
up@@ 9836
前后 9834
奥运 9834
我們 9833
废@@ 9832
14.@@ 9829
爵士 9827
在家 9825
诗@@ 9825
夫妻 9824
中立 9823
ama 9822
hd 9821
資@@ 9820
之地 9819
自动@@ 9815
瓜@@ 9814
场@@ 9812
石油@@ 9812
第三国 9812
内置 9809
oo@@ 9808
季节性 9806
金融服务 9806
离子 9805
人身 9804
136 9800
抵制 9799
注明 9799
流行病 9799
伏@@ 9797
mad@@ 9796
圣卢西亚 9796
巡@@ 9796
总监 9796
醇 9796
drive 9794
头上 9793
工程@@ 9792
凝@@ 9791
第二阶段 9791
平安 9790
亿元 9788
债 9784
重新@@ 9784
大批 9783
帮@@ 9783
盯 9782
受益人 9778
弟弟 9778
大国 9774
少量 9774
歌手 9774
录音 9773
探测 9773
六年 9769
og@@ 9768
第七届 9768
was 9765
鼻@@ 9765
多重 9764
标准@@ 9762
纯粹 9762
gro@@ 9761
慷慨 9761
空白 9761
一对 9760
清真寺 9760
sin@@ 9759
201 9757
借 9755
海洋环境 9754
圖@@ 9752
拒 9750
进行谈判 9750
上周 9749
贩卖人口 9747
缴 9746
帐 9745
彭@@ 9745
保护区 9743
共同@@ 9743
族群 9741
超過 9741
鼓舞 9741
传达 9737
专题讨论 9736
139 9735
不确定性 9734
員@@ 9733
转型期 9733
不住 9731
冈比亚 9727
妻 9727
致力 9727
保险公司 9724
伊斯兰会议组织 9722
出台 9722
国防部 9722
registrant 9718
费率 9718
跳舞 9717
深化 9716
警务 9716
信誉 9708
供给 9707
汗 9707
划界 9706
扭转 9705
管理方面 9703
四十@@ 9702
ec 9701
定价 9695
野生 9695
付费 9692
都市 9689
赢 9688
td 9687
区域性 9687
均匀 9687
仁 9683
移植 9683
關@@ 9681
役 9680
独自 9677
這種 9677
马丁 9677
毁灭 9674
13.@@ 9673
很长 9672
民用 9670
汽油 9669
腹@@ 9668
东亚 9667
管理机构 9666
爱好 9659
陪 9658
安道尔 9654
sen 9653
最长 9652
高潮 9649
计算机@@ 9648
搜寻 9647
ml 9646
姊妹 9644
氧化 9643
尖 9641
赐给 9639
视角 9635
闻 9635
sor@@ 9633
人口普查 9630
冬天 9630
审批 9630
这句 9630
插 9629
流动性 9629
墨@@ 9628
上班 9627
总经理 9627
约会 9625
落后 9625
错过 9624
牧@@ 9623
旅 9622
捷@@ 9621
华沙 9619
舰 9619
3.2 9616
連@@ 9615
有毒 9613
dg@@ 9612
kin@@ 9612
天内 9612
脚本 9611
姐 9610
ok 9609
司法机关 9607
大声 9607
迈阿密 9607
判定 9603
这点 9600
zi@@ 9599
战役 9599
无辜 9597
紧紧 9597
別 9596
起初 9596
摄像头 9595
cp 9593
省份 9593
面板 9592
tt@@ 9590
短暂 9590
ting 9588
克拉 9588
刑事诉讼法 9585
time 9584
blogger 9583
生产能力 9583
號@@ 9582
京@@ 9578
中央银行 9577
议 9576
拉特 9572
163 9571
變 9568
漫@@ 9567
珠 9566
忆及 9565
60% 9563
局部 9562
ker 9558
蒸汽 9558
編@@ 9556
洁净 9555
艺术@@ 9555
一世 9554
奴役 9550
平方公里 9549
战胜 9548
旋@@ 9547
137 9546
业主 9546
抵@@ 9545
大赦 9544
发票 9543
不明 9542
后代 9541
邦@@ 9541
当前情况 9540
加载 9539
它@@ 9531
怪@@ 9531
甲基 9531
145 9526
奖项 9526
xx 9524
改组 9524
射击 9521
自豪 9520
信息@@ 9519
只好 9512
激动 9512
相互依存 9512
助长 9510
债务人 9509
厚@@ 9507
育 9507
弃 9500
生涯 9500
预防措施 9500
年级 9499
时说 9499
编纂 9499
阿拉伯语 9499
走路 9493
滑雪 9492
相符 9492
罗伯特 9492
架@@ 9490
犯@@ 9490
hol@@ 9489
温和 9488
孤立 9486
星期六 9485
里斯 9484
捕鱼 9481
函 9479
ny@@ 9478
青 9477
菜@@ 9475
冠@@ 9474
分至 9473
夹 9473
有名 9472
欧安组织 9472
亚历山大 9471
镇@@ 9470
卫生设施 9468
高温 9467
样式 9464
源代码 9464
翁 9463
大致 9462
家庭式 9461
第五届 9461
第六届 9458
苏里南 9454
15.@@ 9450
所提 9450
文职 9450
诞生 9450
出示 9449
山脉 9449
166 9447
高效率 9447
充当 9446
切换 9446
天主 9445
campsite 9443
示 9443
通過 9443
第十一届 9439
運動 9438
登陆 9437
单词 9436
迹 9436
发展@@ 9435
答@@ 9435
发育 9432
美味 9432
㈣ 9431
腔 9430
高压 9429
88@@ 9428
炮@@ 9423
大选 9422
750 9421
动物园 9421
corporation 9419
慢性 9411
分组 9410
敌 9409
經濟 9407
素质 9404
深切 9398
1968 9396
衰退 9392
训研 9392
党派 9391
miles 9390
报导 9390
雇佣军 9389
建筑@@ 9386
麥@@ 9385
服务业 9384
第七@@ 9384
挥@@ 9383
c.4 9382
let 9380
平行 9379
扔 9378
带领 9375
ala 9374
司法部门 9373
水壶 9372
右 9368
抢劫 9365
化石 9364
妇 9364
罩 9361
room 9360
鲜@@ 9358
cur@@ 9356
咖啡机 9355
考验 9355
情景 9353
热水 9352
alo@@ 9351
陶瓷 9347
賽@@ 9346
操@@ 9345
紫@@ 9344
世上 9343
决定性 9342
测试@@ 9341
所致 9338
臂 9338
海域 9336
142 9332
169 9331
分成 9331
安慰 9330
尿@@ 9327
豆@@ 9327
数码 9324
注销 9324
ons 9323
撤@@ 9323
雄@@ 9323
秋@@ 9322
使人 9321
选手 9321
port 9318
190 9317
地向 9317
专有 9316
悲剧 9313
斯坦 9313
光纤 9311
创伤 9311
呈@@ 9310
先后 9309
钨 9308
上限 9305
境况 9305
第六次 9305
0.0 9304
腾 9303
vis@@ 9299
否定 9296
春天 9296
谈@@ 9296
钻@@ 9296
研究生 9295
坑 9294
营造 9292
洲 9291
twitter 9290
农药 9289
施政 9287
解释性 9286
斯威士兰 9285
外界 9282
服从 9282
德國 9281
sh 9279
困扰 9278
左 9278
0.4 9277
锁@@ 9276
笑@@ 9275
限额 9274
學院 9271
征税 9271
雙@@ 9270
入学率 9266
民族和解 9265
wo@@ 9264
透 9262
grand 9259
历 9259
金属@@ 9259
觉@@ 9256
负面 9255
检 9254
field 9252
uni@@ 9252
四月 9251
炉灶 9250
毫不 9249
附有 9248
年来 9247
联合国日内瓦办事处 9247
持久和平 9245
bg 9244
一代 9244
一揽子 9242
像@@ 9242
无须 9242
用语 9242
全额 9240
宁静 9238
猛@@ 9238
返@@ 9238
162 9235
饰 9234
乎 9232
典 9229
hor@@ 9225
che 9224
腰 9224
产物 9222
英国@@ 9222
157 9221
mel@@ 9220
redirecting 9220
恰@@ 9220
media 9219
带给 9218
悬@@ 9217
log@@ 9212
侯龙涛 9210
历@@ 9210
大会决议 9210
汉语 9207
里亚 9207
可疑 9204
mysql 9202
渐渐 9201
蛋糕 9201
din@@ 9200
扶持 9197
预备 9197
逃 9196
轮胎 9195
span 9190
财务状况 9189
144 9187
多地 9187
激发 9184
砂@@ 9182
磁盘 9182
諾 9181
矩阵 9180
联合国人口基金 9180
进口商 9178
中所 9177
评注 9177
脂 9176
van@@ 9175
滤@@ 9175
实效 9168
绝不 9167
十六届 9165
四周 9163
新建 9161
纽@@ 9161
蓝 9160
评 9155
ram 9150
找@@ 9150
aya 9147
奧 9146
涉@@ 9143
牠 9143
无视 9142
部委 9142
south 9137
office 9136
ron 9134
烈 9131
科摩罗 9127
岗位 9126
线性 9125
一番 9124
投标 9124
代理商 9123
餐桌 9123
显示器 9122
严肃 9117
十二@@ 9116
sky 9115
眼中 9113
结算 9113
跨越 9112
幸存者 9110
光线 9109
众所周知 9108
熟 9107
钟@@ 9106
第十九条 9105
bank 9104
第一位 9100
ry@@ 9098
糖@@ 9096
鹿特丹 9096
导向 9095
斯基 9094
146 9092
230 9091
电脑@@ 9089
乔 9087
建制 9086
托克劳 9086
住@@ 9085
灰 9085
全包 9084
科学研究 9083
ita 9080
vel@@ 9080
社团 9079
red 9078
迎@@ 9078
汉堡 9077
随机 9076
ani 9075
square 9075
1948 9074
句子 9074
專輯 9074
ex 9073
长大 9073
希尔 9072
兼顾 9068
本土 9068
耐心 9067
藉 9067
mail 9065
业已 9063
封闭 9063
投资@@ 9063
斯克 9063
1963 9059
写道 9059
聯盟 9058
aj@@ 9057
學家 9057
宝贝 9049
郎 9048
毗邻 9047
bed 9046
情节 9046
战略性 9042
boo@@ 9037
fr 9037
运输@@ 9036
金融市场 9034
法律责任 9033
锡 9033
inf 9032
叫@@ 9030
花束 9030
143 9027
珍@@ 9026
分辨率 9024
ci 9023
不可避免 9023
开罗 9021
传说 9020
监护人 9020
际 9020
判 9019
复 9019
属@@ 9019
pin@@ 9018
龄 9017
茨@@ 9015
执行@@ 9014
各部 9011
星系 9011
第三章 9008
索引 9008
维奇 9008
独立国家 9006
彈 9004
5000 9002
image 9002
绳之以法 9000
brand 8999
陈 8998
承 8997
在此期间 8995
g4 8992
放心 8992
业务@@ 8991
三维 8990
受损 8989
宽容 8988
押 8988
pp 8985
都柏林 8985
特区 8983
dh@@ 8982
执行官 8981
无可@@ 8980
缴付 8979
唯@@ 8978
汤@@ 8977
与会 8975
接种 8974
俗@@ 8973
漢@@ 8972
迈克尔 8970
以免 8968
征得 8968
播 8968
沉默 8967
第一阶段 8967
伟@@ 8966
核不扩散 8966
里程碑 8966
出身 8964
经常性 8963
径 8960
sb@@ 8953
圣马力诺 8952
放到 8951
城市化 8950
夜间 8950
英镑 8948
详细资料 8948
尊@@ 8946
發行 8946
震惊 8945
察@@ 8944
总督 8944
恐怕 8942
加紧努力 8941
床@@ 8941
汽车旅馆 8941
访 8941
風@@ 8941
450 8934
图案 8933
海滨 8931
44@@ 8929
分娩 8929
征服 8929
荣@@ 8929
所知 8927
筹@@ 8925
收容 8922
载列 8922
关键问题 8920
擊 8920
赤贫 8920
設 8919
避@@ 8918
147 8915
express 8912
价格@@ 8912
拉姆 8912
欺骗 8911
internet 8910
wa@@ 8910
不同于 8906
政治家 8906
叛@@ 8904
public 8901
煤 8900
谋@@ 8900
运费 8898
键盘 8898
法律顾问 8897
绝 8897
io@@ 8891
費@@ 8891
分割 8890
程序@@ 8889
bat@@ 8888
一次性 8888
铝@@ 8888
把握 8887
野生动物 8887
中欧 8886
腐蚀 8886
投选 8883
过后 8882
携手 8879
它会 8877
增设 8871
播出 8868
洗碗机 8868
联合国粮食及农业组织 8867
151 8866
介质 8865
八年 8865
86@@ 8864
video 8864
colombia 8863
回国 8862
等到 8862
斯塔 8860
去过 8859
荒@@ 8856
这张 8854
los 8853
用力 8852
耳朵 8852
体积 8851
多元 8851
犬 8851
儿童@@ 8847
旺@@ 8847
阿拉伯国家联盟 8841
球场 8839
厕所 8837
學校 8836
拿到 8836
独立宣言 8835
在场 8832
预 8832
预言 8831
站@@ 8829
ace 8828
俯瞰 8828
ios 8826
1951 8825
使徒 8825
成員 8825
新闻稿 8824
菌@@ 8824
祝 8823
委@@ 8822
送给 8819
牌@@ 8817
扣@@ 8816
教室 8815
僵局 8814
宣@@ 8814
保护措施 8813
選舉 8813
紧张局势 8812
污@@ 8811
预算编制 8804
猎@@ 8803
ze 8802
孕产妇 8801
兼@@ 8800
学术界 8800
ago 8799
裁判 8797
译文 8797
去除 8795
策 8794
bo 8789
勇敢 8788
原材料 8788
本周 8786
索取 8784
几何 8782
跟随 8782
敢 8781
碗 8781
外来 8780
犯人 8780
器@@ 8779
款额 8779
海湾 8779
说出 8779
我自己 8778
噢 8774
亡 8773
医疗保险 8773
敲@@ 8773
3.3 8770
ep@@ 8770
无意 8769
演奏 8769
退还 8769
這是 8768
156 8765
分数 8765
use 8763
彩色 8761
摇@@ 8760
他自己 8759
水中 8759
羊@@ 8757
show@@ 8756
居留 8756
酯 8755
准@@ 8754
離 8753
定性 8752
使用权 8751
扣押 8751
赌博 8751
更高 8750
南北 8749
戏剧 8749
变形 8748
顾@@ 8746
坐下 8745
迈出 8745
屠杀 8744
法外 8743
ea 8741
ill 8740
懂得 8737
审计员 8735
甄选 8735
人口@@ 8734
面试 8734
毫无@@ 8733
第八届 8733
east 8730
淫@@ 8730
倍@@ 8729
business 8728
赤字 8728
挖掘 8727
种群 8724
作出反应 8720
far@@ 8719
他用 8718
cam 8714
冷战 8714
温柔 8714
垫 8710
夜晚 8710
市政 8709
毒素 8709
沙特 8709
相一致 8709
欧洲共同体 8708
拉斯维加斯 8707
项目管理 8707
车队 8705
股权 8699
烈@@ 8698
一度 8696
全民投票 8696
加重 8695
音樂 8695
men 8694
珠宝 8694
宝宝 8691
支票 8687
极端主义 8683
生产者 8683
特有 8680
体罚 8679
全国性 8678
后期 8678
扫盲 8678
cams 8674
交货 8673
下属 8672
搜索引擎 8672
万名 8671
走私 8671
各项规定 8670
玻璃@@ 8670
圣地亚哥 8669
4.1 8668
幻想 8668
操纵 8667
充分考虑 8666
长期以来 8664
包裹 8660
哈利 8658
act 8654
ibm 8654
邻居 8653
庭长 8652
同盟 8651
義 8651
仲裁庭 8650
不可分割 8645
豆 8644
tho@@ 8642
吞@@ 8642
狼 8641
警卫 8640
覆@@ 8637
堆@@ 8636
走上 8636
坚@@ 8632
每人 8630
富裕 8628
势@@ 8626
第六十@@ 8626
149 8625
授@@ 8625
old 8623
健康状况 8623
图书 8623
竟 8623
输送 8622
舉行 8621
北京@@ 8619
地质 8619
仅限于 8618
基层 8615
love 8614
165 8613
公私 8613
gor@@ 8610
礼品 8608
肠 8607
小组讨论 8605
食用 8605
跟@@ 8604
赫尔辛基 8603
师@@ 8601
语法 8600
报名 8599
雅各 8599
性骚扰 8598
em 8597
discover 8596
ach 8595
santa 8593
ee 8592
扭曲 8592
烧烤 8592
维多利亚 8589
3000 8587
月初 8587
刑 8586
open@@ 8583
殖民 8583
fa@@ 8579
攻 8579
选择性 8578
黃 8578
养老金 8577
吹 8577
浸@@ 8577
权力下放 8575
线上 8575
工作室 8573
挑@@ 8573
官方网站 8572
虎 8572
丧生 8570
传染 8570
cy 8567
tag 8564
承付 8562
空军 8562
归档 8560
不清 8558
评审 8558
设备齐全 8557
add@@ 8556
暗 8556
一月 8555
今 8555
留言 8555
之二 8554
cle@@ 8552
ish@@ 8552
个性 8550
浅 8549
诚@@ 8549
调查团 8548
伊斯 8545
央行 8545
谈谈 8545
这话 8545
一路 8544
未找到 8544
計劃 8544
体育场 8543
激情 8542
偶尔 8539
成像 8539
ä 8538
期刊 8537
海水 8536
配套 8535
伴 8534
博彩 8531
帽 8531
树脂 8531
环境影响 8528
菲尔德 8527
官长 8526
imp@@ 8525
八月 8525
david 8524
区域间 8524
旗帜 8523
第十二届 8523
毁坏 8521
zz@@ 8520
氯化 8520
静 8520
没想到 8519
李 8516
硬币 8516
何 8515
迫切 8512
鐵@@ 8512
word 8509
借此机会 8507
心理@@ 8505
cad 8502
乳房 8501
步伐 8501
血管 8501
智 8500
占领国 8497
年内 8497
fran@@ 8495
拆@@ 8494
旁@@ 8491
勤@@ 8490
铀 8490
1966 8488
按时 8488
地名 8486
法律@@ 8484
高尔夫 8484
火灾 8482
兒 8481
唱@@ 8481
bit 8480
berg 8478
建于 8478
赐 8478
化工 8477
时所 8477
法典 8476
开业 8475
楼梯 8475
百分之@@ 8475
侦查 8474
148 8473
进化 8472
爱好者 8470
总之 8469
ick@@ 8462
儿@@ 8462
极为重要 8462
漫长 8462
非洲大陆 8462
拔@@ 8461
152 8460
充电 8460
液@@ 8460
称之为 8460
post 8457
缘 8455
auto@@ 8454
共和党 8453
动用 8453
所罗门群岛 8451
肥@@ 8451
交易@@ 8448
235 8446
und 8446
三方 8446
班车 8445
雷达 8445
庄 8444
潜能 8444
头脑 8443
方程 8440
高校 8438
伯特 8436
決定 8436
擔任 8435
庆 8432
sil@@ 8431
第二次世界大战 8431
visa 8429
二级 8427
反射 8427
0.7 8426
第十条 8424
大胆 8423
决赛 8422
旗下 8418
冒@@ 8417
实惠 8417
热线 8417
前者 8416
產生 8416
终身 8416
85@@ 8414
密集 8414
第八 8413
镇压 8413
electronics 8412
件@@ 8411
惠益 8411
net@@ 8410
券 8410
安提瓜和巴布达 8410
形容 8410
1.8 8409
整 8409
滴 8408
国有 8407
ker@@ 8405
嘴里 8403
爆 8403
16.@@ 8402
休息室 8402
力学 8402
简短 8401
刷 8400
这条 8399
里约热内卢 8398
呼叫 8397
小厨房 8397
沿@@ 8397
杭州 8396
shanghai 8395
強 8394
诚信 8394
追回 8394
专属 8393
亚的斯亚贝巴 8392
蓄意 8392
1.7 8391
1964 8390
ll@@ 8389
158 8388
数百@@ 8386
bin@@ 8385
ho 8385
全身 8382
生物学 8382
浪 8381
罪恶 8381
调集 8380
向上 8378
厚度 8377
表述 8377
260 8376
埋 8376
滑 8375
弯@@ 8374
格拉 8374
牵@@ 8374
研究员 8374
login 8373
min 8373
rc 8373
不起 8373
洁@@ 8373
西北 8372
廷 8371
公共@@ 8367
立法会 8367
認@@ 8367
als 8366
院校 8366
实习 8365
川@@ 8365
一会 8363
觀@@ 8363
保管 8360
再说 8359
历史性 8358
扶@@ 8358
ue 8355
ld 8354
north 8353
速率 8351
ations 8350
挂钩 8350
应是 8347
桑 8347
拨出 8346
里奥 8346
均@@ 8345
坦桑尼亚 8345
火星 8344
時期 8343
锦@@ 8343
365 8342
重大进展 8342
資料 8341
業@@ 8340
瑪@@ 8340
时应 8339
怀 8338
ji 8337
1540 8336
值得注意 8336
想想 8336
區@@ 8335
程@@ 8334
gn@@ 8331
指向 8328
靠@@ 8328
丘 8327
宽度 8327
发病率 8325
发出通知 8324
特別 8324
穴 8324
154 8321
不时 8321
互助 8320
屋@@ 8318
期間 8315
硫@@ 8315
裁减 8313
十月 8311
户@@ 8311
盘旋 8311
上下 8310
失效 8310
張@@ 8310
省级 8308
摄像机 8307
裁 8307
贩毒 8305
labels 8301
创造性 8301
片段 8301
供电 8300
168 8297
dor@@ 8297
漏@@ 8297
钉 8297
晓@@ 8296
有效期 8296
175 8295
lin 8294
昂 8294
智力 8293
大海 8292
骄傲 8292
复审 8291
集束 8291
关岛 8290
恶意 8287
深感 8287
［ 8287
话语 8286
飘@@ 8283
場@@ 8282
拔 8282
殴打 8280
一向 8279
ore 8278
斜@@ 8278
钢琴 8278
學生 8276
妇人 8274
語@@ 8272
灯光 8270
key 8268
canada 8267
愈@@ 8267
急剧 8266
仁@@ 8262
所定 8261
伊拉克政府 8259
插件 8257
盈利 8255
资金来源 8253
总局 8250
弱点 8249
ns 8246
海啸 8245
秀@@ 8245
麻醉品 8243
遥感 8242
隔 8242
世人 8240
吸毒 8239
葬 8239
泉 8238
分解 8237
om 8236
奇迹 8236
進入 8236
陪同 8236
汽@@ 8234
提问 8233
欲望 8233
特许 8233
折磨 8232
相连 8232
频@@ 8232
宾 8231
幼儿 8231
搭配 8231
战士 8228
这两项 8227
服务提供商 8226
胁迫 8226
被控 8223
据报 8220
出席会议 8218
几项 8214
肝@@ 8214
208 8213
各处 8212
邊 8212
房产 8210
红十字 8210
污水 8208
胃@@ 8208
增大 8207
巴格达 8206
奖@@ 8205
大麻 8204
blo@@ 8203
姓氏 8200
tor 8198
展会 8198
app@@ 8196
戈兰 8194
ph 8193
潜水 8193
→ 8187
谋 8184
ot@@ 8183
pl 8183
录像 8182
獨立 8182
人选 8180
無 8180
通知书 8180
疑 8179
稳@@ 8178
外壳 8177
條 8172
涂层 8172
捕获 8171
vol@@ 8170
邻近 8170
农业@@ 8169
bay 8168
民航 8167
結@@ 8167
３ 8167
乐意 8165
園 8165
佩 8162
老鼠 8162
州市 8161
革新 8161
半导体 8160
服務 8159
161 8158
侧@@ 8157
牙齿 8157
ning 8156
妇女组织 8154
忍受 8154
布雷顿 8153
ini 8151
下滑 8150
低价 8149
察 8149
收音机 8149
一节 8148
如需 8148
弟兄 8148
鼠标 8148
孤儿 8146
汤 8145
air@@ 8143
lake 8142
珺 8140
启示 8138
我来 8138
］ 8137
周一 8134
米尔 8133
ira 8132
tel@@ 8132
贯彻 8132
各省 8131
当事 8130
技术人员 8130
mobile 8129
生命权 8128
规 8128
保卫 8127
胺 8127
骂 8126
sand@@ 8124
屏 8122
宜 8121
紧缩 8121
戒@@ 8119
摩托车 8118
熨斗 8118
領@@ 8118
合作者 8117
破坏性 8117
冬@@ 8116
生命周期 8114
精英 8114
news@@ 8113
cro@@ 8109
严格遵守 8104
托马斯 8102
出口@@ 8100
非统组织 8099
star@@ 8098
toronto 8097
彼@@ 8097
im 8096
拥挤 8096
旅游景点 8096
肖@@ 8096
帽子 8095
壮@@ 8093
vmware 8091
偷运 8088
运河 8088
奈 8086
浓@@ 8086
全套 8085
saint 8084
hal@@ 8082
机床 8082
忽然 8080
小规模 8079
遍布 8079
lat@@ 8078
不论是 8078
扫@@ 8076
翻新 8075
千万 8071
早些时候 8069
ies 8068
po 8067
1958 8065
榜 8065
陷 8064
gam@@ 8063
激素 8061
相等 8060
申请书 8058
4.2 8057
od@@ 8057
囊 8057
第五十四届 8055
声誉 8053
沏茶 8053
灰色 8053
事务司 8051
通胀 8051
高清 8050
45@@ 8048
dro@@ 8048
衣橱 8048
铅 8047
磨 8045
淡水 8041
开发者 8040
首尔 8040
書@@ 8039
最有 8039
福特 8035
塑@@ 8034
疑@@ 8033
进出 8029
两周 8027
南美洲 8027
温泉 8027
之处 8026
喜 8026
拘禁 8026
seo 8023
全都 8023
宝石 8020
徐@@ 8018
拖欠 8018
梁 8018
杀人 8017
總統 8017
难忘 8017
海峡 8016
从不 8014
最少 8014
街上 8014
堂@@ 8013
随意 8009
吸取 8008
减灾 8007
延 8007
忧虑 8006
肾@@ 8006
连贯 8006
ena 8002
− 8002
似 8002
交存 8001
宏@@ 8001
轻易 8001
category 8000
日程 7999
歐@@ 7999
280 7998
192 7994
裝@@ 7994
深深 7992
那边 7992
態 7991
gal@@ 7990
使用寿命 7990
000@@ 7988
98@@ 7988
食品@@ 7988
被判 7987
av 7986
hr@@ 7985
气旋 7985
ais 7984
hen@@ 7983
ws 7981
传染性 7981
噪声 7981
直布罗陀 7981
1946 7980
遇 7980
beijing 7979
第四章 7978
营养@@ 7977
一分钟 7976
厂商 7976
1965 7973
听力 7973
援 7973
雄 7973
袭 7972
nan@@ 7969
hot 7968
公共汽车 7968
公然 7965
拘押 7962
sl@@ 7961
充分@@ 7961
房舍 7961
积 7959
宗教信仰 7958
隔离墙 7958
sion 7956
斡旋 7956
丢 7955
吸 7954
大堂 7953
寒@@ 7952
生产性 7952
侧重 7950
市场经济 7950
有效率 7949
格林纳达 7949
集装箱 7949
78@@ 7948
上方 7948
现代@@ 7948
99@@ 7947
伯格 7947
热量 7947
领事 7947
产假 7945
0.6 7944
一遍 7941
交互 7941
巧 7941
承办 7941
喀@@ 7938
窗@@ 7937
赖@@ 7937
hostelworld 7936
阵地 7936
生殖器 7935
泡@@ 7934
遍及 7934
搞@@ 7933
新年 7933
逆@@ 7933
水泥 7932
18.@@ 7931
〉 7931
梁@@ 7930
磅 7930
技术性 7929
多边贸易 7928
抚养 7927
gra@@ 7926
加利福尼亚州 7926
葛@@ 7926
遍 7926
found 7925
世界杯 7925
号法 7925
旋 7922
篮球 7920
辛 7920
占用 7919
廣@@ 7919
永久性 7919
涂料 7919
树立 7917
ep 7912
159 7911
保持一致 7911
欠 7911
差旅 7910
偏好 7906
擦 7905
搜查 7904
顿@@ 7904
裂@@ 7899
恋 7897
艰苦 7896
简易 7894
齿 7893
cs@@ 7891
多家 7891
误解 7891
转身 7891
文件系统 7887
导入 7886
王朝 7886
典@@ 7883
划拨 7883
天下 7883
多方面 7881
不限 7879
赤@@ 7879
放入 7876
维基 7876
快捷 7875
魔法 7875
185 7874
・ 7874
刊 7872
酮 7871
sex 7866
相处 7865
教材 7864
精选 7864
词典 7864
wh@@ 7863
缺 7863
判刑 7862
怒 7862
急性 7862
非洲人 7862
修道院 7861
vin@@ 7860
沮丧 7859
洞@@ 7859
红十字会 7858
your 7856
兑现 7856
cel@@ 7855
慢@@ 7854
教育权 7854
外交政策 7853
宪法法院 7853
氧@@ 7850
lan 7849
盟 7848
唤醒 7847
汇集 7847
委員會 7846
努力实现 7844
枝 7844
尔特 7843
欢乐 7842
军方 7840
碰到 7840
ky@@ 7837
高等法院 7836
联大 7832
交通运输 7831
描绘 7830
薄弱 7828
island 7827
烧 7825
程式 7825
联委会 7825
光明 7823
帝@@ 7823
旗@@ 7822
有何 7821
微生物 7820
牲畜 7819
纹 7818
适销 7817
chat 7814
出入 7814
lm@@ 7813
很棒 7813
航空@@ 7812
高度重视 7811
ling 7810
经社 7808
幾@@ 7805
查尔斯 7804
环球 7804
白人 7804
艺 7804
4.5 7802
喜悦 7800
熱@@ 7800
企业@@ 7799
暴行 7798
hotels 7797
nas@@ 7797
不上 7797
账 7797
bi 7795
波恩 7795
覆 7795
名词 7794
限定 7792
娶 7791
禁用 7791
魔鬼 7791
乡@@ 7789
参议员 7787
尤为 7786
多伦多 7783
骗 7783
灵感 7782
鞋@@ 7781
圣文森特 7779
圣诞 7779
多方 7779
必須 7776
跑@@ 7776
十个 7773
第八@@ 7773
sk 7772
散步 7772
buy 7771
擊@@ 7771
过多 7771
间隔 7771
划 7769
休 7766
勇@@ 7764
赛车 7763
猜 7762
地处 7761
作证 7760
凌@@ 7759
资源@@ 7758
效能 7755
责令 7755
玉米 7753
祖国 7753
原谅 7750
劲 7748
起点 7748
pm 7747
super@@ 7747
碰撞 7746
排序 7745
skype 7744
behance 7741
协商会议 7741
联苏 7741
48@@ 7740
免于 7739
器件 7739
烹饪 7737
问卷 7737
葡萄 7736
弱@@ 7733
結束 7733
公司@@ 7732
绝望 7731
广阔 7729
set 7728
爬@@ 7728
伪造 7726
午@@ 7726
幻@@ 7726
令人遗憾 7725
文物 7725
不见 7722
三月 7721
1962 7719
museum 7719
第九 7717
第五@@ 7717
争@@ 7716
白天 7716
indi@@ 7715
此案 7715
大程度 7714
符 7714
〈 7712
一并 7712
税率 7712
创始人 7711
得救 7711
墙壁 7710
ill@@ 7709
亚伯拉罕 7709
单身 7708
行走 7706
闭幕 7706
中央政府 7704
分析师 7704
滴@@ 7704
使者 7703
晋升 7700
管理工作 7700
社会保险 7699
技@@ 7698
扣除 7697
乃至 7696
任何理由 7696
大自然 7696
下方 7695
主管机构 7695
增值 7695
短信 7695
美妙 7695
play 7694
乐园 7692
垄断 7692
流域 7691
瓷砖 7691
第八条 7691
烤面包机 7689
ñ 7687
波士顿 7687
签@@ 7684
艦 7684
瀑布 7680
自主权 7680
火器 7678
腺 7678
spe@@ 7677
预约 7677
下榻 7676
停止使用 7676
泄漏 7675
马拉 7675
绿 7674
五十 7669
get 7667
逃避 7665
升高 7662
海报 7662
youtube 7661
融@@ 7661
床位 7660
成型 7659
零售商 7658
have 7657
在外 7657
泰勒 7657
两家 7656
套件 7655
os@@ 7654
校准 7654
烏@@ 7654
惨@@ 7652
氏@@ 7651
负荷 7651
附注 7651
灵性 7650
神经@@ 7646
贵族 7645
最終 7644
长远 7641
反抗 7639
墙@@ 7639
同期 7638
繁忙 7638
屆 7637
小于 7636
大屠杀 7635
研究院 7635
简便 7634
区间 7633
optoway 7632
183 7629
click 7629
jan@@ 7629
爆@@ 7629
研究@@ 7627
述及 7627
相互@@ 7625
魔 7625
额@@ 7624
县级 7623
印度洋 7621
灌@@ 7621
251 7617
二人 7617
帮忙 7617
服役 7616
着眼于 7616
sta@@ 7615
继@@ 7615
特里 7614
第十三届 7614
小屋 7613
编入 7613
音乐@@ 7613
废 7611
直达 7611
民政 7610
界@@ 7610
組@@ 7609
無法 7608
气象@@ 7607
委任 7606
铺@@ 7606
以致 7605
新生儿 7605
花卉 7604
運動會 7604
地产 7603
安全措施 7603
魚 7603
77@@ 7602
shi@@ 7601
敏 7600
稍@@ 7600
布尔 7598
任一 7597
ins 7596
淡 7596
东北 7595
产权 7595
冒 7594
崇@@ 7594
星球 7593
眼镜 7593
第六十六 7592
暂定 7591
斑@@ 7590
ov 7587
維 7587
来讲 7586
辞 7585
桃@@ 7582
贯穿 7582
处理@@ 7581
展览会 7579
light 7577
丙@@ 7577
培@@ 7577
出资 7576
宜@@ 7575
37@@ 7574
一致意见 7574
敏@@ 7574
累计 7574
吕@@ 7573
性感 7573
side 7572
多媒体 7572
地为 7568
生产@@ 7567
指望 7566
播放机 7566
健身房 7565
大师 7565
導 7564
ae@@ 7561
肩@@ 7558
奶 7556
妮@@ 7556
嫌疑人 7555
操 7555
死去 7555
偶然 7554
届满 7550
某种程度 7548
low 7547
文莱达鲁萨兰国 7547
汲取 7547
道歉 7547
误差 7546
饭@@ 7546
固体 7545
中为 7541
浪@@ 7541
登记@@ 7538
結果 7535
欧洲@@ 7534
打死 7533
拖 7533
颗 7530
网球 7529
格林纳丁斯 7528
氯 7528
多功能 7527
车间 7527
1.0 7526
不太 7526
机密 7525
世界粮食计划署 7524
买家 7524
226 7523
宿 7523
global 7522
var@@ 7522
生理 7522
掌 7520
宇 7519
獲@@ 7519
讯息 7517
17.@@ 7516
available 7516
原型 7514
尼克 7514
氧化@@ 7514
硅 7513
稀@@ 7512
ung@@ 7511
链@@ 7511
前途 7510
皇后 7509
游行 7507
最後@@ 7506
赴 7506
173 7505
gc.@@ 7505
一枚 7504
始于 7504
子孙 7504
阴影 7504
cia 7502
济@@ 7499
大城市 7498
盃 7496
洛斯 7495
痕 7495
天文 7493
姐妹 7493
擦@@ 7492
欧元区 7492
不法行为 7491
派驻 7491
诽谤 7491
葡萄牙语 7487
强行 7485
cp.@@ 7484
ell 7484
一艘 7484
尽量减少 7483
据@@ 7483
特别法庭 7483
竞@@ 7483
拥@@ 7482
203 7481
ni 7481
肤色 7481
昏@@ 7479
企@@ 7475
执政 7475
辰 7472
日本@@ 7470
采 7469
wan@@ 7467
历史@@ 7466
逐@@ 7466
结核病 7465
挤@@ 7459
票@@ 7459
ona 7458
第七章 7458
八届 7455
被害人 7455
奥尔@@ 7454
总计 7454
167 7453
宋@@ 7453
妇@@ 7452
娅 7452
爱丁堡 7452
distr 7451
割@@ 7450
居然 7448
汇总 7448
获准 7447
送达 7447
通行 7445
科学院 7444
ble 7443
部长会议 7443
website 7442
chin@@ 7441
崇拜 7441
ado 7439
飛@@ 7437
con 7436
锦标赛 7435
毫不@@ 7434
翻 7434
学年 7433
两倍 7432
熟@@ 7432
监督管理 7430
阿拉伯人 7430
验@@ 7430
念@@ 7429
產 7429
答辩 7429
职业@@ 7429
211 7428
189 7427
164 7425
习@@ 7425
悲@@ 7425
皮革 7425
電視 7425
侵入 7421
联合国贸易和发展会议 7421
xvideos 7420
增效 7420
限制性 7418
偶@@ 7417
mir@@ 7416
尼亞 7415
ane 7414
许 7412
火焰 7411
相關 7411
节奏 7411
棉@@ 7410
202 7409
rad@@ 7409
调查表 7409
book 7408
审视 7408
对照 7408
大桥 7404
第十二条 7404
尽情 7401
昨晚 7401
独一无二 7401
队员 7401
腾@@ 7400
管理者 7399
随之 7399
主角 7397
售@@ 7397
轻微 7397
一页 7396
宫殿 7396
兆 7395
唇 7395
肝 7394
喂 7393
得益于 7392
显而易见 7392
mini 7391
执行机构 7390
天线 7389
205 7388
wiki@@ 7388
习 7388
玉 7387
读取 7386
ari 7385
十一 7384
犯罪活动 7384
舰队 7383
几位 7382
vil@@ 7381
墙上 7381
董事长 7379
西班牙文 7379
几 7378
贸易协定 7378
mes 7377
破碎 7377
隨@@ 7377
公顷 7376
纪念碑 7375
药物滥用 7375
intel 7374
斑 7374
等候 7374
第二十三届 7373
经文 7373
128@@ 7372
竹@@ 7372
陶@@ 7372
優@@ 7371
软件@@ 7371
複 7368
高尔夫球场 7368
合规 7366
199 7365
认 7365
ez 7364
无权 7364
便利化 7362
布雷 7361
搬@@ 7361
海运 7361
塞舌尔 7360
務@@ 7359
桥@@ 7359
赞@@ 7358
206 7355
神奇 7354
土地利用 7352
镀@@ 7351
逾 7350
― 7349
五十@@ 7349
波特 7348
池@@ 7346
门票价格 7346
組成 7345
段时间 7344
诉@@ 7342
配方 7340
mann 7337
吓 7336
电器 7336
if@@ 7335
一股 7335
全民 7335
呼 7335
务实 7334
第三十@@ 7334
wp.@@ 7333
腰@@ 7333
顯示 7333
选票 7332
超市 7330
开发人员 7328
sap 7327
规@@ 7327
数据处理 7326
伊丽莎白 7325
5.1 7324
欣 7323
立法机构 7322
密切相关 7321
ru 7320
ac.@@ 7319
mus@@ 7319
在职 7317
槍 7315
〕 7313
工作日 7313
退房 7313
忠诚 7310
余 7309
基石 7308
展出 7308
遵约 7308
光盘 7307
提高效率 7307
性别歧视 7306
default 7305
承运人 7304
战略规划 7303
夸@@ 7302
十三 7301
罕见 7301
军备竞赛 7300
资本主义 7300
摩擦 7299
综述 7299
dre@@ 7298
备件 7294
科研 7292
会面 7291
domain 7290
傳 7290
疲劳 7290
舔 7290
213 7289
卓@@ 7288
斯科@@ 7288
第六@@ 7288
ich 7287
奥林匹克 7287
瓦努阿图 7287
garden 7285
kam@@ 7285
炸@@ 7285
熨烫 7284
真主 7283
硅@@ 7282
ć 7281
分支机构 7281
拟@@ 7281
九个 7280
精美 7280
会计师 7279
出任 7279
碰@@ 7278
发展部 7276
改正 7275
５ 7272
93@@ 7271
出差 7271
竞争对手 7270
奶@@ 7269
诚意 7269
装配 7268
tc@@ 7267
扩@@ 7267
bul@@ 7266
畅@@ 7263
格林 7262
未曾 7261
再生 7259
意识形态 7257
课堂 7257
陆军 7257
开口 7256
科尔 7256
穷@@ 7256
敬 7254
0.8 7253
point 7253
品尝 7253
它們 7253
注册名 7247
導致 7244
未知 7243
ben 7242
溶@@ 7242
事儿 7241
ms@@ 7240
毕@@ 7239
扶贫 7238
coo@@ 7237
显 7237
獲 7237
ster 7236
kr@@ 7235
口袋 7234
london 7232
土著居民 7230
斯塔@@ 7228
踏@@ 7228
zip 7226
州长 7225
michael 7224
布置 7224
管理部 7224
生活@@ 7222
制药 7221
抬头 7220
航运 7220
阿拉@@ 7219
鬼@@ 7219
己 7217
〔 7216
古典 7215
242 7213
凱@@ 7213
接管 7212
门户 7212
he 7211
人称 7211
挺@@ 7210
邮寄 7210
私有化 7209
華 7209
里昂 7209
xi 7208
第一批 7208
阿布哈兹 7208
异议 7207
起身 7207
纽约市 7206
ate@@ 7205
联合行动 7205
拐@@ 7204
控告 7204
桌上 7204
暴力事件 7203
logo 7202
suite 7201
混合物 7200
艰巨 7200
荡 7200
布宜诺斯艾利斯 7199
四分之一 7198
抵 7198
参考@@ 7196
part 7195
基线 7194
ado@@ 7193
名誉 7191
愚蠢 7191
磨损 7190
阀门 7189
娃 7188
刑@@ 7186
想着 7186
里斯本 7186
绳 7182
六十@@ 7181
以使 7180
发生变化 7180
现况 7178
行動 7178
赤道几内亚 7178
2.6 7177
传来 7177
第二十届 7174
阵@@ 7174
高端 7174
多样 7173
结构调整 7173
20.@@ 7172
一新 7172
从此 7172
自卫 7172
機場 7171
終@@ 7171
载明 7171
ll 7169
搬迁 7169
雾 7168
相辅相成 7167
并入 7166
fon@@ 7165
发布会 7165
聯 7164
该次 7164
签 7163
ack@@ 7160
增添 7160
最低工资 7160
波斯 7160
產@@ 7160
始@@ 7159
霍 7158
何处 7157
地形 7157
寻常 7155
第二款 7155
蒙特 7155
过期 7154
昂@@ 7153
披@@ 7151
既有 7151
坚固 7150
内政 7149
闻名 7148
ski 7147
western 7147
优先权 7147
商用 7147
宫@@ 7146
生病 7146
eng 7145
七条 7145
原件 7145
放缓 7144
途中 7143
全方位 7142
备用 7142
渡 7141
宣读 7140
职业生涯 7140
論@@ 7140
不利于 7139
庭院 7138
解析 7138
适用法律 7138
姿势 7137
斯顿 7137
赚钱 7135
lor@@ 7134
勞@@ 7134
海景 7133
少于 7131
搜集 7129
刑事犯罪 7128
味@@ 7128
小镇 7128
烤@@ 7127
職@@ 7127
国旗 7126
白宫 7126
mur@@ 7125
所起 7123
弦 7121
预审 7121
弥@@ 7119
持有人 7119
横向 7118
ns@@ 7117
目睹 7115
勾@@ 7114
逾期 7113
york 7111
合办 7111
恩典 7111
捷 7111
每位 7111
柴油 7110
估值 7109
手表 7109
ther@@ 7108
仅为 7108
合伙人 7108
罪名 7108
離@@ 7108
词语 7107
第二节 7106
补 7106
好象 7105
pt 7104
亲密 7104
dt 7103
录制 7103
以色列政府 7100
干洗 7100
ding 7096
所得税 7096
標@@ 7096
祖 7096
为本 7095
必要条件 7095
地标 7093
残酷 7093
诱@@ 7093
奎@@ 7091
湖区 7090
联合国安全理事会 7090
dat@@ 7089
生成器 7089
统计资料 7089
关键因素 7088
培训中心 7087
开放式 7087
遇见 7087
达尔 7086
凤凰 7084
愿@@ 7084
轰炸 7084
倫 7083
奴隶制 7083
眼神 7083
努 7081
39@@ 7080
动性 7078
招 7078
危险废物 7077
系统性 7077
太阳@@ 7076
昆@@ 7076
柳@@ 7075
19.@@ 7074
sig@@ 7072
島@@ 7072
废料 7072
时段 7072
桌 7071
对称 7070
裁撤 7070
秒杀 7069
附表 7069
中华 7068
应收款 7068
singapore 7067
盗@@ 7067
耗@@ 7065
商场 7064
natural 7062
危@@ 7062
徒刑 7062
没事 7061
平等权利 7059
地狱 7058
人類 7055
极限 7055
赦免 7052
幕@@ 7051
近来 7051
探 7050
鐵路 7050
add.4 7049
ade@@ 7049
扩充 7049
吓@@ 7048
稍后 7048
时刻表 7047
揭露 7046
未决 7045
碎@@ 7045
助手 7044
扭@@ 7044
趣 7044
为例 7041
措词 7041
似@@ 7040
登上 7038
亚马逊 7037
凸@@ 7037
演唱 7036
警报 7034
市政府 7033
001 7032
威尔士 7032
德里 7032
狂 7032
研究者 7032
種@@ 7032
心理学 7031
二次 7029
ae 7028
英译汉 7028
188 7026
途 7025
一大@@ 7024
二零零@@ 7024
休假 7024
童 7024
狄@@ 7021
● 7020
呆@@ 7018
完工 7018
肇事者 7015
development 7014
二月 7013
手臂 7013
性行为 7012
盈余 7011
傑@@ 7009
感动 7009
66@@ 7008
令人鼓舞 7008
齿轮 7008
奴 7007
诗人 7007
漂@@ 7006
财政年度 7006
两大 7005
鸡蛋 7001
四名 7000
不合理 6999
产品质量 6999
技術 6999
霜 6999
开来 6998
筹备会议 6997
起飞 6996
嘴唇 6995
埃尔@@ 6994
娇@@ 6994
避孕 6994
结成 6993
女工 6992
涅 6992
行驶 6992
american 6990
伦理 6989
算是 6989
服用 6988
闹 6988
数百万 6987
自我@@ 6987
京 6984
宿@@ 6984
荡@@ 6984
映射 6982
凶@@ 6981
邮箱 6981
悲伤 6980
薄膜 6978
败 6978
冰毒 6977
有形 6977
ç 6976
狮子 6976
选中 6976
顾 6976
casa 6975
五名 6974
变换 6974
合伙 6974
情況 6973
精致 6973
a.@@ 6970
刀具 6970
伸出 6969
08@@ 6967
侵@@ 6967
dos 6966
铲除 6966
1955 6965
57@@ 6965
burg 6964
一杯 6964
cli@@ 6963
同志 6963
平均@@ 6963
服务商 6963
疼 6962
受益者 6961
涌 6961
咖啡馆 6960
天津 6959
战术 6959
表决权 6959
add.3 6958
46@@ 6956
声援 6955
星期日 6953
龍@@ 6953
天体 6951
炼@@ 6951
adi 6950
遥远 6949
hon@@ 6948
58@@ 6947
日元 6946
脉冲 6946
白素贞 6945
读书 6945
pd@@ 6943
定量 6942
麦克 6942
1500 6941
状@@ 6940
ipod 6939
store 6937
仿@@ 6937
space 6935
饮水 6935
这事 6934
极度 6933
陪伴 6932
tam@@ 6931
昌 6931
第五十@@ 6931
trans@@ 6929
頭@@ 6926
拨 6925
一带 6924
母语 6924
gmbh 6923
宽带 6923
tai@@ 6922
伞 6920
战略目标 6920
錄 6920
172 6918
225 6918
chi 6918
1954 6917
bra@@ 6917
做些 6915
民主化 6915
excel 6912
或非 6912
聘请 6912
stor@@ 6911
环境卫生 6911
sas 6909
搭@@ 6907
县@@ 6906
例@@ 6905
笔记本电脑 6905
享 6902
内向 6902
卫星频道 6901
手上 6901
研训 6901
嘉 6900
沿岸 6899
揭@@ 6898
咬 6897
孟@@ 6897
本市 6896
赋权 6896
元首 6895
抛弃 6895
竞争性 6892
飞越 6890
高峰 6890
不會 6889
实况 6889
油价 6889
hot@@ 6888
填充 6888
千克 6886
开源 6885
一封 6884
关节 6883
坡 6883
表中 6883
jer@@ 6880
177 6876
分项 6876
诗歌 6876
魏@@ 6876
227 6875
受到限制 6875
包围 6873
履约 6870
ial 6868
布鲁@@ 6868
飾 6868
洪 6866
城区 6865
wg 6864
是非 6864
损 6862
名人 6861
福德 6861
不许 6860
aa 6859
疗效 6859
美容 6859
上海@@ 6858
中世纪 6858
信用证 6858
重型 6858
九龙 6857
届时 6857
煤炭 6857
一章 6856
广告@@ 6856
上半年 6850
战略方针 6850
兵力 6848
载入 6848
姓 6846
0% 6845
与否 6843
性健康 6841
广泛应用 6840
三条 6839
既@@ 6839
发送到 6837
建筑师 6837
感谢您 6837
烦恼 6837
舌头 6837
召 6835
214 6834
二十 6834
tak@@ 6832
不然 6830
单纯 6829
博览会 6829
渗透 6829
mes@@ 6827
外出 6827
行列 6827
货币政策 6827
171 6824
应立即 6824
灣 6824
塑造 6822
207 6821
礼貌 6821
降至 6821
248 6820
概括 6819
君 6818
莱斯 6817
高等 6817
注视 6816
環@@ 6816
kelowna 6815
请问 6815
ds@@ 6814
闭 6814
召@@ 6813
拨@@ 6813
驶@@ 6813
浙江 6812
爽 6812
cit@@ 6809
戏@@ 6809
简历 6809
ture 6808
代表大会 6808
仲裁员 6808
庭@@ 6807
锁定 6807
缤客 6806
钓鱼 6805
每当 6803
流体 6803
back 6802
ix 6802
加紧 6802
和平@@ 6802
丰 6801
段@@ 6801
版权法 6800
統@@ 6800
苏黎世 6800
调度 6800
cop@@ 6799
jo 6799
一丝 6797
约瑟夫 6796
逗留 6796
发言稿 6795
跨部门 6795
項 6795
伴@@ 6794
ght 6793
一头 6793
劳动法 6793
常任理事 6792
67@@ 6790
出国 6790
集中@@ 6786
互利 6785
纺织品 6785
萨尔 6785
造林 6785
56@@ 6784
ye 6784
广东 6782
焊@@ 6782
货币基金 6782
检疫 6781
法郎 6780
视野 6779
护 6777
疡 6777
3.0 6776
组装 6776
阶级 6775
抚@@ 6773
弯曲 6771
聚合物 6771
電 6771
务必 6770
侍@@ 6769
推定 6769
勃@@ 6768
言语 6767
迁@@ 6766
独联体 6764
bil@@ 6763
夺@@ 6763
叛乱 6762
新生 6762
評@@ 6761
ion@@ 6760
十七届 6759
无形 6759
卵@@ 6757
同性 6756
株 6755
合理化 6753
水上 6753
箱@@ 6753
ans 6752
匿名 6752
拉尔 6752
不动产 6751
培育 6750
應@@ 6750
时常 6750
档 6750
急需 6749
被告人 6749
贵国 6749
1940 6747
不去 6746
參加 6746
亦可 6745
缔约 6745
juli@@ 6744
大会堂 6744
生物武器 6744
1956 6743
member 6743
科隆 6743
肥 6743
girl 6742
新喀里多尼亚 6742
深处 6740
改良 6739
法兰克福 6739
必将 6738
送餐 6735
prst 6734
月亮 6734
此刻 6734
湖泊 6733
agoda 6732
百万美元 6731
shar@@ 6730
公寓式 6730
4.3 6729
之友 6729
财力 6729
犯罪者 6727
驱动程序 6725
181 6724
列明 6724
角落 6724
行政长官 6723
战场 6722
胡志明市 6722
至迟 6722
壁@@ 6721
模仿 6721
银行@@ 6721
blue 6720
侮辱 6720
第六十 6720
不准 6719
陳 6719
电烧 6718
办公桌 6717
尤 6717
融 6717
选用 6716
范例 6715
两条 6714
公职人员 6714
围 6714
記 6714
创办 6713
抹 6713
总会 6712
搭 6712
画廊 6712
184 6710
xml 6709
保护环境 6709
沟 6708
tru@@ 6707
发表意见 6704
焦虑 6702
进口@@ 6702
ast 6701
所能 6699
来源于 6699
继续加强 6699
商城 6698
大陆架 6698
辈 6698
浩@@ 6697
触发 6697
国际化 6696
第二期 6696
十二月 6694
320 6691
奏 6691
资讯科技 6691
204 6688
一般来说 6688
創@@ 6688
完毕 6687
祖先 6687
而来 6687
db 6686
ris@@ 6686
显示屏 6686
ax@@ 6682
bit@@ 6682
塞尔 6681
卫生纸 6678
郊区 6678
中介 6677
174 6675
镜子 6675
eu@@ 6674
瞧 6674
日本政府 6673
街区 6673
貌 6673
掩盖 6672
疏@@ 6672
guest 6671
è 6671
菜肴 6671
函@@ 6663
好莱坞 6663
議 6663
仓 6661
來@@ 6661
mg 6660
第五章 6660
ston 6659
电视节目 6659
办公@@ 6658
压迫 6658
荣 6658
静态 6657
鼻子 6656
或车 6655
氮 6655
豪 6652
阶 6651
sea 6648
紅@@ 6648
pi 6647
dy@@ 6646
sv@@ 6646
和平部队 6645
学习@@ 6643
岛@@ 6642
術 6642
洁 6640
催@@ 6639
霸@@ 6638
胎 6637
西南 6635
fun@@ 6634
its 6634
分校 6633
飞往 6631
right 6629
麻织品 6629
陸 6627
人道 6624
全景 6624
動物 6624
流感 6624
概@@ 6623
余留 6621
平时 6621
桑拿 6620
650 6619
相當 6619
以至于 6618
学到 6618
費 6617
一共 6616
英国人 6615
may@@ 6614
司法程序 6614
院子 6614
寒 6612
榜样 6612
纺织 6612
典范 6610
净化 6610
總 6609
纷纷 6608
ken@@ 6607
勢 6607
国家计划 6607
徑 6607
sav@@ 6606
习惯法 6605
wel@@ 6604
二苯醚 6604
出境 6604
卡特 6604
依旧 6603
可视化 6601
繼續 6601
船长 6601
232 6600
加盟 6600
ui 6599
婆 6599
放下 6598
领导@@ 6598
便携式 6597
厂@@ 6597
思路 6595
换句话说 6594
主管机关 6593
pc@@ 6591
免责 6591
还原 6590
之遥 6589
遗址 6589
lt@@ 6588
mc 6588
技术咨询 6588
一副 6587
克莱@@ 6584
桩 6584
席@@ 6583
忘@@ 6583
有机@@ 6582
集群 6582
img 6579
调试 6579
商业性 6577
已婚 6577
脑袋 6575
贫民窟 6575
否决 6574
硕士 6574
聲 6574
须@@ 6574
邻@@ 6573
sto@@ 6572
圆形 6571
狗@@ 6571
176 6570
把手 6570
多万 6568
美女 6568
風 6567
稳 6566
六种 6563
微妙 6563
南斯拉夫联盟共和国 6562
178 6561
咖啡厅 6560
分工 6559
戒 6558
低成本 6557
撤消 6557
概率 6557
文盲 6556
天文台 6553
承包者 6553
ded 6552
james 6552
哀@@ 6552
鸡@@ 6551
北美洲 6550
厄 6550
大纲 6550
适用性 6550
钢铁 6548
尺度 6546
布拉 6545
議@@ 6545
捐@@ 6544
泥 6544
第二项 6544
school 6543
尼亚@@ 6543
放大 6543
消费@@ 6542
衛@@ 6542
tl@@ 6541
加勒比海 6541
束@@ 6541
三人 6540
检查站 6539
特派 6539
释@@ 6539
ga@@ 6538
头部 6537
某项 6537
湿度 6537
遺@@ 6537
十五 6536
神话 6536
navigation 6535
掩@@ 6535
尺 6534
春季 6534
職 6534
开头 6531
期限内 6531
bus@@ 6530
后悔 6530
厉害 6529
拖鞋 6529
反过来 6528
新闻界 6528
浓缩 6527
村民 6526
二十年 6525
209 6524
ul 6524
消耗性 6524
竞争法 6523
hk 6522
南京 6522
1930 6519
218 6519
fal@@ 6519
锅 6519
九年 6518
在世界上 6518
美联储 6518
溫@@ 6517
热爱 6517
叔叔 6516
楚@@ 6516
空气污染 6515
1957 6514
麗@@ 6514
語言 6512
186 6511
1959 6511
摘@@ 6511
反叛 6510
操作@@ 6510
information 6509
精心 6509
198 6508
据估计 6508
牢@@ 6507
伪@@ 6506
191 6505
坐标 6505
paris 6504
把@@ 6504
kel@@ 6503
len 6503
催化剂 6503
佐 6502
迦@@ 6502
压缩机 6501
定居者 6501
遊@@ 6501
流失 6500
笑容 6499
厨房用具 6498
注释 6498
消防@@ 6498
草拟 6498
请愿 6498
北极 6495
山谷 6494
尘 6493
稱@@ 6493
为准 6492
大地 6492
奉献 6492
cin@@ 6491
lit@@ 6490
播放器 6489
nba 6488
嫩 6488
混淆 6488
致电 6488
会计@@ 6487
儿女 6486
弟子 6486
監@@ 6486
叉车 6485
ipad 6484
候 6484
凡是 6484
长久 6484
高昂 6484
出庭 6483
非盟 6483
end 6482
敦 6482
第一份 6481
1.9 6480
以求 6480
暖@@ 6480
厂家 6479
珍贵 6479
孤独 6478
深远 6478
周日 6477
灭绝 6477
187 6476
vr 6476
奉行 6476
连锁 6476
fe 6475
zi 6475
万豪 6475
适用范围 6475
径@@ 6474
误导 6474
篇文章 6472
违@@ 6472
門@@ 6472
una 6471
殖民主义 6470
core 6469
典雅 6469
山上 6469
用地 6469
侵蚀 6468
虎@@ 6467
缺口 6466
格局 6465
茂@@ 6465
碱 6463
kg 6459
美属 6459
下届 6454
郑@@ 6453
高科技 6453
器材 6452
導@@ 6452
青岛 6452
corp 6451
矿业 6451
wr@@ 6450
等国 6450
冷静 6449
发现自己 6448
本项 6447
经纪人 6446
5.2 6445
限期 6445
1947 6443
楚 6442
申请者 6442
肝脏 6442
2.7 6441
兑 6441
ton@@ 6440
fri@@ 6438
小小的 6437
建築 6437
法制 6437
視@@ 6437
俗 6436
图瓦卢 6435
首位 6435
温哥华 6434
终结 6434
丧@@ 6433
能夠 6433
載 6433
摩尔多瓦 6432
plaza 6430
商业银行 6427
奥斯陆 6426
理論 6425
market 6424
多种多样 6421
孕 6421
親@@ 6421
angel@@ 6420
干部 6420
潮流 6420
直辖市 6420
脖子 6420
纳税 6419
减弱 6418
动脉 6417
裤子 6417
第纳尔 6416
丸 6415
hill 6414
严重性 6414
减肥 6414
该处 6414
white 6413
圈@@ 6412
诱惑 6410
广播电台 6407
氢@@ 6407
ac.109 6406
micro@@ 6406
检查@@ 6406
忍@@ 6405
標準 6405
坚实 6404
掉@@ 6403
佔 6402
欺@@ 6401
yn@@ 6400
徵@@ 6400
怎 6400
西撒 6400
多余 6399
廊 6398
硫 6398
舆论 6398
利马 6396
革@@ 6394
导游 6393
总的来说 6393
楼层 6392
肉体 6392
灌溉 6391
ors 6390
天气预报 6390
沈@@ 6390
这名 6390
茲 6388
年纪 6385
总收入 6385
会话 6383
全力支持 6383
posted 6382
金伯利 6382
bridge 6378
约瑟 6378
crm 6377
人间 6375
到位 6375
字符串 6374
投注 6374
casino 6373
tra 6372
ora 6371
敌对 6370
禁烟 6370
缓@@ 6370
无缝 6367
估价 6366
体育运动 6366
前体 6366
开辟 6366
另一方 6365
anda 6364
波黑 6364
pr 6363
挣扎 6363
百年 6363
切实有效 6362
惩戒 6362
溶液 6362
电极 6362
序@@ 6360
抬起 6360
书记官 6358
海港 6358
碼 6358
访谈 6357
chu@@ 6355
显现 6355
分別 6354
控制权 6354
摄@@ 6354
破裂 6354
196 6352
下落 6352
汤加 6352
脏 6351
75% 6350
绕 6350
傳統 6349
報@@ 6349
盾 6349
帐@@ 6348
機構 6347
飞离 6346
af 6345
赞美 6345
首领 6345
devices 6344
昨日 6344
lee 6343
中型 6342
国立 6342
联阿 6342
ray 6341
无罪 6341
无比 6339
差旅费 6337
种族隔离 6337
线索 6337
苯@@ 6337
献 6335
致函 6335
心脏病 6333
索偿 6333
缝 6333
熟练 6332
黎@@ 6332
holiday 6331
差额 6331
时钟 6330
gc 6329
铺设 6329
233 6328
stone 6328
一幅 6328
從@@ 6326
串@@ 6325
普遍存在 6325
音樂@@ 6325
城里 6320
美洲国家组织 6320
悦 6319
援@@ 6318
数字@@ 6318
秋 6318
奔 6317
赖 6317
跨境 6317
全国@@ 6316
2.8 6314
gri@@ 6314
串 6314
材质 6314
比特 6314
win 6313
不肯 6313
忠@@ 6313
一时 6311
庫 6311
领地 6311
肩膀 6310
钙 6310
挑战性 6307
眼里 6307
困 6306
拉德 6305
自然人 6305
观赏 6305
国情 6304
氟@@ 6303
短语 6303
並在 6302
货车 6302
看不到 6301
死者 6299
组成员 6299
kat@@ 6298
交流信息 6298
新一代 6298
axd 6297
iso@@ 6297
事例 6297
基础教育 6296
臣 6296
上主 6295
乃 6295
奔@@ 6295
bet@@ 6294
power 6294
哲@@ 6294
还给 6294
ht@@ 6293
字体 6293
履行职责 6293
時候 6293
prin@@ 6291
各项措施 6291
绝佳 6291
狼@@ 6290
提供商 6289
外表 6288
首个 6288
奢华 6286
解放@@ 6286
222 6283
要说 6283
阻挠 6283
贿赂 6282
腕表 6280
金牌 6276
觀 6274
重计 6274
营运 6273
健 6272
骑@@ 6271
97@@ 6269
lodge 6268
our 6268
平原 6268
未成年 6268
returns 6267
畔 6266
复印 6265
崛起 6263
ame 6262
kan@@ 6262
以内 6262
搭乘 6262
析 6261
人心 6260
商品@@ 6259
ris 6258
洛克 6258
枯@@ 6257
核对 6257
社群 6257
聯賽 6257
改写 6256
溪 6253
经验丰富 6253
迟@@ 6253
敦@@ 6251
敌方 6250
有望 6249
完全符合 6248
自制 6248
條@@ 6247
瞬间 6247
报警 6246
迁 6246
cpu 6245
临近 6245
卫 6245
应计 6245
国际性 6244
干嘛 6244
調@@ 6244
首歌 6244
47@@ 6242
检讨 6242
禁产 6242
礼拜 6241
style 6240
几周 6240
215 6239
政变 6239
资深 6239
217 6237
减至 6236
随便 6235
交通工具 6234
第十七条 6233
资源分配 6233
趋@@ 6233
peter 6232
祭@@ 6232
 6232
photofunia 6229
一期 6229
辦 6229
land@@ 6228
公園 6228
偏离 6227
還 6227
热点 6226
制服 6225
消费量 6225
243 6224
赶紧 6224
accepted 6223
anti@@ 6222
ative 6222
c.@@ 6222
fel@@ 6222
hs 6221
大約 6219
爱德华 6219
深受 6218
獨@@ 6217
nat@@ 6215
健康权 6215
恆星 6215
墓 6214
網 6214
启发 6213
拉美 6213
ld@@ 6212
gu 6211
shop 6211
奥林匹克运动会 6209
地下水 6208
数年 6208
寒冷 6206
监督机构 6205
第一项 6205
ain 6204
晶 6204
獎@@ 6204
向下 6203
直观 6203
open 6201
安盟 6201
定稿 6201
长达 6200
unisonic 6198
利斯 6198
sun 6197
越境 6197
转入 6197
194 6195
stra@@ 6194
不止 6194
惠 6194
223 6193
上级 6193
同伴 6193
逼 6192
上校 6191
偶像 6191
特别强调 6191
tools 6189
一轮 6189
事后 6188
日向 6188
附加费 6185
函件 6184
热烈 6184
裝 6184
转运 6184
ence 6183
丝毫 6181
幼儿园 6181
留给 6179
繁殖 6179
保育 6178
195 6177
計@@ 6176
二年 6174
私有 6173
糟 6173
偶 6172
琼斯 6172
ey 6171
芽 6171
酷@@ 6171
排名第 6170
继续执行 6170
缩 6170
吐@@ 6169
不像 6168
信息网 6168
赞 6168
克隆 6165
鹿 6165
二战 6164
关系@@ 6163
紧凑 6163
随即 6163
asp@@ 6162
浦@@ 6162
伍@@ 6161
开发@@ 6160
眼光 6160
良 6160
1952 6158
辩@@ 6156
得分 6155
染 6155
zo@@ 6152
ot 6151
stri@@ 6151
咨询@@ 6151
掌控 6150
国家主权 6149
備 6148
1920 6147
弹簧 6147
局限于 6146
有關 6145
当初 6143
希尔顿 6142
审慎 6140
口粮 6139
车道 6139
外勤人员 6137
摆在 6137
红外 6137
缘故 6137
webresource 6136
写入 6136
大家庭 6136
agu@@ 6135
幸@@ 6135
盈@@ 6135
夏威夷 6133
爷 6132
倾听 6131
水族馆 6131
rs 6130
中是 6130
联机 6129
长老 6129
叹 6126
抵触 6125
罪孽 6125
赚 6125
应收 6124
散布 6124
震 6124
收缩 6123
缓和 6123
配置文件 6123
关怀 6122
教廷 6122
阴茎 6121
降临 6121
ie@@ 6120
巴斯 6120
碑 6120
解读 6120
难度 6119
organization 6118
优异 6118
合法权益 6118
忠实 6117
物理学 6117
纸张 6116
钻 6115
fairchild 6113
希族 6112
续费 6112
马绍尔群岛 6112
一千@@ 6111
悬挂 6111
湿地 6111
防卫 6110
services 6107
遵行 6107
royal 6105
动力学 6105
copyright 6104
viii 6104
澳@@ 6104
琴@@ 6104
out@@ 6103
崇高 6103
最高@@ 6103
執@@ 6101
基伍 6101
比重 6101
原油 6100
振 6099
划定 6098
拷贝 6098
耐用 6098
香港特别行政区 6098
乃@@ 6094
爲 6094
當地 6094
paul 6093
一倍 6093
化妆品 6093
漆 6093
迪士尼 6093
注册商标 6092
尊 6091
数据保护 6091
发性 6090
国际金融 6090
契@@ 6090
男士 6090
受援国 6089
宪@@ 6089
臭氧层 6089
ok@@ 6088
余地 6088
帕劳 6088
武装力量 6088
结果显示 6088
dri@@ 6087
本网页 6086
被动 6085
證 6085
3.4 6084
低下 6084
漫画 6084
此基础 6083
原告 6082
228 6080
一整天 6079
封信 6079
紧急状态 6079
发送给 6078
179 6077
first 6077
上海市 6077
卧@@ 6077
子弹 6077
日报 6077
举动 6076
纪@@ 6076
非凡 6076
tp 6073
格尔 6073
订房 6073
193 6072
减小 6071
饲料 6070
担@@ 6069
理事国 6069
芯 6069
销售额 6068
污 6067
cloud 6066
严重威胁 6066
甜 6066
垫@@ 6063
贝鲁特 6063
500@@ 6062
全力 6061
压制 6061
dal@@ 6060
联络小组 6060
十一月 6059
一侧 6057
直线 6057
识 6056
ail 6055
kon@@ 6055
刊物 6055
砂 6055
礼宾 6055
264 6054
avi 6054
惊奇 6053
学费 6052
務 6051
photoshop 6048
医务 6048
商务中心 6048
航天 6048
不顾 6046
假日酒店 6046
家乡 6046
贷@@ 6046
bb@@ 6045
封装 6045
畫@@ 6042
账号 6042
tas@@ 6041
人能 6041
更名 6041
计算@@ 6041
一口 6040
债@@ 6040
加勒比地区 6040
十九 6040
第一天 6040
节余 6038
一看 6037
庄严 6036
sale 6035
宣 6035
教程 6035
衫 6035
追 6035
每届 6034
电热水壶 6034
贾 6033
缺席 6032
走过 6032
high 6031
布林迪西 6029
含水层 6028
监护 6028
日刊 6027
海洋生物 6027
议案 6027
评定 6027
237 6026
军用 6025
ero@@ 6024
phoenix 6024
pic@@ 6024
生育率 6023
高地 6023
极其重要 6022
独立@@ 6020
磁 6020
溜@@ 6019
两类 6018
dd@@ 6016
学历 6016
结构@@ 6015
睡着 6014
管理制度 6014
注@@ 6013
多于 6012
xv 6011
服务台 6011
那次 6011
c.6 6010
液晶电视 6010
破碎机 6008
翻修 6008
摩加迪沙 6007
一行 6006
克林顿 6006
硝@@ 6006
审计报告 6005
缩减 6005
膨胀 6005
有序 6004
创收 6003
環境 6003
画家 6003
ls@@ 6002
获胜 6002
参与性 6001
苏维埃 6001
通风 6001
棚 6000
221 5999
柔软 5999
運 5999
聚焦 5998
有限责任 5997
现今 5997
组织@@ 5997
羽@@ 5997
惊喜 5996
有过 5996
间谍 5996
闹钟 5995
预报 5995
相关者 5994
hall 5993
控制措施 5993
共产主义 5992
第二十六条 5991
肠@@ 5990
辉煌 5990
部隊 5987
好评 5986
稍 5985
簿 5984
薩 5984
dol@@ 5983
老挝 5981
一员 5980
外长 5980
合作项目 5979
新娘 5979
tec 5978
技 5978
新德里 5978
可惜 5977
奋斗 5974
日语 5974
克里 5972
团聚 5972
法律效力 5972
注定 5969
鸡尾酒 5967
十分@@ 5966
驾@@ 5966
伸手 5965
条中 5965
涨 5965
考古 5965
see 5964
鸟类 5964
借贷 5963
卡片 5962
azure 5961
侦察机 5961
动词 5961
郭@@ 5961
重债 5961
中旬 5960
船员 5960
赵@@ 5959
work 5958
始 5958
发表声明 5957
废水 5957
潮@@ 5957
粉末 5956
该案 5956
书写 5955
软件包 5955
鎮 5954
先例 5953
景致 5953
isa 5952
战略@@ 5952
抄@@ 5952
锐@@ 5952
百分点 5951
290 5950
好事 5949
民事@@ 5949
医师 5947
盒子 5947
风味 5947
转达 5946
mun@@ 5944
師@@ 5943
庄@@ 5943
贬值 5943
鄉 5942
jobs 5941
肌 5941
gan@@ 5939
庆@@ 5939
织@@ 5939
里克 5939
law 5938
249 5937
不佳 5937
11.@@ 5936
三位 5936
小麦 5936
拜访 5936
其所 5935
句@@ 5935
藝術 5935
电网 5934
阿拉伯文 5934
中毒 5932
vo 5931
亦@@ 5931
床单 5930
216 5928
肌@@ 5928
上将 5927
wan 5926
使该 5926
千米 5926
应许 5926
开玩笑 5925
中向 5924
財@@ 5924
big 5923
新政府 5923
隔音 5923
分阶段 5922
鸽 5922
吉隆坡 5921
大宗 5921
输入您 5921
abo@@ 5920
卡尔@@ 5920
鐵 5920
管理体系 5918
裤 5918
广义 5917
悲惨 5917
bedroom 5915
逃跑 5915
取缔 5914
审判@@ 5914
hp 5913
公元前 5913
秋季 5913
路易斯 5913
238 5912
定型 5912
定向 5911
幽@@ 5911
狭窄 5911
退休金 5911
fil@@ 5910
tin@@ 5910
亨@@ 5910
巴里 5908
鸟@@ 5908
听众 5907
材@@ 5907
该市 5906
lad@@ 5905
华丽 5905
视听 5904
退回 5904
内核 5903
回避 5903
水分 5902
克里斯 5901
合计 5901
杰克逊 5901
刮@@ 5900
乐器 5898
新疆 5898
四方 5897
公元 5896
圣母 5896
过渡政府 5896
kor@@ 5895
標 5895
飞行员 5895
木地板 5893
踢 5893
颇 5893
residence 5892
uk@@ 5892
美术馆 5892
三十 5891
大学@@ 5890
此举 5888
率领 5888
cher 5887
可取 5887
帐篷 5887
杂 5886
胸部 5886
68@@ 5885
anal 5885
ella 5884
公营 5883
熊@@ 5882
圣保罗 5880
550 5879
不该 5879
分离@@ 5879
滩 5879
亭 5878
字典 5877
相称 5877
肺 5877
磷@@ 5876
脂@@ 5876
金色 5876
大力支持 5875
方可 5875
dm@@ 5874
简体中文 5874
设计@@ 5873
斷 5872
轻轻地 5872
贝尔格莱德 5871
電子 5871
仍旧 5870
切实可行 5868
贸@@ 5868
aud 5867
tit@@ 5867
巴厘岛 5867
望远镜 5867
气味 5867
第七次 5867
实际@@ 5866
忙碌 5866
民法 5866
父親 5866
决 5863
本月 5863
温馨 5863
han 5862
wit@@ 5862
仪表 5862
变暖 5862
外籍 5862
stu@@ 5861
弯 5861
ide 5860
窗帘 5860
随函 5860
sub.2 5856
清醒 5856
身后 5856
und@@ 5854
专业@@ 5853
偏 5853
资发 5853
64@@ 5852
寿@@ 5852
赚取 5852
269 5851
导出 5851
缺失 5851
中心地带 5850
握 5850
更长 5850
来临 5849
薪水 5849
理查德 5848
阴谋 5848
題 5848
330 5847
凉 5847
眼泪 5847
酷 5847
pendant 5845
小计 5845
性交 5845
5.5 5844
普京 5843
协 5842
第三节 5841
获释 5841
倾斜 5839
最终用户 5839
贷 5839
东欧国家 5837
习近平 5836
坊 5836
肥胖 5836
列报 5835
vista 5833
４ 5832
摆 5831
最大化 5831
桂@@ 5831
谎言 5831
转售 5831
玛丽亚 5830
各个领域 5829
蛋@@ 5829
快要 5828
树林 5827
热带风暴 5827
0.9 5826
hong 5826
撞@@ 5826
現在 5826
悟 5825
我愿 5825
聊 5822
存活 5821
不出 5820
执照 5820
煮 5820
义务教育 5819
满意度 5819
get@@ 5818
一门 5818
厌恶 5818
tele@@ 5816
比较@@ 5814
add 5811
乏 5811
开枪 5811
stan@@ 5809
亮@@ 5809
年会 5808
柱@@ 5808
联合@@ 5808
沙发床 5806
59@@ 5805
从业人员 5803
碰 5803
tx 5802
利物浦 5801
孙 5800
坟墓 5799
期权 5799
精神病 5799
不符 5797
樂團 5797
现存 5797
尘@@ 5795
此人 5795
缴@@ 5795
重庆 5795
5.3 5794
ming 5793
tc1313 5793
疏忽 5793
责 5793
出自 5791
此一 5791
稍微 5791
与非 5789
南极 5789
并行 5789
241 5787
迈 5786
君主 5785
用户@@ 5785
表示满意 5785
就业@@ 5784
柄 5783
家务 5782
帧 5781
棉花 5781
豪华酒店 5781
photos 5780
珊瑚礁 5780
亚太地区 5779
嵌入 5777
其管辖 5776
遵从 5776
iv@@ 5775
模块化 5775
男生 5775
第二十四届 5774
冰川 5773
49@@ 5772
冬 5772
仔细阅读 5771
寄 5771
palace 5769
摊@@ 5769
选取 5769
侯 5768
ction 5767
台北 5767
听从 5767
意向 5767
迫@@ 5766
精神药物 5765
开发商 5764
檢@@ 5764
遠 5764
中间@@ 5763
公共交通 5763
阻 5763
嵌入式 5762
从来不 5761
着重于 5761
转为 5760
递@@ 5760
浦 5759
pv.@@ 5758
专业化 5758
演化 5758
移动电话 5757
gps 5756
一口气 5756
盟友 5756
一樣 5754
导师 5754
我爱你 5754
拥抱 5754
充分发挥 5753
好友 5753
ric@@ 5752
下半年 5752
纳粹 5752
不可思议 5751
光电 5749
退役 5749
冯@@ 5748
㈤ 5747
决策@@ 5747
匠 5747
水面 5747
装有 5746
高水平 5746
闷 5745
river 5744
专利权 5744
好多 5744
宪政 5744
hanzi 5743
參 5743
劫@@ 5742
贼 5742
if 5741
泄露 5741
高频 5741
let@@ 5740
不易 5740
混 5740
车子 5740
258 5739
ser 5739
发明@@ 5739
审前 5739
纳税人 5739
访问者 5739
减排 5737
吸入 5737
防空 5737
256 5736
生產 5735
苗@@ 5735
chan@@ 5734
引人注目 5734
rio 5733
储备金 5733
基本法 5733
砖 5733
是否是 5732
烦@@ 5732
投降 5731
vision 5730
定理 5730
尔顿 5730
sis 5729
west@@ 5729
公开@@ 5729
特大号 5729
python 5728
临到 5727
例外情况 5727
推移 5727
六条 5726
唐 5725
苏州 5725
冻 5724
透過 5724
掌@@ 5722
疾@@ 5722
绕@@ 5722
构成威胁 5721
对话框 5720
抵御 5720
ish 5719
restaurant 5719
戶 5718
税款 5718
bb 5717
咨询机构 5717
服务员 5716
特此 5716
雕刻 5716
上市公司 5715
渲染 5715
迁徙 5715
遭@@ 5714
派别 5713
胡 5713
销量 5713
中共 5712
电讯 5712
您好 5711
秋天 5709
肛门 5709
螺旋 5709
辞@@ 5709
利害关系 5708
兴起 5707
国民经济 5707
lt 5706
城市@@ 5706
就职 5706
球迷 5706
回事 5705
魂 5705
sab@@ 5704
土豆 5704
童年 5704
优 5703
永生 5703
決 5703
肚子 5703
鼓 5703
昆虫 5702
派对 5702
银行业 5702
1200 5701
决不 5701
坎 5701
拳@@ 5701
向导 5698
议会选举 5698
tex@@ 5697
兴建 5697
抬@@ 5697
法则 5696
ghz 5695
su 5695
右边 5695
棒@@ 5694
莎@@ 5694
内裤 5693
律@@ 5693
日落 5693
珀 5693
盧@@ 5693
調 5693
跃@@ 5693
供其 5692
信仰自由 5691
蜂@@ 5691
wiki 5690
車站 5690
靈@@ 5690
弟 5689
该股 5689
余下 5688
屑 5688
改建 5688
第一年 5688
ces@@ 5687
土族 5687
所处 5687
周六 5685
带宽 5685
ey@@ 5684
并购 5684
樂 5684
河畔 5684
197 5683
事务局 5683
接替 5683
234 5682
结社自由 5682
起义 5682
天才 5681
成品 5681
毫克 5681
学业 5680
巴尔 5680
佛罗里达州 5679
约翰逊 5679
解放军 5678
ves 5677
瑜伽 5677
联合体 5677
選擇 5677
教科书 5676
看过 5676
pol@@ 5675
水晶 5674
manufacturers 5673
236 5672
well 5670
tom 5669
實 5669
法律义务 5669
文学@@ 5668
ero 5667
節目 5667
信息管理 5664
1944 5663
纳米 5663
乳 5661
副总裁 5661
敏感性 5661
无所@@ 5661
祖父 5661
越过 5661
bah@@ 5660
敌@@ 5660
文件大小 5660
暴 5660
hc@@ 5659
取出 5659
联索 5659
夫斯基 5657
盆 5657
交换意见 5655
企 5654
塑料@@ 5654
缓 5654
蔡@@ 5654
zu@@ 5651
套装 5651
庫@@ 5649
衬衫 5649
遇@@ 5649
jun 5647
光谱 5647
风扇 5647
黏@@ 5647
英联邦 5644
交流@@ 5643
传统@@ 5643
微波 5643
服务质量 5643
面上 5643
兼容性 5642
bir@@ 5641
op 5641
法律依据 5641
血统 5641
东非 5640
control 5639
jan 5639
第六十九 5638
燃 5637
表示遗憾 5637
人来 5636
front 5635
华人 5635
造福 5635
克制 5634
第六章 5634
jpeg 5633
植物@@ 5633
演习 5633
辩护律师 5632
ili@@ 5631
yah 5631
好奇 5631
彼得堡 5631
clo@@ 5630
第十一条 5629
职司 5629
亮度 5628
analog 5626
打发 5626
bbc 5625
巴勒斯坦国 5624
管理器 5624
其为 5622
jes@@ 5621
负有责任 5621
高出 5621
性爱 5620
l.1 5619
商品价格 5619
老化 5619
成都 5618
酸盐 5618
各大 5617
低估 5616
盆地 5615
脉 5615
極 5614
重力 5614
ã 5613
产业@@ 5613
及早 5612
构@@ 5612
蓝牙 5610
艺术品 5609
斯蒂@@ 5608
cher@@ 5607
下达 5607
试用 5606
膏 5605
颤抖 5605
骑士 5605
喀布尔 5604
贵方 5604
联邦@@ 5602
衡@@ 5602
и 5601
尼维斯 5601
拒@@ 5601
触摸 5601
din 5600
記@@ 5600
下一代 5599
中说 5599
主義 5599
之星 5598
外交@@ 5598
屋里 5598
lay@@ 5597
诊@@ 5596
人中 5595
吉他 5595
电影@@ 5595
制度化 5594
口语 5594
姿态 5594
肢 5594
账@@ 5594
贸 5594
轉 5594
下称 5593
寡妇 5591
结局 5591
那条 5591
三年期 5590
锌 5589
充满活力 5587
总线 5587
淘@@ 5587
漏 5587
登记处 5587
送往 5587
禁试 5585
统计局 5585
薪@@ 5585
區域 5584
积压 5584
4.4 5583
收拾 5583
每种 5580
隊@@ 5580
圣基茨 5579
机理 5579
灭@@ 5579
降落 5579
building 5578
发掘 5578
清算 5578
身分 5578
重大@@ 5578
unclassifed 5577
典礼 5577
棒球 5577
躲@@ 5577
书面形式 5576
程序性 5576
周五 5575
澳 5575
促@@ 5574
律师协会 5570
皇 5570
寶@@ 5569
平稳 5569
摇 5569
服务供应商 5569
洒 5568
体会 5567
前身 5567
外交官 5565
深表 5565
家居 5564
保全 5563
质量保证 5563
马其顿 5563
创造条件 5560
当日 5560
嫁给 5559
动植物 5558
弃@@ 5556
并用 5554
游艇 5554
研 5553
电阻 5550
浴@@ 5549
jean 5548
之後@@ 5548
荣获 5548
西非国家 5548
305 5547
by@@ 5547
迪克 5547
十大 5546
时会 5546
十四 5544
羞@@ 5544
but@@ 5543
抽 5543
犹豫 5543
克尔 5540
喝酒 5540
公共秩序 5539
三级 5537
各不相同 5537
木质 5536
著作权 5536
摸@@ 5535
即决 5534
拉克 5534
粒@@ 5534
薇 5533
尴尬 5532
平等待遇 5531
格里 5531
涌@@ 5531
秦@@ 5531
計畫 5531
修炼 5530
参赛 5529
表达式 5528
道德@@ 5528
碧@@ 5526
球隊 5525
罪人 5525
牢固 5524
253 5523
ism 5523
uc@@ 5522
伍 5522
娘 5522
驱@@ 5521
下表 5520
欠@@ 5520
罗姆 5520
锋 5520
调查@@ 5519
充实 5518
双语 5518
屋子 5518
身为 5516
手法 5515
医学@@ 5514
善良 5514
草原 5514
善意 5513
民用航空 5513
略有 5513
266 5512
星星 5512
穆 5512
烷 5511
india 5510
吃惊 5510
感知 5510
检查和 5509
校友 5508
围墙 5504
捕 5504
运动会 5504
ati 5503
承包 5503
桌@@ 5503
異@@ 5502
單位 5501
男童 5501
诚 5501
联络处 5500
ska 5499
十八 5499
左边 5499
微小 5499
旅游@@ 5499
浇@@ 5498
递送 5497
可为 5496
产能 5495
性取向 5495
电话@@ 5494
雕像 5494
ese 5493
大利 5493
眠 5493
晕 5492
過程 5492
俯@@ 5491
签署国 5491
三世 5490
宗教自由 5490
炉@@ 5490
关爱 5489
阿拉 5489
talk 5488
焦 5486
家用 5483
科目 5483
6.1 5482
gs@@ 5482
hun@@ 5481
一首 5481
猜@@ 5481
用户界面 5481
百慕大 5481
林肯 5480
牌照 5480
消防 5479
hd@@ 5477
巴比伦 5477
挖@@ 5477
laur@@ 5476
1941 5475
冰淇淋 5475
提出申请 5475
匹@@ 5474
晋@@ 5474
mime 5473
烤 5473
tos 5472
刷@@ 5472
联络点 5472
范 5472
停下来 5471
僅 5471
拘@@ 5470
捕捉 5470
个人身份 5469
乾@@ 5469
感染者 5469
交战 5468
第四十九届 5467
sn74ahct@@ 5466
稳步 5464
255 5463
可供 5463
情人 5463
接头 5463
上映 5461
克朗 5461
出发点 5461
挽救 5461
cab@@ 5460
僅@@ 5459
ison 5458
写信 5458
杖 5457
来信 5457
car 5456
nav@@ 5456
才@@ 5456
磷 5456
缩写 5456
人身安全 5455
雕塑 5455
xp 5453
关键词 5453
ier 5452
半年 5452
陸@@ 5452
枝@@ 5451
铃 5451
发光 5450
微微 5450
激进 5449
口交 5448
一下子 5447
轰@@ 5447
cojak 5446
抱@@ 5445
cop.@@ 5444
情愿 5444
引 5443
更快 5442
球員 5442
科學 5442
1939 5441
力图 5441
天地 5441
固定@@ 5440
并发症 5440
开普敦 5439
弹道导弹 5439
水准 5439
營@@ 5439
献给 5439
疯 5438
source 5437
底下 5437
人性 5435
在此之前 5433
enterprise 5432
信息中心 5432
萨赫勒 5432
法老 5430
bab@@ 5429
三国 5429
主耶稣 5429
金融体系 5429
rus@@ 5428
借款 5428
奶酪 5428
重大贡献 5428
頁 5428
妹 5427
撞击 5427
替@@ 5427
看不见 5427
aqu@@ 5426
调研 5425
bru@@ 5423
挂牌 5423
1953 5422
押@@ 5422
总产值 5421
总人口 5421
行人 5421
併 5420
持续增长 5420
评为 5420
thomas 5419
发展趋势 5418
麦克@@ 5418
秘@@ 5417
维拉 5416
py@@ 5415
橋 5415
key@@ 5413
ces 5412
end@@ 5412
他们自己的 5412
再见 5412
谷物 5412
а 5411
创新性 5411
ack 5410
四项 5410
氧气 5409
ase 5408
gen 5408
ire 5407
普尔 5407
条所 5407
伤心 5406
南海 5406
封面 5406
８ 5406
巴拉 5405
毫升 5404
薪资 5404
财务管理 5404
出具 5403
溶剂 5403
之害 5402
十字 5402
无知 5402
固 5401
这套 5401
黛@@ 5401
一刻 5400
马车 5400
310 5399
全人类 5399
手套 5399
fl 5398
吐 5398
攻擊 5398
棋@@ 5397
母婴 5397
法医 5397
集体@@ 5397
息@@ 5396
底层 5394
wor@@ 5392
紫色 5392
开幕式 5391
效用 5391
陌生人 5390
安德@@ 5389
旺 5388
缸 5388
忽@@ 5386
农业部门 5385
outlook 5384
指导@@ 5383
ery 5382
研究成果 5382
mt 5381
宴会 5380
建立联系 5380
鸿沟 5380
切断 5379
汀 5378
蒸@@ 5377
下放 5376
唱歌 5376
給@@ 5376
許 5376
关上 5375
第四十@@ 5375
未满 5374
衣架 5374
jam@@ 5373
斯堡 5373
約翰 5372
股价 5372
水源 5371
bus 5370
real@@ 5370
虚拟机 5370
宗教@@ 5369
欢迎您 5369
一是 5368
受众 5368
捍卫者 5368
各届 5367
gh 5366
他自己的 5366
線@@ 5366
线程 5366
yi 5365
同类 5365
bin 5364
讀 5364
276 5362
convention 5362
获奖 5362
301 5361
girls 5361
战后 5361
扫雷 5361
1900 5360
让@@ 5360
一整套 5359
梯 5359
christ@@ 5358
pon@@ 5358
柴@@ 5358
一室 5357
小子 5357
心态 5357
搜@@ 5357
量子 5357
chen 5355
创造力 5355
劝 5355
一案 5354
中国共产党 5354
德黑兰 5353
渡@@ 5353
特种 5353
纳斯 5352
介绍性 5351
1325 5349
星期天 5349
旅行社 5348
添加剂 5348
织物 5348
丛 5347
物件 5347
学士学位 5346
女朋友 5345
韩 5345
out 5344
他妈的 5344
差价 5344
翠@@ 5344
之用 5343
普遍认为 5343
升值 5342
地理信息系统 5342
灾后 5340
气温 5339
逆 5338
前方 5337
阿布 5337
集團 5337
阿爾@@ 5335
会展中心 5334
第十五条 5334
高档 5333
咬@@ 5332
在实践中 5332
小時 5332
二者 5331
交由 5331
board 5329
楼宇 5329
非线性 5329
一点点 5328
公有 5328
奇妙 5328
功效 5327
查理 5327
箭 5326
这部分 5324
非洲统一组织 5324
恒星 5323
时效 5321
不便 5320
极少 5320
265 5319
副作用 5319
可不 5319
号线 5319
装载 5319
难以置信 5319
关键性 5316
述@@ 5316
gerber 5315
um@@ 5315
壮观 5315
板块 5315
起因 5315
继续下去 5314
断定 5313
萧@@ 5312
醒来 5311
险@@ 5311
人文 5310
太陽 5310
市場 5310
持续性 5310
億 5309
困@@ 5309
现时 5309
莲 5309
半数 5306
第@@ 5306
门外 5306
wn 5305
住户 5305
傻@@ 5305
四川 5305
带走 5305
就让 5304
构成犯罪 5304
非营利 5304
探测器 5303
盟@@ 5303
高精度 5303
pw@@ 5302
年期 5302
不能@@ 5301
分部 5301
昌@@ 5301
upload 5300
持續 5300
據 5300
这才 5300
sty@@ 5299
或经 5299
歌剧院 5299
part@@ 5298
外科 5297
山东 5297
252 5296
博物 5296
语言@@ 5296
尿 5295
署@@ 5295
墓@@ 5294
廷@@ 5294
友善 5293
城市地图 5293
帖 5293
数次 5293
曼彻斯特 5293
判处死刑 5292
天天 5292
能为 5292
核设施 5291
ist@@ 5290
william 5290
利用率 5290
灾难性 5290
统一@@ 5290
nar@@ 5289
粮 5288
追查 5288
mp3 5287
奋@@ 5287
当今世界 5287
功能@@ 5286
products 5285
三星 5285
大奖 5285
灾 5285
反思 5284
困惑 5283
阅 5283
275 5281
例句 5281
影子 5281
怀里 5281
滚 5281
痕迹 5281
调解人 5281
鞋子 5281
饥荒 5281
maria 5280
他于 5280
aka 5279
採用 5279
暖 5279
巢 5278
积极@@ 5277
難 5277
小孩子 5276
emp@@ 5275
paper 5275
双腿 5275
水质 5274
跟进 5272
队长 5272
奥兰多 5271
野蛮 5271
劣 5268
纪 5268
高风险 5268
加利 5267
暗杀 5266
规范性 5266
该科 5266
海拔 5263
贝克 5263
伍德 5262
网格 5262
6.5 5261
plan@@ 5261
历史悠久 5261
周二 5261
bay@@ 5260
dom 5260
不结盟 5260
引领 5260
栋 5260
装运 5259
根本原因 5258
ses 5256
原定 5256
反驳 5256
捉@@ 5256
测量@@ 5256
资金@@ 5256
運動員 5256
发射@@ 5255
官网 5255
辖区 5255
ple@@ 5253
代谢 5253
万吨 5252
孟买 5252
服务提供者 5252
now 5251
狀 5251
能效 5251
md@@ 5250
赶 5250
輕@@ 5250
仰@@ 5249
刑事@@ 5249
協會 5249
周岁 5248
禁毒署 5248
霍尔 5248
韋@@ 5248
剪辑 5247
擅自 5247
没错 5247
综合@@ 5247
败@@ 5247
运动@@ 5247
plc 5246
鼓掌 5246
负责管理 5245
germany 5244
渐@@ 5244
互补 5243
调查员 5243
water 5242
哭泣 5242
回头 5242
工商 5242
芒 5242
开创 5241
所称 5241
測 5241
pur@@ 5240
讽刺 5240
辉 5240
這樣 5239
夺取 5238
显微镜 5238
躲 5238
苯 5237
224 5236
挡 5234
繼@@ 5234
304 5233
半个 5233
文凭 5233
纹@@ 5233
亚当 5231
铸造 5231
利亚@@ 5230
全氟 5229
指着 5226
梯@@ 5226
4000 5225
阿卜耶伊 5225
zh 5224
争夺 5224
备案 5224
前沿 5223
挑衅 5223
搬运 5222
支架 5222
议@@ 5222
eu 5219
黑客 5218
wat@@ 5217
系列产品 5217
az 5216
郁@@ 5216
我方 5215
无法@@ 5215
猛 5215
稳定@@ 5215
细胞@@ 5214
机会均等 5213
雨水 5213
制冷 5212
水下 5212
boutique 5211
申 5211
舒适度 5211
芭@@ 5211
antonio 5210
总和 5209
查验 5209
演員 5208
国防军 5207
堪@@ 5207
議員 5207
迈进 5207
儘 5206
冲动 5206
商学院 5206
国家级 5206
两只 5205
利益冲突 5205
佣金 5204
废止 5204
歇@@ 5204
称作 5204
jadeite 5202
变性 5202
塔尔 5202
治愈 5202
方言 5199
造型 5199
纪念@@ 5198
法学院 5197
taiwan 5196
开拓 5196
环绕 5196
转动 5194
青睐 5194
不良@@ 5192
争辩 5192
泛 5192
留下来 5191
听证会 5190
跌 5190
绩 5189
描写 5187
不堪 5186
雀 5186
red@@ 5185
使馆 5185
复议 5185
還有 5185
ken 5184
公共安全 5184
商会 5184
gy@@ 5183
qi@@ 5183
robert 5183
控股 5183
朴@@ 5183
十周年 5182
用法 5181
挫折 5180
anne 5179
kong 5179
猜测 5179
免税 5178
地球@@ 5178
愚@@ 5178
价值链 5177
卑@@ 5176
国家机关 5176
太平洋地区 5176
马达 5176
04@@ 5175
幽默 5174
帝國 5173
dec 5172
应从 5172
vit@@ 5170
案子 5170
海里 5170
第十八条 5170
预览 5170
公立 5169
旷野 5169
棉 5169
流向 5167
萨拉 5167
防扩散 5167
隻 5167
05@@ 5166
嘉宾 5164
二十世纪 5163
侯@@ 5163
制剂 5163
應用 5163
245 5162
cri@@ 5162
fac@@ 5162
一封信 5162
岁月 5162
缉获 5161
阅@@ 5160
has@@ 5159
位数 5159
平常 5159
无法控制 5159
c++ 5158
rev@@ 5158
肩 5158
医 5157
购物车 5157
艺@@ 5156
傻 5155
移民局 5155
评委 5155
c.12 5154
家政 5154
过敏 5154
票据 5153
键入 5153
总署 5152
溪@@ 5152
黨@@ 5152
ham 5150
temp@@ 5150
堡@@ 5150
所行 5150
france 5149
６ 5149
中应 5148
坚强 5148
塞浦路斯共和国 5148
苗 5148
college 5147
ney 5147
偷 5147
口味 5147
審@@ 5147
私隐 5147
.3 5146
联合声明 5146
标明 5144
感应 5143
控诉 5142
kas@@ 5141
亏 5140
扩建 5140
润 5140
过剩 5140
静止 5140
本港 5137
二百@@ 5136
妊娠 5136
稳固 5136
面部 5136
～ 5135
酱 5134
research 5133
应用@@ 5133
箱子 5133
布里 5132
部族 5131
讲师 5130
jr 5129
不定 5129
受伤害 5129
阴道 5129
城乡 5128
工件 5128
晚期 5128
里亚@@ 5128
phil@@ 5127
小国 5127
會議 5127
简 5127
语气 5127
380 5126
女孩子 5126
那不勒斯 5125
合资 5124
確 5124
鞭@@ 5124
very 5123
上课 5123
女神 5123
胳膊 5123
育儿 5122
开通 5121
推理 5121
偿付 5118
双人床 5117
口气 5117
会长 5116
预料 5116
motorola 5115
主義@@ 5115
排行榜 5115
萨米 5115
other 5114
推销 5114
炸药 5114
sin 5112
ux 5112
大腿 5112
管理处 5112
赠@@ 5112
江苏 5111
竟@@ 5111
工作效率 5110
脉@@ 5110
市场营销 5109
景象 5109
不带 5107
传奇 5107
定律 5105
期满 5105
淋@@ 5105
人工智能 5103
华尔街 5102
非常适合 5102
management 5101
亏损 5101
徒@@ 5101
王后 5101
演说 5100
amp@@ 5099
遥@@ 5099
必定 5098
product@@ 5097
保留意见 5097
在一起 5097
斯托 5097
時代 5097
步兵 5097
示威者 5097
祝@@ 5097
过高 5097
首府 5097
外币 5096
视力 5096
经济合作与发展组织 5095
272 5093
公职 5093
天基 5093
xbox 5092
就此结束 5092
时才 5092
卵 5091
彈@@ 5091
灣@@ 5091
纱 5091
cham@@ 5090
公交车 5090
商务酒店 5090
男女@@ 5090
十六 5089
天花板 5089
冷却@@ 5088
嘴@@ 5088
簽@@ 5088
kal@@ 5087
会议厅 5087
难过 5087
court 5086
契 5086
小吃 5086
中等教育 5085
授 5085
翅膀 5085
ory 5084
仓储 5083
商标注册 5082
渣 5082
缘@@ 5081
馆@@ 5081
试试 5079
kl@@ 5078
mhz 5078
水道 5078
瑙鲁 5078
这段 5078
阿联酋 5077
四次 5076
询 5076
适配器 5076
人员编制 5075
小组会议 5075
就读 5075
患@@ 5075
降到 5075
gur@@ 5073
控件 5073
第十九届 5072
虽@@ 5072
work@@ 5071
邪@@ 5071
奧林匹克 5070
摄影师 5070
低温 5069
初等教育 5069
合法化 5069
以色列国防军 5068
經過 5068
东南 5066
废弃 5066
翔 5066
教派 5065
会为 5064
点钟 5064
胸 5064
mt@@ 5063
凹@@ 5063
密克罗尼西亚联邦 5063
次日 5063
增列 5062
天国 5062
蓝线 5062
陵 5062
人員 5061
儒@@ 5061
大气层 5061
mah@@ 5060
杂项 5060
润滑油 5059
潮湿 5059
07@@ 5058
妙 5058
上游 5057
247 5056
口中 5056
窄 5055
share 5054
宏观 5053
亞洲 5052
人花 5052
棕色 5052
驻科 5052
他们自己 5051
卸@@ 5051
受本 5051
期货 5051
護@@ 5051
254 5050
覆盖面 5050
請 5050
经济衰退 5048
裙 5048
阿姨 5048
times 5047
得主 5046
撤退 5046
潘 5045
fan@@ 5044
速效 5044
计划@@ 5043
結構 5042
屏蔽 5041
应于 5041
皮埃尔 5041
370 5040
6.2 5040
店@@ 5040
这片 5040
開發 5040
几步 5039
锯@@ 5039
樣 5038
1942 5037
容许 5037
伤口 5036
剧本 5036
相比之下 5036
輪 5036
cha@@ 5035
劫持 5035
熨衣 5035
ader 5034
怪物 5034
玛利亚 5034
腹 5034
乙 5033
加尔@@ 5033
244 5032
ven 5032
处长 5032
消极影响 5032
北京市 5031
雕 5030
231 5027
常见问题 5027
一切@@ 5026
发生率 5026
教皇 5025
气息 5025
试着 5025
闹@@ 5025
竭尽全力 5024
case 5023
mas 5021
nam@@ 5021
幽默感 5021
祝愿 5021
α 5020
字面 5020
bou@@ 5019
插座 5019
搅拌 5019
领导层 5019
不远 5018
冻@@ 5017
彻底消除 5017
计入 5017
ous 5016
sales 5016
亿人 5016
使本 5016
怜悯 5015
晚些时候 5015
mul@@ 5013
载荷 5013
世界遗产 5012
东北部 5012
比利 5012
津@@ 5012
点头 5011
特许权 5011
軍隊 5011
7.5 5010
lc 5010
外资 5010
数十@@ 5010
法例 5009
东莞市 5007
勋章 5007
嘲笑 5007
情报@@ 5006
耦合 5006
ams 5005
dra@@ 5005
政策措施 5005
救赎 5005
羞辱 5005
syn@@ 5004
套餐 5004
質量 5004
gnu 5003
地被 5003
正确性 5003
优美 5002
严 5001
奥斯@@ 5001
不容 5000
白皮书 5000
胃 5000
防水 5000
鲸 5000
smart 4998
分化 4998
强加 4998
pil@@ 4997
rf 4997
照射 4997
美军 4997
逃脱 4996
革 4996
存货 4994
天赋 4993
sco@@ 4991
右手 4991
痴@@ 4991
７ 4990
hu 4987
圣殿 4987
禮 4987
軌道 4987
蓄@@ 4986
操作员 4985
ship 4984
石棉 4984
祈求 4984
inst@@ 4983
master 4983
works 4983
暨 4983
欧共体 4982
大马士革 4980
教区 4980
clar@@ 4979
wg@@ 4978
古迹 4978
开发区 4976
极了 4976
耐 4976
致辞 4976
哨 4975
網@@ 4974
消化 4973
客服 4972
终 4972
网络安全 4972
角度看 4972
降解 4972
manual 4971
sr 4971
仓@@ 4971
匮乏 4971
敲 4971
權@@ 4970
纵向 4970
高管 4970
印第安人 4969
charles 4968
stru@@ 4968
教育领域 4968
amd 4967
篮@@ 4967
周三 4966
巨人 4966
干细胞 4966
率为 4965
过失 4965
巴厘 4964
系统管理 4964
特尔 4963
dropbox 4962
保护法 4962
复合材料 4962
肿 4961
bot 4960
breakfast 4960
解体 4958
亲人 4957
害@@ 4957
sat@@ 4956
蕾 4956
銀行 4956
保护主义 4954
战斗机 4954
果断 4954
水量 4954
宴 4953
內容 4952
忍不住 4952
上个月 4951
四大 4951
棘手 4951
珊瑚 4951
疗@@ 4950
分类@@ 4949
245@@ 4948
法律咨询 4948
渔船 4948
交易者 4947
卡斯 4947
教员 4947
脾气 4947
世俗 4946
恐@@ 4946
cop 4945
＊ 4945
巨大@@ 4944
慕@@ 4944
园区 4943
标的 4943
滿 4943
产科 4942
宣扬 4942
巴赫 4942
gold 4941
览 4941
开展业务 4940
关键@@ 4939
制动 4939
拆卸 4939
深海 4939
讯@@ 4939
万个 4938
吉姆 4938
壮 4937
羽 4937
参阅 4936
输 4936
ito 4935
腐@@ 4935
安南 4934
残留 4934
圣彼得堡 4933
大事 4931
意味 4931
门户网站 4931
俄羅斯 4929
称呼 4929
男朋友 4928
笑话 4928
meta 4927
sta 4927
公益 4927
好几个 4927
扰乱 4927
口号 4926
lv@@ 4925
促 4925
参 4925
年满 4925
牢 4925
第十五届 4925
error 4924
商务@@ 4924
第十六届 4924
95% 4923
专项 4923
短时间 4923
ens 4922
审定 4922
经营@@ 4922
340 4921
混合@@ 4921
赏@@ 4921
die 4920
重新考虑 4920
tech@@ 4919
业务流程 4919
活动@@ 4919
离去 4919
全自动 4918
双眼 4918
车上 4918
4.6 4917
分析仪 4917
eco@@ 4916
带上 4916
私人@@ 4916
yu 4915
怒@@ 4915
组织者 4914
钩 4914
高原 4914
壁炉 4913
清晨 4913
悠久 4912
维修@@ 4912
廠 4911
周四 4910
bak@@ 4908
tag@@ 4908
忙@@ 4907
有所改善 4907
萧条 4907
gon@@ 4906
极具 4906
新聞 4905
面谈 4905
ceo 4904
大连 4904
完全@@ 4904
理论@@ 4904
範圍 4904
衬@@ 4904
覆盖率 4904
内有 4903
族人 4903
精算 4903
信息安全 4902
第一季度 4902
投票@@ 4901
群组 4901
联格 4901
village 4900
剩 4900
dia 4899
进一步提高 4899
为首 4897
ame@@ 4896
257 4894
选区 4894
宣传@@ 4893
平方英尺 4893
跌@@ 4893
宏伟 4892
最优 4892
扯 4891
住院 4890
抗体 4890
舰@@ 4890
收听 4889
符合国际 4889
調查 4889
歌唱 4888
理学 4888
番 4887
焚烧 4886
萨斯 4886
虚拟化 4886
饱@@ 4886
stay 4885
关键字 4885
忍 4885
猫@@ 4885
遂 4885
忧@@ 4884
擴@@ 4884
black 4883
kit@@ 4883
小男孩 4882
人质 4881
另行 4881
民族主义 4881
消费品 4881
zo 4880
台湾@@ 4880
率先 4880
ation@@ 4879
sia 4879
肌肤 4879
aro@@ 4877
润@@ 4877
dur@@ 4876
原住民 4876
袖@@ 4875
这块 4875
95@@ 4874
尊贵 4874
教义 4874
住处 4873
西安 4873
改變 4872
細@@ 4872
天生 4871
审案 4870
青春 4870
硬度 4869
中请 4868
亡@@ 4868
栖息地 4868
第一节 4868
隙 4868
员@@ 4867
奶奶 4867
辊 4867
农发 4866
改编 4866
曝光 4866
icef 4865
锥@@ 4865
批发 4864
不已 4863
負責 4863
维亚 4862
博士学位 4861
哈马斯 4861
看似 4861
ght@@ 4860
出缺 4860
前期 4860
访问团 4860
经纪 4859
螺@@ 4859
fp 4858
逸 4858
付诸 4857
安妮 4857
事务@@ 4856
啥 4856
阿拉伯@@ 4856
games 4855
数个 4855
比如说 4854
罚 4852
运气 4852
結 4851
联发援 4851
调控 4851
议长 4850
迫 4850
风力 4850
246 4849
cos 4847
咸@@ 4847
全职 4846
墨西哥城 4846
追溯到 4846
tags 4845
养殖 4845
反正 4845
sus@@ 4843
体育馆 4843
处分 4843
大鼠 4843
调和 4843
通向 4842
公海 4841
撕@@ 4841
迟 4841
pos@@ 4840
发行@@ 4840
ino@@ 4839
巨额 4839
曰 4839
杯@@ 4839
pt@@ 4837
‎ 4836
巴德 4836
电影院 4836
阿拉木图 4836
219 4835
ange 4835
宽松 4835
press 4834
推测 4834
格林@@ 4834
比起 4834
超声波 4834
lou@@ 4832
可达 4832
泪@@ 4832
第九@@ 4832
nes 4831
油漆 4831
相互关系 4831
盗窃 4830
目標 4830
详细情况 4830
辣 4830
lc@@ 4829
宁波 4829
醉 4829
外套 4828
狠狠 4828
击中 4827
第十三条 4827
编译 4827
glo@@ 4826
多米尼克 4826
約@@ 4826
让步 4826
责任@@ 4826
海平面 4824
付给 4822
归类 4822
保险费 4821
电磁@@ 4821
sg@@ 4820
全家 4819
山地 4819
軍事 4819
紫外线 4818
迟到 4818
共同利益 4817
历来 4817
肺@@ 4817
做成 4816
来访 4815
镶 4815
pic 4814
全会 4814
碟 4814
绒 4814
响@@ 4813
四条 4812
翻译成 4812
職業 4812
阿尔 4812
物理@@ 4811
人造 4810
單 4810
婆@@ 4810
粗 4810
避开 4810
porn 4809
敬畏 4809
米勒 4808
equ@@ 4807
george 4807
医务人员 4807
盎司 4807
蒂斯 4807
of@@ 4806
触 4806
赔偿金 4806
好消息 4805
rou@@ 4804
日记 4804
sch 4803
备有 4803
妇女@@ 4803
服饰 4803
炮弹 4802
html5 4801
焊 4801
恭@@ 4800
paypal 4799
通话 4799
401 4798
哈瓦那 4798
瘦 4798
lic@@ 4797
牙科 4797
喜歡 4796
无限期 4796
杨明 4796
海洋@@ 4796
队@@ 4796
南太平洋 4795
肉类 4795
预警系统 4795
金斯 4794
普里 4792
沉积 4792
oli@@ 4791
便会 4791
增订 4791
安德烈 4791
格雷 4791
耶夫 4791
聆听 4791
聘 4791
8.2 4790
systems 4790
283 4789
凤@@ 4789
办公厅 4789
耕地 4789
轮廓 4789
遗传@@ 4789
凉@@ 4788
点燃 4788
sexy 4787
泉@@ 4787
除名 4787
连任 4785
274 4784
兴奋剂 4784
办事 4784
战时 4784
瓶@@ 4784
ble@@ 4783
ner@@ 4783
反对党 4783
第十七届 4783
给定 4783
jor@@ 4782
论证 4782
布莱@@ 4781
第十六条 4781
优惠@@ 4780
索尼 4780
边界@@ 4779
中以 4778
宁愿 4778
決@@ 4778
四种 4777
革命@@ 4777
不及 4775
2.9 4774
年里 4774
留学 4774
適@@ 4774
sweet@@ 4773
咖啡@@ 4773
爱人 4773
蒙特@@ 4773
拿破仑 4771
lav@@ 4770
攻击者 4770
放大器 4770
理智 4770
又@@ 4768
名稱 4768
器具 4768
电车 4768
06@@ 4767
电气@@ 4767
除去 4767
电力@@ 4766
周边地区 4765
拉丁 4765
永不 4765
窝 4765
开端 4764
视作 4764
crp.@@ 4763
放开 4763
伤残 4762
ip地址 4761
就任 4761
丹尼尔 4760
許@@ 4759
劝@@ 4758
局限 4758
邓@@ 4758
受限制 4757
建议您 4757
额度 4756
420 4755
dav@@ 4755
接收@@ 4755
跑步 4755
代尔 4754
妳 4754
自由贸易 4754
非法行为 4754
前瞻性 4753
加工@@ 4753
组和 4753
構 4752
监察组 4752
非常高兴 4752
骗@@ 4752
丢@@ 4751
title 4750
寄存 4750
日趋 4750
步枪 4750
距離 4750
俄文 4749
跑道 4749
239 4748
oc@@ 4748
改名 4747
胜任 4747
261 4746
6.3 4746
同胞 4745
助听器 4744
获得成功 4743
屬@@ 4742
避难 4742
非暴力 4742
反应堆 4741
年龄组 4741
申请表 4741
送回 4741
本函 4740
1929 4739
挖 4739
迦 4739
分手 4738
英語 4737
1a 4736
占领军 4736
宮 4736
带动 4736
诊 4736
一切都是 4735
贪污 4735
丰满 4734
以太网 4733
密切联系 4733
朝鲜半岛 4733
做爱 4732
医治 4731
科研@@ 4729
300@@ 4727
power@@ 4727
私下 4727
说明书 4727
峡谷 4726
所在国 4726
转发 4726
ere 4725
任何一方 4725
统治者 4725
党员 4724
合作@@ 4724
普罗@@ 4724
點@@ 4724
jade 4723
rights 4723
令人担忧 4723
弗里@@ 4723
疫情 4722
吉尔 4721
province 4720
杨 4720
鸣@@ 4720
fle@@ 4719
亨 4719
十八@@ 4718
圣地 4718
应变 4718
289 4717
pag@@ 4717
哈里 4716
擅长 4716
敌军 4716
絲 4716
藻 4716
糊@@ 4715
马尼拉 4715
316 4714
发病 4714
看守 4714
飞船 4714
iti@@ 4713
yan@@ 4713
航天局 4712
右侧 4711
營 4711
艾伦 4711
明文规定 4710
服务公司 4710
滚动 4710
镜@@ 4709
德国人 4708
枢纽 4708
格雷@@ 4707
炼 4705
资本@@ 4704
海边 4703
辱 4703
288 4702
伟 4702
冈 4702
哼 4702
获利 4702
ax 4701
欧盟委员会 4701
发售 4700
遠@@ 4700
2030 4699
食品安全 4699
杀戮 4698
越南@@ 4698
扫 4697
财物 4697
一双 4695
剧烈 4695
数十年 4695
一顿 4694
公国 4694
比喻 4694
衰@@ 4694
座椅 4693
归于 4693
dam@@ 4692
上下文 4692
露天 4692
3.6 4691
inde@@ 4691
敬意 4691
玲 4691
＿ 4691
前线 4690
乐团 4689
本章 4689
申请@@ 4689
电影节 4689
移送 4689
膳食 4689
勉强 4688
挤 4688
敬请 4688
矢量 4688
两侧 4687
争 4687
全境 4687
團@@ 4687
中性 4686
祥 4686
训 4686
题@@ 4686
一九@@ 4685
兰人 4685
帖子 4685
波利斯 4685
生存@@ 4685
259 4684
日益增长 4683
表彰 4683
fo 4682
lane 4682
燕@@ 4682
war 4681
公用事业 4681
03@@ 4680
vip 4680
梅尔 4680
邻 4680
筋 4679
27.@@ 4678
沾@@ 4678
ber 4677
严重@@ 4676
国政府 4676
训练@@ 4676
束缚 4675
旨意 4674
监测@@ 4674
壶 4673
aga 4672
party 4672
不好意思 4672
政客 4671
渥太华 4670
网络连接 4670
起着 4670
je 4669
免疫@@ 4669
play@@ 4667
480 4665
mba 4665
中心@@ 4665
chan 4664
job 4664
地圖 4664
農@@ 4664
stand 4663
有期徒刑 4663
检察 4663
裙子 4663
领事馆 4663
生命@@ 4662
精液 4662
记入 4662
希特勒 4661
规划系统 4661
垂 4660
中文@@ 4659
偏远 4659
扫描仪 4659
download 4658
怎么回事 4658
确 4658
光滑 4657
洛夫 4656
经受 4656
例行 4655
耳机 4655
met@@ 4654
乳腺癌 4654
也@@ 4653
刑事案件 4653
无聊 4653
统 4653
solidworks 4652
338 4651
投影 4651
漫步 4650
阿鲁沙 4650
顯@@ 4650
哪怕 4649
消毒 4649
ek@@ 4648
两张 4648
训@@ 4648
輸@@ 4648
變化 4647
1933 4646
pul@@ 4646
倫敦 4646
叙@@ 4646
朝鲜@@ 4646
圣洁 4645
硕士学位 4645
空前 4645
保证金 4644
卫生部门 4643
斯科 4643
第一期 4643
之选 4642
战略伙伴 4642
蓋 4642
身材 4642
逢 4641
加共体 4639
济 4639
martin 4638
户主 4638
co2 4637
教宗 4637
ake 4636
long 4636
保人 4635
叶子 4635
垃圾邮件 4635
归属 4635
愛 4635
盲@@ 4635
nes@@ 4634
加倍努力 4634
劫 4634
服兵役 4634
杆@@ 4634
框@@ 4634
當中 4634
扰 4633
電腦 4633
数据分析 4632
墨 4631
该软件 4630
受访者 4629
槍@@ 4629
联伊 4629
丑 4628
淑@@ 4628
第二年 4628
舊 4628
可观 4627
塘 4627
开门 4627
圣马@@ 4626
出血 4624
嫉妒 4624
质量@@ 4624
沿线 4623
码@@ 4623
ua 4622
工序 4622
手下 4621
tour@@ 4620
三個 4620
以为@@ 4619
每個 4619
8.1 4618
亚伦 4618
惹 4617
腔@@ 4617
宏 4616
攀@@ 4616
无家可归 4616
輕 4616
下游 4615
歇 4615
头衔 4614
根据上述 4614
隨著 4614
普拉@@ 4613
逐字 4613
asia 4612
攝@@ 4612
植 4612
蓬@@ 4612
1937 4611
bert 4611
boulevard 4611
gl@@ 4611
书面通知 4611
炸 4611
练@@ 4611
一般而言 4609
執行 4609
沙龙 4609
发作 4608
物项 4608
缅甸政府 4608
lah 4607
动摇 4606
通货膨胀率 4606
bt@@ 4605
原创 4605
终生 4605
重新启动 4605
国家有关 4604
芳@@ 4604
pack 4603
如上 4603
負@@ 4603
next 4602
传动 4602
动乱 4602
居住地 4602
停滞 4601
另见 4601
珀@@ 4601
相关联 4601
阻力 4601
安卓 4600
曼哈顿 4600
机动 4600
饮品 4600
卿 4599
双人 4599
砖@@ 4599
hand@@ 4598
外聘 4598
斯州 4598
递 4598
门槛 4598
十七 4597
尚待 4597
报销 4597
拖拉机 4597
骚乱 4597
od 4596
世代 4596
保持联系 4596
十二个 4596
如上所述 4596
滨@@ 4596
结尾 4596
藤 4596
lisboa 4595
准予 4595
斯坦@@ 4595
轿车 4595
96@@ 4594
一览表 4593
邮编 4593
出行 4592
态@@ 4592
port@@ 4591
sbi 4591
御@@ 4591
测验 4591
罐@@ 4590
适于 4590
医疗@@ 4589
大为 4589
續 4589
震动 4589
印制 4588
各種 4588
大人 4588
行為 4588
覺 4588
ef 4586
芳 4586
sy 4585
仇敌 4584
华为 4584
1936 4583
第十八届 4583
自治@@ 4583
剖@@ 4582
脚步 4582
责@@ 4582
gi 4581
历史学家 4580
阿尔泰 4580
ft@@ 4579
医疗卫生 4579
女友 4579
科夫 4579
行为人 4579
難@@ 4579
flor@@ 4578
wang 4578
1943 4577
纽 4577
dns 4576
que@@ 4576
城市规划 4575
妖@@ 4574
yang 4573
卜 4573
名录 4573
表現 4573
公安机关 4572
得天独厚 4572
大力@@ 4571
能源@@ 4571
料理 4570
ccw 4569
戲@@ 4569
拦截 4568
涂 4568
陆 4568
pop 4567
载体 4567
229 4566
保護 4566
拳 4566
牛津 4566
藤@@ 4566
akamai 4565
洗澡 4564
瓦克 4564
產品 4563
相互尊重 4563
匹 4562
格式化 4562
ear@@ 4561
持续时间 4561
潜艇 4561
董@@ 4561
基礎 4560
飛機 4560
help 4559
人有 4559
归因于 4559
数月 4559
增加@@ 4558
特惠 4558
王室 4558
身心健康 4558
陷阱 4557
days 4556
国有企业 4556
庇护所 4556
400@@ 4554
心理健康 4554
总协定 4554
erp 4553
抢 4553
贪@@ 4552
肯尼迪 4551
喀土穆 4550
珍惜 4550
盆@@ 4550
相册 4550
what 4549
两架 4549
以防 4549
節@@ 4549
财 4549
工具包 4548
广东省 4548
舌 4548
一一 4546
机车 4546
dong 4545
供应@@ 4545
公正性 4545
歧@@ 4545
皮特 4545
艳@@ 4545
ela 4544
family 4544
多大 4544
脱颖而出 4544
事实证明 4543
发生冲突 4542
海关@@ 4542
联合国教科文组织 4542
落入 4542
cra@@ 4541
大法 4541
紀錄 4541
著作权人 4541
呵呵 4540
看电视 4540
警务人员 4540
参看 4539
大火 4539
庄园 4539
支派 4539
背叛 4539
访问期间 4539
制图 4538
现阶段 4538
绞@@ 4538
black@@ 4537
圣多美和普林西比 4537
恐怖袭击 4537
格斯 4537
篮 4537
联保 4537
仙 4536
胎儿 4536
佩戴 4535
竖@@ 4535
聲@@ 4535
zy@@ 4534
不算 4534
哲学家 4534
屠@@ 4534
综管 4532
每隔 4531
欢迎光临 4530
行政助理 4530
super 4527
感冒 4527
未获 4527
12% 4526
基尔 4526
媒體 4526
路由器 4526
gg@@ 4525
拘留所 4525
求助 4525
5.4 4522
切割机 4522
引力 4522
无误 4522
桑拿浴 4522
锅炉 4521
阁 4521
ated 4520
准入 4520
踢@@ 4520
mark@@ 4519
况 4519
账单 4519
南美 4518
團體 4518
恋@@ 4518
说来 4518
洞穴 4517
brand@@ 4516
conf 4516
密封@@ 4516
担负 4515
正直 4515
译成 4515
向量 4514
gate 4511
地理@@ 4511
非法@@ 4511
262 4510
出错 4510
建设项目 4510
甸 4510
竭力 4510
丢弃 4509
涨@@ 4508
陌生 4508
tis 4507
策@@ 4507
阿克拉 4507
阿卜杜勒 4507
司法部长 4505
灾@@ 4505
規@@ 4504
不禁 4503
整整 4503
替代性 4503
内涵 4502
果然 4502
被盗 4502
但须 4501
用到 4501
fs@@ 4500
不容@@ 4500
调查报告 4500
车库 4500
第四十八届 4499
轻型 4499
重要@@ 4499
口径 4497
致意 4497
大都 4495
已获 4495
改革方案 4495
新任 4495
vm 4494
恐慌 4494
彻@@ 4493
普拉 4493
该段 4493
祸 4492
五岁 4491
good 4490
机能 4490
此地 4490
類@@ 4490
cha 4489
安息日 4489
護 4488
化学物质 4487
夺 4487
映 4487
毫@@ 4487
诺夫 4487
stre@@ 4486
泄 4486
葉@@ 4486
这时候 4486
公义 4485
条约法 4485
青年@@ 4485
hab@@ 4484
kr 4484
中东地区 4484
族@@ 4484
四处 4483
矿产 4483
警惕 4483
travel 4482
斯卡 4482
矮@@ 4482
运载 4482
htm 4481
增幅 4481
紀 4481
brun@@ 4480
tal 4480
独有 4480
0.00 4478
媒 4478
之子 4477
聘@@ 4477
换言之 4476
蜜@@ 4476
md 4475
挪@@ 4475
砍@@ 4475
water@@ 4474
兼职 4474
﻿ 4474
偿 4473
游说 4473
调拨 4473
远处 4473
成本@@ 4472
环保@@ 4471
ku 4470
学期 4470
术@@ 4470
7.1 4469
ik@@ 4469
烘干机 4469
辅@@ 4469
顶尖 4469
共存 4468
油田 4468
海姆 4468
bio@@ 4467
写下 4466
有无 4466
蜡烛 4466
试验@@ 4466
反向 4464
猴子 4464
空間 4464
联席会议 4464
領 4464
驻扎 4464
恶魔 4463
意在 4463
晶体 4463
狂热 4463
对立 4462
有史以来 4462
香蕉 4462
凭@@ 4461
大战 4461
本科 4461
金沙萨 4461
寺庙 4460
ith 4459
不成 4459
沃尔@@ 4459
猛烈 4459
自觉 4459
lab 4458
邀 4458
人民代表大会 4457
生活水准 4457
人民检察院 4456
境地 4456
1918 4455
electron 4454
kil@@ 4454
wei@@ 4454
失衡 4454
稻@@ 4454
选举法 4454
新能源 4453
督 4453
矩 4453
肺癌 4453
进修 4453
鎮區 4453
之道 4452
无与伦比 4452
转到 4451
gov 4450
一九九@@ 4450
妙@@ 4449
mari@@ 4448
每一项 4448
陛下 4448
贡献者 4447
克拉克 4446
译@@ 4446
software 4445
表示同意 4444
一律 4443
一点儿 4443
抵销 4443
笔记 4443
超声 4443
美国国会 4442
识字 4442
不在乎 4441
加利福尼亚 4441
堤 4441
市内 4441
眾@@ 4441
詹@@ 4441
′ 4440
意大利语 4440
帆船 4439
表示@@ 4439
site 4438
未必 4438
次要 4438
书中 4436
俊@@ 4436
航空航天 4435
货物运输 4435
假装 4434
直流 4433
哇 4432
today 4431
多边条约 4431
甲板 4431
迈向 4431
热闹 4430
抚摸 4429
real 4427
出口国 4426
对冲 4424
经济援助 4424
信奉 4423
存有 4423
留意 4423
瘦@@ 4423
足额 4423
尝 4422
晚会 4422
lyn@@ 4421
亲戚 4421
廳 4421
home@@ 4420
叉 4420
掠夺 4420
胰岛素 4420
val 4419
計 4419
richard 4417
亟需 4417
做事 4417
商界 4417
打断 4417
从根本上 4416
牛肉 4416
电视机 4416
ila 4415
参考资料 4415
有意思 4415
风光 4415
小女孩 4414
打交道 4414
烂 4414
组织法 4414
國際@@ 4412
積@@ 4412
第四个 4412
nis@@ 4411
寡@@ 4410
微观 4410
實際 4409
当地人 4409
摩根 4408
钱包 4408
sts 4407
招生 4407
胶囊 4407
趟 4407
285 4406
代数 4406
谨@@ 4406
雜誌 4406
发酵 4405
受雇 4405
巾 4405
我必 4405
批量 4405
換 4405
映@@ 4403
第十四届 4403
最终目标 4402
awa 4401
card 4401
ward 4401
yl@@ 4401
act@@ 4400
eur@@ 4400
桃 4400
犯罪@@ 4400
经济效益 4400
尾巴 4399
出卖 4398
宣誓 4398
xin@@ 4397
互惠 4397
凭证 4397
質@@ 4397
saf@@ 4396
互相@@ 4396
历程 4396
大赛 4396
棋 4396
笔记本 4396
双床间 4395
布什总统 4395
ras@@ 4394
善于 4394
教區 4394
起始 4394
商家 4393
大象 4393
曾經 4393
交流经验 4392
日渐 4392
强烈@@ 4391
第四节 4391
一笑 4390
两者之间 4390
大阪 4390
version 4389
专家@@ 4389
明确指出 4389
列車 4388
数组 4388
胖 4388
mic 4387
一小部分 4387
勇 4387
电子邮箱 4387
婚姻状况 4386
资质 4386
oh@@ 4385
以至 4385
窃@@ 4385
填 4384
弗兰克 4384
wen@@ 4383
勝@@ 4382
inte@@ 4381
炭 4381
几点 4380
隐瞒 4380
hilton 4378
ww@@ 4378
扶养 4378
烃 4377
hub 4376
details 4375
根深蒂固 4375
真实性 4375
dj@@ 4374
unicode 4374
司令部 4374
盼望 4374
学术@@ 4373
忠 4373
园林 4372
263 4371
国有@@ 4369
天前 4369
植被 4369
下雨 4368
伊斯@@ 4368
初中 4368
蝴蝶 4368
首脑 4368
31@@ 4367
实用@@ 4367
居所 4367
肉棒 4367
abu 4366
test 4366
young 4366
不太可能 4366
不断扩大 4366
谋生 4366
质素 4366
rap@@ 4365
想像 4365
隔绝 4365
卡拉巴赫 4364
眉@@ 4364
知晓 4364
any 4363
sir 4363
傷@@ 4363
颈@@ 4363
ban 4362
反洗钱 4362
逆转 4362
店铺 4361
当成 4361
押金 4361
极高 4360
tours 4359
人才@@ 4359
佛教徒 4359
佛罗里达 4359
发展局 4359
整套 4359
不服 4358
厨师 4357
移居 4357
富人 4356
訊@@ 4356
公共利益 4355
易受 4355
ats 4354
体检 4354
穷 4354
当务之急 4353
监 4353
1938 4352
在意 4352
如欲 4352
歷@@ 4352
cn.@@ 4351
lia 4351
扶 4350
核爆炸 4350
五星级 4349
会同 4349
子宫 4349
遍@@ 4349
冷冻 4348
禽流感 4348
補@@ 4348
article 4347
302 4346
social 4346
国土 4346
徽标 4346
明显@@ 4346
不信 4345
懷@@ 4345
我们自己 4345
soi 4344
恐怖活动 4344
瓦斯 4344
確@@ 4344
une 4343
强力 4343
悦@@ 4343
残 4343
瞬@@ 4343
考绩 4343
高尔夫球 4343
服刑 4342
殿@@ 4342
该党 4342
reg@@ 4340
联接 4340
辩 4340
担当 4339
新近 4339
岗 4338
普吉岛 4338
850 4337
镍 4337
semiconductors 4336
若干@@ 4335
英國@@ 4335
郊 4335
局限性 4334
归功于 4333
辨@@ 4333
可卡因 4332
转而 4332
一夜 4331
dou@@ 4330
工作岗位 4330
晓 4330
递给 4330
尽头 4329
损@@ 4329
简洁 4329
ments 4328
人以 4328
嫁@@ 4328
立法机关 4328
农田 4327
read 4326
nd 4325
vegas 4325
試@@ 4325
钠 4325
山顶 4324
指针 4324
麗 4324
king@@ 4323
mand@@ 4323
工商@@ 4323
离线 4323
贴现 4323
绝缘 4322
防火墙 4322
分会 4320
fol@@ 4319
价格上涨 4319
俄罗斯@@ 4319
横 4319
韓@@ 4319
279 4317
功能性 4317
庙 4317
恐怖@@ 4317
识@@ 4317
交互式 4316
例证 4316
俱@@ 4316
建议书 4315
公民投票 4314
不动 4313
享@@ 4313
嘿 4313
室@@ 4313
分類 4312
唉 4312
龙儿 4312
西雅图 4311
hil@@ 4310
卢比 4310
報告 4310
外形 4310
棍 4310
水管 4310
1935 4309
其间 4309
粮@@ 4308
伊特 4307
私立 4307
至多 4307
建筑风格 4306
语句 4306
sn74ahc@@ 4305
欠款 4305
科斯 4305
起居室 4304
鉴别 4304
head 4303
亵渎 4303
医学院 4303
下车 4302
五条 4302
喬@@ 4302
壓 4302
303 4301
520 4301
eas@@ 4301
探险 4301
车轮 4301
这间 4301
sect.@@ 4300
制定者 4300
猪@@ 4300
遜 4300
less 4299
备受 4299
聚合 4299
崩@@ 4298
茅斯 4298
cerd 4297
偏差 4297
大洲 4297
第一百@@ 4297
andre@@ 4295
返还 4295
5.0 4294
变压器 4294
攝 4294
菲利普 4294
了不起 4293
添@@ 4293
手枪 4292
批判 4292
cr 4291
彩票 4291
惧怕 4291
shi 4290
竹 4290
连接@@ 4290
ice@@ 4289
匙 4289
有所@@ 4289
殺@@ 4289
司法@@ 4288
聯邦 4288
诡@@ 4288
驾驶员 4288
骨头 4288
高分辨率 4288
埋葬 4287
糖果 4287
週@@ 4287
称号 4286
路易 4286
union 4285
发誓 4285
海豚 4285
肿@@ 4285
elle 4284
歸@@ 4284
账目 4284
ml@@ 4283
地段 4283
广为 4283
century21 4282
好看 4282
昭@@ 4282
纹理 4282
赶上 4282
缓冲区 4280
296 4279
疲@@ 4279
近日 4279
hai@@ 4276
为限 4276
可可 4276
虐 4276
價 4275
克利 4275
沿海地区 4275
法定@@ 4275
處@@ 4275
以來 4274
本合同 4274
点儿 4274
纽约州 4274
mary 4273
nov@@ 4273
我用 4272
滿@@ 4272
躁 4272
布兰@@ 4271
о 4270
入门 4270
oracle 4269
剥夺权利 4269
否决权 4269
艾哈迈德 4269
非常重视 4269
见本 4268
price 4267
障 4267
利用@@ 4266
尼亞@@ 4266
hiv 4265
埃尔 4265
巴特 4265
物種 4265
贯@@ 4265
额外收费 4265
kir@@ 4264
减去 4264
难受 4262
vic@@ 4261
印度@@ 4261
增补 4261
鼎@@ 4261
jin@@ 4260
kap@@ 4260
music 4260
召唤 4260
慌@@ 4260
整天 4259
帆 4258
年末 4258
行政区划 4258
ette 4257
刑警 4257
探访 4257
250@@ 4256
安宁 4256
挨@@ 4256
體育 4256
94@@ 4255
生动 4255
處理 4255
vpn 4254
害羞 4254
款式 4254
sim@@ 4253
惜 4253
亲吻 4252
商讨 4252
影院 4252
签约 4252
sle@@ 4251
传单 4251
批准书 4251
细分 4251
塑 4250
气球 4250
长者 4250
active 4249
rit@@ 4249
牢记 4249
squ@@ 4248
格勒 4248
盈 4248
该省 4247
贸易谈判 4247
赠 4247
路線 4247
esa 4246
发觉 4246
围栏 4246
ess@@ 4245
poly@@ 4245
冲浪 4245
还好 4245
见表 4244
年鉴 4243
网络服务 4243
一时期 4242
布鲁克 4242
斜 4242
校正 4242
凌晨 4241
加里 4241
总体而言 4241
成形 4241
拒绝接受 4241
车票 4241
酒廊 4241
极好 4240
运算 4240
qq 4239
新约 4239
support 4238
主观 4238
住客 4238
恋爱 4238
财产权 4238
coun@@ 4237
sydney 4237
存储@@ 4237
戈尔 4237
电厂 4236
75@@ 4235
aly@@ 4235
介 4235
克森 4235
小伙子 4235
远距离 4235
高新技术 4235
nico@@ 4234
ys@@ 4234
专利@@ 4234
帶@@ 4234
年度预算 4233
迎来 4233
格拉@@ 4232
smith 4231
子民 4231
tab@@ 4230
lon@@ 4228
葡@@ 4228
住区 4227
债权 4227
继承人 4227
nt@@ 4226
克拉@@ 4226
公尺 4226
详@@ 4226
诺斯 4226
35% 4225
non 4225
理工学院 4225
舱@@ 4225
当下 4224
摩尔 4224
照着 4224
瘫痪 4224
该款 4224
光芒 4223
珊 4223
journal 4222
一小 4222
基金组织 4222
头痛 4222
常任 4222
23.@@ 4221
7.2 4221
卜@@ 4221
广告商 4221
收缴 4221
放宽 4221
試 4221
267 4220
卫队 4220
另一名 4220
dan 4219
德勒 4219
格兰@@ 4219
母親 4219
養 4219
諸@@ 4218
高血压 4218
jar@@ 4217
财政部长 4217
可不是 4216
表现形式 4216
1917 4215
祖母 4215
重置 4215
开火 4214
符合@@ 4214
结盟 4214
轮流 4214
trav@@ 4213
境界 4212
感到高兴 4212
谨向 4212
机组 4211
狮 4211
alex@@ 4210
加拉 4209
雾@@ 4209
花朵 4208
魚@@ 4208
偏远地区 4207
废弃物 4207
调出 4207
sai@@ 4206
uri 4206
三倍 4206
乍 4205
別@@ 4205
打扮 4204
有钱 4204
染@@ 4204
ness 4203
结核 4203
衡 4203
畫 4202
津 4201
一经 4200
剩@@ 4200
動畫 4200
没法 4200
解开 4200
车型 4200
需求量 4200
打败 4199
能耗 4199
醉@@ 4199
冈@@ 4198
勒斯 4198
检察院 4198
nc 4197
相对@@ 4197
全国人民代表大会 4196
求购 4196
1267 4195
中所列 4195
扇 4195
罚金 4195
褐色 4195
認 4195
早婚 4194
血糖 4194
四季 4193
杠杆 4193
羊毛 4193
cent 4192
千美元 4192
身处 4192
imf 4191
实现目标 4191
认出 4191
前款 4190
泳@@ 4190
空间科学 4189
精细 4189
有益于 4188
一趟 4187
休会 4187
积极支持 4187
城墙 4186
外国投资 4185
详述 4185
francisco 4184
本能 4184
--- 4183
公吨 4183
弧@@ 4183
不懈努力 4182
幾乎 4182
正常化 4182
爷爷 4182
使用@@ 4181
美的 4181
外贸 4180
海鲜 4180
鲜明 4180
76@@ 4179
one@@ 4179
tion@@ 4178
举例 4177
岸@@ 4176
茎 4176
酬 4176
降雨量 4176
高级@@ 4176
恢复@@ 4175
社会工作者 4174
贡 4174
中级 4173
传给 4172
多夫 4171
胆 4171
丛@@ 4170
这本 4170
英文版 4169
蒙德 4169
纤@@ 4168
责成 4168
赤道 4168
吞 4167
周刊 4167
淋巴@@ 4167
衣物 4167
面孔 4167
fic@@ 4166
slo@@ 4166
庞@@ 4166
第一百 4166
践踏 4166
得多 4165
早先 4165
ev 4164
nxp 4164
可追溯 4164
苏尔 4164
bai@@ 4163
万物 4163
或者说 4162
受让人 4161
口腔 4161
讲究 4161
起床 4161
雌@@ 4161
永 4160
令人不安 4159
联东 4159
bt 4158
ei@@ 4157
不可逆转 4157
侦察 4157
囊@@ 4157
负债表 4157
迴 4157
问候 4157
adi@@ 4156
mont 4156
中医 4156
奴@@ 4156
误 4156
1919 4155
我家 4155
玛格丽特 4155
like 4154
no.@@ 4154
前夕 4154
局局长 4154
模样 4154
舞会 4154
英格蘭 4154
迈克 4154
长期存在 4154
膜@@ 4153
估 4152
分布式 4152
單曲 4152
所罗门 4151
盛行 4151
纪念日 4151
综合症 4151
篮子 4150
蘇聯 4150
tro 4149
归咎于 4149
旅途 4149
帆@@ 4148
德意志 4148
ever@@ 4147
guadeloupe 4147
一辈子 4147
迅@@ 4147
prodel 4146
圆满 4146
巧妙 4146
清新 4146
以北 4145
号召 4145
君王 4145
競@@ 4145
卡路里 4144
四十 4144
扑@@ 4144
浴袍 4144
软弱 4144
软件开发 4143
rss 4142
供选择 4142
大戰 4142
瓣 4142
逝 4142
圓@@ 4141
双向 4140
呻吟 4140
286 4139
主办@@ 4139
大片 4139
希腊@@ 4139
电站 4139
胎@@ 4139
金字塔 4139
之家 4138
北欧 4138
最受 4138
正当@@ 4138
闪 4138
着力 4137
空袭 4137
写信给 4136
失误 4136
降低成本 4136
mic@@ 4135
相邻 4135
脸色 4135
加斯 4134
柜台 4134
涌入 4134
dec.@@ 4133
来往 4133
损耗 4132
聯合 4132
责备 4132
asi@@ 4131
l.2 4131
測@@ 4130
莱恩 4130
换取 4128
各项政策 4127
存取 4127
第三款 4127
辛格 4127
充 4126
拨打 4126
斯托@@ 4126
珍珠 4126
分隔 4125
硬盘驱动器 4125
蕴@@ 4124
银河 4124
磺酸 4123
紧急行动 4122
配送 4120
chang@@ 4119
賽事 4119
« 4118
增值税 4118
興@@ 4117
贝拉 4117
杀虫剂 4116
票房 4116
联合国国际贸易法委员会 4115
ano@@ 4114
快点 4114
宇@@ 4113
民族团结 4113
脚下 4113
ine@@ 4112
盗 4112
硬化 4112
全美 4110
有助 4110
选项卡 4110
抹@@ 4109
sky@@ 4108
浆@@ 4108
票数 4108
计算方法 4108
鉴@@ 4108
业内 4107
rose 4106
应以 4106
纪念品 4106
罕 4106
63@@ 4105
传授 4105
卸载 4105
數量 4105
蒙受 4105
訂 4105
转换成 4105
二是 4104
德利 4104
近年 4104
273 4103
512 4103
各有 4103
多层面 4103
饱和 4103
ful 4102
颠覆 4101
做过 4100
周转 4100
未缴 4100
培训@@ 4099
消 4099
绘图 4099
access 4098
trade 4098
块@@ 4098
霞 4098
8.4 4097
妓女 4097
斐@@ 4097
没能 4097
罗马@@ 4097
完备 4096
議會 4096
火山@@ 4095
ori@@ 4094
侧面 4094
粮食@@ 4094
坎昆 4092
pay@@ 4091
網站 4091
饮 4091
illa 4090
m3 4090
pla@@ 4089
亲切 4089
应分 4089
朝向 4089
苑 4089
主导地位 4088
天数 4088
整個 4088
行者 4088
iccd 4087
swe@@ 4086
ô 4086
正确@@ 4086
cou@@ 4085
指纹 4085
两岸 4084
兰德 4084
较长 4084
借着 4083
养育 4083
岂 4083
准时 4082
国度 4082
应用领域 4082
性传播 4082
排定 4082
同日 4081
管辖区 4081
ccpr 4080
tan 4080
账款 4080
彗星 4079
nak@@ 4078
克鲁@@ 4078
成份 4078
构 4078
poin@@ 4077
一辆车 4077
地步 4077
饿 4077
down 4076
安拉 4076
性价比 4076
雅加达 4076
sat 4075
查访 4075
壮丽 4074
拉夫 4074
酒店客房 4074
剑桥 4073
橡@@ 4073
比亚 4073
疏散 4073
力气 4072
瓶子 4072
砸 4072
红帽 4072
讲解 4072
威慑 4071
念头 4071
疲惫 4071
8899shop 4070
ines 4070
润滑 4070
空气质量 4070
西亞 4070
peace 4068
歌剧 4067
比索 4067
行为准则 4067
保时捷 4066
克利@@ 4066
各政党 4066
哈德 4066
崭新 4066
掠 4066
普通@@ 4066
枢@@ 4066
裡@@ 4066
会议记录 4065
勝 4065
芝@@ 4065
打扰 4064
踪@@ 4064
jun@@ 4063
曲面 4063
煤矿 4063
适应性 4063
野外 4063
tek 4062
拱@@ 4062
樓 4062
老虎 4062
賓@@ 4062
齿@@ 4062
安全局 4061
接洽 4061
喜剧 4060
国防部长 4060
激增 4060
wu@@ 4059
尼尔 4059
居住@@ 4059
君@@ 4058
路由 4058
ú 4057
世间 4057
通讯@@ 4057
不得@@ 4056
响起 4056
滋@@ 4056
首批 4056
公共场所 4055
转账 4055
发音 4054
巷 4054
可选 4053
米歇尔 4053
高速@@ 4053
争吵 4052
兔子 4051
商业活动 4051
dc@@ 4050
流出 4050
rt 4049
评语 4049
切削 4048
平均值 4047
慈@@ 4047
84@@ 4046
中文版 4046
刑期 4046
哈里@@ 4046
快照 4046
濒危 4046
悬而未决 4045
纪念活动 4045
雀@@ 4045
奥克兰 4044
牢房 4044
unit 4043
shan 4042
亮点 4042
不用说 4041
并不一定 4041
指认 4041
杯子 4041
东南欧 4040
屏@@ 4040
敗 4040
潘基文 4040
鼠@@ 4040
这边 4039
85% 4038
eb 4038
慕 4038
赔偿额 4038
sha 4037
操控 4037
收据 4037
硕@@ 4037
蓝图 4037
蚀 4037
氧化物 4036
出门 4035
卡塔 4035
神父 4035
工具栏 4034
患病 4034
叶片 4032
欧洲理事会 4032
门锁 4032
277 4031
292 4031
gran@@ 4031
國會 4031
腹部 4031
总值 4030
珍 4030
锐 4030
鸦片 4030
开曼群岛 4029
油气 4029
茲@@ 4029
lang@@ 4028
善政 4028
门前 4028
13% 4027
£ 4027
圣诞老人 4027
好转 4027
左翼 4027
符@@ 4027
爱心 4026
综合征 4025
全局 4024
基会 4024
标志性 4024
全盘 4023
水泵 4023
静电 4022
肘 4021
作好 4020
厦门 4020
宽恕 4020
搁置 4020
毀 4020
长期@@ 4020
喜好 4019
快感 4019
268 4018
form 4018
people 4018
大区 4018
磁场 4018
结社 4018
ik 4017
果汁 4017
海洛因 4017
胚胎 4017
东南亚国家联盟 4016
帅 4016
紐約 4016
遗迹 4016
批发商 4015
看成 4015
励@@ 4014
夜里 4014
步入 4014
渴 4014
rom 4013
地表 4013
极力 4013
纽约@@ 4013
娃娃 4012
来回 4012
狀態 4012
奏@@ 4011
航道 4011
正当理由 4010
how 4009
抗拒 4009
65@@ 4008
劉@@ 4008
惠及 4008
手续费 4008
农作物 4007
μ 4006
太大 4006
实践@@ 4006
戰役 4006
警察@@ 4006
代表权 4004
克莱 4004
塔拉 4004
大有 4004
情事 4004
脊 4004
aw 4003
sf@@ 4003
数千 4003
免得 4002
反击 4002
尚无 4002
东南部 4001
密集型 4001
疆@@ 4001
站立 4001
马尔 4000
order 3999
全能 3999
口岸 3999
优惠券 3998
勇士 3998
巴克 3998
帘 3998
新闻媒体 3998
单曲 3997
短片 3997
阿卜杜拉 3997
固态 3996
裸体 3996
访@@ 3996
商誉 3995
特价 3995
省长 3995
统计@@ 3995
更佳 3993
流产 3993
na@@ 3992
人事@@ 3992
民宿 3992
罢了 3992
爾斯 3991
瑞克 3991
凯瑟琳 3990
ace@@ 3989
臭@@ 3989
蕾@@ 3989
雷德 3989
are@@ 3988
外语 3988
己@@ 3988
情人节 3988
骨折 3988
wol@@ 3987
化管 3987
陷于 3987
非裔 3987
dd 3986
fox 3986
捆绑 3986
懒@@ 3985
舞弊 3985
隶属于 3985
kur@@ 3984
反應 3984
69@@ 3983
gp 3983
膝盖 3983
278 3982
态势 3982
甘 3982
记录@@ 3982
一致同意 3980
境@@ 3980
高山 3980
万亿美元 3979
恕 3979
乎@@ 3978
信号@@ 3978
倾倒 3978
cul@@ 3977
贝格 3977
辩称 3977
bun@@ 3976
河内 3976
视线 3976
骑马 3975
bp 3974
坡@@ 3974
丰盛 3973
荷兰@@ 3973
与众不同 3972
预付 3972
low@@ 3971
quar@@ 3971
名声 3971
砍伐 3971
触及 3971
銀@@ 3971
ng 3970
本应 3970
烟雾 3970
用人单位 3970
竣工 3970
luxury 3969
主权国家 3969
躲避 3968
24.@@ 3967
愉悦 3967
剧情 3966
捏 3966
老龄化 3966
角色扮演 3966
under@@ 3965
多尔 3965
特拉维夫 3965
赌@@ 3965
jas@@ 3964
不曾 3964
不良影响 3964
兔 3964
旧约 3964
oper@@ 3963
作曲家 3963
晓得 3963
灰尘 3963
电视剧 3963
第二十五条 3963
几十@@ 3962
尸@@ 3962
掠@@ 3962
mat 3961
纪录片 3961
道格拉斯 3961
国务卿 3960
敏捷 3960
表单 3960
专职 3959
以东 3959
国际电联 3959
购买力 3959
你家 3958
根本性 3958
環 3958
管理制 3958
存入 3957
爭@@ 3957
留宿 3957
达喀尔 3957
citrix 3956
教养 3956
饼干 3956
乐于 3955
扑克 3955
酗酒 3955
卡罗 3954
奥斯卡 3954
用处 3954
里尼 3954
雷曼 3954
sex@@ 3953
交换@@ 3953
崔@@ 3953
价钱 3952
克什米尔 3951
切尔 3951
古怪 3951
所获 3951
放映 3951
第一轮 3951
十六@@ 3950
又称 3950
撰文 3948
爵 3948
计数 3948
运载工具 3948
sor 3947
抗生素 3947
五次 3946
核武库 3946
ail@@ 3945
丑闻 3945
件事 3945
催化 3945
分泌 3945
尝@@ 3945
时间@@ 3945
法学家 3945
淹没 3945
陣 3945
眾 3944
wto 3943
明确@@ 3943
电子游戏 3943
细致 3943
281 3941
tions 3941
光源 3941
墓地 3941
減少 3941
继电器 3941
驾车 3941
側 3940
堵 3940
资产阶级 3940
zer 3939
乳头 3939
各次 3939
收支 3939
马里@@ 3939
不间断 3938
罢 3938
6.4 3937
对外贸易 3937
心理学家 3937
盖茨 3937
闻@@ 3937
額 3937
cho 3936
纽约时报 3936
娱乐@@ 3935
异性 3935
变异 3934
同位素 3934
宰@@ 3934
發表 3933
依法追究 3932
知名度 3932
靈 3932
tive 3931
皆@@ 3931
第二轮 3931
做饭 3930
电子产品 3930
神学 3930
第二十条 3930
手机@@ 3929
自然环境 3929
eva 3928
先锋 3928
面具 3928
digital 3927
may 3927
民间组织 3927
藍@@ 3927
certified 3926
技术培训 3926
波罗 3926
free@@ 3925
军事法庭 3925
神情 3925
遵@@ 3925
〇 3924
规划@@ 3924
德国@@ 3922
series 3921
升起 3921
色调 3921
japan 3920
凯科 3920
扁@@ 3920
银行家 3919
内务部 3918
分子@@ 3918
维斯 3918
闪烁 3918
安圭拉 3917
笨@@ 3917
cape 3916
备灾 3916
贺@@ 3916
fis@@ 3915
起重机 3915
120@@ 3914
很强 3914
3.7 3913
加床 3913
售出 3913
排出 3913
推断 3913
提出异议 3913
花钱 3913
687 3912
不列颠 3912
咽 3912
固件 3912
陪审团 3912
5.6 3911
喜乐 3911
市场份额 3911
筑 3911
午饭 3910
已久 3910
削@@ 3909
科菲 3909
1925 3908
lines 3908
凌 3908
或收 3908
構@@ 3908
通信@@ 3908
阮@@ 3908
国家统计局 3907
文件@@ 3907
不懈 3906
猎人 3906
甜蜜 3906
辍学 3906
1907 3905
pst 3905
亂 3905
公路@@ 3905
柜@@ 3905
氮@@ 3905
贫困人口 3905
病情 3904
谓 3904
降雨 3904
滕 3903
醋 3903
顺便 3903
嗨 3902
头来 3902
开除 3902
视窗 3902
287 3901
any@@ 3901
螺栓 3901
连贯性 3901
medi@@ 3900
木星 3900
行之有效 3900
页@@ 3899
之路 3898
连通 3898
hay@@ 3897
借用 3897
tweet 3896
日于 3896
第二十一条 3896
.. 3895
ac.105 3895
遗忘 3895
run@@ 3894
年限 3894
新界 3894
歌词 3894
减速 3893
第二十四条 3893
① 3892
台上 3892
山羊 3892
投机 3892
生态@@ 3892
a1 3891
care 3891
chel@@ 3891
set@@ 3891
努力提高 3891
好人 3891
精灵 3891
à 3890
袋@@ 3890
一站式 3889
毅 3889
长得 3889
非常@@ 3889
mon 3888
动手 3887
犯罪人 3887
防守 3887
8.5 3886
cer 3886
network 3886
他国 3886
只见 3886
工商业 3886
特克斯 3886
违规 3886
兄 3885
國王 3885
房门 3885
6000 3884
bau@@ 3884
令人震惊 3884
外商投资 3884
tier 3883
麦克风 3883
怨 3882
等离子 3882
身份验证 3882
ash 3881
sq@@ 3881
专利申请 3881
怡 3881
傷 3880
流亡 3880
葡萄@@ 3880
军用飞机 3879
割 3879
力争 3879
口译员 3879
臭 3879
工作站 3878
香烟 3878
马舍尔 3878
camp@@ 3877
乐于助人 3877
脚注 3877
柔和 3876
监督机制 3875
面向@@ 3875
prote@@ 3874
vii 3874
公共事务 3874
德克萨斯州 3874
代表作 3873
可行性研究 3873
美好@@ 3873
近乎 3873
加以解决 3872
堅@@ 3872
更强 3872
转载 3872
阿比让 3872
粉碎 3871
conne@@ 3870
sim 3870
罕@@ 3870
赫尔 3870
ful@@ 3869
mx 3869
pages 3868
受控 3868
堕落 3868
柏 3868
礁 3868
造就 3868
优于 3866
吵@@ 3866
悠@@ 3866
自有 3866
邮局 3866
river@@ 3865
客车 3865
ass 3864
lap@@ 3864
人气 3864
宾客 3863
涛 3863
考生 3863
赎罪 3863
删去 3862
急救 3862
耕@@ 3862
大笑 3861
法国人 3861
犹太教 3861
绝大部分 3861
翁@@ 3861
基因@@ 3860
绝不会 3860
非常感谢 3860
录取 3859
心思 3859
航空器 3859
蟹 3859
年間 3858
整体@@ 3858
雲@@ 3858
奶油 3857
究 3857
西斯 3856
ads 3855
后台 3855
唯有 3855
最低标准 3855
覆盖范围 3855
edge 3854
lay 3854
光伏 3854
委派 3854
等同于 3854
flo@@ 3853
临时代办 3853
海岸线 3852
acti@@ 3851
开放@@ 3851
当场 3851
糊 3851
伊尔 3850
引述 3850
kno@@ 3849
soph@@ 3849
上任 3849
仔 3849
客栈 3849
甚么 3849
繁华 3849
lands 3848
ud 3848
三十年 3848
静脉 3848
cf@@ 3847
拣选 3847
整洁 3847
vie@@ 3846
露营 3846
hat@@ 3844
牧场 3844
纳德 3844
选举权 3844
恩斯 3843
ray@@ 3842
书面@@ 3842
嘉莉 3842
张力 3842
激起 3842
亮相 3841
铸@@ 3841
伪 3840
审计工作 3840
工资@@ 3840
格外 3840
莱特 3840
berlin 3839
断裂 3839
电报 3839
膝@@ 3839
順@@ 3839
恢复正常 3838
抽出 3838
滥@@ 3838
sport 3837
新颖 3837
见过 3837
訊 3837
阴 3837
骨骼 3837
列名 3836
卡塔赫纳 3836
商务部 3836
掌管 3836
危险性 3835
恐怖组织 3835
自称 3835
33% 3834
吸附 3834
控制台 3834
毁@@ 3834
第一类 3834
阵列 3834
79@@ 3833
def@@ 3833
watch 3833
哈尔 3833
待命 3833
怀特 3833
难得 3833
香水 3833
快速增长 3832
性关系 3832
折叠 3832
途@@ 3832
面粉 3832
小企业 3831
谘询 3831
pn 3830
武汉 3829
看护 3829
矿山 3829
顺从 3829
308 3828
pops 3828
瓦拉 3828
相遇 3828
福克兰群岛 3828
证明书 3828
上层 3827
差点 3827
东正教 3826
架次 3826
果实 3825
第八次 3825
身份证件 3825
驱逐出境 3825
add.5 3824
eta 3824
wipo 3824
产后 3824
应予以 3824
朴 3824
绵@@ 3824
远景 3824
ley@@ 3823
主持会议 3823
冶金 3823
利亞 3823
离岸 3823
三角形 3822
惩罚性 3822
终点 3822
请勿 3822
america 3821
sbsta 3821
瓦伦西亚 3821
营企业 3821
葡萄园 3821
項目 3821
zer@@ 3820
储存@@ 3820
波尔图 3820
矮 3820
精准 3820
deutsch 3819
扣留 3819
拆 3819
数以千计 3819
非传统 3819
一职 3818
威力 3818
曹@@ 3818
责任感 3818
sg 3817
司令 3817
宪兵 3817
诠释 3817
费城 3817
近代 3817
mw 3816
改划 3816
更能 3816
诉求 3816
笔译 3815
ste 3814
该死 3814
с 3813
甲烷 3813
第一部 3813
陀@@ 3813
calle 3812
zen@@ 3812
任務 3811
列于 3811
中起 3810
几家 3810
挤压 3810
检察@@ 3810
清洁用品 3810
自行决定 3810
商業 3809
壮大 3809
州立大学 3809
great 3808
滑动 3807
罗夫 3807
贫 3807
遗漏 3807
坚定不移 3806
胜过 3806
借调 3805
浑身 3805
豐@@ 3805
yn 3804
摄入 3804
案中 3804
紧急状况 3804
聊@@ 3804
伙 3802
单人床 3802
學習 3801
时有 3801
21@@ 3800
红新月会 3800
comple@@ 3799
伸 3799
卢萨卡 3799
敌意 3799
非核心 3799
ess 3798
pho@@ 3798
two 3798
灿烂 3798
秘 3798
縣@@ 3797
送货 3797
长官 3797
餘@@ 3797
公司简介 3796
凝聚力 3796
徽章 3796
杀手 3796
老实 3796
盤 3795
荧光 3795
分在 3794
晨@@ 3794
西南部 3794
一手 3793
茹@@ 3793
照相机 3792
積 3791
遣 3791
幢 3790
bang@@ 3788
ky 3788
pb@@ 3788
射精 3788
背面 3788
bad@@ 3787
chen@@ 3787
轨迹 3787
过渡期 3787
去处 3786
哲 3786
婴 3786
晒 3786
礼服 3786
系指 3786
舉@@ 3786
被称作 3786
专用@@ 3785
政治化 3785
衛 3785
1932 3784
fit@@ 3784
上述情况 3784
人們 3784
售后服务 3784
土壤@@ 3784
立方米 3784
深深地 3783
发器 3782
粉红色 3782
葬礼 3782
候补 3781
喘 3781
毋@@ 3780
埃德@@ 3779
总体目标 3779
抽样 3779
溢@@ 3779
诉讼@@ 3779
呼声 3778
总面积 3778
非法活动 3778
人工@@ 3777
停战 3777
斯科特 3777
首饰 3777
鲨鱼 3777
vas@@ 3776
借此 3776
安全网 3776
管控 3776
背部 3776
达格 3776
中國@@ 3775
减损 3775
射线 3775
巨头 3775
月台 3775
浪潮 3775
纠@@ 3775
讨 3775
面料 3775
污染@@ 3774
转变成 3774
standard 3773
善治 3773
闪电 3773
600@@ 3772
握住 3772
灾区 3772
实证 3771
视频@@ 3771
files 3770
ide@@ 3770
来源国 3770
capital 3769
ski@@ 3769
一个多 3769
外围 3769
status 3768
21.@@ 3767
306 3767
mia 3766
合法权利 3766
大部份 3766
連 3766
国际海事组织 3765
韦斯特 3765
人均收入 3764
先驱 3764
学士 3764
岁@@ 3764
法学 3764
刘 3763
階段 3763
271 3762
里约集团 3762
陣@@ 3762
amo@@ 3761
nice 3761
犹如 3761
电信@@ 3761
陷@@ 3761
7.6 3760
federal 3760
lu 3760
可比 3760
愤@@ 3760
绝不能 3760
钢管 3760
dun@@ 3759
嚴重 3759
无情 3759
贴心 3759
仇 3758
will 3757
中华@@ 3757
致死 3757
阻挡 3757
institute 3756
贸易中心 3756
高加索 3756
mond 3755
暴雨 3755
姬 3754
接触@@ 3754
遗失 3754
ann 3753
伽@@ 3753
剑@@ 3753
堡垒 3753
动器 3752
夜总会 3752
避难所 3752
安全部 3751
tower 3750
嫁 3750
缩编 3750
岳@@ 3749
予@@ 3748
新人 3748
路面 3748
pin 3747
寓@@ 3747
蒙古@@ 3747
area 3746
告诫 3746
国际贸易中心 3746
社会科学 3746
豹 3746
district 3745
人发 3745
港元 3745
玄@@ 3745
绒@@ 3745
协调@@ 3744
嘴巴 3744
圣徒 3744
平均数 3744
机型 3744
text 3743
日出 3743
第四十六届 3743
西尔 3743
0x@@ 3742
gallery 3742
model 3742
性命 3742
狩猎 3742
联布 3742
问问 3742
295 3741
克劳@@ 3741
各人 3741
复活节 3741
市值 3741
劲@@ 3740
跪 3740
cl 3739
倒退 3738
不负 3737
准军事 3737
寄宿 3737
手持 3737
树枝 3737
械 3737
水电 3737
425 3736
ctor 3736
主旨 3736
服务费 3736
瓶颈 3736
宝座 3735
着陆 3735
鸿@@ 3735
报刊 3734
requested 3733
发货 3733
发邮件 3733
手稿 3733
angel 3732
aki 3731
惟一 3731
出演 3730
多位 3730
杜绝 3730
august 3729
遗嘱 3729
公会 3728
几名 3728
妇女儿童 3728
摇头 3728
火炬 3727
书店 3726
断言 3726
气动 3726
疑虑 3726
瞄准 3726
經常 3726
贝尔@@ 3726
辦@@ 3726
直觉 3725
量身 3725
stra 3724
呼吸@@ 3724
基座 3724
浮动 3724
減@@ 3724
试行 3724
43@@ 3723
firefox 3723
jiang 3723
品牌@@ 3722
哺乳动物 3722
循环@@ 3722
政府军 3721
溫 3721
缅@@ 3721
群島 3721
滨海 3720
马赛 3720
拓扑 3719
杀伤性 3718
水池 3718
重振 3718
color 3717
全是 3717
参与方 3717
应享 3717
建筑材料 3717
致敬 3717
action 3716
大哥 3716
谱@@ 3716
起誓 3716
未有 3715
五分钟 3714
抑郁 3714
缠@@ 3714
282 3712
8.0 3712
sn74act@@ 3712
溢 3712
线圈 3712
转过 3712
非常任 3712
马利亚 3712
9.2 3711
水流 3711
适度 3711
ov@@ 3710
tree 3710
专为 3710
第二类 3710
統 3710
连结 3710
一栋 3709
姆斯 3709
安全区 3709
梳@@ 3709
流浪 3709
第二十三条 3708
fao 3707
history 3707
凯恩 3707
收容所 3706
肥料 3706
castle 3705
sam 3705
尼克松 3705
筹款 3705
night 3704
耗费 3704
資 3704
1934 3703
ally 3703
yan 3703
珥 3703
max@@ 3702
pit@@ 3702
不具 3702
辛烷 3702
冲洗 3701
抗击 3701
base 3700
数据管理 3700
西北部 3700
通报情况 3700
音乐家 3700
bra 3699
church 3699
fer 3699
pay 3699
洗礼 3699
落成 3699
逆转录 3699
jos 3697
和平谈判 3697
塞维利亚 3697
末期 3697
试验机 3697
mov 3696
出名 3696
剪 3696
距@@ 3696
兆@@ 3695
全程 3695
座堂 3695
恒 3695
蒙特塞 3695
307 3694
内为 3694
医疗机构 3694
camping 3693
孟加拉 3693
杰夫 3693
不大 3692
战俘 3692
所犯 3692
特殊教育 3692
导则 3691
流动@@ 3691
灭亡 3691
術@@ 3691
valley 3690
医疗器械 3690
战略部署 3690
整修 3690
肖 3690
归纳 3689
堵塞 3688
離開 3688
不相@@ 3687
人力资本 3687
第一次世界大战 3687
粗暴 3687
贪婪 3687
db@@ 3686
深入研究 3686
情报局 3685
残割 3685
美金 3685
苛刻 3685
萎缩 3685
低廉 3684
劳工法 3684
尼古拉 3684
與@@ 3684
讨@@ 3684
俱樂部 3683
投放 3683
航海 3683
蝶@@ 3683
边上 3683
午夜 3682
第二十二届 3682
騎@@ 3682
激 3681
翠 3681
融化 3681
指挥@@ 3680
知识@@ 3680
霸 3680
卡洛斯 3679
市景 3679
塊 3678
履行义务 3678
面包@@ 3678
pack@@ 3677
保障@@ 3677
哭@@ 3677
几率 3676
mall 3675
soft 3675
下班 3675
厅@@ 3675
涉 3675
综@@ 3675
想象力 3674
找个 3673
数据恢复 3673
踩 3673
不高 3672
平均水平 3672
廣泛 3672
公投 3671
注册@@ 3671
呈现出 3670
green@@ 3669
mid@@ 3669
只得 3669
垃圾@@ 3669
芒@@ 3668
财政状况 3668
哈佛 3667
mam@@ 3666
主題 3665
孔子 3665
慈爱 3665
木头 3665
沉浸 3665
雄心勃勃 3665
sou@@ 3664
剧场 3664
汗@@ 3664
萍 3664
隐 3664
印度政府 3663
探头 3663
求解 3663
边际 3663
转速 3662
黎明 3662
传输@@ 3661
悉 3661
logi@@ 3660
nas 3660
偏低 3660
时要 3660
运往 3660
8.8 3659
一至 3659
大豆 3659
斯托克 3659
歐 3659
贮@@ 3659
圍 3658
涵@@ 3658
评判 3658
追溯 3658
项链 3658
atmel 3657
治療 3657
车厢 3657
item 3656
jal@@ 3656
射频 3656
拍照 3656
电子设备 3656
440 3655
魯 3655
ups 3654
太空@@ 3654
寫@@ 3654
箭@@ 3654
美术 3653
1921 3652
八国集团 3652
重新分配 3652
aur@@ 3651
实用性 3651
hav@@ 3650
mu 3650
泄@@ 3650
禮@@ 3650
诸 3650
香料 3650
sis@@ 3649
尔曼 3649
410 3648
expert 3648
xy@@ 3648
全环 3648
扑 3648
滚筒式 3648
unix 3647
交通事故 3647
数学家 3647
用具 3647
蛇@@ 3647
铁路@@ 3647
down@@ 3646
human 3646
款中 3646
苍白 3646
日为 3645
水手 3645
绳子 3645
评选 3645
log 3644
rfid 3644
vic 3644
五十周年 3644
积极性 3644
通行证 3644
had@@ 3643
敞开 3643
而应 3643
藝@@ 3643
训练有素 3643
香味 3643
dot 3642
年龄段 3642
悔改 3642
者@@ 3642
1923 3641
460 3641
sn74als@@ 3641
家禽 3641
兒子 3640
刊载 3640
发电厂 3640
地下室 3640
巡逻队 3640
欣慰 3640
ia@@ 3639
十足 3639
好吃 3639
新奥尔良 3639
行长 3639
les@@ 3638
东方@@ 3638
柴 3638
矿产资源 3638
维克 3638
七日 3637
升至 3637
天文学 3637
尸 3637
清迈 3637
触犯 3637
 3637
newslist 3636
内识 3636
间隙 3636
承担@@ 3635
按着 3635
浴 3635
買 3635
instant 3634
互联 3634
虚拟@@ 3634
雷尔 3634
npt 3633
授课 3633
lie 3632
ssl 3632
弗里 3632
强壮 3632
911 3631
拉尼 3631
反弹 3630
国贸 3630
愈 3630
生产国 3630
第二十七条 3630
核燃料 3629
理应 3629
莱德 3629
2500 3628
7.8 3628
team 3628
燔 3628
til@@ 3627
决策机构 3627
树上 3627
军团 3626
分级 3626
幼 3626
施加压力 3626
烧毁 3626
apache 3625
mohamed 3625
外交关系 3625
物价 3625
独奏 3625
约书亚 3625
草地 3625
主计长 3624
第十 3624
耸@@ 3624
适时 3624
判决书 3623
卖家 3623
周到 3623
教育部门 3623
独 3623
代客 3622
切除 3622
將會 3622
洗衣房 3622
筑@@ 3622
幻 3621
方程式 3621
理会 3621
管制@@ 3621
自私 3621
蜂蜜 3620
喂@@ 3619
自由软件 3619
身亡 3619
面貌 3619
阶@@ 3618
grap@@ 3617
sec@@ 3617
who 3617
停下 3617
冯 3617
应得 3617
沟@@ 3617
1927 3616
ima 3616
mv@@ 3616
占领区 3616
格陵兰 3616
泵@@ 3616
菲尔 3616
november 3615
rat@@ 3615
举止 3615
ij@@ 3614
中产阶级 3614
今年@@ 3614
政治犯 3614
半小时 3613
赶到 3613
宗教团体 3612
乔治@@ 3611
bangkok 3610
普林@@ 3610
规避 3610
邊@@ 3610
酋长 3610
上演 3609
减除 3609
大米 3609
谈及 3609
els 3608
hus@@ 3608
一百 3608
国在 3608
巧@@ 3608
新闻自由 3608
消息来源 3608
男友 3608
重心 3608
之初 3607
五项 3607
无奈 3607
索尔 3607
较少 3607
1928 3606
501 3606
jen@@ 3606
每名 3606
台阶 3605
哈佛大学 3605
慧 3605
準@@ 3605
耕作 3605
路边 3605
ef@@ 3604
欧亚 3604
绑定 3604
89@@ 3603
lim 3603
丛林 3603
恤 3603
一身 3602
场面 3602
背包客 3602
430 3601
photo 3601
放射 3601
肢体 3601
四星级 3600
废墟 3600
最先 3600
铝合金 3600
mini@@ 3599
svg 3599
客气 3599
幫助 3599
膝 3599
visit 3598
貿易 3598
跟上 3598
数学@@ 3597
地缘 3596
履@@ 3596
筹集资金 3596
防火 3596
pletronics 3595
sher@@ 3595
惹@@ 3595
武器@@ 3595
如果说 3594
彼得@@ 3594
扫罗 3594
朱 3594
主管人员 3593
博拉 3593
她自己 3593
媚 3593
时装 3593
california 3592
辛苦 3592
ther 3591
恶心 3591
血压 3591
切尔诺贝利 3590
切斯特 3590
投票权 3590
zhou 3589
同居 3589
存储空间 3589
激光@@ 3589
1914 3588
duc@@ 3588
多长时间 3588
方形 3588
私营企业 3588
chap@@ 3587
大众@@ 3587
恶人 3587
羽毛球 3587
以西 3586
痒 3586
7.3 3585
ink 3585
经贸 3585
譬如 3585
受灾 3584
带头 3584
质量标准 3584
pet 3583
坪 3583
母乳喂养 3583
pres@@ 3582
入选 3582
原子@@ 3582
各國 3582
恰恰 3582
š 3581
原产地 3581
基础架构 3581
244@@ 3580
就业率 3580
王星 3580
袍 3580
路易@@ 3580
镑 3580
dn@@ 3579
explorer 3579
2d 3578
技术创新 3578
旅行@@ 3578
海面 3578
多米尼加 3577
8.3 3576
over@@ 3576
xen@@ 3576
诫命 3576
comb@@ 3575
fu 3575
mai@@ 3575
放进 3575
沼@@ 3575
餘 3575
anna 3574
一语 3574
国会议员 3574
弧 3574
盟军 3574
menu 3573
低气压 3573
却@@ 3573
虫@@ 3573
爪@@ 3572
界线 3572
逛 3572
99.@@ 3571
全天 3571
庸 3571
顆 3571
28.@@ 3570
shipping 3570
位移 3570
油墨 3570
群集 3570
3g 3569
功夫 3569
勃 3569
对联 3569
文斯 3569
泳 3569
美德 3569
饱 3569
pet@@ 3568
严密 3568
园艺 3568
pper 3567
三角洲 3566
metro 3565
主宰 3565
图形@@ 3565
灌 3565
而后 3565
臀部 3565
若有 3565
陈旧 3564
under 3563
些@@ 3563
割礼 3563
氨酸 3563
纷@@ 3563
绍@@ 3563
从没 3562
印第安@@ 3562
渗@@ 3562
环境退化 3562
核心@@ 3561
生活状况 3561
解釋 3561
赏 3561
都灵 3561
饮用 3561
州政府 3560
引爆 3560
持有者 3560
统称 3560
逼@@ 3560
26.@@ 3559
广州市 3559
度量 3559
蒸发 3559
马克思主义 3559
模拟@@ 3556
波长 3556
特拉@@ 3556
玻@@ 3556
18% 3554
剥@@ 3554
月间 3554
皇宫 3554
第四十七届 3554
簡@@ 3554
背上 3554
辉@@ 3554
云南 3553
爱国 3553
sau@@ 3552
发言权 3552
惡@@ 3552
社会学 3552
娘@@ 3551
證@@ 3551
集结 3551
鹅@@ 3551
临时性 3550
空中@@ 3550
program@@ 3549
候选国 3549
公立学校 3549
所长 3549
收藏@@ 3549
饲养 3549
修补 3548
叠 3548
可信度 3548
彩虹 3548
保有 3547
大大增加 3547
德文 3547
悲哀 3547
第九次 3547
联想 3547
脏@@ 3547
jab@@ 3546
丶 3546
尼奥 3546
手淫 3546
疗 3546
第十次 3546
纺@@ 3546
辽@@ 3546
外包 3545
本协定 3545
胡子 3545
送花 3545
icp 3544
不怕 3544
库克群岛 3544
特斯 3543
纱@@ 3543
dru@@ 3542
优秀@@ 3542
恪守 3542
我该 3542
躺@@ 3542
重生 3542
兩 3541
协理 3541
耀@@ 3541
町 3540
礼仪 3540
说谎 3540
远见 3540
繁多 3539
隶属 3539
thing 3538
粉丝 3538
自由选择 3538
诚挚 3538
生活费 3537
胡安 3537
趁@@ 3537
轨@@ 3537
阿布扎比 3537
经济合作组织 3536
一楼 3535
危 3535
jon@@ 3534
份子 3534
媒体报道 3534
尤为重要 3534
开销 3534
瑞士法郎 3534
航天器 3534
轧@@ 3533
367 3532
两点 3532
庆典 3532
抑郁症 3532
玩耍 3532
舌@@ 3532
親 3532
徽 3531
权柄 3531
自助式 3531
hin@@ 3530
sli@@ 3530
教會 3530
植物园 3530
羽毛 3529
联署 3529
cb@@ 3528
文稿 3528
美分 3528
marina 3527
右翼 3527
市政厅 3527
畏 3527
赶快 3527
lcd 3526
交换机 3526
拒絕 3526
皇冠 3526
fur@@ 3525
停用 3525
创下 3525
福克斯 3525
积极主动 3525
情势 3524
雜@@ 3524
wer@@ 3523
不合@@ 3523
costa 3522
ington 3522
从小 3522
㈥ 3521
后方 3521
河南 3521
规章制度 3521
299 3520
designer 3520
仅次于 3520
排球 3520
細胞 3520
严重后果 3519
贩 3519
姿 3518
解放运动 3518
提法 3517
驴 3517
tial 3516
信息化 3516
劳务 3516
台式 3516
消化@@ 3516
特质 3516
同樣 3515
宇航员 3515
尔森 3515
根基 3515
serv@@ 3514
樹@@ 3514
巡 3513
汪@@ 3513
耗 3513
同一天 3512
莲@@ 3512
停机 3511
小船 3511
波兰@@ 3511
验收 3511
1931 3510
不向 3510
两届 3510
茂 3510
迷惑 3510
you@@ 3509
危险@@ 3509
电源@@ 3509
異 3509
过量 3509
厉@@ 3508
新闻记者 3508
生态环境 3508
284 3507
缔造 3507
及时性 3506
1874 3505
壁垒 3505
督察 3505
越是 3505
身体健康 3505
投资银行 3504
一如既往 3503
图象 3503
小鼠 3503
掩饰 3503
赔@@ 3503
顿时 3503
不致 3502
充电器 3502
里程 3502
主演 3501
侦@@ 3501
努力@@ 3501
礼堂 3501
絕@@ 3501
蜂 3501
陰@@ 3500
不道德 3499
韓國 3499
尼科西亚 3498
艳 3498
超級 3498
but 3497
商业化 3497
網路 3497
财产损失 3497
ou 3496
over 3496
ware 3496
克雷@@ 3496
新款 3496
核电站 3496
298 3495
74lv@@ 3495
之夜 3495
峰值 3495
深层 3495
拉伸 3494
诱导 3494
道夫 3494
防备 3494
2a 3493
哥伦比亚特区 3493
孙子 3493
情侣 3493
残余 3493
fort 3492
以人为本 3492
卖出 3491
认罪 3491
议事 3491
chester 3490
pcb 3490
传到 3490
寸 3490
解放阵线 3490
560 3489
学说 3489
招待 3489
管理信息系统 3489
藐视 3489
马里奥 3489
加班 3488
苹果@@ 3488
cms 3487
multi@@ 3487
刚好 3487
情况通报 3487
傲慢 3486
建材 3486
瞩目 3486
蜜蜂 3486
金融部门 3486
收录 3485
紅 3485
肃@@ 3485
虾 3485
行政区 3485
640 3484
dic@@ 3484
各阶层 3484
果子 3484
民事诉讼 3484
鑫 3484
不宜 3483
塔林 3483
後來 3482
症@@ 3482
维尔京群岛 3482
也好 3481
前一天 3481
吸毒者 3481
微不足道 3481
病变 3481
起步 3481
haw@@ 3480
培 3480
按计划 3480
收件人 3480
錄@@ 3480
1b 3479
两间 3479
夷@@ 3479
妆 3479
并会 3479
没关系 3479
离散 3479
证明文件 3479
nap@@ 3478
拆毁 3478
祥@@ 3478
诈骗 3478
一脸 3477
经济损失 3477
醚 3477
突变 3476
裂缝 3476
触摸屏 3476
黎 3476
510 3475
不善 3475
西海岸 3475
避孕药 3475
三日 3474
反感 3474
忌 3474
聊天室 3474
950 3473
qi 3473
中小学 3473
位居 3473
留住 3473
耻辱 3473
讷 3473
wp 3472
協@@ 3472
小区 3472
思想@@ 3472
福利@@ 3472
螺纹 3472
route 3471
select 3471
气质 3471
醫@@ 3471
采样 3470
arm 3469
科伦坡 3469
面对面 3469
升温 3468
biz 3467
tn@@ 3467
决不能 3467
齒 3467
尋@@ 3466
技术开发 3466
聽 3466
ball 3465
ler@@ 3465
巫@@ 3465
强硬 3465
怀着 3465
311 3464
itunes 3464
未來 3464
條件 3464
货币@@ 3464
何况 3463
托盘 3463
篇幅 3463
粘贴 3463
22.@@ 3461
song 3461
創作 3461
帝国主义 3461
幻灯片 3461
液晶 3461
百分@@ 3461
禽@@ 3461
纲 3461
苏珊 3461
古兰经 3460
挑 3460
边防 3460
eth@@ 3459
流血 3459
逐漸 3459
ria 3458
不足之处 3458
个州 3458
奸 3458
拼命 3458
停顿 3457
出手 3457
心血管 3457
本署 3457
bis@@ 3456
date 3456
栏@@ 3456
绑 3456
阀@@ 3456
andy 3455
doc 3455
jquery 3455
mont@@ 3455
喉@@ 3455
缀 3454
考核 3454
訓練 3454
her 3453
亚特兰大 3453
欢喜 3453
小岛 3452
325 3451
亲王 3451
測試 3451
rock 3450
公用 3450
戰鬥 3450
旦 3450
资料库 3450
1701 3449
世纪末 3449
大洋洲 3449
摔@@ 3449
第八章 3448
centro 3447
lp 3447
眼下 3447
虹@@ 3447
估計 3446
行动@@ 3446
金融资产 3446
会议@@ 3445
korea 3444
兼任 3444
库克 3444
秒钟 3444
yuan 3443
包装@@ 3443
問 3443
字节 3443
显出 3443
查出 3443
民主制度 3443
物質 3443
cb 3442
comments 3441
曾任 3441
波音 3441
遥控 3441
改革开放 3440
tableau 3439
一到 3439
截然不同 3439
枕头 3439
滕@@ 3439
forex 3438
rich 3438
分析方法 3438
哺乳 3438
就行了 3438
巴尔@@ 3438
黑海 3438
joseph 3437
希德 3437
漆@@ 3437
逗@@ 3437
金币 3437
附加值 3437
off@@ 3436
河谷 3436
真诚地 3436
趣@@ 3436
身旁 3436
钦@@ 3436
多边合作 3435
殘@@ 3435
流传 3435
浮 3435
英文@@ 3435
被忽视 3435
顶端 3435
饰@@ 3435
鼻 3435
gin@@ 3434
人要 3434
区域@@ 3434
阿什 3434
英国政府 3433
info@@ 3432
ren 3432
寿 3432
忍耐 3432
长途@@ 3432
高度@@ 3432
互补性 3431
本性 3431
犹 3431
直接参与 3431
change 3430
生子 3430
印刷@@ 3429
建議 3429
弓 3429
握@@ 3429
敬拜 3429
蜘蛛 3429
起居 3428
note 3427
資訊 3427
queen 3426
兩人 3426
延至 3426
患上 3426
胰@@ 3426
阿尔及尔 3426
顽固 3426
末尾 3424
术后 3424
舉辦 3424
驱 3424
东北@@ 3423
开发新 3423
弗洛@@ 3423
迪亚 3423
涩 3422
检控 3421
行进 3421
阿斯 3421
上届 3420
倒塌 3420
胀 3420
mp4 3419
相继 3419
辨认 3419
only 3417
喷泉 3417
尔克 3417
预付款 3417
预示 3417
颜料 3417
书报摊 3416
利士 3416
化物 3416
收割 3416
斐 3416
严重破坏 3415
参谋长 3415
日止 3415
渔民 3415
ment@@ 3414
国际刑警组织 3414
妃 3414
1n@@ 3413
商贸 3413
回报率 3413
现金@@ 3413
1912 3412
卡拉@@ 3412
核技术 3412
猩猩 3412
病房 3412
而生 3412
崎 3411
受惠 3410
唇@@ 3410
我司 3410
戛纳 3410
窥@@ 3410
乌斯 3409
re4 3408
不合 3408
减低 3408
单据 3408
挣@@ 3408
测绘 3408
警卫队 3408
顽@@ 3408
保修 3407
dal 3406
nin@@ 3406
列祖 3406
十五@@ 3406
重新部署 3406
8.6 3405
β 3405
使团 3405
只想 3405
sur 3404
上司 3404
和睦 3404
就是说 3404
泛滥 3404
注意事项 3404
鹿@@ 3404
fab@@ 3403
gmail 3403
太好了 3403
惯@@ 3403
赫尔@@ 3403
bag@@ 3402
工程学 3402
获取信息 3402
诈 3402
跃 3402
electronic 3401
experience 3401
lex@@ 3401
潛@@ 3401
配对 3401
价格指数 3400
处女 3400
盘子 3400
高大 3400
kun@@ 3399
会儿 3399
无偿 3399
阿布贾 3399
兒童 3398
王位 3398
還是 3397
上门 3396
五天 3396
自发 3396
雷区 3396
kim 3395
赞成票 3395
association 3394
傍晚 3394
史上 3394
戴尔 3394
责任人 3394
390 3393
寨 3393
vol 3392
犬@@ 3392
4.8 3391
exe 3391
客户关系 3391
机电 3391
瞪 3391
letter 3390
排队 3390
搭建 3390
有鉴于此 3390
科学界 3390
崎@@ 3389
布加勒斯特 3389
翼@@ 3389
九条 3388
嚴@@ 3388
构件 3388
红利 3388
龄@@ 3388
location 3387
med 3387
亲近 3387
德州 3387
滤波器 3387
知悉 3386
空间站 3386
重启 3386
portal 3385
全国人民代表大会常务委员会 3385
美观 3385
胆固醇 3385
艺术作品 3385
謝@@ 3385
ango 3384
吉斯 3384
沦为 3384
report 3383
标本 3383
豁免权 3383
更进一步 3382
督@@ 3382
财政政策 3382
乞@@ 3381
搬家 3381
25.@@ 3380
什麼 3380
充作 3380
加元 3380
片刻 3380
环境法 3380
知名人士 3380
購@@ 3380
达到@@ 3380
零零 3380
2050 3379
寂寞 3379
战机 3379
集成@@ 3379
oh 3378
复合@@ 3378
真主党 3378
不负责任 3377
主导作用 3377
pos 3376
商标局 3376
奸@@ 3376
溶解 3376
gil@@ 3375
train 3375
休息@@ 3375
日益严重 3375
med@@ 3374
special 3374
协力 3374
友好关系 3374
执业 3374
求职 3374
终极 3374
钦 3374
woo@@ 3373
国际事务 3373
微弱 3373
无尽 3373
一堂 3372
体制改革 3372
受体 3372
啟@@ 3372
投资人 3372
杏@@ 3372
ays 3371
mit 3371
安大略省 3371
講@@ 3371
当事国 3370
无线@@ 3370
笔者 3370
管局 3370
december 3369
stein 3369
丝袜 3369
福建 3369
罗斯福 3369
萨克 3369
312 3368
realty 3368
nik 3367
太陽@@ 3367
工地 3367
欧洲议会 3367
沉积物 3367
照亮 3367
采购@@ 3367
6.6 3366
amar@@ 3366
分辨 3366
可变 3366
座谈会 3366
歪曲 3366
溶 3366
物质@@ 3366
起源于 3366
遴选 3366
阿波罗 3366
arts 3365
pvc 3365
两边 3365
农业部 3365
出场 3365
前端 3365
匆匆 3365
可预测性 3365
居民@@ 3365
第四十届 3365
赔 3365
過去 3365
颤 3365
ato 3364
时数 3364
流行@@ 3364
集团公司 3364
接受国 3363
马来@@ 3363
云端 3362
採@@ 3362
稀少 3362
領域 3362
309 3361
ign 3361
埃厄 3361
姿@@ 3361
浓 3361
犯罪集团 3361
网关 3361
以利 3359
增长速度 3359
纽伦堡 3359
航站楼 3359
基础@@ 3358
摘 3358
电线 3358
内部@@ 3357
台风 3357
11% 3356
kes 3356
听听 3356
恳求 3356
莱纳 3356
血清 3356
1800 3355
top@@ 3355
於@@ 3355
顺着 3355
售价 3354
氨@@ 3354
hl 3353
stat@@ 3353
凯特 3353
拨给 3353
马卡娜 3353
87@@ 3352
天气@@ 3352
孝@@ 3352
德罗 3352
急忙 3351
稳健 3351
cru@@ 3350
自力更生 3350
边境地区 3350
阳性 3350
21st 3349
加固 3348
恐龙 3348
深入@@ 3348
饱受 3348
bc@@ 3347
民间团体 3347
矫正 3347
肚@@ 3347
补给 3347
一分 3346
六十 3346
毕业@@ 3346
纯洁 3346
之时 3345
复印件 3345
希臘 3345
常识 3345
时报 3345
皂@@ 3345
雷特 3345
商业区 3344
年时 3344
迎合 3344
弗吉尼亚 3343
模糊@@ 3343
百万@@ 3343
赔偿@@ 3343
spi@@ 3342
侠 3342
因数 3342
帕尔@@ 3342
根本@@ 3342
煎@@ 3342
衷心 3342
阿利 3342
dge 3341
一号 3341
哈拉 3341
泪水 3341
滋味 3341
333 3340
pun@@ 3340
伯明翰 3340
体力 3340
劳力 3340
合乎 3340
官僚 3340
斯蒂芬 3340
电磁 3340
資源 3340
领导力 3340
win32 3339
口头报告 3339
结晶 3339
罂粟 3339
起伏 3339
45% 3338
拖车 3338
背包 3338
sol@@ 3337
五金 3337
光荣 3337
架飞机 3337
热心 3337
窗外 3337
俄亥俄州 3336
吳@@ 3336
在乎 3336
成套 3336
淫秽 3336
囚禁 3335
端子 3335
英文翻译 3335
infobox 3334
占地 3334
扎伊尔 3334
狱@@ 3334
oc 3333
off 3333
shu@@ 3333
登机 3333
kit 3332
人员@@ 3332
后备 3332
基因组 3332
源头 3332
sexy@@ 3331
乙烯 3331
劳动合同 3331
古董 3331
游人 3331
1910 3330
f1 3329
切尔西 3329
四分之三 3329
大陸 3329
招待会 3329
校区 3329
真心 3329
缴费 3329
耀 3329
鏡 3329
富翁 3328
批发@@ 3328
dictionary 3327
告别 3327
水库 3327
炭@@ 3327
系统对 3327
谜 3327
device 3326
ort 3326
sing@@ 3326
次年 3326
米亚 3326
铭@@ 3326
cis@@ 3325
品味 3325
芦@@ 3325
队列 3325
姑@@ 3324
感官 3323
托运 3323
遣@@ 3323
鸭 3323
hai 3322
在位 3322
室内@@ 3322
焚@@ 3322
維持 3322
计算器 3322
加权 3321
哥伦比亚@@ 3321
平等@@ 3321
节约@@ 3321
朋@@ 3320
殷@@ 3320
疲软 3320
哈特 3319
精油 3319
315 3318
结案 3318
会场 3317
农户 3317
残障 3317
alpha 3316
post@@ 3316
welcome 3316
修饰 3316
几下 3316
字样 3316
意见@@ 3316
旱灾 3316
筹划 3316
解脱 3316
food 3315
ster@@ 3315
下调 3315
委托人 3315
愛爾蘭 3315
气流 3315
这支 3315
图画 3314
搂 3314
1904 3313
50727.36@@ 3313
企業 3313
尚有 3313
项目@@ 3313
bbs 3312
gir@@ 3312
н 3312
互信 3312
前提条件 3312
卡斯特 3312
dj 3311
mah 3311
兽医 3311
参谋 3311
坝 3311
得意 3311
接吻 3311
请洽 3311
ago@@ 3310
受不了 3310
快速反应 3310
washington 3309
巢@@ 3309
р 3308
可望 3308
p.@@ 3307
廣播 3307
澤@@ 3307
辣@@ 3307
金枪鱼 3307
1926 3306
uid 3306
生殖器官 3306
converter 3305
pap@@ 3305
tc 3305
二元 3305
离心@@ 3305
dio@@ 3304
fli@@ 3304
厂房 3304
尖端 3304
挫 3304
濒@@ 3304
规例 3304
gener@@ 3303
勒索 3303
律师费 3303
而出 3303
野心 3303
粘 3302
帕克 3301
联络@@ 3301
领养 3301
stat 3300
suse 3300
之情 3300
姚@@ 3300
映像 3300
装甲 3300
ema 3299
使用费 3299
允@@ 3299
4.7 3298
个案研究 3298
塑性 3298
淫 3298
自营 3298
1924 3297
ento 3297
opc 3297
一堆 3297
安定 3297
沙拉 3297
蓋@@ 3297
sul@@ 3296
源泉 3296
here 3295
ute 3295
半天 3295
學者 3295
罗马帝国 3295
zar@@ 3294
处方 3294
穿梭 3294
雕@@ 3294
ady 3293
敞@@ 3293
语义 3293
预算内 3293
骆驼 3293
liber@@ 3292
中东问题 3292
免疫系统 3292
初始化 3292
商事 3292
线条 3292
识字率 3292
規定 3291
louis 3290
司法人员 3290
预留 3290
投入使用 3289
更为重要 3289
爽@@ 3289
訴 3289
tere@@ 3288
特殊性 3288
特等 3288
国务@@ 3287
里奇 3287
域外 3286
已故 3286
万军 3285
田野 3285
拐 3284
欠缺 3284
铸 3284
tim 3283
安第斯 3283
电动机 3283
这为 3283
连线 3283
components 3282
pra@@ 3282
language 3281
似宜 3281
十分重视 3281
时分 3281
紧急@@ 3281
工業 3280
抛光 3280
米拉 3280
荒谬 3280
虚构 3280
产品描述 3279
人大 3279
停火协定 3279
卒 3279
单证 3279
发型 3279
自然保护区 3279
表面@@ 3279
150@@ 3278
eo 3278
和平共处 3278
脊@@ 3278
虔诚 3278
pau@@ 3277
x射线 3277
国民@@ 3277
夺得 3277
年长 3277
澳大利亚@@ 3277
盲目 3277
阿塞拜疆共和国 3277
鸣 3277
17% 3276
nel@@ 3276
字幕 3275
应邀 3275
美学 3275
291 3274
ales 3274
cus 3274
kt 3274
mber@@ 3274
捧 3274
零售@@ 3274
crp.1 3273
在政治上 3273
希伯@@ 3273
徒步 3273
抛 3273
dis 3272
低头 3272
声音文件 3272
横跨 3272
興 3272
追随者 3272
均等 3271
基亚 3271
抑@@ 3271
棱@@ 3271
壓@@ 3270
巨型 3270
loo@@ 3269
两座 3269
中途 3269
新设 3269
绘 3269
萊 3269
转子 3269
魁北克 3269
第二十七届 3268
走到 3268
身高 3268
修订本 3267
描@@ 3267
欧洲央行 3267
存储器 3266
工坊 3266
总体@@ 3266
畅销 3266
疑惑 3266
澳门特别行政区 3265
亏@@ 3264
人口比例 3264
所受 3264
雅克 3264
abcde 3263
ading 3263
協助 3263
留学生 3263
觀測 3263
鲜 3263
294 3262
nie 3262
⑴ 3262
估@@ 3262
exchange 3261
小狗 3261
渗透@@ 3261
考量 3261
ils 3260
不遗余力 3260
煮@@ 3260
进球 3260
ition 3259
周期性 3259
择@@ 3259
用量 3259
病假 3259
细目 3259
陵@@ 3259
14% 3258
对非 3258
身体@@ 3258
dit@@ 3257
救护车 3257
機會 3257
肺结核 3257
两国政府 3256
北极@@ 3256
维度 3256
匪@@ 3255
总能 3255
托尔 3255
死于 3254
滥杀 3254
理所当然 3254
警员 3254
cad@@ 3253
l.3 3253
一线 3253
清偿 3253
温度传感器 3253
网上@@ 3253
之久 3252
广播@@ 3252
微信 3252
daniel 3251
need 3251
付诸实施 3251
安息 3251
轮调 3251
逃走 3251
tre 3250
可予 3250
护送 3250
plu@@ 3249
全國 3249
听证 3249
盲人 3249
车身 3249
辩解 3249
cour@@ 3248
一百零@@ 3248
傻瓜 3248
夜生活 3248
征募 3248
收益率 3248
泪 3247
貨@@ 3247
钢铁@@ 3247
饮酒 3247
9.0 3246
fghij 3246
弓@@ 3246
机油 3246
jp 3245
writing 3245
good@@ 3244
世界性 3244
产品组合 3244
满足@@ 3244
派系 3243
键@@ 3243
9.1 3242
vac@@ 3242
广播公司 3242
空气@@ 3242
肮脏 3242
驗 3242
參與 3241
含糊 3241
哀悼 3241
破产法 3241
蓬勃发展 3241
器械 3240
床间 3240
车载 3240
进口国 3240
hk@@ 3239
伊德 3239
公升 3239
弗雷德 3239
惟@@ 3239
犹@@ 3239
訪 3239
诺言 3239
apt 3238
brokerage 3238
恢 3238
詩@@ 3238
轮椅 3238
aven@@ 3237
以下内容 3237
几百@@ 3237
必需品 3237
挡@@ 3237
相片 3237
人口数量 3236
厌倦 3236
层楼 3236
档@@ 3236
科技委 3236
studios 3235
tou@@ 3235
猎 3235
dubai 3234
spo@@ 3234
养费 3234
赋@@ 3234
bis 3233
gb@@ 3233
个人电脑 3233
布斯 3233
悲痛 3233
那一刻 3233
tv@@ 3232
衰竭 3232
威斯@@ 3231
排水 3231
理工大学 3231
突 3231
布尔@@ 3230
敲定 3230
梵@@ 3230
行为@@ 3230
候选 3229
内斯 3229
慧@@ 3229
捷克斯洛伐克 3229
档案馆 3229
航天@@ 3229
足迹 3229
令人信服 3228
全日制 3228
全球战略 3228
怎样才能 3228
敵@@ 3228
进驻 3228
铅@@ 3228
nab@@ 3227
朵 3227
畢業 3227
行使@@ 3227
rar 3226
分鐘 3226
外流 3226
飞行器 3226
1922 3225
gr 3225
zy 3225
工党 3225
棵 3225
民选 3225
粗糙 3225
螺 3225
1514 3224
df@@ 3224
层级 3224
弥合 3224
矿石 3224
保健@@ 3223
冥@@ 3223
取样 3223
塞斯 3223
救恩 3223
斟酌 3223
末日 3223
石化 3223
价值观念 3222
调配 3222
钾 3222
琳娜 3221
邀@@ 3221
onia 3220
今天上午 3220
傑 3220
拘捕 3220
第二十二条 3220
icon 3219
map@@ 3219
ony 3219
site@@ 3219
另行通知 3219
新鲜@@ 3219
眉 3219
double 3218
专委 3218
服装@@ 3218
绕过 3218
诱人 3218
不断@@ 3217
出版@@ 3217
堵@@ 3217
趋于 3217
遊 3217
dent 3216
一连串 3216
公開 3216
五分之一 3215
传承 3215
燃气 3215
福斯 3215
docs 3214
hou@@ 3214
lot@@ 3214
旱地 3214
衰老 3214
1600 3213
motion 3213
tour 3213
women 3213
之心 3213
图纸 3213
心意 3213
汇聚 3213
猜想 3213
alli@@ 3212
亚非 3212
介于 3212
另一边 3212
时髦 3212
晕@@ 3212
爱因斯坦 3212
gas@@ 3211
演唱会 3211
node 3210
事关 3210
传统习俗 3210
南斯拉夫联邦 3210
第二十六届 3210
荷蘭 3210
quin@@ 3209
功能强大 3209
当量 3209
气管 3209
芬兰@@ 3209
ami 3208
back@@ 3208
little 3208
世界级 3208
五百 3208
540 3207
lot 3207
三明治 3207
交出 3207
合意 3207
小学生 3207
税收@@ 3207
经贸@@ 3207
货品 3207
tex 3206
拇指 3206
shell 3205
下旬 3205
不久前 3205
硬质合金 3205
oe@@ 3204
加油 3204
包装机 3204
喷射 3204
身穿 3204
committee 3203
hua 3203
国防@@ 3203
好不好 3203
带回 3203
缓冲 3203
西伯利亚 3203
3.8 3202
hello 3202
团结一致 3202
心想 3202
萨拉热窝 3202
金边 3202
tas 3201
密切协作 3201
斯大林 3201
新泽西州 3201
hur@@ 3200
中華民國 3200
兄弟姐妹 3200
合资企业 3200
大法官 3200
特罗 3200
番@@ 3200
風格 3200
产品设计 3199
伯恩 3199
远东 3199
颂 3199
atlas 3198
premium 3198
常見 3198
狐狸 3198
阈值 3198
五大 3197
拦@@ 3197
资料@@ 3197
遗体 3197
financial 3196
同性恋者 3196
第二份 3196
精通 3196
金星 3196
出价 3195
漠@@ 3195
琪 3195
888 3194
henry 3194
kw@@ 3194
外观设计 3194
帕拉 3194
标注 3194
的關 3194
舟 3194
评论家 3194
存量 3193
机械设备 3193
菊@@ 3193
一旁 3192
履行任务 3192
工商企业 3192
澳大利亚政府 3192
编排 3192
ardo 3191
变化@@ 3191
驅@@ 3191
基辅 3190
武装集团 3190
求婚 3190
箭头 3190
大叫 3189
相近 3189
娱乐场 3188
截面 3188
民主联盟 3188
淀粉 3188
生产工艺 3188
雄性 3188
ë 3187
约翰福音 3187
近几年 3187
食谱 3187
full 3186
february 3185
來源 3185
湯@@ 3185
瓶装水 3185
第二种 3185
青蛙 3185
git 3184
份@@ 3184
入伍 3184
柯 3184
锋@@ 3184
陆上 3184
澳大利 3183
真菌 3183
2sc@@ 3182
作文 3182
棕榈 3182
经济型 3182
dm 3181
热处理 3181
严格执行 3180
烫 3180
百度 3180
许诺 3180
开庭 3179
浴池 3179
相匹配 3179
茫 3179
計算 3179
75.0 3178
viewspace 3178
上年 3178
之手 3178
核销 3178
第四十三届 3178
蔑视 3178
锅@@ 3178
mount 3177
下周 3177
开出 3177
流氓 3177
然後@@ 3177
eda 3176
切合实际 3176
平息 3176
抽奖 3176
拉开 3176
新加坡@@ 3176
檔 3176
瓦解 3176
螺旋@@ 3176
兼并 3175
姜@@ 3175
常务委员会 3175
fran 3174
拥有者 3174
第一种 3174
铬 3174
雇@@ 3174
上衣 3173
倡导者 3173
据点 3173
芽@@ 3173
资历 3173
1000@@ 3172
叫声 3172
戴维 3172
有效@@ 3172
陪@@ 3172
坦率 3171
妥当 3171
熱 3171
这台 3171
zone 3170
屡@@ 3169
晴@@ 3169
联合国@@ 3169
蔑 3169
释出 3169
297 3168
cheng 3168
icc 3168
农村@@ 3168
aco 3167
商业中心 3167
数控 3167
blan@@ 3166
packard 3166
vishay 3166
房车 3165
方框 3165
虛@@ 3165
議院 3165
blu@@ 3164
cn.7 3164
к 3164
匆忙 3164
大体上 3164
安曼 3163
舉 3163
芝 3163
宽泛 3162
性侵犯 3162
马拉喀什 3162
485 3161
变迁 3161
壁画 3161
好玩 3161
研磨 3161
腹泻 3161
实实在在 3160
柔性 3160
驾 3160
高涨 3160
刀片 3159
后退 3159
16% 3158
sweet 3158
南共体 3158
德曼 3158
非洲开发银行 3158
beta 3157
宅 3157
应用软件 3157
检查员 3157
黄金@@ 3157
佐证 3156
渍 3156
9.3 3155
apps 3155
前去 3155
合一 3155
基里巴斯 3155
归入 3155
奇异 3154
麻疹 3154
个省 3153
所含 3153
棕榈@@ 3153
驾驶@@ 3153
魔力 3153
geneva 3152
贏得 3152
逃犯 3152
ibis 3151
lau@@ 3151
伐 3151
染色体 3151
緣 3151
见图 3151
touch 3150
哩 3150
8000 3149
health 3149
全天候 3149
扭矩 3149
极佳 3149
合成@@ 3148
论据 3148
连续@@ 3148
马克思 3148
诅咒 3147
酒馆 3147
鸽@@ 3147
再现 3146
實驗 3146
錦標賽 3146
钛 3146
anth@@ 3145
mos 3145
人子 3145
很漂亮 3145
托雷斯 3145
磁性 3145
耕 3145
靠着 3145
nic 3144
化解 3144
去掉 3144
旨 3144
湖南 3144
大大提高 3143
安德鲁 3143
感恩 3143
超支 3143
跟前 3143
单人间 3142
留存 3142
祸害 3142
不多 3141
光辉 3141
建筑业 3141
抬 3141
日益@@ 3141
编织 3141
院士 3141
音频@@ 3141
高尚 3141
bold 3140
喉 3140
埃拉 3140
找回 3140
时空 3139
祭坛 3139
鄭@@ 3139
黑夜 3139
zhu@@ 3138
反倾销 3138
往常 3138
hewlett 3137
优先@@ 3137
新世界 3137
模拟器 3137
滨 3137
guesthouse 3136
分配@@ 3136
头顶 3136
数据传输 3136
自此 3136
招收 3135
共产@@ 3134
大洋 3134
标示 3134
灼@@ 3134
設立 3134
close 3133
etc 3133
print 3133
升降 3133
坑@@ 3133
库拉 3133
獄 3133
aia 3132
本期 3132
白俄罗斯共和国 3132
第二号 3132
西北@@ 3132
部际 3132
黑洞 3132
326 3131
ders 3131
中所作 3131
好客 3131
爱上 3131
皱 3131
福克 3131
闪光 3131
oem 3130
respon@@ 3130
心跳 3130
撒谎 3130
第七十三 3130
船旗国 3130
地下@@ 3129
数据交换 3129
爸@@ 3129
论及 3129
魂@@ 3129
ubuntu 3128
仔细@@ 3128
依次 3128
太过 3128
所在区域 3128
推动力 3128
週 3128
pus@@ 3127
丑@@ 3127
生命科学 3127
ental 3126
美式 3126
这样的话 3126
验 3126
乒乓球 3125
规程 3125
风机 3125
they 3124
村子 3124
汽車 3124
此等 3123
鼓吹 3123
е 3122
临界 3122
全面实施 3122
内衣 3121
加拿大政府 3121
妥 3121
绝对@@ 3121
jav@@ 3120
时速 3120
服务设施 3119
格里@@ 3119
畜@@ 3119
闪存 3119
293 3118
国立大学 3118
染色 3118
county 3117
兽@@ 3117
同工同酬 3117
阿拉斯加 3117
扫除 3116
普斯 3116
陀 3116
30319.@@ 3115
ova 3115
仁慈 3115
凸显 3115
向本 3115
就象 3115
希腊语 3115
立足 3115
ages 3114
security 3114
僵尸 3114
安全感 3114
晒@@ 3114
钨@@ 3114
闷@@ 3114
震撼 3114
pav@@ 3113
交替 3113
tom@@ 3112
tw@@ 3112
时向 3112
lion 3111
sey 3111
升降机 3111
手势 3111
欧空局 3111
修行 3110
外邦 3110
欢呼 3110
社会活动 3110
赫勒拿 3110
适 3110
上载 3109
坦诚 3109
驳 3109
双性恋 3108
救主 3108
浑@@ 3108
蓬 3108
mr@@ 3107
羔羊 3107
莫斯 3107
人向 3106
结婚@@ 3106
绣 3106
贫困线 3106
达卡 3106
颈 3106
pel@@ 3105
斯岛 3105
求职者 3105
灵敏度 3105
税法 3105
立体 3105
色素 3104
花园里 3104
jiu 3103
ng@@ 3103
之声 3103
本信 3103
傅@@ 3102
国债 3102
小鸟 3102
犯罪分子 3102
猴 3102
竞标 3102
行业标准 3102
这起 3102
rep 3101
仲@@ 3101
出路 3101
尽职 3101
走访 3101
引人@@ 3100
缓缓 3100
西蒙 3100
flow 3099
巡回 3099
攀升 3099
正文 3099
转基因 3099
nam 3098
代人 3098
病因 3098
譜 3098
aire 3097
script 3097
对准 3097
rich@@ 3096
塞尔维亚共和国 3096
燕 3096
賣 3096
醫院 3096
音响 3096
residen@@ 3095
末端 3095
毛病 3095
癌@@ 3095
第一家 3095
第二季度 3094
令人兴奋 3093
弗尔 3093
捷克语 3093
某事 3093
橙色 3093
變成 3093
论者 3093
313 3092
nm 3092
十五日 3092
318 3091
kai@@ 3091
spec@@ 3091
乙醇 3091
修女 3091
半径 3091
邁@@ 3091
鳥 3091
偏向 3089
婴儿床 3089
插图 3089
準 3089
牙医 3089
能以 3089
违法@@ 3089
镁 3089
cube 3088
特大 3088
雲 3088
體育@@ 3088
nan 3087
408 3086
nl 3086
利息收入 3086
募@@ 3086
瓦尔@@ 3086
素食 3086
識 3086
踏上 3086
青春期 3086
flu@@ 3085
sports 3085
巴拿马@@ 3085
平坦 3085
萨格勒布 3085
详见 3085
ust 3084
不快 3084
币@@ 3084
洗手间 3084
狮@@ 3084
mart@@ 3083
仅限 3083
小型企业 3083
工作进展 3082
撰@@ 3082
牛顿 3082
px 3081
悔 3081
承租人 3081
汪洋 3081
普吉 3080
稀有 3080
经济区 3080
错误@@ 3080
坚硬 3079
审问 3079
核心作用 3079
september 3078
sl 3078
创始 3078
尖锐 3078
precision 3077
信封 3077
疮 3077
藥 3077
boy 3076
拓 3076
有利条件 3076
自由权 3076
超链接 3076
信道 3075
减税 3075
博士@@ 3075
至上 3075
7.4 3074
代表处 3074
換@@ 3074
暴风雨 3074
神经网络 3074
获知 3074
tu 3073
大能 3073
第二十五届 3073
要约 3073
这么@@ 3073
采取相应 3073
downtown 3072
phone 3072
同名 3072
管理工具 3072
維爾 3072
臂@@ 3072
贝里 3072
郵@@ 3072
馀 3072
1100 3071
sak@@ 3071
争执 3071
冲突地区 3071
发展前景 3071
斥@@ 3071
班级 3071
第三十八届 3071
跳跃 3071
事实@@ 3070
受审 3070
天后 3070
差遣 3070
往年 3070
改装 3070
375 3069
丹尼 3069
夸张 3069
构思 3069
牧 3069
英属维尔京群岛 3069
近海 3069
嫌犯 3068
普通法 3068
贮存 3068
骚@@ 3068
brown 3067
芙 3067
酿@@ 3067
amber 3066
daten 3066
hills 3066
任务区 3066
推开 3066
禄 3066
突发 3066
而作 3066
裸@@ 3066
ahmed 3065
siliconix 3065
创新型 3065
宰 3065
撇@@ 3065
染料 3065
第三十九届 3065
錢 3065
fpa 3064
撑@@ 3064
涡轮 3064
肾 3064
自尊 3064
jack 3063
举起 3063
光泽 3063
匀@@ 3063
叛军 3063
外人 3063
好运 3063
小时候 3063
滞 3063
追逐 3063
bell 3062
嘲@@ 3062
按键 3062
9.5 3061
可谓 3061
建国 3061
栗 3061
歸 3061
葡萄牙@@ 3061
vienna 3060
字段 3060
巴哈 3060
水文 3060
720 3059
很赞 3059
晚间 3059
終 3059
罗媚 3059
羡慕 3059
organ@@ 3058
一百一十 3058
小說 3058
这人 3058
地道 3057
洛伊 3057
狱 3057
等同 3057
迪尔 3057
kab@@ 3056
報導 3056
更少 3056
栽培 3056
社会工作 3056
笛 3056
陶 3056
ngc 3055
人次 3055
供货 3055
奎 3055
拥 3055
皇室 3055
皱@@ 3055
tian@@ 3054
乌兹别克斯坦共和国 3054
分析@@ 3054
spar@@ 3053
本节 3053
警戒 3053
走开 3053
logy 3052
之物 3052
太阳系 3052
一場 3051
嫌疑犯 3051
安徽 3051
自由主义 3051
葉 3051
诈@@ 3051
skaya 3050
助益 3050
想念 3050
470 3049
rab@@ 3049
榮@@ 3049
值得一提的是 3048
星座 3048
chang 3047
np 3047
叹@@ 3047
左手 3047
特殊@@ 3047
sci@@ 3046
人手 3046
筛查 3046
飛行 3046
产品开发 3045
奖章 3045
并不@@ 3045
斯拉夫 3045
杂项收入 3045
活动家 3045
金子 3045
oli 3044
凶手 3044
喷涂 3044
有点儿 3044
窃 3044
耗尽 3044
臣@@ 3044
锯 3044
府@@ 3043
擅@@ 3043
更糟 3043
柬 3043
热烈欢迎 3043
肤@@ 3043
amaz@@ 3042
pal 3042
拉萨 3042
男女之间 3042
马路 3042
530 3041
sum@@ 3041
受苦 3041
格兰德 3041
現時 3041
邪 3041
颤@@ 3041
不下 3040
写出 3040
失业者 3040
弗朗西斯 3040
统计学 3040
椎@@ 3039
信使 3038
实验@@ 3038
抽屉 3038
无损 3038
里夫 3038
军营 3037
银子 3037
骚 3037
场上 3036
投掷 3036
任天堂 3035
役@@ 3035
釋 3035
金融中心 3035
ghts 3034
先是 3034
奖赏 3034
稱為 3034
絕 3034
shin@@ 3033
薛@@ 3033
323 3032
dale 3032
杆菌 3032
疚 3032
碱@@ 3032
第四十二届 3032
腐蚀性 3032
高强度 3032
29.@@ 3031
低压 3031
派生 3031
身體 3031
避孕套 3031
isab@@ 3030
斯拉@@ 3030
皮带 3030
酚 3030
cn.15 3029
代表@@ 3029
具体步骤 3029
千人 3029
卓 3029
脂肪酸 3029
private 3028
不详 3028
偷偷 3028
陨@@ 3028
雅虎 3028
喔 3027
扔@@ 3027
窝@@ 3027
詞@@ 3027
过得 3027
逐 3027
慈善机构 3026
拓@@ 3026
斥 3026
宾至如归 3025
平滑 3025
并非如此 3025
爪 3025
裏 3025
飛 3025
miami 3024
双重标准 3024
否@@ 3024
固定资产 3024
最佳@@ 3024
管理司 3024
9.4 3023
ast@@ 3023
专心 3023
充斥 3023
创设 3023
受到@@ 3023
威尔逊 3023
挤出 3023
波利萨 3023
股本 3023
长城 3023
闸@@ 3023
你方 3022
陆续 3022
dong@@ 3021
hof 3021
start 3021
条纹 3021
類似 3021
削 3020
摧@@ 3020
赞助商 3020
双边协定 3019
提早 3019
汇票 3019
六名 3018
奢侈 3018
化工@@ 3017
多层 3017
輛 3017
辆车 3017
外汇@@ 3016
fas@@ 3015
国营 3015
尖叫 3015
铭 3015
饥@@ 3015
即应 3014
双边合作 3014
官方语言 3014
射入 3014
摊 3014
数百家 3014
黄油 3014
三章 3013
巴萨 3013
新教 3013
楼上 3013
照看 3013
监核 3013
说是 3013
飙升 3013
僧@@ 3012
弗吉尼亚州 3012
搅@@ 3012
讯问 3012
察觉 3011
成见 3011
老虎机 3011
但愿 3010
塞尔@@ 3010
循@@ 3010
罗伯@@ 3010
逍遥法外 3010
mai 3009
因本 3009
愤 3009
烦 3009
至此 3009
蘇格蘭 3009
路德 3009
运到 3009
这样一来 3009
里亚尔 3009
长长的 3009
ict 3008
弗兰@@ 3008
笼 3008
day@@ 3007
list@@ 3007
二维 3007
各式各样 3007
市场需求 3007
comm@@ 3006
sidebar 3006
洲@@ 3006
纽卡斯尔 3006
传教士 3005
死后 3005
緊@@ 3005
任职者 3004
拿走 3004
澳门@@ 3004
麻醉 3004
fus@@ 3003
kov 3002
‧ 3002
滥伤 3002
鸟儿 3002
及第 3001
布里斯班 3001
矩形 3001
build 3000
一等 3000
劣@@ 3000
圆锥 3000
富含 3000
政黨 3000
潜 3000
瘾 3000
纽约联合国总部 3000
肾脏 3000
苯丙胺 3000
通用@@ 3000
题材 3000
合理性 2999
大都会 2999
核动力 2999
結婚 2999
虚弱 2999
该区 2999
晚饭 2998
分散@@ 2997
炒@@ 2997
管家 2997
llc 2996
交叉@@ 2996
在我看来 2996
成因 2996
敢@@ 2996
渐进 2996
記錄 2996
← 2995
仕 2995
我们自己的 2995
浙江省 2995
体操 2994
里尔 2994
qc 2993
rates 2993
世界知识产权组织 2993
发生@@ 2993
广西 2993
激光器 2993
逸@@ 2993
swit@@ 2992
初审 2992
卡萨@@ 2992
固化 2992
音乐厅 2992
凝聚 2991
大王 2991
引诱 2991
自然界 2991
车手 2991
较差 2991
hire 2990
文第 2990
新闻网 2990
漫畫 2990
种植@@ 2990
660 2989
该厅 2989
非常简单 2989
亲眼@@ 2988
在校 2988
摇滚 2988
带入 2987
绅士 2987
aux 2986
吉普@@ 2986
强烈建议 2986
无产阶级 2986
贞 2986
rac@@ 2985
新闻报道 2985
核扩散 2985
达拉斯 2985
一項 2984
使用率 2984
rs@@ 2983
伯里 2983
大衣 2983
探究 2983
赶走 2983
佩尔 2982
冊 2982
压力@@ 2982
哈桑 2982
贞@@ 2982
辍学率 2982
阵营 2982
314 2981
榜@@ 2981
l.4 2980
概念@@ 2980
试探 2980
非歧视 2980
flickr 2979
威斯康@@ 2979
接收器 2979
克罗@@ 2978
票务 2978
335 2977
cas 2977
iss 2977
代理@@ 2977
夹克 2977
添 2977
许可权 2977
风速 2977
供应量 2976
公允 2976
輪@@ 2976
追赶 2976
collection 2975
frac 2975
到访 2975
可比性 2975
植入 2975
而行 2975
solutions 2974
咪 2974
我自己的 2974
该局 2974
重伤 2974
分派 2973
刊@@ 2973
包机 2973
吸血鬼 2973
身影 2973
迭代 2973
florence 2972
上以 2972
点点头 2972
讀@@ 2972
这款 2972
传道 2971
储量 2971
大大减少 2971
橫@@ 2971
辨别 2971
580 2970
冕 2969
地质@@ 2969
french 2968
radio 2968
举例来说 2968
冷漠 2968
出版商 2968
前列 2968
晚宴 2968
程序员 2968
高雅 2968
七天 2967
二进制 2967
伽利略 2967
凶 2967
巴尔干 2967
泥土 2967
藉由 2967
凝 2966
国界 2966
itu@@ 2965
year 2965
写成 2965
搏 2965
1911 2964
archives 2964
dev@@ 2964
tcp 2964
平凡 2964
揉 2964
机动车 2964
特别@@ 2964
真实@@ 2964
蟲 2964
允許 2963
大樓 2963
监察@@ 2963
蝙蝠 2963
停车位 2962
刃 2962
耗时 2962
锤 2961
brit@@ 2960
卢卡斯 2960
墨水 2960
布隆迪政府 2960
援用 2960
磁带 2960
萌@@ 2960
内所 2959
情节严重 2959
执 2959
拟合 2959
方括号 2959
衰落 2959
設有 2959
询@@ 2959
hb@@ 2958
kin 2958
卢布 2958
同比 2958
抱住 2958
狭隘 2958
中国人民银行 2957
会堂 2957
基本要素 2957
摇滚乐 2957
旋律 2957
有损 2957
海盗行为 2957
颠@@ 2957
pd 2956
十分钟 2956
呼吸道 2956
国家标准 2956
越发 2956
sb 2955
侯赛因 2955
精心设计 2955
表扬 2955
醒@@ 2955
防御@@ 2955
丹麦@@ 2954
人人平等 2954
长短 2954
一幕 2953
亚麻 2953
伦敦@@ 2953
工业部门 2953
贵宾 2953
集中营 2953
620 2952
反射@@ 2952
地去 2952
宜必思 2952
教育法 2952
紧接着 2952
选拔 2952
current 2951
分量 2951
单元格 2951
土地@@ 2951
总有 2951
贡@@ 2951
通盘 2951
领受 2951
wu 2950
定时 2950
幾個 2950
海员 2950
老大 2950
酒店设施 2950
颇@@ 2950
cep@@ 2949
gt 2949
gy 2949
备注 2949
肺炎 2949
phuket 2948
周转基金 2948
外汇储备 2948
波浪 2948
目击者 2948
睿 2948
兩種 2947
处处长 2947
插头 2947
設施 2947
声望 2946
洞察 2946
滞后 2946
颇为 2946
争战 2945
开立 2945
总统令 2945
文盲率 2945
bet 2944
古希腊 2944
安东尼 2944
方法学 2944
脑海 2944
调制 2944
melbourne 2943
tle 2943
ê 2943
天主教徒 2943
fx 2942
决不会 2942
受限 2942
洲际 2942
滅 2942
纯度 2942
苍@@ 2942
22% 2941
仗 2941
放射@@ 2941
砲 2941
ain@@ 2940
压抑 2940
高标准 2940
guide 2939
psd 2939
大夫 2939
des@@ 2938
sto 2938
款下 2938
灯泡 2938
译员 2938
雌性 2938
comment 2937
jmp 2937
爵夫人 2937
现正 2937
設備 2937
50727.5420 2936
特岛 2936
结实 2936
iec 2935
虑 2934
silver 2933
各部委 2933
电风扇 2933
证券公司 2933
仿 2932
慶@@ 2932
拳击 2932
片剂 2932
珍妮 2932
稿@@ 2932
胸前 2932
营业执照 2932
際 2932
mate 2931
tai 2931
文艺复兴 2931
橄榄油 2931
针灸 2931
fen@@ 2930
夸大 2930
慰@@ 2930
簡稱 2930
翌@@ 2930
eh 2929
所要 2929
穿戴 2929
竞争者 2929
而异 2929
衔接 2929
起码 2929
dell 2928
彰显 2928
自给自足 2928
pool 2927
gin 2926
stic 2926
塑胶 2926
增益 2926
321 2925
dae 2925
不理 2925
现成 2925
神迹 2925
acro@@ 2924
high@@ 2924
地平线 2924
宵禁 2924
拓宽 2924
整数 2924
cp.7 2923
两用 2923
中子 2923
偿债 2923
发射器 2923
天文学家 2923
希拉里 2923
视委 2923
谁@@ 2923
agen@@ 2922
lev@@ 2922
professional 2922
不太@@ 2922
類型 2922
减量 2921
[...]
