. 9166393
, 4808904
I 3182548
you 2627633
? 2614646
the 2248178
to 1924794
's 1699796
a 1563342
- 1329508
! 1163700
't 1126180
it 1101451
of 932221
that 912850
You 863656
and 828313
... 784732
in 777786
is 769927
me 768240
for 553106
on 551380
'm 539712
this 525438
're 517290
have 512747
your 500749
my 488591
was 486720
we 472279
know 470735
be 465126
What 463164
It 459437
not 436334
do 432027
are 417280
with 410966
can 397145
don 386315
what 363705
he 363509
" 354468
We 330191
here 327199
just 325757
'll 323062
And 311824
like 310246
No 307720
all 302628
out 297003
up 288777
get 287119
about 284568
him 281238
The 279266
right 276723
go 269722
He 268857
at 256212
That 252772
her 250585
there 250276
one 230151
want 229924
so 229253
got 223581
Oh 218097
've 216454
they 209820
think 209408
no 206468
Yeah 206256
but 205928
But 195644
she 189835
if 189033
will 186671
now 182082
from 179366
see 175309
gonna 171452
Well 169671
So 169365
his 168799
back 168342
as 167248
going 164506
an 163683
us 162408
time 159986
did 156918
This 153394
them 152362
were 146382
She 143757
been 142422
good 142235
They 140193
would 138109
Yes 138021
How 137270
need 137138
had 135828
' 129583
who 128901
come 128520
'd 128304
man 124676
or 124454
take 123140
Why 122509
didn 122367
some 121946
say 121714
our 121661
Okay 120634
when 120495
Come 119769
could 119302
Hey 118184
way 116575
down 116080
how 114846
tell 112791
something 112713
If 112694
really 111944
too 110905
There 109661
more 109013
Let 108187
Don 108128
by 105919
has 105448
A 105238
make 103163
All 100177
never 99595
over 97964
mean 96017
little 95651
off 95011
let 94781
said 94293
Do 93942
then 92733
My 91690
doing 91219
should 91137
look 89569
people 87753
only 86700
love 84968
am 83778
thing 83245
very 80314
Where 80112
Now 79615
much 78719
Just 77783
okay 77675
why 77617
where 77095
two 76314
any 76170
Are 75362
Is 73663
into 73427
find 71489
♪ 71329
help 70663
still 70272
: 70071
even 69846
Who 69733
give 69228
work 69213
Look 68929
day 68552
Thank 68533
sorry 68356
life 67660
anything 67027
God 66803
again 65651
because 65510
talk 65033
sure 64649
Mr. 64498
first 64330
than 64166
Your 63962
-@@ 63427
call 63281
thought 62957
other 62748
away 62335
night 62232
Get 62210
their 62156
before 62121
these 62060
home 62007
Not 61168
told 60872
won 59725
Good 58261
well 58259
Can 56926
last 56826
must 56278
guy 56210
years 56141
better 54583
Go 54492
name 53775
things 53302
long 53106
please 52780
put 52761
around 52726
When 52668
always 52139
ever 51974
money 51835
Did 51619
guys 51244
after 50599
doesn 50599
those 50475
made 49668
place 49650
Please 49243
nothing 49102
In 48649
feel 48524
keep 47082
everything 46975
great 46879
Then 46621
believe 45948
done 45776
wanted 45732
sir 45140
old 44877
girl 44748
lot 44400
leave 44119
coming 43748
does 43743
through 43743
new 43438
wrong 43007
kind 42995
happened 42966
kill 42688
left 42601
Here 42482
house 42403
hear 42268
stop 41811
bad 41657
talking 41458
Maybe 41322
-- 41191
understand 40781
being 40777
fucking 40583
father 40517
big 40467
someone 40054
course 40023
came 39971
dead 39349
Hello 39341
else 39331
care 39319
own 39245
might 38933
world 38606
hell 38604
enough 38484
found 38179
i 37981
son 37923
every 37741
isn 37537
looking 37485
Because 37380
ask 37356
friend 37173
fine 37099
getting 36879
another 36397
car 36168
same 35786
stay 35673
trying 35651
yourself 35560
today 35493
went 35191
three 35040
wasn 35001
mother 34987
Right 34941
To 34701
wait 34515
saw 34471
job 34425
remember 34265
uh 34148
shit 34143
best 34114
real 34065
family 33995
Wait 33770
nice 33746
For 33677
together 33653
[ 33601
] 33571
room 33569
One 33374
yeah 33233
show 33056
Thanks 32975
mind 32598
already 32595
next 32432
wanna 32304
many 32117
gotta 32034
head 31693
) 31492
Uh 31376
knew 31293
try 31135
heard 31128
seen 31119
( 31001
boy 30968
Hi 30911
wouldn 30891
may 30659
Sorry 30420
# 30347
baby 30345
live 30314
woman 30300
which 30217
took 30074
idea 30023
wife 29581
Stop 29544
whole 29395
Take 29368
OK 29294
called 29248
men 29176
Have 29163
maybe 29081
used 28992
Of 28811
ago 28762
fuck 28713
morning 28638
killed 28506
move 28388
days 28184
without 28022
use 28001
yet 27849
most 27742
hard 27622
pretty 27484
die 27404
school 27385
saying 27320
meet 27264
start 26880
gone 26736
matter 26639
ready 26582
myself 26558
friends 26525
problem 26466
guess 26451
alone 26316
haven 26274
wants 26059
end 26038
few 26026
.. 25802
Tell 25752
tonight 25722
face 25692
play 25587
while 25548
lost 25538
phone 25204
case 25191
See 24825
brother 24680
Like 24675
run 24660
Really 24425
happy 24410
couldn 24368
As 24319
both 24137
year 24103
once 24086
Give 24054
actually 23991
late 23925
such 23917
says 23813
Dad 23725
Or 23725
bit 23625
anyone 23601
tomorrow 23571
dad 23543
bring 23334
business 23294
worry 23171
kid 23064
Listen 23023
until 23018
door 23003
hand 22795
hope 22737
thinking 22606
true 22549
also 22431
yes 22307
working 22294
kids 22011
each 21978
person 21832
minutes 21821
heart 21795
having 21644
second 21629
crazy 21624
since 21571
stuff 21542
knows 21522
gave 21462
deal 21405
soon 21388
mom 21386
happen 21270
part 21270
Nothing 21157
means 21046
un@@ 20983
huh 20954
turn 20790
hurt 20760
under 20753
listen 20749
re@@ 20607
beautiful 20571
Excuse 20531
open 20467
eat 20462
later 20443
taking 20354
S@@ 20242
pay 20049
asked 20033
minute 20028
thank 20018
point 19949
everyone 19924
change 19873
probably 19863
water 19776
supposed 19749
Mom 19658
$ 19438
far 19418
side 19410
hit 19394
At 19359
eyes 19302
inside 19273
* 19258
A@@ 19220
looks 19115
o 19044
chance 19007
makes 18985
able 18938
With 18920
story 18908
police 18886
hands 18851
death 18772
times 18750
fun 18690
Will 18640
drink 18611
Sure 18516
making 18507
daughter 18485
different 18438
its 18367
Dr. 18341
hold 18324
body 18323
set 18292
anymore 18276
hours 18276
rest 18274
fight 18273
least 18206
afraid 18153
ain 18152
week 18151
His 18142
party 18068
word 18058
shot 18002
five 17988
husband 17955
read 17874
sleep 17868
watch 17757
mine 17737
number 17669
game 17644
against 17626
exactly 17596
young 17489
ass 17488
waiting 17480
gets 17435
comes 17423
close 17404
met 17364
question 17314
line 17306
important 17285
Miss 17246
check 17243
blood 17226
died 16998
Fuck 16984
easy 16921
reason 16838
Sir 16742
truth 16684
gun 16646
Ah 16621
cause 16603
behind 16556
wish 16531
moment 16480
married 16377
started 16356
town 16318
fire 16232
telling 16148
'@@ 16036
walk 15945
s 15913
months 15901
break 15900
girls 15879
goes 15841
I@@ 15761
On 15703
office 15697
tried 15644
cut 15622
between 15509
yours 15497
hate 15486
sit 15457
alive 15451
children 15423
These 15418
needs 15416
Mrs. 15414
in@@ 15371
bed 15356
um 15355
front 15338
Our 15303
four 15293
em 15289
brought 15253
Would 15209
safe 15199
T@@ 15167
free 15135
O@@ 15130
trust 15129
speak 15089
E@@ 15063
couple 15044
though 14974
somebody 14923
child 14850
sister 14831
forget 14819
trouble 14791
New 14771
a@@ 14702
plan 14655
aren 14637
war 14481
ahead 14469
stupid 14429
Which 14417
Hold 14405
Um 14379
10 14346
-I 14323
e@@ 14315
bitch 14301
almost 14294
book 14194
outside 14149
quite 14143
2 14141
answer 14108
stand 14084
Jesus 14077
YOU 14075
women 13958
1 13957
buy 13927
miss 13856
Great 13825
lose 13825
Me 13782
team 13778
Two 13768
half 13767
high 13762
everybody 13757
light 13695
l 13685
funny 13673
d@@ 13639
full 13593
news 13570
John 13471
clear 13462
less 13455
whatever 13445
boys 13442
Even 13428
P@@ 13421
3 13364
either 13363
hour 13317
After 13309
save 13308
country 13237
Put 13231
fact 13221
order 13180
dog 13176
Nice 13175
Keep 13168
sent 13167
parents 13144
running 13121
Be 13108
leaving 13106
promise 13102
living 13064
food 13062
power 13027
cool 12989
dinner 12950
G@@ 12929
hot 12928
damn 12828
lives 12815
pick 12741
k@@ 12738
sick 12723
Jack 12699
serious 12674
Shit 12652
Some 12630
D@@ 12609
Got 12605
doctor 12602
Everything 12595
t@@ 12569
Very 12553
feeling 12536
send 12511
taken 12475
ma 12471
win 12417
along 12413
scared 12406
become 12383
Help 12380
asking 12366
ya 12318
20 12316
B@@ 12293
million 12247
city 12241
lie 12196
Does 12139
o@@ 12101
six 12066
seems 11982
lady 11929
anyway 11928
touch 11928
K@@ 11903
Shut 11886
shouldn 11870
Wow 11863
past 11840
happens 11825
company 11787
C@@ 11563
Stay 11542
cannot 11540
himself 11522
ma@@ 11502
Bye 11496
hey 11487
playing 11481
dear 11478
From 11360
thanks 11333
control 11312
shoot 11312
hair 11292
sex 11242
drive 11230
shall 11224
luck 11204
Only 11149
Damn 11135
THE 11128
anybody 11113
meeting 11095
y@@ 11064
possible 11063
seem 10966
weeks 10963
human 10908
Never 10898
sound 10889
Fine 10850
30 10848
perfect 10841
Something 10822
Was 10801
p@@ 10800
land 10751
fast 10721
u@@ 10708
M@@ 10706
honey 10683
calling 10676
special 10664
small 10651
li@@ 10616
er 10613
s@@ 10608
i@@ 10606
top 10589
date 10539
sense 10509
kidding 10505
hospital 10461
00 10435
king 10429
Mr 10423
cold 10406
known 10395
5 10366
worked 10358
Her 10356
words 10355
By 10321
en@@ 10317
longer 10316
moving 10311
May 10294
N@@ 10275
fault 10268
Re@@ 10265
felt 10254
de@@ 10251
questions 10247
Could 10238
figure 10222
dream 10219
Man 10210
boss 10161
F@@ 10062
es 10062
shut 10058
sign 10052
g@@ 10042
piece 10036
loved 9995
People 9971
black 9949
glad 9943
sort 9934
worth 9934
secret 9932
Lord 9923
m@@ 9906
choice 9894
m 9891
write 9885
Those 9881
music 9857
bet 9827
Any 9807
changed 9785
e 9778
catch 9748
ca@@ 9741
god 9741
R@@ 9735
t 9735
Move 9732
clean 9724
Nobody 9720
y 9707
murder 9684
looked 9654
till 9643
air 9613
First 9589
future 9581
dance 9572
weren 9565
others 9556
takes 9535
finally 9512
needed 9504
somewhere 9491
k 9483
fall 9474
class 9465
seeing 9459
learn 9457
le@@ 9450
-You 9435
eye 9433
An 9431
ts 9422
ones 9393
weird 9352
Frank 9339
ten 9316
picture 9305
Make 9300
beat 9295
works 9285
turned 9280
Every 9251
Isn 9238
ing 9224
happening 9207
L@@ 9193
sing 9191
white 9176
lucky 9149
return 9139
missing 9137
Someone 9136
Sam 9112
l@@ 9087
age 9069
de 9064
Mike 9060
law 9041
wedding 9034
sweet 8979
Captain 8964
di@@ 8925
Remember 8924
giving 8919
straight 8916
mad 8905
mouth 8893
Peter 8889
early 8886
Actually 8875
coffee 8867
ran 8847
feet 8845
rather 8829
-What 8827
worried 8814
follow 8810
protect 8796
nobody 8781
system 8771
Whatever 8762
Say 8734
n@@ 8709
De@@ 8708
ed 8687
explain 8686
bag 8666
kept 8654
building 8647
box 8642
Everyone 8616
la@@ 8612
ride 8599
H@@ 8592
worse 8586
table 8577
'am 8568
mistake 8565
Daddy 8563
ri@@ 8561
pull 8552
given 8541
watching 8540
Father 8538
list 8527
I-I 8501
lying 8489
meant 8472
sounds 8466
month 8455
ship 8454
information 8443
Watch 8435
Three 8430
message 8428
Leave 8402
Call 8399
strong 8392
key 8390
red 8389
Ok 8382
Everybody 8381
report 8368
road 8367
ting 8332
step 8327
birthday 8324
welcome 8322
broke 8319
ted 8299
busy 8296
ti@@ 8292
evidence 8283
act 8276
ers 8265
movie 8257
thinks 8233
ball 8230
TO 8210
g 8205
About 8191
4 8179
Hurry 8177
security 8176
z@@ 8163
careful 8154
handle 8145
Ma@@ 8142
York 8138
paid 8136
Welcome 8127
ro@@ 8110
be@@ 8108
ring 8107
street 8106
pain 8102
talked 8098
evening 8079
caught 8071
throw 8068
floor 8066
drop 8061
David 8059
tired 8041
n 8012
born 8006
oh 7988
decided 7987
wear 7984
ra@@ 7983
V@@ 7952
Whoa 7949
entire 7933
state 7924
Huh 7909
American 7894
amazing 7892
finish 7886
W@@ 7879
Looks 7859
sometimes 7843
15 7840
lead 7820
voice 7803
clothes 7800
forever 7784
6 7767
ate 7766
se@@ 7740
dark 7738
Charlie 7727
boat 7718
pass 7711
wonder 7708
sell 7687
plane 7664
u 7647
swear 7641
Michael 7634
train 7633
situation 7622
d 7611
\ 7594
attack 7577
si@@ 7577
expect 7576
IT 7574
song 7566
lo@@ 7561
Didn 7552
poor 7539
hang 7525
kiss 7512
'S 7508
across 7505
completely 7505
co@@ 7502
Think 7481
girlfriend 7441
ground 7441
anywhere 7438
terrible 7428
b@@ 7425
/ 7415
le 7382
buddy 7379
Christ 7360
court 7352
wonderful 7348
test 7339
spend 7337
dangerous 7328
totally 7322
% 7321
offer 7320
yesterday 7284
prison 7282
cop 7272
fish 7263
cover 7260
me@@ 7260
bar 7252
bought 7250
history 7236
hasn 7232
wearing 7230
Sit 7226
record 7222
U@@ 7216
to@@ 7215
accident 7203
.... 7195
field 7189
gentlemen 7187
quiet 7183
Open 7169
ta@@ 7158
mo@@ 7139
killing 7137
'Cause 7133
card 7133
smart 7120
forgot 7092
single 7066
using 7058
Max 7055
crime 7050
In@@ 7047
12 7046
sa@@ 7037
personal 7033
missed 7032
government 7030
ha@@ 7023
join 7018
wake 7006
Y@@ 6995
O 6978
saved 6969
Big 6961
marry 6949
Tom 6948
Mar@@ 6945
sitting 6943
Christmas 6933
middle 6918
near 6903
position 6901
do@@ 6900
stopped 6888
50 6883
fell 6882
ok 6881
Honey 6878
charge 6876
cops 6876
Once 6872
King 6868
Anything 6860
er@@ 6850
st@@ 6849
station 6844
or@@ 6835
letter 6819
Joe 6799
hotel 6789
fix 6768
simple 6763
killer 6747
apartment 6743
calls 6741
lawyer 6741
dress 6738
Since 6727
no@@ 6718
7 6708
ice 6696
finished 6693
an@@ 6672
during 6670
proud 6660
moved 6659
share 6645
realize 6641
mi@@ 6636
en 6624
imagine 6624
TV 6620
boyfriend 6620
Am 6619
Z@@ 6617
Hmm 6612
bank 6609
paper 6593
al@@ 6591
board 6585
seat 6584
spent 6583
Uncle 6578
Mother 6574
fly 6571
Ma 6565
drunk 6559
stick 6559
Back 6550
fear 6544
fighting 6538
over@@ 6522
suppose 6522
8 6514
lunch 6513
America 6511
quick 6511
bastard 6500
present 6499
calm 6488
mess 6485
blow 6483
respect 6480
interested 6471
con@@ 6464
smell 6462
pe@@ 6461
agree 6456
fair 6449
Sometimes 6438
More 6434
re 6431
Anyway 6425
trip 6423
George 6422
seconds 6410
partner 6409
c@@ 6396
der 6389
strange 6386
Over 6372
hungry 6371
seven 6371
se 6363
Paul 6361
Master 6356
normal 6345
standing 6343
window 6325
cell 6319
da 6313
area 6306
hurry 6299
p 6296
hide 6295
cute 6290
Try 6276
short 6275
miles 6254
Perhaps 6247
contact 6239
certain 6229
-No 6225
likes 6208
on@@ 6204
definitely 6187
Should 6184
bu@@ 6181
led 6172
instead 6164
relationship 6152
Mary 6143
liked 6142
teach 6137
broken 6128
; 6121
problems 6111
eight 6108
ly 6107
Ro@@ 6106
visit 6096
dying 6092
-Yeah 6091
f@@ 6090
group 6083
.@@ 6061
force 6061
it@@ 6049
AND 6045
attention 6043
brain 6031
Still 6028
100 6026
lived 6026
feels 6021
ds 6019
forward 6011
Want 6006
scene 6006
Next 5998
loves 5992
sad 5989
idiot 5988
Somebody 5985
rich 5985
victim 5981
rules 5967
space 5959
deep 5957
Henry 5955
sh@@ 5952
surprise 5950
J@@ 5947
dude 5944
v@@ 5944
service 5932
favor 5929
college 5928
gift 5927
b 5918
wrote 5912
President 5910
count 5901
wall 5901
peace 5897
al 5895
public 5888
Ca@@ 5883
James 5874
ar@@ 5873
x 5867
Co@@ 5866
Alright 5862
ladies 5853
wa@@ 5853
interesting 5852
holding 5849
truck 5848
tough 5846
Last 5836
fool 5835
owe 5833
c 5813
store 5812
excuse 5806
joke 5806
round 5803
afternoon 5791
C 5781
th@@ 5772
General 5759
appreciate 5758
dare 5744
Before 5743
honor 5738
te 5731
stuck 5728
Bo@@ 5719
walking 5717
named 5710
Love 5705
Ms. 5699
machine 5699
Too 5698
sea 5692
eating 5691
Ben 5689
soul 5688
client 5685
lovely 5677
upset 5674
angry 5667
j@@ 5667
sleeping 5666
D 5648
involved 5644
hundred 5640
decision 5637
starting 5636
none 5628
honest 5625
hole 5623
ne@@ 5621
La@@ 5617
Jane 5616
Le@@ 5613
sun 5606
Tony 5603
cash 5603
difference 5595
driving 5589
Time 5580
pro@@ 5575
suit 5569
fuckin 5562
private 5560
jail 5552
Agent 5549
within 5548
Ha@@ 5544
wine 5537
ab@@ 5535
horse 5534
du@@ 5533
quit 5518
difficult 5502
IN 5501
ways 5500
prove 5496
promised 5495
9 5493
Ray 5488
Forget 5481
bo@@ 5471
pleasure 5469
blue 5465
darling 5463
Di@@ 5455
patient 5451
risk 5449
club 5445
forgive 5430
support 5422
pa@@ 5420
address 5414
often 5414
Check 5406
ba@@ 5403
Happy 5402
Alex 5399
camera 5398
bus 5385
books 5382
marriage 5372
goddamn 5370
sake 5364
figured 5363
Bring 5361
listening 5355
reach 5355
tea 5352
Honor 5350
sky 5349
master 5345
cry 5344
Today 5341
Ar@@ 5340
Run 5339
Sa@@ 5339
officer 5331
third 5327
star 5326
worst 5326
y-@@ 5326
mission 5322
ter 5314
type 5311
st 5306
gold 5293
r 5292
asshole 5291
Guys 5290
English 5288
foot 5287
Li@@ 5285
ru@@ 5285
Turn 5276
staying 5276
favorite 5272
art 5269
ms 5268
passed 5264
Su@@ 5258
fi@@ 5257
Little 5254
rid 5254
the@@ 5254
thousand 5251
Con@@ 5241
shop 5240
THAT 5239
army 5236
arrest 5233
tree 5231
teacher 5226
ding 5223
Mo@@ 5222
huge 5221
upon 5221
fired 5214
vi@@ 5214
enjoy 5206
unless 5205
ch 5199
became 5196
z 5195
ton 5188
mu@@ 5186
Five 5179
go@@ 5179
low 5168
film 5166
h@@ 5160
picked 5149
impossible 5143
putting 5140
ine 5134
Aren 5132
Nick 5129
he@@ 5129
crap 5125
guns 5121
weapon 5121
summer 5118
Ta@@ 5116
doubt 5110
quickly 5106
orders 5101
Earth 5087
ls 5086
certainly 5083
mate 5083
ho@@ 5082
ni@@ 5082
He@@ 5075
dirty 5072
accept 5067
names 5065
Out 5063
shoes 5063
Emily 5061
dollars 5061
te@@ 5060
grow 5055
choose 5051
Ra@@ 5049
learned 5049
alright 5044
Dude 5043
magic 5040
arm 5035
ch@@ 5033
helping 5033
Se@@ 5031
FBI 5023
fat 5017
ps 5016
herself 5012
spot 5012
gives 5009
hello 5009
Ooh 5003
Mi@@ 5002
cu@@ 5000
gu@@ 5000
keeping 4999
earth 4995
track 4993
Red 4985
Ba@@ 4984
Yep 4969
innocent 4964
ks 4962
Show 4960
gas 4959
fit 4942
press 4933
for@@ 4930
v 4927
beginning 4924
decide 4919
beer 4914
French 4912
arms 4912
blame 4908
enemy 4908
locked 4899
island 4894
rock 4892
T 4881
evil 4881
ation 4879
feelings 4874
whether 4871
steal 4870
stole 4870
burn 4868
su@@ 4866
leg 4863
t-@@ 4850
w@@ 4850
judge 4848
lt 4847
th 4844
pregnant 4842
carry 4834
allowed 4829
Holy 4827
Chief 4825
Exactly 4806
computer 4806
2@@ 4804
11 4800
drinking 4784
writing 4779
hiding 4778
agent 4775
Be@@ 4771
cat 4767
closed 4762
la 4760
experience 4751
president 4745
Danny 4743
ga@@ 4740
sp@@ 4739
bigger 4738
memory 4738
An@@ 4735
smoke 4733
Jimmy 4721
pictures 4720
ourselves 4718
flight 4715
played 4710
absolutely 4708
wondering 4707
Bu@@ 4706
crying 4706
video 4705
everywhere 4704
level 4701
bear 4700
Congratulations 4694
dreams 4692
ge@@ 4691
bother 4689
surprised 4681
bathroom 4678
upstairs 4675
Ready 4665
bunch 4663
e-@@ 4660
po@@ 4660
wind 4660
glass 4659
continue 4657
pi@@ 4655
willing 4646
L 4642
begin 4642
match 4639
speaking 4630
man@@ 4625
push 4622
pants 4621
r@@ 4620
slow 4615
witness 4613
Were 4612
price 4612
hi 4610
Doctor 4608
nervous 4599
dis@@ 4592
trial 4592
code 4591
B 4590
Al@@ 4588
helped 4588
na@@ 4587
deserve 4583
reading 4581
bullshit 4580
further 4580
Harry 4578
perhaps 4578
lies 4575
3@@ 4574
40 4574
seriously 4573
hadn 4570
file 4569
mention 4568
grab 4567
Me@@ 4560
lied 4554
Mc@@ 4553
escape 4551
losing 4549
'T 4545
OF 4540
gotten 4538
church 4529
interest 4529
ded 4528
Ho@@ 4527
ah 4525
Bill 4521
Bob 4516
lock 4509
built 4507
themselves 4507
notice 4503
destroy 4502
drugs 4498
following 4496
ac@@ 4492
bomb 4492
apologize 4488
conversation 4484
plans 4478
form 4477
immediately 4477
S 4475
kick 4472
ley 4472
Doesn 4471
d-@@ 4471
hoping 4471
ous 4470
uncle 4466
Goodbye 4463
hero 4458
usually 4456
except 4453
h 4453
waste 4450
Mu@@ 4448
keys 4445
search 4444
showed 4439
Paris 4437
tight 4431
Mama 4427
da@@ 4421
Has 4418
fucked 4416
Jim 4414
jump 4413
ka 4412
taste 4408
suspect 4405
earlier 4400
legs 4399
acting 4397
drug 4394
Detective 4392
weekend 4389
Mommy 4385
out@@ 4379
Chinese 4378
guilty 4378
race 4377
London 4371
apart 4369
-Yes 4360
study 4359
per 4356
hi@@ 4349
Another 4345
pu@@ 4345
admit 4343
twice 4338
--@@ 4336
pressure 4331
Du@@ 4325
ON 4321
nose 4320
ke 4318
Car@@ 4316
shooting 4315
surgery 4313
Louis 4312
} 4308
Better 4306
ll@@ 4299
treat 4298
taught 4294
Po@@ 4292
complete 4290
ger 4290
White 4285
Hang 4282
held 4276
neck 4269
asleep 4267
daddy 4261
ve@@ 4259
action 4250
Ka@@ 4249
laugh 4249
ating 4248
final 4247
Hu@@ 4245
ck 4244
account 4239
ko 4236
target 4235
Daniel 4233
ends 4232
Sarah 4226
Brother 4221
guard 4217
hat 4216
Fucking 4211
build 4206
warm 4200
Mark 4199
Probably 4199
Absolutely 4192
places 4191
Harvey 4190
balls 4188
tu@@ 4186
Steve 4175
pre@@ 4174
weapons 4172
Find 4167
Four 4167
Un@@ 4164
ons 4160
Bar@@ 4159
Ru@@ 4154
dy 4153
duty 4150
tape 4141
skin 4139
Police 4137
battle 4137
f 4133
ha 4133
Lo@@ 4132
extra 4132
Sounds 4131
walked 4130
cost 4124
Baby 4119
empty 4119
nine 4118
turns 4118
relax 4115
sold 4115
park 4110
Shall 4108
Enough 4102
above 4101
bird 4099
cha@@ 4097
pulled 4097
Seriously 4094
military 4091
checked 4089
keeps 4089
numbers 4089
car@@ 4088
ated 4083
tells 4078
closer 4075
breakfast 4072
knife 4072
Most 4071
Elena 4068
ke@@ 4068
qu@@ 4068
smile 4067
arrived 4050
gay 4050
blind 4044
Sha@@ 4041
seemed 4041
firm 4033
kitchen 4033
Robert 4032
is@@ 4027
ty 4027
hearing 4026
Tomorrow 4024
view 4024
ge 4022
Son 4018
IS 4015
Mm-hmm 4013
spoke 4008
Do@@ 4001
opportunity 3999
bloody 3997
ridiculous 3994
Besides 3989
Lee 3985
survive 3980
Trust 3978
-It 3976
ve 3975
cake 3969
gi@@ 3964
None 3955
♬ 3955
roll 3954
green 3953
responsible 3952
victims 3947
brothers 3944
raise 3942
el 3938
bringing 3934
danger 3932
planet 3930
sight 3924
lights 3920
local 3920
grand 3919
stage 3916
radio 3912
Easy 3907
Guess 3906
ant 3905
Rachel 3903
advice 3900
suddenly 3900
medical 3898
Billy 3891
E 3884
ses 3884
No@@ 3882
lu@@ 3881
corner 3875
size 3875
fresh 3866
tie 3866
dropped 3865
eh 3865
excited 3864
awesome 3862
awful 3860
nature 3859
due 3858
emergency 3857
bodies 3856
written 3856
Ladies 3855
bottle 3850
bi@@ 3849
program 3846
rule 3842
Professor 3841
{ 3841
common 3839
feed 3839
per@@ 3839
Kill 3831
lay 3831
chief 3830
band 3829
camp 3829
Lu@@ 3824
ling 3824
invited 3821
ze 3820
25 3818
allow 3816
Bobby 3811
City 3811
Yo 3809
stories 3796
cross 3791
ta 3790
practice 3789
¶ 3787
Ti@@ 3783
dogs 3783
Y 3781
United 3780
animals 3779
necessary 3777
Calm 3774
restaurant 3773
stone 3773
Colonel 3767
leaves 3763
access 3762
so@@ 3762
simply 3756
obviously 3755
Always 3748
moon 3748
Johnny 3741
wi@@ 3740
powerful 3735
village 3734
Boy 3731
ours 3727
hu@@ 3726
lots 3724
Until 3723
driver 3722
flying 3720
Unless 3717
Mm 3716
games 3715
note 3715
photo 3715
planning 3713
hurts 3711
Richard 3710
ck@@ 3710
breath 3708
rain 3707
sed 3707
ves 3705
realized 3703
ner 3702
itself 3698
wood 3698
Talk 3696
dressed 3696
Pa@@ 3689
Black 3686
Stand 3684
murdered 3683
nuts 3680
chicken 3678
fake 3678
Morning 3676
market 3674
sweetheart 3673
student 3672
Amy 3671
river 3671
19@@ 3668
Japanese 3665
dick 3665
at@@ 3661
famous 3661
neither 3660
credit 3657
paying 3657
tri@@ 3657
Tommy 3654
heads 3653
Without 3647
el@@ 3646
hanging 3645
German 3644
dies 3641
breaking 3640
stars 3635
shows 3630
letting 3628
sh 3626
ended 3625
records 3624
Up 3622
large 3622
Lieutenant 3618
Alicia 3615
Mmm 3613
ans 3612
ci@@ 3611
copy 3609
os 3607
Hell 3606
consider 3604
greatest 3604
beyond 3595
investigation 3595
animal 3592
flowers 3591
-l 3588
whose 3587
prepared 3583
captain 3581
arrested 3580
Their 3578
Dan 3575
4@@ 3574
training 3574
discuss 3573
double 3573
Na@@ 3572
cousin 3567
proof 3566
recognize 3566
Har@@ 3565
Roger 3561
States 3556
House 3554
ky 3552
es@@ 3551
starts 3551
Ask 3550
criminal 3550
cup 3550
shirt 3550
spirit 3549
Russian 3546
bottom 3546
serve 3546
knowing 3545
pool 3545
chi@@ 3543
folks 3541
laughing 3538
Gu@@ 3536
s-- 3536
fa@@ 3535
heavy 3532
beach 3531
Leonard 3530
noticed 3528
faith 3526
whoa 3525
lines 3524
comfortable 3523
research 3522
trick 3515
Pretty 3514
easier 3513
Chris 3512
career 3510
et 3507
pack 3506
cars 3503
18 3501
Relax 3500
chair 3500
clearly 3500
ker 3497
als 3495
horrible 3491
teeth 3489
headed 3488
energy 3475
major 3475
ster 3475
To@@ 3472
operation 3472
shed 3472
Long 3470
Majesty 3469
meat 3466
Cut 3461
ked 3461
matters 3460
ys 3459
M 3455
heaven 3455
plenty 3455
beg 3446
papers 3445
older 3444
crew 3442
Except 3440
silly 3439
cook 3436
Da@@ 3432
tt@@ 3432
pal 3426
Street 3425
prefer 3423
aware 3421
Jake 3414
we@@ 3412
possibly 3410
pretend 3407
Phil 3405
truly 3405
gate 3401
ent 3400
WHAT 3397
Charles 3395
mon@@ 3391
Claire 3389
Boss 3388
heading 3388
bridge 3387
9@@ 3386
Sergeant 3386
weight 3386
North 3385
Stefan 3385
biggest 3381
lab 3381
natural 3379
location 3378
7@@ 3375
ki@@ 3375
agreed 3374
suicide 3374
sweetie 3372
main 3371
Lady 3369
outta 3369
slept 3369
ticket 3368
ears 3367
belong 3365
Must 3364
afford 3364
a-@@ 3363
Howard 3358
les 3358
Six 3356
While 3355
ver@@ 3354
breathe 3349
shower 3349
Lily 3348
queen 3346
speed 3345
insane 3342
strength 3342
selling 3339
Damon 3338
dumb 3338
Vi@@ 3333
Pe@@ 3332
cares 3330
monster 3329
gra@@ 3328
'all 3321
mark 3320
Fire 3319
-That 3316
ex@@ 3316
om@@ 3315
Cool 3314
cards 3311
turning 3311
wild 3309
WE 3308
exist 3308
Ha 3305
concerned 3303
Officer 3302
24 3300
Both 3300
dancing 3299
finding 3299
under@@ 3298
Ko@@ 3294
bar@@ 3291
China 3289
Pi@@ 3288
onto 3288
bite 3285
ghost 3283
bullet 3281
purpose 3281
Pro@@ 3277
shame 3275
sts 3272
department 3271
desk 3268
Dear 3267
Sheldon 3265
bucks 3261
Pull 3256
suggest 3254
ME 3251
dry 3251
followed 3249
of@@ 3248
w 3246
opened 3243
Things 3242
travel 3241
covered 3239
beauty 3234
sword 3234
im@@ 3233
Ne@@ 3232
soldiers 3231
Pu@@ 3230
ters 3227
x@@ 3224
ought 3222
signal 3222
ki 3221
van 3218
opinion 3217
issue 3215
general 3213
stolen 3213
devil 3212
sha@@ 3202
der@@ 3200
site 3200
Adam 3197
Cha@@ 3197
faster 3195
ad@@ 3193
believed 3191
lly 3191
ss 3187
remain 3185
stayed 3181
jealous 3180
South 3179
pieces 3178
threw 3177
ity 3173
ce 3170
Shh 3169
introduce 3162
min@@ 3161
as@@ 3160
focus 3159
interview 3157
towards 3157
sending 3156
Mrs 3154
ing@@ 3153
condition 3148
weak 3147
guest 3145
Nope 3144
ance 3143
vote 3143
naked 3139
failed 3128
Down 3127
especially 3127
north 3127
200 3125
8@@ 3124
Man@@ 3124
ordered 3124
Same 3123
knock 3122
nowhere 3119
science 3117
sees 3115
ea@@ 3111
Go@@ 3106
birth 3106
lord 3106
ler 3105
Martin 3104
ou@@ 3104
Dean 3103
Jerry 3103
So@@ 3103
destroyed 3100
began 3099
center 3098
health 3098
~ 3098
draw 3097
several 3091
Grace 3090
finger 3090
ders 3089
dating 3086
fully 3083
cases 3082
loss 3080
roof 3079
justice 3075
movies 3075
page 3072
responsibility 3072
milk 3070
ugly 3070
Anyone 3068
Chuck 3067
Ross 3065
block 3062
speech 3062
hardly 3059
Shi@@ 3051
lately 3051
wash 3051
barely 3047
likely 3047
path 3046
fe@@ 3044
Jo@@ 3042
6@@ 3040
Life 3039
Jason 3038
map 3038
freedom 3036
strike 3035
split 3034
Walter 3033
mp@@ 3032
signed 3032
letters 3031
Anna 3030
coat 3030
release 3030
gs 3027
doin 3022
created 3018
va@@ 3018
whom 3017
base 3016
cream 3014
forgotten 3014
sc@@ 3014
leader 3013
ideas 3012
soldier 3012
K 3010
par@@ 3007
Ten 3004
ce@@ 3004
correct 3002
ear 3002
nearly 2998
self-@@ 2996
_ 2995
legal 2994
Ri@@ 2990
Kate 2987
il 2987
16 2984
Drop 2984
fill 2984
bro 2983
goodbye 2982
Kim 2981
fan 2981
Che@@ 2980
perfectly 2978
ll 2977
ir@@ 2972
heat 2968
grew 2967
ment 2966
students 2966
up@@ 2966
forced 2965
bs 2960
damage 2952
property 2951
Day 2950
brings 2950
expecting 2950
falling 2950
com@@ 2949
Par@@ 2948
500 2944
Andy 2940
color 2940
hired 2940
Tonight 2937
St@@ 2936
buried 2934
'II 2929
cure 2927
storm 2927
5@@ 2926
row 2926
Old 2924
ors 2924
14 2920
mi 2919
usual 2918
grade 2916
sa 2916
safety 2916
funeral 2914
sub@@ 2914
Follow 2912
recently 2912
fellow 2911
ins 2911
vampire 2911
Caroline 2910
-Oh 2909
process 2909
State 2908
downstairs 2908
lonely 2906
loose 2904
disappeared 2903
manager 2903
ra 2902
harder 2900
oil 2900
pig 2899
des 2898
pocket 2897
grown 2895
create 2889
-We 2888
received 2888
Ja@@ 2885
motherfucker 2885
ED 2884
fingers 2884
Friday 2883
IN@@ 2879
Penny 2878
original 2876
total 2876
Ever 2875
Emma 2873
Chi@@ 2872
woods 2870
Amanda 2866
Ex@@ 2866
ard 2864
mor@@ 2864
Again 2859
somehow 2857
incredible 2853
Joey 2852
Sunday 2852
subject 2852
ag@@ 2851
expected 2850
pray 2850
based 2848
command 2848
Mor@@ 2846
handsome 2845
sexual 2843
scare 2841
among 2840
complicated 2840
secrets 2840
connection 2838
Dave 2837
genius 2837
bedroom 2836
contract 2836
singing 2835
Thomas 2834
chest 2832
weather 2832
Coming 2831
Annie 2830
Tu@@ 2827
loud 2826
social 2824
17 2821
res 2821
tions 2817
model 2816
familiar 2815
San 2814
discovered 2814
example 2814
regret 2814
assume 2812
tes 2809
kin 2807
points 2806
13 2805
rent 2803
doors 2802
screwed 2801
divorce 2799
Matt 2795
Wake 2795
character 2791
THIS 2790
ging 2790
Cheers 2789
fate 2785
Pre@@ 2783
south 2783
goin 2782
style 2779
Com@@ 2776
member 2776
medicine 2775
Per@@ 2768
changes 2768
kinda 2768
brave 2767
ss@@ 2767
fought 2765
ver 2765
yöu 2765
West 2763
Hong 2760
Queen 2760
defense 2759
Si@@ 2756
Rome 2754
airport 2752
wing 2752
Eddie 2748
project 2748
attorney 2747
fu@@ 2746
language 2746
ning 2745
den 2744
Sh@@ 2743
drinks 2743
returned 2743
— 2742
En@@ 2740
mentioned 2740
opening 2738
shi@@ 2733
We@@ 2732
jobs 2732
insurance 2731
tiny 2731
tion 2730
ALL 2728
Shoot 2728
Ki@@ 2725
NO 2724
thoughts 2723
bleeding 2722
Poor 2720
clients 2720
remind 2719
female 2718
parts 2717
staff 2717
Cause 2716
you@@ 2715
details 2714
nor 2714
ates 2710
Bad 2707
G 2706
MY 2706
can@@ 2706
detective 2706
bill 2703
settle 2703
showing 2702
hall 2701
filled 2697
freak 2697
ina 2696
photos 2694
dig 2692
male 2691
nights 2691
rough 2691
Pete 2690
amount 2688
P 2687
s-@@ 2686
Kong 2683
stomach 2683
However 2680
ther@@ 2680
throat 2678
ry 2676
trees 2676
answers 2675
planned 2675
ter@@ 2675
che@@ 2668
ings 2668
mb@@ 2668
source 2667
tickets 2665
files 2664
Cor@@ 2663
pair 2662
spell 2662
ties 2662
wet 2662
Also 2661
theory 2657
saving 2656
suck 2656
Je@@ 2655
cancer 2655
reasons 2655
unit 2655
boring 2654
Although 2652
sti@@ 2651
growing 2649
Cu@@ 2648
Papa 2647
Saturday 2647
60 2645
her@@ 2644
East 2641
easily 2641
'M 2640
Ni@@ 2640
Alice 2638
Ju@@ 2638
finds 2638
eggs 2635
ocean 2635
ruin 2635
nation 2634
watched 2634
op@@ 2631
jacket 2629
Minister 2628
sy 2628
tra@@ 2627
ally 2626
Aw 2625
tic 2625
Wa@@ 2624
dealing 2624
threat 2624
Ow 2623
il@@ 2622
changing 2621
charges 2620
enter 2620
lift 2620
id 2619
Chicago 2618
England 2618
ST@@ 2618
Simon 2616
families 2616
Gentlemen 2614
noise 2614
ill 2612
inter@@ 2611
neighborhood 2610
World 2608
mountain 2608
runs 2606
painting 2605
Mon@@ 2603
R 2603
buying 2602
Send 2601
pop 2599
screw 2599
chose 2597
rate 2597
est 2592
– 2590
football 2589
ruined 2589
trade 2589
Florrick 2588
Know 2588
mama 2585
witch 2585
attacked 2582
thousands 2582
rush 2579
avoid 2577
pri@@ 2577
Clear 2576
revenge 2576
mood 2575
ff 2574
ence 2573
mail 2572
Uh-huh 2570
harm 2570
gang 2569
ness 2569
waited 2569
grave 2568
lesson 2566
memories 2566
event 2564
rat 2564
raised 2562
ia 2560
sooner 2559
cor@@ 2558
shing 2556
ful 2555
Arthur 2553
invite 2552
reached 2551
Gra@@ 2550
British 2548
jury 2547
streets 2547
Brian 2544
universe 2539
birds 2538
£ 2532
members 2531
Quick 2529
Scott 2527
obvious 2526
text 2526
lin 2525
Ali 2524
ey 2524
scary 2523
Ga@@ 2521
Major 2521
ana 2521
Perfect 2520
crash 2520
glasses 2519
deliver 2518
bags 2516
War 2515
gentleman 2515
Lisa 2513
Such 2513
and@@ 2511
har@@ 2511
east 2510
offered 2507
walls 2505
Fu@@ 2503
whore 2503
license 2502
bright 2501
load 2501
Grandma 2500
statement 2500
sexy 2498
moves 2496
Anybody 2494
William 2493
paint 2491
Hanna 2490
add 2490
tongue 2490
happiness 2488
caused 2487
sudden 2486
ber@@ 2485
ho 2485
ic 2485
wound 2485
Santa 2484
Had 2483
indeed 2483
Carl 2482
Americans 2481
ran@@ 2481
reality 2481
Almost 2480
Apparently 2480
Eat 2480
mar@@ 2480
ent@@ 2478
professional 2477
-He 2476
doctors 2476
expensive 2472
awake 2471
hidden 2471
pills 2471
whoever 2471
DNA 2469
player 2468
winter 2466
romantic 2465
Forgive 2462
Sp@@ 2462
babies 2461
cheese 2460
va 2459
Otherwise 2458
bread 2457
burned 2455
med 2453
´ 2453
Lucy 2452
ES 2451
Park 2451
US 2449
exciting 2449
bike 2446
celebrate 2446
horses 2445
meal 2445
shots 2445
lover 2443
ga 2442
mp 2442
laid 2441
sons 2440
ka@@ 2437
Washington 2436
meaning 2435
brilliant 2430
na 2430
trap 2430
Susan 2429
data 2429
post 2429
ur@@ 2429
Believe 2428
results 2428
Tra@@ 2426
bath 2426
lla 2426
official 2423
Jeff 2422
warning 2421
personally 2418
Bi@@ 2417
Monday 2415
capable 2415
kers 2413
bye 2412
community 2412
0@@ 2410
Or@@ 2409
checking 2409
Aunt 2408
Especially 2408
Ku@@ 2408
war@@ 2408
ca 2407
Tyler 2406
illegal 2406
pp@@ 2406
angel 2405
pissed 2404
woke 2402
di 2400
plate 2399
rise 2399
ne 2394
1@@ 2393
ar 2392
rights 2392
Neal 2391
artist 2391
AN@@ 2389
Aah 2389
According 2389
France 2387
journey 2386
manage 2386
mer@@ 2385
committed 2382
wire 2381
bury 2380
murderer 2380
faces 2379
ly@@ 2378
Serena 2377
cal 2377
ten@@ 2375
Sal@@ 2371
picking 2371
DON 2369
issues 2367
super 2367
Close 2366
request 2366
Commander 2365
Kevin 2365
ability 2365
ying 2365
swim 2364
FOR 2363
Men 2361
kicked 2361
liar 2360
Ke@@ 2357
talent 2354
concern 2353
Nah 2351
director 2350
Going 2349
Quiet 2349
success 2347
available 2346
U.S. 2345
breathing 2345
Eric 2344
Prince 2344
pot 2344
princess 2344
proper 2344
Ber@@ 2342
Jessica 2341
Doc 2340
soft 2340
For@@ 2338
bone 2338
ju@@ 2338
permission 2338
Sophie 2336
touched 2336
ged 2334
Use 2333
hunt 2333
Rose 2332
nu@@ 2331
vacation 2331
farm 2330
rescue 2327
giant 2322
sta@@ 2322
Careful 2321
season 2321
yourselves 2321
regular 2318
cheap 2316
fixed 2316
Japan 2315
confused 2315
owner 2314
spread 2314
ang 2312
gh@@ 2312
ING 2311
spring 2311
ite 2309
on-@@ 2309
ong 2309
exact 2308
Bonnie 2307
shake 2307
unsub 2307
ven@@ 2306
RE@@ 2305
drove 2305
belongs 2303
pounds 2302
ments 2301
affair 2299
forest 2299
rea@@ 2298
traffic 2298
300 2296
cameras 2295
curse 2295
hunting 2294
toilet 2294
tour 2292
grandfather 2291
enemies 2290
Save 2287
ear@@ 2286
Fi@@ 2285
ev@@ 2285
value 2285
plant 2284
Unfortunately 2283
percent 2283
period 2283
Madam 2282
younger 2281
cab 2280
bri@@ 2279
re-@@ 2278
wise 2278
ships 2277
HE 2276
co 2274
Haven 2273
carefully 2273
Elizabeth 2272
Helen 2272
ending 2271
hated 2270
Step 2269
healthy 2269
suffer 2269
rooms 2268
Ain 2267
sat 2265
disappear 2264
higher 2263
thief 2263
nurse 2261
burning 2260
lls 2260
'RE 2259
Goddamn 2259
crack 2258
soup 2258
Europe 2256
AR@@ 2255
tip 2254
KNOW 2253
fantastic 2251
fortune 2250
curious 2247
Won 2244
armed 2243
knowledge 2243
Neither 2242
Van 2242
below 2241
hire 2241
pulling 2241
mer 2239
Bra@@ 2238
schedule 2238
Start 2236
ARE 2233
pie 2233
Sister 2231
X@@ 2231
clock 2231
fancy 2229
butt 2228
protection 2228
yard 2228
appointment 2227
national 2226
Jeremy 2225
J 2224
fail 2224
snow 2224
appear 2223
Army 2222
Blair 2222
Young 2222
physical 2222
shy 2222
Te@@ 2219
Seven 2218
mo 2218
agents 2217
terms 2216
claim 2215
Hit 2214
Raymond 2214
online 2214
switch 2214
toast 2214
DO 2213
ching 2213
ping 2213
political 2212
pen 2211
understood 2211
crowd 2207
Beautiful 2206
ji 2206
west 2206
Thought 2205
AN 2203
patients 2203
Guy 2202
flat 2202
back@@ 2199
Sta@@ 2198
campaign 2198
St. 2197
Fa@@ 2196
YOUR 2196
virus 2196
Ab@@ 2195
Number 2195
carrying 2195
goodness 2195
poison 2195
Jess 2193
Barry 2192
High 2192
jerk 2192
mental 2190
cker 2189
Mum 2188
zing 2188
spare 2187
shopping 2186
direction 2184
U 2183
advantage 2183
society 2183
Ryan 2180
screaming 2180
sion 2178
Tri@@ 2176
particular 2176
useless 2176
CIA 2174
stealing 2174
ming 2173
N 2172
prepare 2172
blew 2171
direct 2171
bra@@ 2169
guests 2169
parking 2169
pe 2169
ward 2169
Pick 2168
Rick 2168
stood 2168
ad 2167
hook 2167
Ian 2166
directly 2166
am@@ 2165
ja@@ 2164
shape 2163
bell 2162
mes 2162
assistant 2160
Bri@@ 2159
stronger 2159
Maria 2156
babe 2156
lake 2156
badly 2155
odd 2153
secure 2153
Looking 2152
tied 2152
grateful 2151
stairs 2151
edge 2146
smoking 2145
borrow 2144
exchange 2144
fla@@ 2144
millions 2144
officers 2144
staring 2144
piss 2143
CH@@ 2142
tall 2142
Department 2141
-How 2140
Jay 2140
kes 2140
Hope 2139
repeat 2138
lips 2137
Inspector 2136
sugar 2136
mirror 2135
treated 2134
former 2133
Ge@@ 2132
pping 2132
Luke 2131
tail 2131
California 2130
button 2129
joking 2129
MAN 2128
zone 2128
Morgan 2127
becomes 2127
distance 2126
steps 2126
throwing 2126
chocolate 2125
sucks 2122
ste@@ 2121
garden 2120
competition 2119
Seems 2118
jo@@ 2118
aunt 2117
Yu@@ 2116
lower 2116
appears 2115
Many 2114
'cause 2113
released 2113
cks 2112
Princess 2111
0 2110
debt 2109
ed@@ 2109
pen@@ 2109
intelligence 2108
men@@ 2108
range 2107
Either 2105
ancient 2103
Hi@@ 2102
writer 2102
lea@@ 2101
my@@ 2101
m-@@ 2100
trained 2100
San@@ 2098
desperate 2096
excellent 2095
signs 2095
= 2094
according 2094
connected 2094
image 2094
ary 2092
Sean 2091
becoming 2087
Charlotte 2085
Diane 2085
zed 2085
Death 2084
Plus 2084
Wi@@ 2084
Soon 2083
Wouldn 2083
ashamed 2083
grandmother 2083
stu@@ 2082
including 2081
sin 2081
humans 2080
ish 2079
basically 2078
-The 2077
fed 2077
lin@@ 2077
solve 2077
spy 2077
JUST 2076
disease 2076
Ad@@ 2075
Sara 2075
pla@@ 2075
A-@@ 2072
delicious 2072
sho@@ 2069
ye 2068
stock 2065
45 2064
vo@@ 2064
X 2063
cra@@ 2063
rare 2063
aside 2062
behavior 2062
yo 2062
18@@ 2061
sale 2061
Gi@@ 2060
slowly 2060
Each 2058
ou 2057
miracle 2055
trapped 2054
desert 2052
eventually 2052
considered 2051
mis@@ 2049
Patrick 2047
hates 2047
violence 2047
plus 2045
cleaning 2044
AL@@ 2043
ces 2043
role 2042
Finally 2041
Kelly 2041
Wanna 2041
convinced 2041
coach 2040
leads 2040
ction 2039
managed 2039
positive 2039
Sweet 2038
Night 2036
Sheriff 2036
Yet 2036
alarm 2036
challenge 2036
sis 2036
Spencer 2035
convince 2035
Christian 2034
tin 2034
HAVE 2033
Security 2033
lets 2033
Ted 2031
F 2028
pee 2027
disgusting 2026
remains 2025
she@@ 2025
nuclear 2023
Being 2022
Alan 2021
flower 2021
pper 2021
thy 2020
Aye 2019
sacrifice 2019
century 2018
pizza 2018
mistakes 2017
forces 2016
joy 2016
tears 2015
mile 2014
monkey 2014
Dead 2013
current 2012
Monica 2011
Frankie 2010
EN@@ 2009
Italian 2009
nonsense 2009
wide 2009
winning 2009
'clock 2008
expert 2008
tru@@ 2007
Drink 2006
loving 2006
shock 2006
d-- 2005
phones 2004
ID 2003
effect 2003
ff@@ 2003
Enjoy 2002
served 2002
incident 2001
passing 2000
score 1999
tear 1999
vehicle 1999
ja 1998
sting 1998
shi 1997
midnight 1996
tt 1996
apparently 1995
houses 1994
oo@@ 1994
Maggie 1992
ba 1992
April 1990
Second 1990
bones 1990
riding 1990
ns 1989
kissed 1987
beating 1985
cast 1985
con 1985
tests 1985
SO 1983
dump 1981
rude 1981
spoken 1981
shoulder 1980
warn 1980
imp@@ 1979
que 1979
sen@@ 1979
Answer 1974
Victoria 1973
route 1973
Indian 1972
Mexico 1972
chances 1972
dust 1972
otherwise 1972
pussy 1972
sur@@ 1972
engine 1970
BE 1968
ano 1968
spending 1968
Kar@@ 1967
cs 1967
est@@ 1967
garage 1966
depends 1965
punch 1965
desire 1964
helps 1964
reports 1964
Grandpa 1963
sentence 1962
trace 1962
Blue 1960
WAS 1960
friendly 1960
Excellent 1957
Texas 1957
eaten 1956
Africa 1955
Mer@@ 1955
Min@@ 1955
bastards 1954
Jones 1952
highly 1951
Grab 1950
winner 1949
square 1946
India 1945
Way 1945
suffering 1945
ο@@ 1945
billion 1944
Th@@ 1943
guards 1943
pure 1943
80 1942
conference 1942
shift 1942
extremely 1941
Promise 1940
The@@ 1940
arrive 1940
Madame 1939
screen 1939
ations 1938
bride 1938
custody 1935
mystery 1934
Jenny 1932
courage 1932
pilot 1931
sisters 1930
Hands 1929
ani@@ 1929
knees 1929
skills 1929
stranger 1929
closet 1928
honestly 1928
rice 1928
warrant 1928
Ed 1927
Eli 1927
Her@@ 1927
NOT 1927
boo@@ 1927
self 1927
tter 1927
darkness 1923
popular 1922
partners 1921
presence 1921
bound 1920
refuse 1920
estate 1918
Ch@@ 1916
Whoever 1916
clever 1915
troops 1915
Larry 1914
smells 1914
sometime 1914
agreement 1913
decent 1911
fin@@ 1910
professor 1910
sk@@ 1910
factory 1909
talks 1909
cking 1907
chat 1903
successful 1903
notes 1902
treatment 1902
precious 1901
ages 1900
trusted 1900
ller 1898
Girl 1897
Mine 1896
cooking 1896
puts 1896
é@@ 1896
Germany 1895
fishing 1895
uniform 1894
ham 1893
ambulance 1892
solution 1891
hearts 1890
je@@ 1890
whenever 1890
Brown 1889
mercy 1889
Money 1888
trash 1888
ches 1886
border 1885
falls 1885
Andrew 1884
kills 1883
marks 1883
dozen 1882
escaped 1882
vision 1881
engaged 1880
Donna 1879
policy 1879
Col@@ 1878
gods 1878
basement 1877
Best 1876
sted 1876
fallen 1875
plays 1875
Judge 1874
Whoo 1874
rings 1874
22 1873
Al 1873
GO 1873
au@@ 1873
mum 1873
package 1872
leading 1871
ita 1869
dri@@ 1867
-up 1865
Mind 1865
separate 1865
Josh 1863
g-@@ 1863
one-@@ 1863
hill 1862
priest 1862
juice 1861
sal@@ 1861
Boston 1860
bored 1859
ped 1857
ctions 1856
ered 1856
gosh 1855
Albert 1854
Bal@@ 1854
chain 1854
han@@ 1854
panic 1854
Marie 1853
Victor 1853
pity 1853
ski 1853
hurting 1852
Lucky 1851
trigger 1851
yellow 1850
Whose 1849
cla@@ 1849
closing 1849
pped 1849
embarrassing 1847
magazine 1847
uses 1847
­ 1845
our@@ 1844
Though 1842
GET 1841
effort 1841
CAN 1840
powers 1840
ser 1840
nightmare 1839
device 1838
dra@@ 1838
you-- 1838
stra@@ 1837
chosen 1836
tr@@ 1836
Mal@@ 1835
chasing 1835
Li 1834
pushed 1834
remembered 1834
Cooper 1833
Gotta 1833
H 1833
defend 1833
ved 1833
-Hey 1832
Dr 1832
foreign 1831
tor 1831
-Okay 1829
counting 1829
Bruce 1828
provide 1828
surface 1828
surveillance 1828
Good-bye 1827
Qu@@ 1827
ies 1827
lia 1827
facts 1826
pleased 1826
-year-old 1824
90 1822
Mac@@ 1822
victory 1822
Might 1819
Special 1819
remove 1819
ry@@ 1819
protecting 1818
ro 1818
egg 1817
seek 1817
task 1817
guarantee 1816
hitting 1816
zero 1816
Carter 1814
Later 1814
Cal@@ 1813
equipment 1813
castle 1812
cting 1812
hung 1812
Gar@@ 1811
two-@@ 1811
Ugh 1807
fo@@ 1807
Nate 1805
cigarette 1805
backup 1804
anger 1803
setting 1803
Alison 1802
abandoned 1802
half-@@ 1800
prisoner 1800
treasure 1799
le-@@ 1798
ER 1797
Han@@ 1797
She@@ 1797
understanding 1797
performance 1796
El@@ 1795
h-@@ 1795
hug 1795
moments 1795
candy 1794
progress 1794
brains 1790
silent 1789
potential 1788
maid 1787
Vegas 1786
ously 1786
specific 1786
bless 1784
teaching 1783
chick 1781
goal 1781
mask 1781
nasty 1781
collect 1779
Copy 1777
couch 1777
kinds 1777
ph@@ 1777
literally 1776
technology 1775
wanting 1775
high-@@ 1774
receive 1774
result 1774
option 1772
section 1771
21 1770
cre@@ 1770
o-@@ 1770
carried 1768
hits 1768
Home 1767
ering 1767
Germans 1766
federal 1766
hundreds 1766
Obviously 1765
dd@@ 1765
wasting 1765
Island 1763
Yang 1763
Getting 1762
prince 1762
sen 1762
Wal@@ 1761
messages 1761
net 1760
p-@@ 1759
to-@@ 1759
35 1758
drag 1757
elevator 1756
sides 1756
La 1755
win@@ 1755
I-- 1754
ble 1754
thin 1754
detail 1753
non-@@ 1753
Bishop 1752
Derek 1752
belt 1751
witnesses 1751
Feel 1749
Gary 1749
false 1749
settled 1749
tank 1749
fy 1748
LI@@ 1747
crossed 1747
entirely 1747
Couldn 1746
mountains 1746
silver 1746
Green 1744
wheel 1744
term 1743
audience 1742
circumstances 1742
mostly 1742
Eh 1741
cock 1741
W 1740
UP 1739
coincidence 1739
hy@@ 1739
ville 1739
Hank 1738
flesh 1737
piano 1737
sensitive 1737
Bailey 1736
Klaus 1736
bur@@ 1736
ries 1736
Carol 1735
television 1735
ER@@ 1734
ber 1734
ir 1734
knocked 1734
ku@@ 1733
lling 1732
jumped 1730
Garcia 1728
champagne 1728
Amen 1727
cho@@ 1727
zz@@ 1726
Smith 1725
commit 1725
actual 1724
material 1724
Jackie 1723
Laura 1722
pathetic 1722
degrees 1721
garbage 1720
ung 1720
dollar 1719
ny 1719
emotional 1717
degree 1714
ery 1714
object 1713
windows 1713
survived 1712
tive 1712
in-@@ 1711
Kind 1710
THEY 1710
den@@ 1710
AT 1709
Speak 1709
learning 1709
19 1708
ned 1708
bl@@ 1707
k-@@ 1707
ori@@ 1707
rope 1707
silence 1707
rac@@ 1706
Quite 1705
motion 1705
properly 1705
robbery 1705
joined 1704
parties 1704
sec 1704
stopping 1704
Cro@@ 1703
actor 1703
Anne 1701
ing-@@ 1701
Karen 1699
stic 1699
Berlin 1698
Nu@@ 1698
pushing 1698
sca@@ 1698
stays 1698
Honestly 1697
loser 1697
confidence 1696
impressed 1696
friendship 1695
approach 1694
assure 1694
clue 1694
Beth 1692
Meet 1691
Gri@@ 1690
Him 1690
freaking 1690
transfer 1690
é 1690
< 1688
> 1688
gan 1688
ney 1687
Star@@ 1686
YEAH 1686
Year 1686
events 1686
att@@ 1685
cutting 1685
Air 1684
RIGHT 1684
failure 1684
ordinary 1684
Highness 1683
Linda 1683
bullets 1683
chase 1683
cked 1683
reputation 1683
suits 1683
violent 1683
Can@@ 1681
Real 1681
wallet 1681
climb 1680
exit 1679
searching 1679
Julie 1677
ko@@ 1677
tar@@ 1677
unusual 1677
background 1676
stands 1676
slip 1675
Hitler 1674
holiday 1673
identity 1673
library 1673
y-- 1673
Been 1672
cow 1672
ON@@ 1670
Read 1670
Star 1670
profile 1669
sla@@ 1669
Leo 1668
OUT 1667
Girls 1666
Joseph 1666
shoe 1666
Oliver 1665
beast 1665
fruit 1665
rocks 1665
torture 1665
Aaron 1664
Harold 1664
media 1664
Bur@@ 1663
Dar@@ 1663
madam 1663
-Why 1662
deny 1661
wed 1661
OR@@ 1660
pardon 1659
related 1659
ino 1658
Said 1657
wh@@ 1657
songs 1655
wins 1655
confirmed 1654
crimes 1654
doll 1654
wan@@ 1654
supply 1653
alert 1652
attitude 1652
bust 1652
fellas 1652
opposite 1652
threatened 1652
wings 1652
launch 1651
gen@@ 1650
sharp 1650
Bravo 1649
Abby 1648
Cary 1648
studying 1648
gorgeous 1647
disappointed 1646
ges 1646
trunk 1646
Wasn 1645
et@@ 1645
senior 1645
well-@@ 1645
wherever 1645
Left 1643
tz 1643
Gardner 1642
Pardon 1642
Val@@ 1641
ford 1641
tor@@ 1641
HERE 1640
nail 1639
OH 1638
ched 1638
earn 1638
wave 1638
lawyers 1637
sto@@ 1637
Jackson 1636
Jesse 1635
homework 1635
Eight 1634
gri@@ 1634
recent 1633
units 1633
Pri@@ 1632
crush 1632
Ho 1630
authority 1630
attempt 1629
hand@@ 1629
super@@ 1629
cation 1628
destiny 1628
iti@@ 1627
sters 1627
Women 1626
pride 1625
Bullshit 1624
selfish 1624
ving 1624
bail 1623
circle 1623
recall 1623
SH@@ 1622
creature 1622
Certainly 1621
af@@ 1621
thrown 1621
Need 1620
joint 1620
offering 1619
Fred 1618
murders 1618
neighbor 1618
ut 1618
lifetime 1617
A.@@ 1616
ol@@ 1616
argue 1615
clo@@ 1615
ens 1615
reported 1615
Edward 1614
delivery 1614
lled 1614
toward 1614
wow 1614
School 1613
ignore 1610
za 1610
V 1609
cleared 1609
embarrassed 1609
lack 1609
stops 1609
Russia 1608
dirt 1607
Angela 1606
Ohh 1606
asks 1606
-Good 1605
Katherine 1605
designed 1604
scream 1604
loaded 1603
print 1603
someday 1603
Stupid 1602
Fe@@ 1601
June 1601
fourth 1600
ul@@ 1600
Los 1599
National 1599
star@@ 1599
accepted 1598
deserves 1598
TH@@ 1597
solid 1597
Thursday 1596
minds 1596
passion 1596
stress 1596
Han 1595
latest 1595
Darling 1594
Speaking 1594
Shouldn 1593
WITH 1592
possibility 1592
ck-@@ 1591
ws 1590
-And 1589
Governor 1589
betrayed 1589
decisions 1589
messed 1589
Char@@ 1588
gar@@ 1588
ren@@ 1588
Water 1587
pan@@ 1586
Play 1585
kidnapped 1585
pin 1585
ther 1585
warned 1585
Head 1584
therapy 1584
Instead 1583
customers 1583
demon 1583
sand 1583
thee 1583
Bel@@ 1582
Dis@@ 1582
Roy 1581
ali@@ 1581
qui@@ 1580
series 1580
begins 1579
cru@@ 1579
prize 1579
useful 1579
ob@@ 1578
Director 1576
besides 1576
guts 1576
version 1576
Cla@@ 1575
Mona 1575
Senator 1575
Woman 1574
trail 1574
Carlos 1572
alcohol 1572
sty 1572
SI@@ 1568
THERE 1568
dly 1567
tricks 1567
Lou 1566
Half 1565
cur@@ 1565
70 1564
Ver@@ 1564
loo@@ 1564
quarter 1564
laws 1563
bea@@ 1561
Jews 1559
OR 1559
miserable 1559
23 1558
disaster 1558
lar 1558
tin@@ 1557
ang@@ 1556
iron 1556
sports 1556
Jewish 1555
Ste@@ 1555
Doug 1554
Robin 1554
fashion 1554
ton@@ 1554
ty@@ 1554
wishes 1554
bal@@ 1553
cruel 1552
wounded 1552
blown 1551
offense 1551
True 1548
bow 1547
studio 1547
options 1546
Ac@@ 1545
Tim 1545
similar 1545
RI@@ 1544
ited 1544
kingdom 1544
Work 1543
confirm 1543
shadow 1543
Attention 1542
Clark 1540
rip 1540
governor 1539
impressive 1539
swimming 1538
Anthony 1537
Name 1536
quality 1536
san@@ 1536
touching 1536
Julia 1535
bars 1535
baseball 1535
confess 1535
financial 1535
prints 1535
telephone 1535
zer 1535
Spanish 1533
indi@@ 1533
port 1533
hon@@ 1532
intend 1532
Grey 1531
accused 1531
bills 1530
secretary 1530
tower 1530
advance 1528
childhood 1528
dawn 1528
san 1528
swing 1528
cheating 1527
taxi 1527
-Well 1525
Miller 1525
deck 1525
Kids 1524
ator 1524
believes 1524
ct@@ 1524
loan 1524
EL@@ 1522
Sun 1522
cally 1522
dumped 1522
-Where 1521
suffered 1521
2-@@ 1520
Kid 1520
breaks 1520
Cra@@ 1519
earned 1519
sea@@ 1519
10@@ 1518
cted 1518
footage 1518
gers 1518
cing 1517
explanation 1517
pin@@ 1517
CO@@ 1516
article 1516
Pop 1515
ex-@@ 1515
dropping 1514
tries 1514
neighbors 1513
ssing 1513
wolf 1513
LIKE 1512
response 1511
stake 1510
suspicious 1510
Hal@@ 1509
balance 1509
Russians 1508
interrupt 1508
ppy 1508
10,000 1507
Ben@@ 1506
dreaming 1506
sin@@ 1506
-Come 1505
A. 1505
Throw 1505
mommy 1505
slave 1505
walks 1505
wives 1505
Off 1504
university 1504
Internet 1503
angle 1503
just-- 1503
sandwich 1503
Emperor 1502
assault 1502
gre@@ 1502
Owen 1501
rape 1501
DI@@ 1500
Mat@@ 1500
lation 1500
movement 1500
network 1500
Fre@@ 1499
metal 1499
Brad 1498
SA@@ 1498
theater 1498
Hot 1497
all@@ 1497
reward 1497
Gold 1496
mass 1496
valuable 1496
♫ 1496
Coach 1495
fri@@ 1495
holy 1494
species 1494
tro@@ 1494
Kyle 1493
agency 1493
ents 1493
Callie 1492
pink 1492
grandma 1491
LO@@ 1490
era 1490
RO@@ 1489
pretending 1488
si 1487
I-@@ 1485
fuel 1484
Done 1483
Wil@@ 1483
bitches 1483
services 1483
delivered 1482
gain 1482
forth 1481
w-@@ 1481
crisis 1480
Division 1479
politics 1479
practically 1479
Other 1478
brown 1478
wasted 1478
Blake 1476
Understand 1475
squad 1474
tracking 1474
Au@@ 1473
Tuesday 1473
cats 1473
costs 1473
digging 1473
sheriff 1473
actions 1472
begging 1472
els 1472
lands 1472
someplace 1472
terrorist 1472
Boys 1471
chi 1471
fied 1471
via 1471
workers 1471
BUT 1470
Lewis 1470
shine 1470
ities 1469
product 1469
Eve 1468
greater 1468
prick 1468
yer 1468
Bye-bye 1467
Freeze 1467
Moscow 1467
ines 1467
Dick 1466
ser@@ 1466
rage 1465
Sho@@ 1464
hunter 1464
attractive 1463
yelling 1463
bat 1461
extraordinary 1461
kie 1461
unique 1461
Tokyo 1460
creatures 1460
TO@@ 1459
considering 1459
apology 1458
seats 1458
Church 1457
e-mail 1457
gging 1457
however 1455
Under 1454
any@@ 1454
boxes 1454
guessing 1454
gym 1454
Its 1453
Slow 1453
entrance 1453
wore 1453
Room 1452
grass 1452
impression 1452
injured 1452
ze@@ 1452
EN 1451
starving 1451
surely 1451
sy@@ 1451
Ser@@ 1450
i-@@ 1450
Junior 1449
ane 1448
Gonna 1447
Vo@@ 1447
design 1447
Snow 1446
Yup 1446
acts 1446
adult 1446
drawing 1446
son@@ 1446
entered 1445
Boo@@ 1444
Jenna 1444
cabin 1444
mayor 1444
Hear 1443
Terry 1443
Club 1442
title 1442
tunnel 1442
lers 1441
removed 1441
tting 1441
ur 1441
damned 1440
ow 1440
confession 1438
fella 1438
tax 1438
negative 1436
rolling 1436
1,000 1435
Definitely 1434
sport 1434
5,000 1433
Angeles 1433
Italy 1433
somethin 1433
Makes 1432
hers 1432
education 1431
guide 1431
han 1431
dealer 1430
jo 1430
mps 1430
IT@@ 1429
MA@@ 1429
Wayne 1428
down@@ 1427
stri@@ 1427
AT@@ 1426
active 1426
blocks 1426
tracks 1425
MO@@ 1424
activity 1424
bon@@ 1424
mixed 1424
plain 1424
ory 1423
ONE 1422
Imagine 1421
penis 1421
Far@@ 1420
Wilson 1420
snake 1420
OKAY 1418
painful 1418
tur@@ 1418
My@@ 1417
ist 1417
Crazy 1416
Hollywood 1416
bang 1416
cells 1416
represent 1416
ture 1416
Objection 1415
protected 1415
purse 1415
Taylor 1414
lion 1414
Jacob 1413
Stephen 1413
Dan@@ 1412
Greg 1412
bro@@ 1411
gather 1411
nerve 1411
Mickey 1410
charming 1410
dragon 1410
maker 1410
packed 1410
Drive 1409
facility 1409
replace 1409
Toby 1408
comfort 1408
flag 1407
ay 1406
reaction 1406
virgin 1405
dar@@ 1404
judgment 1403
Pla@@ 1402
divorced 1402
modern 1402
sions 1402
surgeon 1402
Indeed 1401
air@@ 1401
choices 1401
don@@ 1401
ster@@ 1400
Having 1399
Teddy 1399
holes 1399
Ya@@ 1398
customer 1398
good-bye 1398
Wrong 1397
ease 1397
C.@@ 1395
Don@@ 1395
Neil 1395
cli@@ 1395
meters 1395
Rock 1394
capital 1394
Hotel 1393
coward 1393
newspaper 1393
nothin 1393
officially 1393
Bor@@ 1392
Tor@@ 1392
Vincent 1392
jokes 1392
lan 1392
boots 1391
gro@@ 1391
id@@ 1391
48 1390
er-@@ 1390
Found 1389
Road 1389
Schmidt 1389
Set 1389
defeat 1389
ently 1389
kissing 1389
Catherine 1388
insist 1388
status 1388
toy 1388
Court 1387
charged 1387
cleaned 1387
tale 1387
ken 1386
placed 1386
Dragon 1385
Fla@@ 1385
fer@@ 1385
generous 1385
Dennis 1384
Mister 1384
butter 1384
Monsieur 1383
lar@@ 1383
refused 1383
Party 1382
Ter@@ 1382
math 1382
sch@@ 1382
sun@@ 1382
Zach 1381
coast 1381
collection 1381
wounds 1380
-A 1379
Florida 1379
golden 1379
smiling 1379
underwear 1379
lli@@ 1378
prisoners 1378
timing 1378
uncomfortable 1377
yed 1377
ink 1376
speaks 1376
struck 1376
systems 1376
that@@ 1376
yards 1376
't@@ 1375
Buddy 1375
Trying 1375
awkward 1374
ek 1374
Brandon 1373
Jean 1372
ceremony 1372
core 1372
deeply 1372
firing 1372
loyal 1372
thou 1372
Roman 1371
Team 1371
blowing 1371
ie 1371
nephew 1371
uni@@ 1371
Nina 1370
liver 1370
owns 1370
jungle 1369
rou@@ 1369
Yesterday 1368
handed 1368
ners 1368
Nor@@ 1367
fraud 1367
COME 1366
ced 1366
kin@@ 1365
Manny 1363
sauce 1363
conditions 1362
shu@@ 1362
bug 1361
answering 1360
cky 1359
Glad 1358
shown 1358
th-@@ 1358
worker 1358
plastic 1357
sweat 1357
che 1356
messing 1356
mustn 1356
talkin 1355
head@@ 1354
¡ 1354
-So 1353
Duke 1353
homes 1353
palace 1353
dates 1352
tone 1352
identify 1351
international 1351
legend 1351
'mon 1350
400 1350
generation 1350
holds 1350
perform 1350
servant 1350
your@@ 1350
LA@@ 1348
ach@@ 1348
committee 1348
spe@@ 1348
suspects 1348
BO@@ 1347
Count 1347
Hill 1347
Grand 1346
ably 1346
answered 1346
gear 1345
Walk 1344
Ellen 1343
im 1343
lated 1343
un 1343
dish 1342
fence 1342
Mac 1341
llo 1340
enjoying 1339
hid 1339
surrounded 1339
commander 1338
creepy 1338
ct 1338
eats 1338
surrender 1338
landing 1337
arranged 1336
unknown 1336
Nathan 1335
beloved 1335
describe 1335
guilt 1335
Miles 1334
Nine 1334
Ann 1333
Mason 1333
youth 1333
Hor@@ 1332
imagination 1332
Wall 1331
run@@ 1331
flu@@ 1330
frame 1330
sue 1330
traveling 1330
champion 1329
existence 1329
sey 1329
tons 1329
-Don 1328
-She 1328
explosion 1328
tly 1328
Hy@@ 1327
argument 1326
Johnson 1325
rin@@ 1325
urgent 1325
-Thank 1324
exercise 1323
flew 1323
massive 1323
temple 1323
threatening 1323
ban@@ 1322
pitch 1322
ghosts 1321
ths 1321
Break 1320
pipe 1320
tta 1320
yo@@ 1320
Gordon 1319
link 1318
organization 1318
Marshall 1317
influence 1317
Lincoln 1316
accounts 1316
diamonds 1316
wipe 1316
Yo@@ 1315
sta 1315
cheat 1314
tors 1314
Funny 1313
Times 1312
drank 1312
reporter 1312
Gloria 1311
Told 1311
ena 1311
culture 1310
fre@@ 1310
odds 1310
wor@@ 1310
laundry 1309
Dylan 1308
cared 1308
slipped 1308
sneak 1308
struggle 1308
US@@ 1307
hostage 1307
procedure 1307
beaten 1305
ringing 1304
vampires 1304
dated 1303
escort 1302
tattoo 1302
stable 1301
cage 1300
cave 1300
lo 1300
Russell 1299
UN@@ 1299
hood 1299
respond 1299
Gre@@ 1298
Maura 1297
gifts 1297
ston 1297
Bro@@ 1296
ants 1296
din@@ 1296
hmm 1296
911 1295
Connor 1295
Fight 1295
Hand 1295
Jersey 1295
mister 1295
s. 1295
sk 1295
underground 1295
Reddington 1294
mit@@ 1294
pet 1294
ri 1294
serving 1294
val@@ 1294
End 1293
Jan@@ 1293
Katie 1293
Win@@ 1293
facing 1293
Carrie 1292
-Who 1291
frightened 1291
strangers 1291
Meredith 1290
Much 1290
all-@@ 1290
sets 1290
Central 1289
Rebecca 1289
grant 1289
tan@@ 1289
cher 1288
worries 1287
Korea 1286
Shane 1286
landed 1286
tal 1286
behalf 1285
documents 1285
hoo@@ 1284
scratch 1284
invented 1283
berg 1282
char@@ 1282
concert 1282
skull 1282
Freddy 1281
Inter@@ 1281
alien 1281
anti@@ 1281
t-- 1281
Cam 1280
Merry 1280
charity 1279
exists 1279
inch 1279
Jo 1278
Kiss 1278
mysterious 1278
Push 1276
developed 1276
reasonable 1276
robot 1276
tal@@ 1276
Light 1275
companies 1275
punishment 1275
Gal@@ 1274
players 1274
20@@ 1273
Fo@@ 1273
Molly 1273
ya@@ 1273
Marty 1272
gue 1272
industry 1272
interests 1272
outfit 1272
AC@@ 1271
Chandler 1271
aboard 1271
duck 1271
idiots 1271
sive 1271
Marcus 1270
cts 1270
pur@@ 1270
sses 1270
strategy 1270
demand 1269
mix 1269
fucker 1268
propose 1268
Cho@@ 1267
Jordan 1267
bowl 1267
classes 1267
connect 1267
union 1267
busted 1266
helpful 1266
humanity 1266
testify 1266
Pay 1265
Mitchell 1264
badge 1264
civil 1264
noble 1264
During 1263
fairy 1263
visiting 1263
Parker 1262
cigarettes 1262
ire 1262
pat@@ 1262
cate 1261
enjoyed 1261
entry 1261
testimony 1261
bond 1260
hor@@ 1260
parent 1260
-Are 1259
Free 1259
Matthew 1259
serial 1259
contest 1258
Grayson 1257
Sydney 1257
anniversary 1257
bit@@ 1257
pattern 1257
Lots 1256
Lucas 1256
ils 1256
reminds 1256
seal 1256
cap 1255
frozen 1255
sink 1255
spirits 1255
underneath 1255
Ren@@ 1254
gross 1254
strip 1254
TI@@ 1253
satellite 1253
Nancy 1252
apple 1252
behave 1252
bull 1251
hoped 1251
wal@@ 1251
checks 1250
ssi@@ 1250
are@@ 1249
invitation 1249
27 1248
Winston 1248
belly 1248
-Let 1247
Screw 1247
Todd 1247
Whi@@ 1247
and-@@ 1247
ic@@ 1247
rose 1247
session 1247
gal@@ 1246
criminals 1245
ddy 1245
routine 1245
wn 1245
Through 1244
cou@@ 1244
st-@@ 1244
terrific 1244
Bible 1243
Hall 1243
Sch@@ 1243
non@@ 1243
Pen@@ 1242
grace 1242
worthy 1242
Cole 1241
Conrad 1241
standard 1241
Bon@@ 1240
Ger@@ 1240
fli@@ 1239
Ethan 1238
election 1238
warrior 1238
GOT 1237
moral 1237
teams 1237
Dark 1236
claims 1236
sounded 1236
authorities 1235
incredibly 1235
instructions 1235
one@@ 1235
unhappy 1235
Sally 1234
anytime 1234
normally 1234
terribly 1234
ian 1233
imagined 1232
pit 1232
downtown 1231
attacks 1230
ti 1230
Bitch 1229
vice 1229
Says 1228
cried 1228
necklace 1228
County 1227
-This 1226
privacy 1226
smaller 1226
Hannah 1225
blast 1225
pays 1225
pile 1225
Blood 1224
exam 1224
ner@@ 1224
tics 1224
wo@@ 1224
Dra@@ 1223
Shu@@ 1223
three-@@ 1223
lessons 1222
passport 1222
benefit 1221
cancel 1221
robbed 1221
tradition 1221
cated 1220
wrap 1220
Ron 1219
ini 1219
joining 1219
nut 1219
sins 1219
feeding 1218
listened 1218
noon 1218
particularly 1218
traitor 1218
drama 1217
sli@@ 1217
Michelle 1216
banks 1216
NOW 1215
attend 1215
I. 1214
Ken 1214
Ly@@ 1214
cal@@ 1214
helicopter 1214
River 1213
bombs 1213
captured 1213
Murphy 1212
laughs 1212
roommate 1212
Za@@ 1211
ess 1210
lan@@ 1210
ABOUT 1209
backs 1209
golf 1209
annoying 1208
covering 1208
pl@@ 1208
Black@@ 1207
Lan@@ 1207
comin 1207
obsessed 1207
scale 1207
Hm 1206
anti-@@ 1206
costume 1206
determined 1206
iting 1206
grabbed 1204
highest 1204
ism 1204
penny 1204
El 1203
co-@@ 1203
gettin 1203
Ashley 1202
Wonderful 1202
Z 1202
diamond 1202
moron 1202
signature 1202
tty 1202
Francisco 1201
asses 1200
limit 1200
Bond 1199
Den@@ 1199
Music 1199
ero@@ 1199
filthy 1199
impact 1199
nest 1199
pound 1199
prom 1199
royal 1199
squ@@ 1199
trauma 1199
thi@@ 1198
Navy 1197
Pierce 1197
experiment 1197
glory 1197
satisfied 1197
teachers 1197
brand 1195
cable 1195
hopes 1195
pages 1195
Margaret 1194
dy@@ 1194
recording 1194
tran@@ 1193
Bank 1192
Family 1192
Rea@@ 1192
average 1192
museum 1191
Company 1190
University 1190
tent 1190
AS@@ 1189
classic 1189
machines 1189
temperature 1189
wondered 1189
ye@@ 1189
Mil@@ 1188
ex 1188
fighter 1188
shared 1187
territory 1187
conscience 1186
dragged 1186
ger@@ 1186
meantime 1186
beneath 1185
chip 1184
cuts 1184
dge 1184
script 1184
disp@@ 1183
mmy 1183
rounds 1183
thick 1183
Barbara 1182
mighty 1182
confident 1181
flies 1181
stroke 1181
tional 1181
Kalinda 1180
War@@ 1180
aid 1180
flow 1180
trans@@ 1180
waves 1180
Aria 1179
Caleb 1179
prevent 1177
actress 1176
critical 1176
exhausted 1176
tom@@ 1176
-All 1175
-But 1175
HO@@ 1175
Heaven 1175
Turns 1175
basic 1175
ise 1175
steady 1175
Awesome 1174
Earl 1174
Lockhart 1174
construction 1174
gentle 1174
leak 1174
pal@@ 1174
stepped 1174
weed 1174
II 1173
afterwards 1173
comment 1173
corn 1173
fever 1173
roo@@ 1173
su 1173
zi@@ 1173
Oscar 1172
continues 1172
dive 1172
eri@@ 1172
fore@@ 1172
upper 1172
Bea@@ 1171
punished 1171
souls 1171
stones 1171
Mari@@ 1170
apply 1170
brief 1170
cy@@ 1170
heroes 1170
.I 1169
Interesting 1169
forms 1169
heal 1169
's-- 1168
28 1168
Breathe 1168
sel@@ 1168
whi@@ 1168
Quickly 1167
mble 1167
drill 1166
14@@ 1165
ell 1165
rot 1165
salt 1165
Prepare 1163
cro@@ 1163
cy 1163
effects 1163
halfway 1163
religion 1163
tend 1163
tti 1163
unfortunately 1163
lap 1162
Catch 1161
D. 1161
end@@ 1161
26 1160
Hel@@ 1160
counts 1160
vers 1160
Davis 1159
arrange 1159
Chloe 1158
cookies 1158
proceed 1158
Deal 1157
LY 1157
Mag@@ 1157
Pal@@ 1157
Walker 1157
spo@@ 1157
T-@@ 1156
ig@@ 1156
knee 1156
ll-@@ 1156
see@@ 1156
gy 1155
oxygen 1155
planes 1155
random 1155
tele@@ 1155
Fin@@ 1154
Grant 1154
Knock 1154
Natalie 1154
Stuart 1154
Va@@ 1154
Vanessa 1154
far@@ 1154
fights 1154
Making 1153
Ty@@ 1153
corpse 1153
rob 1153
treating 1153
tters 1153
Force 1152
medi@@ 1152
opens 1152
unbelievable 1152
De 1151
Gen@@ 1151
TA@@ 1151
app@@ 1151
ku 1151
revolution 1151
fund 1150
resist 1150
singer 1150
Shepherd 1149
Wor@@ 1149
kicking 1149
Jonathan 1148
beside 1148
cheated 1148
loyalty 1148
I.@@ 1147
Tom@@ 1147
congratulations 1147
profit 1147
yell 1147
Pass 1146
dent 1146
occasion 1146
paperwork 1146
tragedy 1146
EA@@ 1145
although 1145
citizens 1145
exposed 1145
some@@ 1145
vin 1145
clinic 1144
fifth 1143
bothering 1142
cities 1142
daughters 1142
environment 1142
lf 1142
thirsty 1142
tits 1142
Sing 1141
payment 1141
spin 1141
countries 1140
plants 1140
Lake 1139
Miami 1139
acted 1139
boats 1139
lad 1139
religious 1138
Stark 1137
adventure 1137
ble@@ 1137
sales 1137
steel 1137
'LL 1136
ine@@ 1136
ored 1136
Took 1135
consequences 1135
council 1135
junior 1135
rabbit 1135
undercover 1135
75 1134
Children 1134
July 1134
individual 1134
questioning 1133
sheep 1133
-They 1132
Ahh 1132
Prime 1132
employees 1132
fantasy 1132
gambling 1132
shelter 1132
Angel 1131
Hunt 1130
Jew 1130
TS 1130
play@@ 1130
production 1130
Liz 1129
equal 1129
testing 1129
Gor@@ 1128
Guard 1128
Hard 1128
Keen 1128
bla@@ 1128
owned 1128
Brooklyn 1127
cent 1127
logy 1127
pro 1127
tea@@ 1127
Made 1126
beef 1126
deaf 1126
mobile 1126
remote 1126
IF 1125
Nikita 1125
bo 1125
Chu@@ 1124
Sammy 1124
Tar@@ 1124
Whenever 1124
17@@ 1123
bra 1123
ctive 1123
12@@ 1122
Sleep 1122
charm 1122
transport 1122
cents 1121
chy 1121
habit 1121
returning 1121
tan 1121
zi 1121
fits 1120
resources 1120
sharing 1120
Jun@@ 1119
investigating 1119
mud 1119
Amazing 1118
Christopher 1118
Nicole 1118
Stu@@ 1118
appropriate 1118
junk 1118
Wednesday 1117
occurred 1117
Change 1116
ace 1116
clu@@ 1116
packing 1116
requires 1116
M.@@ 1115
cer 1115
complex 1115
studied 1115
ERS 1114
Justice 1114
Melissa 1114
SHE 1114
orange 1114
Jeez 1113
Martha 1113
Sto@@ 1113
bor@@ 1113
fields 1113
grounds 1113
Caesar 1112
Phoebe 1112
Secretary 1112
raped 1112
ET 1111
deeper 1111
foolish 1111
Sea@@ 1110
invisible 1110
ron@@ 1110
salad 1110
tag 1110
twins 1110
Auntie 1109
Williams 1109
ft 1109
ook 1109
motive 1108
IC@@ 1107
ade 1107
battery 1107
division 1107
sh-@@ 1107
March 1106
Wong 1106
merely 1106
schools 1106
cer@@ 1105
locker 1105
plu@@ 1105
Lea@@ 1104
Royal 1104
Top 1104
mbling 1104
relief 1104
Coffee 1103
Faster 1103
Jamie 1103
ree@@ 1103
tre@@ 1103
worrying 1103
admire 1102
infected 1101
por@@ 1101
rep@@ 1101
stabbed 1101
Live 1100
express 1100
fra@@ 1100
motel 1100
shell 1100
slut 1100
zo 1100
dreamed 1099
expression 1099
flash 1099
mistaken 1099
new@@ 1099
August 1098
Francis 1098
Sweetie 1098
fication 1098
mistress 1098
5-@@ 1097
Ban@@ 1097
dro@@ 1097
filed 1097
gg@@ 1097
mal@@ 1097
rats 1097
sticks 1097
Lost 1096
Wendy 1096
oned 1096
tte 1096
Heh 1095
currently 1095
focused 1095
homicide 1095
itch 1095
supplies 1095
tap 1095
transferred 1095
't-- 1094
-Do 1094
2,000 1094
alley 1094
guitar 1094
nie 1094
washed 1094
Bart 1093
Korean 1093
district 1093
host 1093
Malcolm 1092
assignment 1092
ssed 1092
Zoe 1091
goo@@ 1091
house@@ 1091
located 1091
makeup 1091
quietly 1091
Stan 1090
Third 1090
marrying 1090
scientist 1089
skip 1089
50,000 1088
Understood 1088
boom 1088
with@@ 1088
crown 1087
differently 1087
heck 1087
Sar@@ 1086
lli 1086
logical 1086
possession 1086
I.D. 1085
brea@@ 1085
lousy 1085
citizen 1084
l-@@ 1084
personality 1084
toys 1084
Ce@@ 1083
D.@@ 1083
Totally 1083
tation 1083
DE@@ 1082
capture 1082
mers 1082
passes 1082
shark 1082
's@@ 1081
Alexander 1081
Friends 1081
Full 1081
Sue 1081
Troy 1081
talented 1081
campus 1080
nearby 1080
photograph 1080
ripped 1080
counter 1079
n-@@ 1079
review 1079
string 1079
Jump 1078
punk 1078
Fat 1077
beings 1077
Thanksgiving 1076
begun 1076
goods 1076
mid@@ 1076
000 1075
`s 1075
ep@@ 1075
clouds 1074
dancer 1074
freezing 1074
lookin 1074
sample 1074
Dog 1073
chin 1073
novel 1073
swa@@ 1073
Clarke 1072
Karl 1072
RA@@ 1072
daily 1072
Yu 1071
sha 1071
Over@@ 1070
Gro@@ 1069
discover 1069
shooter 1069
Cameron 1068
Clay 1068
Finch 1068
Manhattan 1068
Super 1068
Twenty 1068
catching 1068
ctor 1068
medication 1068
Betty 1067
ari@@ 1067
chef 1067
monsters 1067
clown 1066
cri@@ 1066
iled 1066
investment 1066
Already 1065
Fair 1065
Lin@@ 1065
bout 1065
cheer 1065
informed 1065
tted 1065
Diana 1064
Steven 1064
Casey 1063
deserved 1063
intention 1063
killers 1063
tumor 1063
Bastard 1062
Sea 1062
bord0 1062
j 1062
levels 1062
presents 1062
vault 1062
Warren 1061
mall 1061
produce 1061
sealed 1061
Chang 1060
burns 1060
retired 1060
tire 1060
voices 1060
Cri@@ 1059
boarding 1059
drawn 1059
ined 1059
largest 1059
off@@ 1059
operate 1059
fl@@ 1058
ai 1057
grief 1057
intel 1057
Gus 1056
Private 1056
SO@@ 1056
weakness 1056
Wh@@ 1055
massage 1055
Doing 1054
Tara 1054
ld 1054
life@@ 1054
C. 1053
Ol@@ 1053
col@@ 1053
effective 1053
fans 1053
mouse 1053
Percy 1052
Taking 1052
associate 1052
combat 1052
march 1052
no-@@ 1052
survival 1052
sel 1051
Stone 1050
betray 1050
blade 1050
brush 1050
extreme 1050
figures 1050
grandpa 1050
ini@@ 1049
pigs 1049
wrapped 1049
Elliot 1048
LA 1048
O-@@ 1048
Spe@@ 1048
commercial 1048
poem 1048
porn 1048
Ricky 1047
fro@@ 1047
B. 1046
Shaw 1046
drives 1046
gal 1046
hon 1046
ji@@ 1046
vy 1046
Burke 1045
Irish 1045
appeal 1045
freeze 1045
minister 1045
assumed 1044
driven 1044
proposal 1044
safely 1044
tech 1044
Inside 1043
KING 1043
Maya 1043
Sti@@ 1043
prayer 1043
DO@@ 1042
SE@@ 1042
You@@ 1042
attached 1042
employee 1042
pill 1042
Control 1041
Greek 1041
Surely 1041
Till 1041
fried 1041
honored 1041
recommend 1041
Together 1040
engagement 1040
positions 1040
smooth 1040
alphaH3D 1039
ara 1039
scientists 1039
shad0 1039
ski@@ 1039
safer 1038
16@@ 1037
Whether 1037
ality 1037
sacred 1037
sergeant 1037
states 1037
bait 1036
chips 1036
films 1036
jumping 1036
polite 1036
Jennifer 1035
abuse 1035
gent 1035
land@@ 1035
pleasant 1035
sail 1035
shore 1035
spit 1035
tion@@ 1035
water@@ 1035
32 1034
IS@@ 1034
Kenny 1034
New@@ 1033
mming 1033
E-@@ 1032
bleed 1032
investigate 1032
painted 1032
accent 1031
gen 1031
Benjamin 1030
Cross 1030
Marco 1030
VE 1030
WELL 1030
emotions 1030
sack 1030
sends 1030
toes 1030
Er@@ 1029
cap@@ 1029
honeymoon 1029
matches 1029
communication 1028
gun@@ 1028
mas 1028
mic 1028
tures 1028
Fra@@ 1027
Hun@@ 1027
ME@@ 1027
assholes 1027
granted 1027
waters 1027
min 1026
rifle 1026
sheet 1026
suggested 1026
Dor@@ 1025
Rob 1025
ash 1025
hooked 1025
tooth 1025
Soviet 1024
ars 1024
patience 1024
Ken@@ 1023
Mis@@ 1023
central 1023
jack 1023
pre-@@ 1023
searched 1023
smarter 1023
13@@ 1022
Pan@@ 1022
Virginia 1022
depressed 1022
magical 1022
separated 1022
vel 1022
SS 1021
Service 1021
experienced 1021
pour 1021
description 1020
nap 1020
sia 1020
,@@ 1019
Ruth 1019
li 1019
mates 1019
organized 1019
Sweetheart 1018
Ye@@ 1018
cloud 1018
ining 1018
chan@@ 1017
intelligent 1017
to-- 1017
Dinner 1016
Dun@@ 1016
News 1016
faced 1016
stretch 1016
bid 1015
dea@@ 1015
temporary 1015
blows 1014
dishes 1014
doc 1014
fle@@ 1014
require 1014
required 1014
drew 1013
headquarters 1013
humor 1013
promises 1013
3-@@ 1012
HA@@ 1012
bears 1012
delay 1012
finest 1012
succeed 1012
suggesting 1012
Em 1011
Mexican 1011
PO@@ 1011
chop 1011
circus 1010
complain 1010
destruction 1010
muscle 1010
previous 1010
Chan 1009
Rom@@ 1009
hammer 1009
tools 1009
warehouse 1009
Del@@ 1008
ES@@ 1008
Quit 1008
def@@ 1008
gossip 1008
low-@@ 1008
oot 1008
val 1008
15@@ 1007
Tan@@ 1007
Center 1006
Cover 1006
closest 1006
deposit 1006
development 1006
salary 1006
Law 1005
denied 1005
peaceful 1005
twenty 1005
what@@ 1005
Mars 1004
P.@@ 1004
Walt 1004
0-@@ 1003
Sun@@ 1003
ances 1003
dessert 1003
furniture 1003
inform 1003
pt 1003
returns 1003
roads 1003
Harris 1002
shaking 1002
Buy 1001
LE@@ 1001
Unbelievable 1001
hur@@ 1001
mothers 1001
Holmes 1000
Pat 1000
September 1000
dor@@ 1000
everyday 1000
jet 1000
solved 1000
May@@ 999
Yours 999
computers 999
maintain 999
monitor 999
diary 998
pulse 998
recovered 998
unfortunate 998
I- 997
ack 997
gie 997
ray 997
Lawrence 996
Ralph 996
punish 996
rumors 996
Artie 995
Bree 995
Superman 995
bits 995
bli@@ 995
chemical 995
concentrate 995
shes 995
slide 995
Bay 994
immediate 994
intense 994
lieutenant 994
lip 994
repair 994
scent 994
booked 993
buddies 993
tested 993
wer 993
Chen 992
Hector 992
Lock 992
ren 992
Bernard 991
appeared 991
double-@@ 991
lit 991
patch 991
100,000 990
Jill 990
Mayor 990
Nolan 990
discussion 990
ppers 990
υ@@ 990
alibi 989
concerns 989
dressing 989
eg@@ 989
se-@@ 989
Dana 988
E.@@ 988
Harvard 988
coma 988
gged 988
rotten 988
Point 987
aim 987
beans 987
insult 987
jam 987
reveal 987
technically 987
zy 987
Ford 986
Sur@@ 986
explained 986
patrol 986
WANT 985
black@@ 985
drawer 985
fer 985
planted 985
Game 984
county 984
fridge 984
Julian 983
chu@@ 983
minor 983
rub 983
Homer 982
Vol@@ 982
ata 982
chamber 982
groups 982
-san 981
Am@@ 981
Ze@@ 981
horn 981
Gabriel 980
Stick 980
adorable 980
lick 980
tiger 980
favour 979
intended 979
mea@@ 979
promotion 979
psycho@@ 979
relationships 979
shitty 979
-Just 978
Bang 978
meetings 978
pas@@ 978
racing 978
stream 978
HER 977
Lovely 977
coo@@ 977
eu@@ 977
hun@@ 977
spi@@ 977
Order 976
ani 976
drops 976
suitcase 976
Fer@@ 975
Louise 975
O.@@ 975
Q@@ 975
collar 975
fingerprints 975
lating 975
sm 975
Donald 974
Eva 974
lend 974
recover 974
Bro 973
Ned 973
dding 973
towel 973
tube 973
Ivan 972
Office 972
bee 972
claimed 972
injury 972
prime 972
-Hi 971
absolute 971
angels 971
crashed 971
priority 971
tha@@ 971
ce-@@ 970
diet 970
handled 970
Admiral 969
beard 969
blanket 969
happier 969
instance 969
kle 969
HOW 968
Holly 968
Stra@@ 967
ve-@@ 967
visited 967
cunt 966
defendant 966
laying 966
slaves 966
throughout 966
App@@ 965
Clean 965
Mel@@ 965
chess 965
chill 965
formed 965
Union 964
ach 964
enti@@ 964
raising 964
soda 964
Mitch 963
controlled 963
flo@@ 963
kidnapping 963
snap 963
Moon 962
demons 962
foster 962
gloves 962
hip 962
identified 962
turkey 962
-lt 961
1.@@ 961
Bell 961
registered 961
tissue 961
197@@ 960
Humphrey 960
ckers 960
fee 960
multiple 960
plates 960
-There 959
Between 959
Halloween 959
Noah 959
Teacher 959
management 959
therapist 959
Comrade 958
audition 958
chicks 958
lame 958
operating 958
pockets 958
tables 958
terrified 958
sher 957
sni@@ 957
Avery 956
Jin 956
atmosphere 956
candidate 956
Tal@@ 955
corporate 955
ets 955
signing 955
150 954
Heather 954
causing 954
counsel 954
leaders 954
wealth 954
Bloody 953
Valentine 953
blessing 953
honour 953
stubborn 953
votes 953
Clo@@ 952
recorded 952
whiskey 952
wreck 952
Wang 951
ron 951
root 951
socks 951
tastes 951
AS 950
Act 950
Avenue 950
Randy 950
Western 950
ads 950
analysis 950
channel 950
demands 950
hal@@ 950
measure 950
buildings 949
sheets 949
shout 949
suspected 949
van@@ 949
Finn 948
op 948
pun@@ 948
Nicky 947
approaching 947
damaged 947
ups 947
abandon 946
breasts 946
blessed 945
by@@ 945
de-@@ 945
lungs 945
tapes 945
Pat@@ 944
discussed 944
fools 944
gy@@ 944
locate 944
therefore 944
36 943
Justin 943
Station 943
entering 943
kov 943
mmer 943
protocol 943
stro@@ 943
work@@ 943
600 942
classified 942
eve 942
nerves 942
chaos 941
cooked 941
wears 941
Ur@@ 940
scientific 940
shoulders 940
slightly 940
Daisy 939
Sla@@ 939
beats 939
mm 939
quote 939
types 939
Bru@@ 938
Gun@@ 938
flip 938
introduced 938
slap 938
arguing 937
burst 937
fe 937
las 937
lity 937
screwing 937
tanks 937
October 936
advanced 936
determine 936
gut 936
Granny 935
Write 935
gates 935
population 935
spar@@ 935
Hon@@ 934
Spain 934
an-@@ 934
blonde 934
kins 934
pa 934
sucker 934
colleagues 933
fun@@ 933
naturally 933
squeeze 933
Im@@ 932
Men@@ 932
me-- 932
sober 932
sticking 932
Beach 931
ano@@ 931
meter 931
oning 931
smo@@ 931
visual 931
Canada 930
causes 930
cowboy 930
fu 930
ggy 930
necessarily 930
recognized 930
stab 930
GONNA 929
Into 929
arts 929
dramatic 929
passengers 929
EX@@ 928
Hea@@ 928
LE 928
ashes 928
assistance 928
poetry 928
Mmm-hmm 927
internet 927
puppy 927
shocked 927
structure 927
Devil 926
hostages 926
pers 926
raining 926
ram 926
rocket 926
sighs 926
B-@@ 925
Beat 925
LET 925
Olivia 925
Uh-oh 925
ate@@ 925
parked 925
poker 925
powder 925
mal 924
Raj 923
a-- 923
colleague 923
lovers 923
needle 923
stink 923
tragic 923
night@@ 922
rit@@ 922
threaten 922
colors 921
misunderstanding 921
soccer 921
wisdom 921
Fri@@ 920
bitter 920
homeless 920
Hawaii 919
barn 919
bin 919
jewelry 919
waitress 919
zes 919
Car 918
alike 918
conduct 918
matic 918
99 917
Code 917
Craig 917
Reese 917
crea@@ 917
creating 917
fetch 917
pillow 917
Hunter 916
Judy 916
Liu 916
apologies 916
oath 916
rank 916
unable 916
Chin 915
Collins 915
OU@@ 915
assigned 915
bottles 915
gum 915
micro@@ 915
nails 915
Iraq 914
No. 914
Stanley 914
Chairman 913
D-@@ 913
Finish 913
THINK 913
Therefore 913
bump 913
complaining 913
reception 913
rely 913
superior 913
Suddenly 912
TER 912
basis 912
engineer 912
react 912
scan 912
scra@@ 912
BE@@ 911
Hung 911
Kan@@ 911
Peace 911
envelope 911
fac@@ 911
increase 911
wheels 911
Power 910
despite 910
dial 910
function 910
00@@ 909
HIM 909
Us 909
thin@@ 909
thro@@ 909
Christine 908
IR@@ 908
TH 908
manner 908
1-@@ 907
economy 907
liquor 907
mole 907
tch 907
Attorney 906
approve 906
electricity 906
me-@@ 906
soap 906
stare 906
swee@@ 906
throne 906
booze 905
burden 905
conspiracy 905
electric 905
know@@ 905
Previously 904
infection 904
Latin 903
deaths 903
kidney 903
ln 903
Cou@@ 902
T.@@ 902
aggressive 902
bum 902
llers 902
Bureau 901
Philip 901
areas 901
graduate 901
-Get 900
Ve@@ 900
limited 900
posted 900
s- 900
scar 900
stations 900
symbol 900
tar 900
admitted 899
marked 899
phi@@ 899
skill 899
toe 899
understands 899
Ali@@ 898
Around 898
Mas@@ 898
constant 898
knocking 898
zoo 898
Lydia 897
covers 897
reckon 897
thieves 897
42 896
dice 896
five-@@ 896
stin@@ 896
targets 896
visitors 896
Goodnight 895
Hol@@ 895
gathered 895
headache 895
manners 895
specifically 895
Sebastian 894
frankly 894
hen@@ 894
permanent 894
terrorists 894
vulnerable 894
Mit@@ 893
NO@@ 893
SP@@ 893
added 893
budget 893
cos 893
ef@@ 893
personnel 893
supper 893
Green@@ 892
Phone 892
Tran@@ 892
backwards 892
broad 892
just@@ 892
regarding 892
Diego 891
ack@@ 891
dope 891
e-- 891
gh 891
log 891
requested 891
romance 891
@ 890
Hospital 890
Super@@ 890
hear@@ 890
Cece 889
celebrating 889
poisoned 889
AB@@ 888
Nonsense 888
November 888
Pacific 888
Vietnam 888
principal 888
Dale 887
Lane 887
Surprise 887
cycle 887
din 887
ites 887
torn 887
ty-@@ 887
¯ 887
belonged 886
execution 886
existed 886
iling 886
C-@@ 885
Chase 885
DA 885
Federal 885
SE 885
Sol@@ 885
fying 885
mber 885
pole 885
shave 885
10-@@ 884
Seattle 884
Song 884
Straight 884
blo@@ 884
closely 884
commitment 884
funds 884
happily 884
hol@@ 884
laptop 884
operations 884
relieved 884
steak 884
Catholic 883
Golden 883
shortly 883
sul@@ 883
tune 883
Double 882
Human 882
Robbie 882
blah 882
cen@@ 882
dle 882
larger 882
perimeter 882
plot 882
q@@ 882
Ai@@ 881
lessly 881
lized 881
ske@@ 881
Asshole 880
Nazi 880
bert 880
casino 880
compared 880
league 880
paranoid 880
Idiot 879
Lin 879
Nor 879
conflict 879
fires 879
internal 879
kings 879
paintings 879
slo@@ 879
ak 878
gravity 878
labor 878
wolves 878
1,@@ 877
handling 877
lic 877
low@@ 877
menu 877
nigger 877
-Is 876
Bear 876
Face 876
Shanghai 876
grandson 876
hea@@ 876
ing-- 876
ome@@ 876
sley 876
sorts 876
Cristina 875
Dance 875
Ed@@ 875
appearance 875
bi 875
freaked 875
stein 875
-Not 874
AM 874
Ouch 874
Working 874
ere@@ 874
negotiate 874
adopted 873
affect 873
announce 873
awfully 873
cart 873
counter@@ 873
disturb 873
gran@@ 873
highway 873
mar 873
mus 873
reporting 873
stea@@ 873
Tru@@ 872
Wu 872
berry 872
boot 872
copies 872
empire 872
fur@@ 872
shouting 872
yers 872
cHFFFFFF 871
forgiveness 871
washing 871
Secret 870
day@@ 870
fathers 870
gger 870
slu@@ 870
tically 870
Debra 869
Empire 869
Heard 869
Meaning 869
Somewhere 869
home@@ 869
strings 869
tops 869
troubles 869
Graham 868
Ice 868
adults 868
pes 868
gle 867
prey 867
wea@@ 867
-Hello 866
GO@@ 866
Silence 866
Unit 866
burnt 866
crossing 866
fuck@@ 866
gray 866
IL@@ 865
Seth 865
affairs 865
ckle 865
mere 865
musical 865
opera 865
studies 865
valley 865
FI@@ 864
Frost 864
fond 864
gli@@ 864
global 864
niece 864
za@@ 864
Bla@@ 863
Tower 863
borrowed 863
emperor 863
lobby 863
sci@@ 863
33 862
Arizona 862
Falls 862
ffs 862
kit 862
lon@@ 862
realise 862
Hen@@ 861
Ob@@ 861
bend 861
cha 861
diner 861
mother@@ 861
privilege 861
relatives 861
soil 861
47 860
Gilbert 860
ada 860
chers 860
ero 860
fascinating 860
mun@@ 860
2nd 859
delicate 859
wiped 859
Lon@@ 858
cooperate 858
martial 858
suite 858
sus 858
tto 858
Mummy 857
Ronnie 857
centuries 857
cop@@ 857
scheduled 857
severe 857
storage 857
temper 857
Kent 856
compliment 856
gin 856
pra@@ 856
remarkable 856
Art 855
bucket 855
inner 855
radar 855
Ten@@ 854
bud 853
deals 853
lightning 853
policeman 853
Die 852
grows 852
int 852
surprises 852
tub 852
Ezra 851
ID@@ 851
Lisbon 851
Usually 851
Wade 851
constantly 851
contacts 851
goat 851
hin@@ 851
pump 851
ria 851
sno@@ 851
GPS 850
concept 850
cursed 850
dug 850
hm 850
illness 850
injuries 850
replaced 850
swallow 850
Kal@@ 849
Wish 849
communicate 849
dresses 849
overnight 849
sie 849
BU@@ 848
Clearly 848
favourite 848
gl@@ 848
lazy 848
naughty 848
proved 848
sang 848
xes 848
ore 847
Len@@ 846
Small 846
bby 846
EM@@ 845
Sighs 845
anxious 845
Buddha 844
Gee 844
Haley 844
debate 844
eternal 844
oni 844
terror 844
L.A. 843
WHERE 843
bargain 843
bble 843
mob 843
quarters 843
Hoo@@ 842
aircraft 842
dev@@ 842
lighter 842
subway 842
DS 841
HEY 841
inches 841
phase 841
shar@@ 841
tortured 841
xi@@ 841
Std 840
absurd 840
bugs 840
coin 840
fnHobo 840
fs48 840
Sy@@ 839
Vince 839
announcement 839
ino@@ 839
BACK 838
enormous 838
fur 838
risky 838
spotted 838
CH 837
Word 837
cement 837
vest 837
Chan@@ 836
Porter 836
anna 836
oldest 836
ultimate 836
Behind 835
Iron 835
Jeffrey 835
Strange 835
obey 835
worn 835
Paige 834
ac 834
include 834
riot 834
Cru@@ 833
Joan 833
Smile 833
password 833
sman 833
sol@@ 833
tense 833
CI@@ 832
Gone 832
Gosh 832
Lois 832
Truth 832
Zi@@ 832
ene@@ 832
Saul 831
bun@@ 831
explains 831
forgetting 831
lecture 831
locks 831
trucks 831
vast 831
Colin 830
Hal 830
Mm-hm 830
clubs 830
creative 830
luggage 830
nor@@ 830
tender 830
unlike 830
Lance 829
Megan 829
Nelson 829
fabulous 829
god@@ 829
practicing 829
recovery 829
Rich 828
assuming 828
attracted 828
combination 828
executed 828
item 828
laughed 828
wa 828
Babe 827
Sub@@ 827
application 827
deadly 827
gathering 827
images 827
Burn 826
WH@@ 826
award 826
boobs 826
ened 826
ep 826
nicely 826
soci@@ 826
sto 826
tle 826
Juliet 825
Wo@@ 825
achieve 825
vodka 825
-Can 824
Correct 824
Doyle 824
Kitty 824
SU@@ 824
that-- 824
Debbie 823
Erica 823
Wallace 823
explode 823
ooh 823
praying 823
ral 823
Cat 822
abroad 822
cocaine 822
codes 822
lows 822
swore 822
tter@@ 822
800 821
Gimme 821
Pra@@ 821
heels 821
provided 821
senses 821
technique 821
December 820
Er 820
Lar@@ 820
dence 820
dignity 820
discovery 820
efforts 820
sal 820
4-@@ 819
Cindy 819
Cl@@ 819
Lynette 819
Wood@@ 819
disagree 819
fighters 819
GOING 818
Sign 818
What@@ 818
defeated 818
drown 818
lads 818
radiation 818
unfair 818
Samantha 817
W-@@ 817
celebration 817
chapter 817
cho 817
off-@@ 817
prosecution 817
raid 817
skinny 817
whip 817
Kat@@ 816
Reverend 816
Silas 816
autopsy 816
basketball 816
breach 816
emp@@ 816
shh 816
warming 816
yu@@ 816
Bir@@ 815
Mia 815
Ran@@ 815
medal 815
and-- 814
fooled 814
wicked 814
Kra@@ 813
Sort 813
ators 813
bothered 813
dos 813
mann 813
nia 813
website 813
Ala@@ 812
Business 812
GOOD 812
gallery 812
mie 812
Spo@@ 811
accurate 811
mon 811
ol 811
shrink 811
Por@@ 810
hom@@ 810
sunshine 810
tured 810
ENT 809
advise 809
ch-@@ 809
ctors 809
Book 808
Fran@@ 808
bells 807
breast 807
outs 807
sor@@ 807
tool 807
PA@@ 806
SEE 806
ideal 806
pose 806
puzzle 806
samples 806
Baker 805
Cal 805
Door 805
Indians 805
Sandy 805
acy 805
comic 805
tennis 805
thrilled 805
Travis 804
inspired 804
owes 804
theme 804
twisted 804
Allen 803
Kin@@ 803
ences 803
ffy 803
mping 803
preparing 803
31 802
Mikey 802
believing 802
forbidden 802
hair@@ 802
loses 802
Karev 801
Sin@@ 801
arrival 801
fifty 801
floating 801
ids 801
keeper 801
20,000 800
Ana 800
Deep 800
document 800
nes 800
tribe 800
Lenny 799
Place 799
Richie 799
crushed 799
ely 799
fal@@ 799
independent 799
oni@@ 799
perspective 799
symptoms 799
Cold 798
MI@@ 798
four-@@ 798
hooker 798
impress 798
ruled 798
software 798
tha 798
canceled 797
pointed 797
sum 797
sweater 797
1st 796
Fantastic 796
Far 796
del 796
logist 796
risks 796
rumor 796
shares 796
taxes 796
College 795
Turner 795
branch 795
ela 795
threats 795
wards 795
Wha@@ 794
chan 794
holidays 794
pork 794
'VE 793
Chicken 793
accidentally 793
arrangement 793
cakes 793
mill 793
stinks 793
this@@ 793
ven 793
Motherfucker 792
Saint 792
Sullivan 792
cans 792
ceiling 792
compete 792
fort 792
helmet 792
leg@@ 792
paradise 792
primary 792
statue 792
a.m. 791
hack 791
horror 791
retirement 791
scum 791
unexpected 791
Bridge 790
R.@@ 790
Repeat 790
fairly 790
panties 790
poo@@ 790
typical 790
196@@ 789
dest 789
distant 789
if@@ 789
oo-@@ 789
ous@@ 789
parade 789
resident 789
sl@@ 789
Tiger 788
anonymous 788
coffin 788
rear 788
sma@@ 788
vet 788
wrist 788
unconscious 787
Becky 786
Logan 786
eli@@ 786
engage 786
hallway 786
insisted 786
lish 786
ris 786
Ji@@ 785
Somehow 785
T. 785
addition 785
distracted 785
ffer 785
hat@@ 785
significant 785
tit@@ 785
37 784
Impossible 784
LING 784
Riley 784
Thi@@ 784
activities 784
bru@@ 784
exception 784
gla@@ 784
itions 784
sites 784
vo 784
29 783
3,000 783
Crea@@ 783
Herr 783
Rex 783
bly 783
continued 783
dia 783
method 783
side@@ 783
solar 783
Bet 782
Commissioner 782
Quinn 782
bay 782
heroin 782
papa 782
photographs 782
-Thanks 781
Defense 781
Mountain 781
S-@@ 781
Afghanistan 780
Waiting 780
cin@@ 780
dam@@ 780
elle 780
misery 780
psycho 780
-My 779
bench 779
bold 779
cargo 779
cliff 779
mankind 779
sit@@ 779
spots 779
volunteer 779
xed 779
yen 779
3rd 778
Foster 778
mr 778
parole 778
Chuckles 777
Coast 777
Fuckin 777
Sal 777
coun@@ 777
judges 777
sweep 777
FROM 776
acid 776
album 776
blocked 776
journalist 776
settlement 776
shield 776
Vice 775
care@@ 775
irs 775
ition 775
len@@ 775
region 775
ttering 775
abo@@ 774
bb@@ 774
ingly 774
sw@@ 774
theft 774
wished 774
worthless 774
AM@@ 773
Congress 773
Fle@@ 773
Miranda 773
Sex 773
bel 773
ona 773
reaching 773
rian 773
stores 773
tracked 773
vol@@ 773
wagon 773
whale 773
Att@@ 772
Barnes 772
Fall 772
Laughs 772
Lena 772
cross-@@ 772
instant 772
remaining 772
sakes 772
witches 772
-Did 771
Australia 771
I-I-I 771
Ling 771
cookie 771
elephant 771
published 771
FOR@@ 770
Paulie 770
Sonny 770
connections 770
cr@@ 770
cul@@ 770
ony 770
Boom 769
Coo@@ 769
Willie 769
cemetery 769
dam 769
kindness 769
scandal 769
update 769
widow 769
Gla@@ 768
Trevor 768
cia 768
ln@@ 768
ola 768
y- 768
Amber 767
Shame 767
respected 767
traditional 767
Franklin 766
Randall 766
approval 766
bush 766
ritual 766
Brothers 765
come@@ 765
divine 765
embassy 765
ker@@ 765
q 765
sucking 765
sworn 765
Allow 764
Alone 764
Garrett 764
Smart 764
WA@@ 764
dock 764
items 764
Po 763
Rita 763
Tai 763
arrives 763
dant 763
plug 763
sucked 763
Zero 762
ative 762
psychic 762
tis 762
Cur@@ 761
Sor@@ 761
Yay 761
madness 761
vital 761
completed 760
height 760
limits 760
pirate 760
tore 760
ATE 759
mat 759
Florence 758
Pope 758
lian 758
stuffed 758
Kri@@ 757
coke 757
dor 757
error 757
fold 757
grid 757
producer 757
Seeing 756
Ward 756
br@@ 756
characters 756
cl@@ 756
pan 756
prayers 756
uti@@ 756
Cat@@ 755
aw@@ 755
daylight 755
dge@@ 755
hopeless 755
lined 755
rising 755
verdict 755
B.@@ 754
Pa 754
TIME 754
Tur@@ 754
auto@@ 754
oring 754
resistance 754
trains 754
BAR 753
Consider 753
permit 753
seed 753
Eyes 752
chairs 752
colonel 752
folk 752
it-- 752
rehearsal 752
stor@@ 752
's-@@ 751
AII 751
Deputy 751
Sen@@ 751
ensure 751
hen 751
Barney 750
Cre@@ 750
Fish 750
blank 750
creation 750
farmer 750
lawn 750
ste 750
the-@@ 750
visitor 750
're@@ 749
Bl@@ 749
Harper 749
Sher@@ 749
anc@@ 749
gies 749
who@@ 749
55 748
GE 748
WOR@@ 748
approved 748
eling 748
models 748
snow@@ 748
tips 748
DID 747
Under@@ 747
dentist 747
du 747
ni 747
residence 747
Phillip 746
Roll 746
Valley 746
associates 746
bare 746
candles 746
climbing 746
editor 746
enforcement 746
ex-wife 746
fixing 746
potatoes 746
Houston 745
aged 745
artists 745
clothing 745
develop 745
fled 745
humble 745
journal 745
retreat 745
ssy 745
twist 745
38 744
arrow 744
ci 744
display 744
messy 744
offers 744
sle@@ 744
African 743
Ash@@ 743
complaint 743
eternity 743
Alpha 742
Ker@@ 742
boards 742
content 742
drowned 742
oun@@ 742
vent 742
Benny 741
Da 741
YEARS 741
glorious 741
hard-@@ 741
Government 740
applause 740
bing 740
fist 740
psychiatrist 740
retire 740
toss 740
-Right 739
CA@@ 739
Lor@@ 739
Magic 739
Suppose 739
WHO 739
basket 739
cracked 739
filming 739
fire@@ 739
lean 739
listed 739
GU@@ 738
OUR 738
Outside 738
P. 738
Son@@ 738
Stella 738
buck 738
civilian 738
eal 738
gig 738
sources 738
Mun@@ 737
Wyatt 737
gained 737
heavens 737
qualified 737
dedicated 736
liberty 736
switched 736
Curtis 735
Sel@@ 735
belief 735
booth 735
revealed 735
senator 735
steam 735
ue 735
drain 734
fs 734
high@@ 734
kno@@ 734
phrase 734
sore 734
ura 734
winds 734
Anderson 733
episode 733
2.@@ 732
Brody 732
PS 732
Pierre 732
Ruby 732
ene 732
nanny 732
physically 732
raw 732
Dee 731
Duncan 731
Israel 731
chuckles 731
penalty 731
ransom 731
reservation 731
ruining 731
shadows 731
spray 731
ts@@ 731
Dre@@ 730
Ear@@ 730
boxing 730
ics 730
lou@@ 730
missile 730
narrow 730
.S. 729
Hugo 729
physics 729
sex@@ 729
sits 729
AL 728
Leon 728
Starting 728
foul 728
harsh 728
hockey 728
proven 728
relevant 728
reverse 728
strict 728
Nicholas 727
Palmer 727
author 727
bacon 727
nightmares 727
non 727
oc@@ 727
yn 727
Middle 726
assets 726
attacking 726
decades 726
inspector 726
invasion 726
jeff 726
pale 726
7-@@ 725
Couple 725
Cy@@ 725
Ghost 725
M-@@ 725
Spi@@ 725
contacted 725
couples 725
po 725
rie 725
sprin@@ 725
Bernie 724
LOOK 724
WHEN 724
ala 724
aliens 724
ancestors 724
auction 724
avoiding 724
disappoint 724
dness 724
envy 724
fleet 724
fooling 724
mber@@ 724
ment@@ 724
ort 724
swell 724
trea@@ 724
Cli@@ 723
Hide 723
Target 723
excuses 723
fies 723
reference 723
suggestion 723
upside 723
Food 722
ban 722
capacity 722
database 722
expose 722
mbo 722
officials 722
saint 722
Mir@@ 721
Regina 721
but-- 721
ese 721
waking 721
Ag@@ 720
Atlantic 720
Caffrey 720
Despite 720
Hopefully 720
ego 720
faithful 720
fuss 720
motor 720
naive 720
Talking 719
ditch 719
mia 719
offended 719
Carson 718
Gran@@ 718
Janice 718
ama@@ 718
blackmail 718
crawl 718
principle 718
sixth 718
vain 718
QU@@ 717
discussing 717
gor@@ 717
is-- 717
sn@@ 717
whistle 717
Cops 716
bombing 716
ddle 716
described 716
offices 716
skirt 716
t. 716
commission 715
cti@@ 715
groom 715
protest 715
Dorothy 714
Meanwhile 714
Pin@@ 714
alternative 714
broadcast 714
carpet 714
eyed 714
graduation 714
opponent 714
precisely 714
relative 714
stepping 714
6-@@ 713
J. 713
cle 713
confessed 713
first-@@ 713
gesture 713
suspended 713
time@@ 713
European 712
Fiona 712
Min 712
al-@@ 712
column 712
hills 712
pointing 712
stan@@ 712
thirty 712
web 712
'you 711
Ah@@ 711
Sofia 711
cry@@ 711
dan 711
fty 711
kawa 711
knight 711
amongst 710
convenient 710
nit@@ 710
oven 710
scope 710
thumb 710
year-old 710
Bab@@ 709
conclusion 709
deer 709
disturbing 709
forbid 709
guardian 709
observe 709
roses 709
rubber 709
sar@@ 709
survivors 709
bes 708
coordinates 708
gon@@ 708
noodles 708
scar@@ 708
shor@@ 708
spoil 708
vation 708
Amelia 707
Lower 707
dagger 707
dining 707
sna@@ 707
tomb 707
circles 706
grades 706
leather 706
meets 706
Nar@@ 705
chased 705
prosecutor 705
ress 705
shotgun 705
worm 705
Castle 704
Fox 704
Loo@@ 704
directions 704
fox 704
hop 704
mont 704
passage 704
wha@@ 704
Liar 703
REALLY 703
Weren 703
ath 703
instinct 703
lee 703
scenario 703
scenes 703
strikes 703
50@@ 702
Part 702
SOME 702
defending 702
entertainment 702
established 702
rant 702
shove 702
sickness 702
Abed 701
ING@@ 701
Keller 701
Negative 701
perfume 701
yu 701
Calvin 700
Lester 700
Ms 700
Wild 700
barrel 700
growth 700
hel@@ 700
motorcycle 700
twi@@ 700
voted 700
Temple 699
ben@@ 699
disturbed 699
emotion 699
ggle 699
gram 699
grip 699
proves 699
scri@@ 699
wee 699
-to-@@ 698
Iike 698
Wolf 698
ami 698
convicted 698
dealt 698
en-@@ 698
rela@@ 698
Care 697
Dal@@ 697
Fear 697
KE 697
Keith 697
Land 697
Lay 697
Phoenix 697
Rac@@ 697
arriving 697
bio@@ 697
compromised 697
creep 697
eager 697
elder 697
entitled 697
s.@@ 697
Ama@@ 696
Sherlock 696
Vit@@ 696
absence 696
bonus 696
hee 696
itation 696
vanished 696
wars 696
writes 696
Antonio 695
Beverly 695
Nurse 695
Pleasure 695
Q 695
Sound 695
Tsu@@ 695
ancy 695
email 695
eng@@ 695
rejected 695
Claudia 694
cord 694
duties 694
like@@ 694
spiritual 694
thing@@ 694
unt 694
5th 693
Batman 693
Ellie 693
Fort 693
Square 693
confusing 693
discipline 693
laughter 693
magnificent 693
twin 693
Kennedy 692
Ou@@ 692
betting 692
doomed 692
elsewhere 692
flame 692
rug 692
show@@ 692
vic 692
Georgia 691
Pan 691
Pur@@ 691
SC@@ 691
allergic 691
assured 691
com 691
depend 691
newspapers 691
rever@@ 691
so-called 691
65 690
Cap@@ 690
Forever 690
S.@@ 690
contrary 690
free@@ 690
heart@@ 690
lane 690
motherfuckers 690
various 690
Cle@@ 689
Tracy 689
income 689
mature 689
sleeps 689
slice 689
Based 688
Isabel 688
Jon 688
Kai 688
Torres 688
book@@ 688
fears 688
formation 688
od@@ 688
pursuit 688
Flight 687
Hail 687
K-@@ 687
Pas@@ 687
Sand@@ 687
deed 687
ency 687
hatred 687
á@@ 687
Lauren 686
Marshal 686
Murray 686
Pearl 686
Safe 686
Sat@@ 686
foundation 686
lawsuit 686
spider 686
waiter 686
Jan 685
League 685
NE@@ 685
Pol@@ 685
ax 685
cating 685
dime 685
lings 685
logic 685
loop 685
poet 685
swi@@ 685
Bag@@ 684
Blow 684
Glenn 684
Potter 684
allows 684
bearing 684
blood@@ 684
eable 684
examine 684
executive 684
fax 684
fiction 684
interfere 684
losers 684
oney 684
pad 684
picnic 684
worlds 684
Squ@@ 683
Twenty-@@ 683
inappropriate 683
mur@@ 683
planets 683
products 683
shining 683
thus 683
Leslie 682
drum 682
gi 682
hardest 682
lev@@ 682
Good@@ 681
Join 681
Robbins 681
Shar@@ 681
cals 681
cellar 681
filling 681
greedy 681
iner 681
ith 681
loading 681
practical 681
will@@ 681
WHY 680
arrangements 680
crystal 680
gos 680
mortal 680
neat 680
owners 680
pic@@ 680
shirts 680
34 679
TING 679
Watson 679
ight 679
nd 679
offensive 679
publi@@ 679
servants 679
smash 679
FO@@ 678
Living 678
bully 678
pea@@ 678
reminded 678
rode 678
seated 678
wandering 678
Elvis 677
Gun 677
decides 677
galaxy 677
haunted 677
kies 677
sniper 677
tryin 677
Edie 676
Felix 676
Ivy 676
Mount 676
Nan@@ 676
Stevens 676
Tina 676
delighted 676
destroying 676
dou@@ 676
ever@@ 676
festival 676
gratitude 676
sse@@ 676
Romeo 675
WAY 675
Wherever 675
backyard 675
bie 675
drowning 675
hears 675
hostile 675
minimum 675
Evening 674
Given 674
International 674
Space 674
Thirty 674
Vic 674
arse 674
candle 674
drea@@ 674
formal 674
go-@@ 674
inviting 674
pistol 674
pops 674
tension 674
unk 674
Academy 673
Egypt 673
Fitz 673
R. 673
prostitute 673
scheme 673
sole 673
O. 672
Rufus 672
Zo@@ 672
assist 672
d-up 672
economic 672
mies 672
neuro@@ 672
panel 672
quest 672
trac@@ 672
wan 672
Bernadette 671
Jen 671
affected 671
cell@@ 671
civilians 671
conscious 671
explosives 671
forgiven 671
graduated 671
length 671
shit@@ 671
wit@@ 671
CON@@ 670
Las 670
establish 670
speci@@ 670
Allison 669
Buck 669
Des@@ 669
Luckily 669
cep@@ 669
crowded 669
dough 669
excitement 669
feast 669
gunshot 669
ny@@ 669
persons 669
seeking 669
tricky 669
Fly 668
Marvin 668
WOMAN 668
ankle 668
endless 668
photographer 668
pul@@ 668
Dea@@ 667
Mick 667
Raise 667
appetite 667
ladder 667
mit 667
narrator 667
passenger 667
secretly 667
Coun@@ 666
ee 666
flames 666
hopefully 666
ong@@ 666
rap 666
rarely 666
72 665
Excellency 665
Juan 665
Lie 665
ane@@ 665
cured 665
lesbian 665
shan 665
super-@@ 665
Line 664
N-@@ 664
OLD 664
Sloan 664
Valerie 664
meds 664
plea 664
rehab 664
surprising 664
trading 664
wakes 664
Bingo 663
Booth 663
Running 663
Used 663
biting 663
declared 663
grand@@ 663
rig 663
stall 663
struggling 663
4th 662
95 662
Brazil 662
Brenda 662
Council 662
EV@@ 662
Gross 662
OVER 662
Rest 662
Xiao 662
bin@@ 662
chopper 662
democracy 662
destination 662
esti@@ 662
floors 662
mid-@@ 662
rolls 662
there@@ 662
30@@ 661
Bass 661
Group 661
Lola 661
Radio 661
Tre@@ 661
Yi 661
beers 661
bets 661
mentally 661
mines 661
muscles 661
picks 661
register 661
wn@@ 661
Bre@@ 660
Janet 660
Norman 660
Pack 660
framed 660
ica 660
involve 660
thu@@ 660
Bush 659
Mom@@ 659
PER@@ 659
WILL 659
advised 659
ammo 659
contain 659
dummy 659
every@@ 659
fog 659
proposed 659
questioned 659
scaring 659
spinning 659
zombie 659
195@@ 658
beds 658
cian 658
cocktail 658
rolled 658
shelf 658
Gossip 657
Mur@@ 657
dow@@ 657
generations 657
label 657
tou@@ 657
CEO 656
Class 656
REA@@ 656
Ton@@ 656
cows 656
draft 656
it-@@ 656
love@@ 656
or-@@ 656
Belle 655
January 655
Search 655
Taxi 655
compare 655
gamble 655
hilarious 655
lamp 655
lize 655
recipe 655
sexually 655
sig@@ 655
tless 655
verse 655
Command 654
Deb 654
Moving 654
Within 654
declare 654
fortunate 654
prep 654
resume 654
twelve 654
Charming 653
Sasha 653
Supreme 653
TAKE 653
asset 653
brutal 653
counselor 653
ille 653
jar 653
minus 653
tide 653
-Go 652
MAR@@ 652
Mandy 652
Others 652
Patty 652
SON 652
haircut 652
key@@ 652
lations 652
potato 652
regard 652
scholarship 652
abi@@ 651
collapse 651
inn 651
methods 651
repay 651
sharks 651
Dou@@ 650
Liam 650
Reed 650
Reid 650
applied 650
craft 650
embrace 650
ree 650
the-- 650
Andre 649
Fun 649
Gene 649
Sandra 649
ap@@ 649
armor 649
bracelet 649
bre@@ 649
caring 649
iness 649
infor@@ 649
inst@@ 649
lau@@ 649
not@@ 649
spill 649
traveled 649
Bull 648
NSA 648
Wonder 648
fries 648
may@@ 648
measures 648
old-fashioned 648
plague 648
Ay 647
DOWN 647
Town 647
clues 647
dull 647
eye@@ 647
int@@ 647
owed 647
zation 647
Audrey 646
Erik 646
Monkey 646
cket 646
glo@@ 646
leton 646
thed 646
yle 646
Chi 645
Less 645
Silver 645
ania 645
bent 645
corrupt 645
depth 645
scares 645
sells 645
trailer 645
ü@@ 645
Strike 644
intentions 644
native 644
palm 644
passionate 644
platform 644
plea@@ 644
seeds 644
theirs 644
thers 644
tz@@ 644
wired 644
Asia 643
Britain 643
Heart 643
heavily 643
ised 643
ple@@ 643
pursue 643
rented 643
whales 643
AND@@ 642
Bo 642
Gotcha 642
Operation 642
cooperation 642
included 642
mini@@ 642
rang 642
relations 642
slight 642
spite 642
spying 642
wl 642
Bauer 641
Report 641
Shirley 641
alize 641
cel@@ 641
comp@@ 641
ening 641
girlfriends 641
importantly 641
profession 641
sely 641
Cash 640
Committee 640
E. 640
Release 640
Them 640
Went 640
benefits 640
cherry 640
communications 640
crawling 640
debts 640
meals 640
savings 640
was@@ 640
watches 640
Bas@@ 639
Big@@ 639
Laughing 639
Lloyd 639
Republic 639
Sid 639
Tough 639
accomplished 639
bab@@ 639
Carla 638
Fal@@ 638
Pam 638
plan@@ 638
H-@@ 637
Le 637
assassin 637
ere 637
mation 637
school@@ 637
silk 637
technical 637
G-@@ 636
attempted 636
balloon 636
gar 636
gel 636
legally 636
luxury 636
mil@@ 636
rack 636
tournament 636
DAY 635
Eastern 635
Kick 635
Lou@@ 635
domestic 635
ety 635
fuckers 635
gently 635
improve 635
maniac 635
monkeys 635
nickname 635
outer 635
paths 635
phoned 635
tho@@ 635
western 635
Lizzie 634
On@@ 634
airplane 634
element 634
essential 634
ology 634
pirates 634
sized 634
Detroit 633
Jung 633
Stu 633
YOU@@ 633
dation 633
dges 633
ial 633
isolated 633
mili@@ 633
Came 632
MORE 632
begged 632
convincing 632
doubts 632
finishing 632
formula 632
genetic 632
inspiration 632
morgue 632
organs 632
regrets 632
sayin 632
worship 632
Against 631
Dev@@ 631
History 631
Zhang 631
businessman 631
buys 631
hunger 631
lunatic 631
topic 631
tum 631
versus 631
40@@ 630
BY 630
Chad 630
Leaving 630
Polish 630
cheek 630
hunters 630
lab@@ 630
precise 630
skies 630
Bun@@ 629
Lizzy 629
ank 629
dering 629
fiance 629
issued 629
referring 629
sneaking 629
Killing 628
Palace 628
THEM 628
bunny 628
buyer 628
choosing 628
deceased 628
eau 628
esca@@ 628
pm 628
rash 628
vessel 628
DA@@ 627
mean@@ 627
7th 626
And@@ 626
Evan 626
Fourth 626
West@@ 626
elected 626
lamb 626
protective 626
ranch 626
receiving 626
roots 626
yl 626
Evil 625
M. 625
good-looking 625
hacked 625
importance 625
violation 625
& 624
Meg 624
WOULD 624
affection 624
ately 624
ballet 624
blond 624
chart 624
dine 624
hatch 624
illu@@ 624
prior 624
remembers 624
shaped 624
sophisticated 624
sympathy 624
Adams 623
Asian 623
Imperial 623
Sherman 623
cran@@ 623
deli@@ 623
drone 623
elements 623
fluid 623
glove 623
heh 623
lining 623
smi@@ 623
snack 623
2,@@ 622
Marine 622
compromise 622
dismissed 622
initial 622
jack@@ 622
los 622
magazines 622
moms 622
occupied 622
porch 622
possessed 622
radi@@ 622
700 621
Building 621
Isaac 621
Post 621
Var@@ 621
bac@@ 621
embarrass 621
inger 621
nurses 621
residents 621
screams 621
sperm 621
Anton 620
Corps 620
Oops 620
Summer 620
ards 620
brick 620
legitimate 620
promoted 620
Freddie 619
Harrison 619
Touch 619
actors 619
bubble 619
ella 619
exclusive 619
follows 619
oo 619
pha@@ 619
sequence 619
í@@ 619
3.@@ 618
Feeling 618
Including 618
Nikki 618
Ya 618
bag@@ 618
confirmation 618
handy 618
missiles 618
pony 618
rod 618
snakes 618
spoon 618
sunset 618
Eventually 617
Jules 617
Red@@ 617
Slowly 617
agenda 617
chickens 617
colour 617
indicate 617
moto 617
mou@@ 617
pressing 617
Ellis 616
Fifty 616
Fun@@ 616
abducted 616
aries 616
controls 616
ead 616
fon@@ 616
judging 616
occur 616
replacement 616
six-@@ 616
somewhat 616
uh-- 616
2000 615
Apple 615
Bruno 615
VI@@ 615
Wat@@ 615
bolt 615
brat 615
carries 615
hint 615
legacy 615
pets 615
presentation 615
Ernie 614
Fl@@ 614
God@@ 614
briefcase 614
cus 614
elegant 614
investigator 614
lism 614
objective 614
regu@@ 614
wns 614
-Really 613
Cute 613
February 613
Fu 613
administration 613
bles 613
gin@@ 613
goose 613
intern 613
nicer 613
roast 613
Explain 612
NA@@ 612
YO@@ 612
banging 612
concrete 612
consult 612
ester 612
lle 612
pervert 612
represents 612
solo 612
weigh 612
whores 612
year@@ 612
zu@@ 612
CK 611
Drew 611
Moses 611
Oi 611
Sheila 611
bore 611
gn@@ 611
lla@@ 611
stics 611
subjects 611
too@@ 611
un-@@ 611
zz 611
Ball 610
Course 610
Murder 610
bald 610
monk 610
ounce 610
pit@@ 610
stal@@ 610
vagina 610
Hans 609
Press 609
a.m 609
courtesy 609
fatal 609
heir 609
suggests 609
PD 608
confidential 608
linked 608
pregnancy 608
smashed 608
stand@@ 608
theatre 608
Eagle 607
Return 607
TR@@ 607
Veronica 607
Webber 607
announced 607
lease 607
poli@@ 607
stain 607
'I 606
Las@@ 606
Str@@ 606
biological 606
compound 606
consciousness 606
disc@@ 606
engines 606
hou@@ 606
illusion 606
interrupting 606
lemon 606
objects 606
purchase 606
Blu@@ 605
Clara 605
Jack@@ 605
Science 605
Tro@@ 605
Uni@@ 605
dr 605
favors 605
helpless 605
lly@@ 605
mped 605
needing 605
ora 605
performed 605
rescued 605
scru@@ 605
teenager 605
Agos 604
Focus 604
Frankly 604
Si 604
cloth 604
collected 604
manual 604
sers 604
spa@@ 604
ssa 604
suitable 604
Bennett 603
Continue 603
Fair@@ 603
Joy 603
alist 603
emb@@ 603
hats 603
jeans 603
leadership 603
mper 603
para@@ 603
ple 603
ration 603
shorts 603
treats 603
Afraid 602
BR@@ 602
L-@@ 602
approximately 602
consent 602
integrity 602
pulls 602
res@@ 602
scu@@ 602
setup 602
shipment 602
Kha@@ 601
Zack 601
achi@@ 601
by-@@ 601
gee 601
hiring 601
kiddo 601
mono@@ 601
ph 601
prote@@ 601
speaker 601
troubled 601
Gil 600
Moore 600
Winter 600
breed 600
disguise 600
fitting 600
fragile 600
frequency 600
pace 600
purple 600
Emergency 599
J.@@ 599
Res@@ 599
butcher 599
erase 599
kar@@ 599
overcome 599
sof@@ 599
Camp 598
Cuba 598
Einstein 598
centre 598
coins 598
guessed 598
hobby 598
smelled 598
witnessed 598
PRO@@ 597
Rosie 597
bachelor 597
bass 597
dale 597
dre@@ 597
leaf 597
mist 597
philosophy 597
post-@@ 597
shrimp 597
torch 597
Air@@ 596
Ari@@ 596
Carlo 596
Chow 596
Dro@@ 596
Sig@@ 596
bled 596
oul@@ 596
pressed 596
scores 596
second-@@ 596
server 596
signals 596
stamp 596
unlikely 596
Eugene 595
FA@@ 595
Orleans 595
Sou@@ 595
Twelve 595
Wol@@ 595
dreamt 595
healing 595
mutual 595
sings 595
sorrow 595
strictly 595
warriors 595
Angie 594
Basically 594
Fro@@ 594
Madison 594
Nora 594
civilization 594
contains 594
deputy 594
disorder 594
graphic 594
interviews 594
lier 594
suspicion 594
Bud 593
Coke 593
Danielle 593
Jude 593
Perry 593
RE 593
backed 593
calendar 593
cock@@ 593
consistent 593
counted 593
instincts 593
liquid 593
popped 593
reliable 593
venture 593
wil@@ 593
ö@@ 593
Jin@@ 592
Mostly 592
Thompson 592
anxiety 592
fry 592
lest 592
possibilities 592
tia 592
transplant 592
xing 592
Dallas 591
EY 591
Ram@@ 591
certificate 591
convention 591
fan@@ 591
fare 591
shoots 591
vengeance 591
At@@ 590
Eleanor 590
HI@@ 590
Shan@@ 590
Soprano 590
Tha@@ 590
Thinking 590
aging 590
ain@@ 590
chains 590
cleaner 590
man-@@ 590
ort@@ 590
sacrificed 590
urge 590
Facebook 589
Pedro 589
Rosa 589
ache 589
addict 589
banana 589
comrade 589
courtroom 589
cups 589
frog 589
genuine 589
misses 589
receipt 589
tus 589
198@@ 588
Dutch 588
HIS 588
Lev@@ 588
MP@@ 588
dental 588
lung 588
notebook 588
pancakes 588
prescription 588
sub 588
FUCK 587
ckles 587
dia@@ 587
dizzy 587
feds 587
gangster 587
ot 587
performing 587
spreading 587
suke 587
turing 587
vicious 587
Banks 586
Pon@@ 586
ann@@ 586
bad@@ 586
bonds 586
clearance 586
expenses 586
oral 586
quitting 586
zzle 586
ñ@@ 586
-Here 585
D.C. 585
Esther 585
GH@@ 585
Sil@@ 585
Weird 585
attending 585
c-@@ 585
cattle 585
clerk 585
hyper@@ 585
intimate 585
ow@@ 585
spoiled 585
Brilliant 584
Dri@@ 584
Fifteen 584
Locke 584
YES 584
cousins 584
hard@@ 584
honesty 584
lator 584
reporters 584
smoked 584
wit 584
zo@@ 584
PEOPLE 583
depression 583
dered 583
here@@ 583
interrogation 583
ju 583
materials 583
petty 583
strongest 583
Dexter 582
Heads 582
alcoholic 582
dest@@ 582
rubbish 582
stiff 582
texts 582
250 581
Rizzoli 581
Shake 581
Someday 581
abortion 581
confusion 581
electrical 581
glu@@ 581
intent 581
stalking 581
supp@@ 581
vehicles 581
Denise 580
Doris 580
anic 580
anne 580
chemistry 580
chew 580
illi@@ 580
instrument 580
laser 580
lates 580
part@@ 580
respects 580
Cos 579
Dream 579
SPEAKING 579
Zu@@ 579
camping 579
collecting 579
Lift 578
Teresa 578
cue 578
freaks 578
furious 578
vey 578
ä@@ 578
Gau@@ 577
Stri@@ 577
TED 577
ace@@ 577
burger 577
explore 577
oner 577
tremendous 577
vegetables 577
wealthy 577
Depends 576
Feels 576
Friend 576
Joshua 576
MS 576
Mei 576
Page 576
Playing 576
Sarge 576
altar 576
aye 576
danced 576
drivers 576
fork 576
ints 576
mortgage 576
standards 576
Hin@@ 575
MA 575
Marcel 575
RES@@ 575
Swa@@ 575
billions 575
cruise 575
facial 575
kidnap 575
lac@@ 575
sky@@ 575
sm@@ 575
timer 575
wel@@ 575
Beijing 574
Pl@@ 574
Seoul 574
dragging 574
ey@@ 574
gang@@ 574
ofthe 574
sil@@ 574
20-@@ 573
CHUCKLES 573
Hudson 573
forehead 573
foun@@ 573
missions 573
nar@@ 573
spies 573
tual 573
Carry 572
Corporal 572
Saw 572
Sweeney 572
Tea 572
chairman 572
clan 572
educated 572
elite 572
ises 572
mpy 572
rious 572
take@@ 572
Imp@@ 571
Shelly 571
Southern 571
WERE 571
arrogant 571
burg 571
butterfly 571
distract 571
ducks 571
flush 571
harmless 571
itu@@ 571
lists 571
scout 571
swords 571
tier 571
-and-@@ 570
BA@@ 570
CD 570
Delta 570
Wing 570
adoption 570
buttons 570
carriage 570
farewell 570
long-@@ 570
mba 570
scarf 570
this-- 570
ttle 570
O.R. 569
decade 569
gan@@ 569
hara 569
mil 569
rebel 569
stakes 569
touches 569
ttes 569
values 569
1000 568
Channel 568
Fast 568
Lat@@ 568
Samuel 568
cit@@ 568
disgrace 568
francs 568
ful@@ 568
hoo 568
immortal 568
nin@@ 568
pencil 568
yama 568
ATION 567
Cook 567
Mes@@ 567
Ming 567
champ 567
collapsed 567
devoted 567
experts 567
hesitate 567
kung 567
ribs 567
sausage 567
Easter 566
Nazis 566
Simple 566
V.@@ 566
comm@@ 566
dder 566
intact 566
majority 566
nearest 566
sandwiches 566
vich 566
wood@@ 566
Different 565
charging 565
deadline 565
eliminate 565
encourage 565
rhythm 565
weekends 565
43 564
Courtney 564
Dol@@ 564
Jonas 564
Technically 564
cious 564
coal 564
life-@@ 564
marvelous 564
poisoning 564
scen@@ 564
u-@@ 564
UR@@ 563
ben 563
ces@@ 563
comrades 563
conversations 563
ken@@ 563
kindly 563
kitty 563
reaches 563
situations 563
underwater 563
Cab@@ 562
DIDN 562
Eye 562
Hotch 562
Jean-@@ 562
Vera 562
dealers 562
fil@@ 562
ier 562
restore 562
som@@ 562
-Look 561
Birthday 561
Claude 561
Freedom 561
Halt 561
Ring 561
Steady 561
approached 561
blu@@ 561
continu@@ 561
fuse 561
jazz 561
tens 561
whatsoever 561
DE 560
Douglas 560
King@@ 560
Kono 560
flu 560
hereby 560
milli@@ 560
sou@@ 560
starve 560
wig 560
Ocean 559
Sharon 559
Spring 559
arti@@ 559
bartender 559
bribe 559
cheering 559
nowadays 559
scars 559
shiny 559
stressed 559
Campbell 558
Joel 558
Kathy 558
Mission 558
Tammy 558
UH 558
break@@ 558
gru@@ 558
mel 558
promising 558
reads 558
responding 558
zu 558
Austin 557
Ava 557
Child 557
Early 557
Fortunately 557
Forward 557
HPD 557
Hook 557
Lau@@ 557
cooler 557
gas@@ 557
lure 557
pine 557
reserve 557
tch@@ 557
traced 557
Gibbs 556
Khan 556
clean@@ 556
door@@ 556
fireworks 556
ide@@ 556
innocence 556
mike 556
rational 556
recognition 556
til 556
tow 556
trusting 556
vi 556
videos 556
Marge 555
NEED 555
Round 555
ST 555
Simpson 555
adopt 555
camp@@ 555
curiosity 555
eak 555
humiliated 555
immunity 555
lasted 555
lipstick 555
maximum 555
racist 555
reckless 555
relaxed 555
seas 555
worms 555
30,000 554
Al-@@ 554
RU@@ 554
Taiwan 554
Trans@@ 554
Unlike 554
correctly 554
em@@ 554
gown 554
supervisor 554
Elsa 553
Intelligence 553
Sca@@ 553
Spike 553
ert 553
ffi@@ 553
haul 553
pimp 553
woo 553
Bar 552
Bon 552
GR@@ 552
Satan 552
Shakespeare 552
alism 552
cheers 552
hose 552
ignored 552
messenger 552
mock 552
radius 552
reunion 552
smar@@ 552
stunt 552
terrifying 552
tom 552
vow 552
Becca 551
Carmen 551
Clyde 551
Gang 551
Gru@@ 551
PA 551
casualties 551
glue 551
greet 551
inevitable 551
minate 551
painter 551
scor@@ 551
spilled 551
traces 551
umbrella 551
ux 551
Cassie 550
Connie 550
Gate 550
Roo@@ 550
Shin@@ 550
accompany 550
additional 550
grounded 550
lement 550
lifted 550
p.m. 550
ros 550
spectacular 550
statements 550
survivor 550
werewolf 550
44 549
As@@ 549
Bing 549
Cheung 549
Fresh 549
Naturally 549
Simmons 549
Tucker 549
anchor 549
blaming 549
movements 549
over-@@ 549
poop 549
pper@@ 549
sector 549
sentimental 549
slightest 549
step@@ 549
Kansas 548
accuse 548
cannon 548
desires 548
donor 548
fts 548
marine 548
melt 548
pretended 548
è@@ 548
8-@@ 547
Bless 547
Cho 547
Dirty 547
bicycle 547
blamed 547
cries 547
gation 547
tray 547
whereabouts 547
y. 547
0,000 546
Agency 546
NASA 546
Reynolds 546
Scared 546
Stran@@ 546
despair 546
have@@ 546
lighting 546
minded 546
nell 546
observation 546
organ 546
ppin 546
regards 546
tunnels 546
49 545
Back@@ 545
Din@@ 545
Swan 545
Than 545
Wood 545
balcony 545
boy@@ 545
cope 545
divided 545
partnership 545
rows 545
tales 545
-Sure 544
Away 544
Cyrus 544
Public 544
Tanner 544
beam 544
ckin 544
deci@@ 544
grain 544
institution 544
kisses 544
lid 544
mansion 544
mom@@ 544
Ci@@ 543
Claus 543
Pea@@ 543
Side 543
Ul@@ 543
anda 543
cabinet 543
filing 543
float 543
itor 543
mma 543
myth 543
sire 543
sofa 543
sync 543
thinkin 543
ud 543
urs 543
46 542
Anti@@ 542
Bad@@ 542
Bird 542
Field 542
Kid@@ 542
Paula 542
THEN 542
backpack 542
conver@@ 542
discount 542
full-@@ 542
info 542
jun@@ 542
mug 542
politicians 542
remained 542
ship@@ 542
集 542
Andrea 541
Buzz 541
Dig 541
RY 541
Years 541
academy 541
aisle 541
closes 541
corrected 541
fame 541
hospitals 541
hut 541
meth 541
overseas 541
pals 541
short@@ 541
swallowed 541
throws 541
wheelchair 541
Tou@@ 540
clip 540
diving 540
dozens 540
dudes 540
gg 540
liking 540
obsession 540
prices 540
transmission 540
unstable 540
zie 540
Case 539
Pop@@ 539
SIGHS 539
accountant 539
bothers 539
celebrity 539
factor 539
ington 539
irrelevant 539
law@@ 539
mint 539
peanut 539
semester 539
youngest 539
Flynn 538
bounty 538
fiancé 538
jaw 538
ledge 538
resting 538
tations 538
uniforms 538
Box 537
Gil@@ 537
digital 537
explaining 537
just- 537
lles 537
ome 537
patterns 537
stance 537
tra 537
Hur@@ 536
Lot 536
chatter 536
f-@@ 536
ories 536
produced 536
punched 536
rene@@ 536
sav@@ 536
scissors 536
terrorism 536
travels 536
trophy 536
yoga 536
Carmela 535
Gaby 535
McGarrett 535
Nam 535
Twice 535
qua@@ 535
reali@@ 535
sailing 535
trips 535
Bul@@ 534
ED@@ 534
Edwards 534
Ella 534
Hani 534
Hugh 534
Jen@@ 534
Reggie 534
SHO@@ 534
appointed 534
b-@@ 534
fart 534
invest 534
orphan 534
rec@@ 534
submit 534
tain 534
ambassador 533
leverage 533
snu@@ 533
vari@@ 533
blin@@ 532
bureau 532
expense 532
experiments 532
husbands 532
igh@@ 532
informant 532
ising 532
lyn 532
mul@@ 532
thread 532
Eu@@ 531
Kit@@ 531
Problem 531
Temp@@ 531
coverage 531
failing 531
faint 531
flood 531
kit@@ 531
mmed 531
nel 531
possess 531
presented 531
wrestling 531
Contact 530
Cup 530
Eli@@ 530
F-@@ 530
Gina 530
JJ 530
Trac@@ 530
check@@ 530
cultural 530
masters 530
sailor 530
satisfaction 530
shells 530
tails 530
tered 530
thea@@ 530
AG@@ 529
Alfred 529
Allah 529
BEEN 529
Gates 529
Hills 529
Oleg 529
Up@@ 529
kicks 529
maintenance 529
metres 529
pipes 529
presume 529
sadness 529
seventh 529
sip 529
smiles 529
Boris 528
CE 528
Evans 528
Mul@@ 528
bosses 528
distress 528
reli@@ 528
sleepy 528
tolerate 528
Bella 527
Board 527
Crap 527
Gray 527
HAD 527
Plu@@ 527
Question 527
Rossi 527
feared 527
flirting 527
ght@@ 527
honorable 527
king@@ 527
rides 527
soli@@ 527
zel 527
85 526
EC@@ 526
blocking 526
handful 526
heartbeat 526
itive 526
pod 526
portal 526
red@@ 526
sweating 526
whispering 526
Edgar 525
LOVE 525
Ry@@ 525
Tang 525
U-@@ 525
Using 525
Woo 525
ark 525
lottery 525
ly-@@ 525
ores 525
tires 525
wax 525
Abraham 524
Kang 524
Scotty 524
backing 524
bull@@ 524
corruption 524
extend 524
graphy 524
max 524
originally 524
pon@@ 524
portrait 524
rier 524
tricked 524
Boo 523
Em@@ 523
Kel@@ 523
Lori 523
Medi@@ 523
Mystic 523
cupcakes 523
earthquake 523
encounter 523
fellows 523
southern 523
tas 523
yöur 523
Clu@@ 522
GI@@ 522
Jessie 522
Poli@@ 522
St 522
abilities 522
appreciated 522
bean 522
disappointment 522
dom@@ 522
emotionally 522
fie 522
ive 522
llen 522
m-- 522
visits 522
Ally 521
Beauty 521
Cas@@ 521
Jon@@ 521
Lung 521
Milan 521
SOMETHING 521
Xi@@ 521
aches 521
battles 521
cial 521
clay 521
climate 521
curtain 521
e-mails 521
earing 521
fugitive 521
nations 521
oured 521
strongly 521
thunder 521
views 521
wooden 521
Sn@@ 520
apples 520
contracts 520
doo@@ 520
realistic 520
restaurants 520
theories 520
Enzo 519
Gods 519
Tie 519
accomplish 519
aga 519
comb 519
dar 519
insi@@ 519
pond 519
rebels 519
tw@@ 519
Baron 518
Charge 518
Ew 518
Hat@@ 518
Pablo 518
Terrible 518
comedy 518
increased 518
tives 518
Fix 517
P-@@ 517
Peggy 517
Price 517
Spirit 517
Yoshi@@ 517
alo@@ 517
assa@@ 517
breeze 517
call@@ 517
definition 517
gus 517
nailed 517
ough 517
resort 517
salmon 517
thing-- 517
8th 516
Cathy 516
Illinois 516
JO@@ 516
Sawyer 516
Tong 516
acks 516
choke 516
mbled 516
mid 516
pepper 516
ridge 516
robe 516
subtle 516
tile 516
unto 516
SD-6 515
Sidney 515
Yama@@ 515
cam 515
dom 515
hl 515
posing 515
sand@@ 515
secured 515
tos 515
turtle 515
violin 515
vows 515
yοu 515
Mr.@@ 514
PAR@@ 514
Sugar 514
anyways 514
deeds 514
harvest 514
knives 514
literature 514
pay@@ 514
pies 514
sar 514
smack 514
teenage 514
4.@@ 513
Flu@@ 513
Jade 513
LU@@ 513
cians 513
corridor 513
dose 513
elo@@ 513
ez 513
masks 513
nigga 513
pho@@ 513
pilots 513
psychological 513
sincere 513
spir@@ 513
tari@@ 513
towels 513
Normally 512
Peterson 512
Scotland 512
Stephanie 512
at-@@ 512
bear@@ 512
bees 512
brand-new 512
clin@@ 512
foo@@ 512
forcing 512
lightly 512
motherfucking 512
slaughter 512
tasty 512
tori@@ 512
'S@@ 511
Admit 511
G. 511
Maurice 511
Susie 511
desperately 511
distraction 511
dolls 511
exposure 511
jammed 511
opposed 511
principles 511
races 511
snuck 511
spine 511
zzy 511
Continues 510
ITY 510
Kira 510
Mariana 510
R-@@ 510
dried 510
guidance 510
keen 510
leap 510
llin 510
wires 510
KS 509
awhile 509
barbecue 509
circuit 509
consideration 509
dip 509
fierce 509
good-@@ 509
louder 509
profits 509
quid 509
rises 509
rum 509
scrub 509
shipping 509
Action 508
Evelyn 508
Otto 508
Switzerland 508
Wei 508
did@@ 508
disposal 508
gol@@ 508
nee@@ 508
righteous 508
t--@@ 508
Mario 507
after@@ 507
compelled 507
dents 507
evacuate 507
fastest 507
fifteen 507
generally 507
mos 507
navy 507
pedi@@ 507
r. 507
stle 507
Canadian 506
Greetings 506
Knowing 506
THING 506
TION 506
Wit@@ 506
Yuri 506
accusing 506
annual 506
clearing 506
colored 506
compass 506
condom 506
conquer 506
deposition 506
gon 506
iring 506
jun 506
madame 506
rival 506
Kno@@ 505
Kor@@ 505
Teach 505
Viktor 505
ao 505
authorized 505
compassion 505
depressing 505
horny 505
persuade 505
pouring 505
united 505
withdraw 505
zzi 505
Born 504
Kurt 504
Poland 504
Pun@@ 504
allies 504
anta@@ 504
casual 504
classroom 504
exams 504
farmers 504
fix@@ 504
ind 504
inf@@ 504
inha@@ 504
landlord 504
loft 504
nick 504
ops 504
shade 504
tac@@ 504
tel 504
20th 503
Hamilton 503
Rudy 503
artery 503
bowling 503
developing 503
execute 503
scotch 503
Τ@@ 503
ο 503
Doo@@ 502
Home@@ 502
Iran 502
Learn 502
Marc 502
ank@@ 502
custom 502
delayed 502
l-- 502
plead 502
stin 502
tism 502
vate 502
-Please 501
52 501
Morris 501
Philadelphia 501
Sloane 501
Venice 501
controlling 501
examination 501
foot@@ 501
geo@@ 501
hypo@@ 501
junkie 501
ord 501
serves 501
6th 500
MAKE 500
Orson 500
Project 500
Scu@@ 500
berries 500
bumped 500
chap 500
ean 500
grams 500
lethal 500
refer 500
resi@@ 500
texting 500
triple 500
20s 499
Anytime 499
District 499
Simone 499
Village 499
batteries 499
carbon 499
e. 499
fea@@ 499
fing 499
flowing 499
rying 499
shallow 499
tease 499
una 499
COULD 498
Kirk 498
Kur@@ 498
Protect 498
Whe@@ 498
Whit@@ 498
championship 498
crucial 498
hips 498
loads 498
plo@@ 498
preserve 498
sten 498
39 497
Donnie 497
Front 497
Jonah 497
Lorenzo 497
Napoleon 497
Section 497
Spence 497
claiming 497
crow 497
fi 497
healed 497
jewels 497
jin 497
monsieur 497
nursing 497
ority 497
pause 497
reflection 497
regi@@ 497
specialist 497
Melanie 496
SORRY 496
Tea@@ 496
Thing 496
ambush 496
attract 496
butt@@ 496
explosive 496
ordering 496
printed 496
recommended 496
sper@@ 496
veins 496
whisper 496
'll@@ 495
9-@@ 495
Cody 495
Drake 495
Leader 495
Obama 495
acking 495
ak@@ 495
compli@@ 495
cult 495
designer 495
differences 495
equally 495
ite@@ 495
meaningless 495
suing 495
treason 495
unpleasant 495
wait@@ 495
Ale@@ 494
Batt@@ 494
By@@ 494
Eleven 494
Ohio 494
Phi@@ 494
Suck 494
brass 494
comman@@ 494
exploded 494
gr@@ 494
islands 494
mouths 494
nun 494
pension 494
pointless 494
quire 494
ss-@@ 494
vel@@ 494
Candy 493
Cheng 493
One-@@ 493
Run@@ 493
Young-@@ 493
bandits 493
bat@@ 493
childish 493
concentration 493
dong 493
dot 493
dun@@ 493
fting 493
hike 493
merger 493
multi@@ 493
straw 493
terminal 493
51 492
Base 492
Crystal 492
Late 492
Lt 492
Matty 492
Yong 492
ai@@ 492
ammunition 492
ange@@ 492
chuck 492
crashing 492
evi@@ 492
friend@@ 492
motor@@ 492
mount 492
resolve 492
sleep@@ 492
supporting 492
tine 492
x-@@ 492
zers 492
Bunny 491
Completely 491
Dante 491
Rather 491
Thou 491
USA 491
Watching 491
alized 491
ats 491
blink 491
cupcake 491
dan@@ 491
feeds 491
itches 491
of-@@ 491
pub 491
reject 491
resolved 491
sse 491
tical 491
unnecessary 491
FF@@ 490
Hay@@ 490
Mo 490
Pink 490
Stevie 490
Tol@@ 490
Wanted 490
cafe 490
contained 490
curtains 490
dreadful 490
fiancée 490
participate 490
poster 490
prank 490
revi@@ 490
rushed 490
taller 490
visible 490
Dom 489
Dur@@ 489
Jr 489
SAY 489
Wen@@ 489
a-a 489
cke@@ 489
do-@@ 489
dorm 489
expedition 489
freely 489
habits 489
know-- 489
operator 489
outcome 489
post@@ 489
retarded 489
shocking 489
stripper 489
I--I 488
Isabella 488
Plan@@ 488
Rio 488
Shot 488
Speed 488
Thirty-@@ 488
Ven@@ 488
Yellow 488
acknowledge 488
brakes 488
brother-in-law 488
but@@ 488
dian 488
happiest 488
household 488
inten@@ 488
involving 488
lust 488
monitoring 488
programs 488
publicity 488
Flying 487
Knight 487
Vaughn 487
Vicky 487
Wind 487
aci@@ 487
ambition 487
limo 487
rish 487
wick 487
Fong 486
Fur@@ 486
Ir@@ 486
Korsak 486
Regi@@ 486
automatic 486
bounce 486
experiences 486
ffle 486
modest 486
stre@@ 486
tearing 486
-Your 485
Arnold 485
Crime 485
Der@@ 485
Lights 485
Plenty 485
Wel@@ 485
amateur 485
amusing 485
attended 485
bodyguard 485
colony 485
complaints 485
demonstration 485
iler 485
person@@ 485
reply 485
ruins 485
sian 485
Age 484
Burt 484
Choi 484
Crown 484
DC 484
Gail 484
Pad@@ 484
Squad 484
Thus 484
Val 484
activated 484
bizarre 484
circu@@ 484
orbit 484
toxic 484
80s 483
Ther@@ 483
Timmy 483
Yan 483
cit 483
losses 483
responsibilities 483
tipped 483
was-- 483
writers 483
'D 482
LITTLE 482
Milo 482
Roberts 482
Services 482
Uh-uh 482
carrier 482
crappy 482
herd 482
needn 482
probation 482
scam 482
shitting 482
traps 482
Everywhere 481
Gold@@ 481
Too@@ 481
cafeteria 481
good@@ 481
john 481
kilometers 481
lities 481
maiden 481
never@@ 481
pawn 481
recognise 481
thoughtful 481
Jet 480
LAUGHS 480
PI@@ 480
Prison 480
Sim@@ 480
Sk@@ 480
Van@@ 480
continent 480
invested 480
requests 480
tage 480
tee 480
tourists 480
D.A. 479
Elijah 479
Harbor 479
Marry 479
Pennsylvania 479
Thy 479
adi@@ 479
alle@@ 479
apologise 479
asse@@ 479
dead@@ 479
domin@@ 479
even@@ 479
fucks 479
grey 479
le-- 479
pledge 479
surgical 479
think@@ 479
villain 479
41 478
Calling 478
Has@@ 478
TELL 478
Who@@ 478
Woody 478
adore 478
companion 478
congratulate 478
conviction 478
das 478
dean 478
detention 478
efficient 478
hh 478
sable 478
Abu 477
Bran@@ 477
Cheese 477
Counselor 477
Goo@@ 477
Hughes 477
Mel 477
Pops 477
TER@@ 477
Yuan 477
assassination 477
cies 477
cross@@ 477
cruci@@ 477
hunch 477
mode 477
oop 477
partial 477
plac@@ 477
puppet 477
red-@@ 477
rookie 477
runway 477
sible 477
specialty 477
ssions 477
第@@ 477
Abel 476
Beyond 476
Hood 476
Incredible 476
PP@@ 476
Phillips 476
Pray 476
Shannon 476
Vir@@ 476
corners 476
jurisdiction 476
pissing 476
puke 476
resign 476
rogue 476
sequ@@ 476
-Of 475
Ble@@ 475
Br@@ 475
Chill 475
Sylvia 475
bas@@ 475
challenging 475
faggot 475
fran@@ 475
hunted 475
magician 475
str@@ 475
you- 475
Bee@@ 474
Brennan 474
EVER 474
Sky 474
Sma@@ 474
climbed 474
corre@@ 474
detect 474
detectives 474
shops 474
substance 474
thankful 474
Dawn 473
Fill 473
Gy@@ 473
LAUGHING 473
Northern 473
Possibly 473
asylum 473
bul@@ 473
chemicals 473
cough 473
creates 473
cuff 473
endure 473
fails 473
gap 473
hem 473
identical 473
ira 473
ris@@ 473
sane 473
spends 473
Brooke 472
Fifth 472
Short 472
Snow@@ 472
Tess 472
angles 472
cas 472
donation 472
frank 472
lent 472
origin 472
p.m 472
packs 472
ropes 472
ruthless 472
scored 472
200,000 471
CR@@ 471
PHONE 471
Ye 471
alliance 471
ball@@ 471
dist@@ 471
fountain 471
gover@@ 471
ironic 471
now@@ 471
prayed 471
tattoos 471
Foreign 470
Gavin 470
Social 470
acquired 470
apo@@ 470
battlefield 470
ill@@ 470
nur@@ 470
remembering 470
sticky 470
volume 470
yelled 470
ARD 469
Fisher 469
Gwen 469
Interpol 469
Monty 469
Plan 469
THE@@ 469
Thor@@ 469
blog 469
eigh@@ 469
flavor 469
includes 469
mons 469
projects 469
shel@@ 469
supernatural 469
ware 469
-Wait 468
-in-@@ 468
Donny 468
Lang@@ 468
container 468
defence 468
deliberately 468
flee 468
granddaughter 468
locations 468
murderers 468
mustache 468
shuttle 468
stan 468
stran@@ 468
Greece 467
Rain 467
ath@@ 467
cigar 467
dearest 467
epi@@ 467
forensic 467
fulfill 467
grou@@ 467
lifestyle 467
publish 467
purposes 467
sunlight 467
talents 467
64 466
F.@@ 466
Jac@@ 466
Laurel 466
Nin@@ 466
antidote 466
baked 466
betrayal 466
electronic 466
farther 466
ham@@ 466
iles 466
ke-@@ 466
recommendation 466
risking 466
texted 466
tsu@@ 466
ANY 465
Block 465
Canning 465
Countess 465
Darcy 465
Feds 465
Gan@@ 465
Gregory 465
Irene 465
Kay 465
Kir@@ 465
Ron@@ 465
boo 465
cates 465
cons 465
defensive 465
defi@@ 465
difficulty 465
disrespect 465
eagle 465
gia 465
how@@ 465
panicked 465
pronounce 465
quicker 465
representing 465
sloppy 465
t- 465
Geez 464
Ja 464
MB@@ 464
Planet 464
Que@@ 464
Romans 464
catches 464
ction@@ 464
forming 464
human@@ 464
ov 464
surrounding 464
vali@@ 464
Jared 463
Sergei 463
bou@@ 463
cracking 463
dome 463
freshman 463
harassment 463
mentor 463
ruling 463
ung-@@ 463
waving 463
Ak@@ 462
Ambassador 462
Az@@ 462
Breakfast 462
ICE 462
Mini@@ 462
Salvatore 462
Suit 462
ast 462
cartel 462
ent-@@ 462
pains 462
py 462
sphere 462
ssion 462
urine 462
user 462
warmth 462
Bom@@ 461
EST 461
Nigel 461
Swiss 461
arena 461
bloo@@ 461
father@@ 461
figuring 461
grocery 461
ignorant 461
individuals 461
kid@@ 461
km 461
mice 461
miracles 461
opportunities 461
petition 461
robbing 461
runner 461
strain 461
stru@@ 461
thouse 461
ttered 461
Hawk 460
Mack 460
Stalin 460
That@@ 460
Theo 460
Timothy 460
Wally 460
ddling 460
employer 460
flattered 460
hardware 460
hog 460
spark 460
'm--I 459
'm-I 459
ANG@@ 459
Atlanta 459
Donovan 459
Gon@@ 459
Howdy 459
Jerusalem 459
Lynn 459
Principal 459
TUR@@ 459
Virgin 459
Water@@ 459
assi@@ 459
drums 459
expelled 459
humiliating 459
itors 459
northern 459
oma 459
predict 459
rear@@ 459
rivers 459
se-- 459
swamp 459
ticking 459
von 459
57 458
Flint 458
Hercules 458
PLEASE 458
ati@@ 458
breakdown 458
chick@@ 458
comments 458
erased 458
exc@@ 458
expectations 458
founded 458
greed 458
hairy 458
pickup 458
ught 458
uk 458
volunteered 458
GOD 457
P.D. 457
Scout 457
Senate 457
allowing 457
artificial 457
crab 457
hand-@@ 457
jealousy 457
lions 457
musician 457
noises 457
swept 457
thri@@ 457
vag@@ 457
wander 457
Kane 456
Liber@@ 456
Remind 456
accomplice 456
amazed 456
bol@@ 456
boundaries 456
payments 456
proje@@ 456
safe@@ 456
tton 456
Bryan 455
Congressman 455
HK 455
Is@@ 455
Silly 455
achieved 455
cancelled 455
dless 455
fir@@ 455
leaked 455
males 455
ng 455
rushing 455
sation 455
settling 455
shire 455
succeeded 455
use@@ 455
ust 455
vis 455
whipped 455
Agreed 454
BECAUSE 454
Maureen 454
Mi 454
OFF 454
Roland 454
Scotch 454
Sophia 454
Walking 454
abduction 454
acceptable 454
ander 454
cinema 454
corpses 454
deserted 454
grac@@ 454
mond 454
peri@@ 454
reminder 454
whack 454
wling 454
CU@@ 453
Crane 453
Ea@@ 453
Sni@@ 453
Stewart 453
deb@@ 453
delivering 453
detected 453
grudge 453
mani@@ 453
praise 453
realm 453
shaw 453
stack 453
thesis 453
woo@@ 453
wr@@ 453
Killed 452
Mistress 452
NEW 452
Vicki 452
Wan@@ 452
ant@@ 452
avenge 452
closure 452
handing 452
invention 452
make-up 452
physi@@ 452
salesman 452
sock 452
spa 452
variety 452
Fighting 451
Holland 451
Jacques 451
NI@@ 451
OP@@ 451
Wan 451
awaits 451
beep 451
belts 451
disappears 451
frighten 451
it. 451
onal 451
outrageous 451
priests 451
sly 451
tti@@ 451
vibra@@ 451
DVD 450
Down@@ 450
Jax 450
PM 450
Sna@@ 450
Thai 450
abused 450
altogether 450
autograph 450
essence 450
ette 450
grenade 450
improved 450
lette 450
mag@@ 450
marketing 450
nt 450
tasted 450
tourist 450
way@@ 450
Attack 449
CAR@@ 449
Fletcher 449
Grea@@ 449
Ministry 449
U.@@ 449
accidents 449
articles 449
barking 449
cotton 449
douche 449
eries 449
goddess 449
guaranteed 449
impro@@ 449
industrial 449
knots 449
longest 449
orgasm 449
pier 449
poke 449
yoυ 449
Ash 448
Baxter 448
Smells 448
Specter 448
Vega 448
Wells 448
costumes 448
coup 448
eighth 448
expand 448
legendary 448
memorial 448
pest 448
targeted 448
Ever@@ 447
F. 447
Isles 447
Kara 447
Kepner 447
Ky@@ 447
Marriage 447
Mid@@ 447
N.@@ 447
Robinson 447
Rule 447
arguments 447
bitten 447
blair 447
click 447
grin@@ 447
hometown 447
nerd 447
passports 447
patho@@ 447
phe@@ 447
phony 447
sche@@ 447
sentenced 447
stew 447
thorough 447
wonders 447
Arrest 446
Prin@@ 446
Sis 446
Tele@@ 446
Vivian 446
Woo@@ 446
eal@@ 446
globe 446
majesty 446
obligation 446
pumpkin 446
rated 446
straigh@@ 446
Ah-@@ 445
Coulson 445
Fan@@ 445
Glass 445
Marines 445
PE 445
SHIT 445
broker 445
customs 445
deepest 445
ex-husband 445
moder@@ 445
offs 445
orphanage 445
sby 445
shutting 445
stinking 445
welfare 445
Anywhere 444
Cel@@ 444
Dixon 444
Hop 444
Ranger 444
destined 444
dragons 444
fter 444
grown-up 444
handwriting 444
ilt 444
immune 444
lasts 444
refuses 444
sity 444
slack 444
var@@ 444
waist 444
Cruz 443
Fancy 443
MEAN 443
app 443
awa@@ 443
beth 443
bir@@ 443
coroner 443
demo@@ 443
evolution 443
gene 443
horse@@ 443
reduced 443
representative 443
revolutionary 443
robbers 443
selected 443
stash 443
Broadway 442
H.@@ 442
Main 442
Rogers 442
Senior 442
Sitting 442
grea@@ 442
great-@@ 442
hairs 442
inno@@ 442
nal 442
railroad 442
rally 442
rates 442
virtue 442
yah 442
Guar@@ 441
Lunch 441
Medical 441
Nash 441
Trouble 441
lowed 441
ore@@ 441
que@@ 441
squea@@ 441
stalker 441
sweaty 441
targeting 441
vacuum 441
120 440
30-@@ 440
98 440
Killer 440
Mad 440
Marley 440
Mau@@ 440
Oz 440
Screaming 440
Train 440
behaviour 440
confront 440
directed 440
funding 440
grasp 440
involves 440
mple 440
shin 440
wage 440
Brea@@ 439
Christina 439
John@@ 439
Standing 439
Won@@ 439
alter@@ 439
bathing 439
doo 439
es-- 439
feathers 439
frustrated 439
jay 439
reduce 439
stove 439
submarine 439
trials 439
underestimate 439
Ciao 438
Dammit 438
Joyce 438
Marion 438
Pentagon 438
Wright 438
ale 438
extended 438
hotels 438
kel 438
medic 438
nate 438
oria 438
robots 438
trusts 438
ultimately 438
Kung 437
Milk 437
Qui@@ 437
Sayid 437
Sleeping 437
Worse 437
aspirin 437
cheaper 437
deri@@ 437
felony 437
finals 437
glow 437
ical 437
indicates 437
poverty 437
stock@@ 437
turf 437
Ahem 436
Ching 436
Giving 436
Grand@@ 436
Society 436
Wear 436
adjust 436
dammit 436
extension 436
flank 436
gues 436
justify 436
mage 436
pick@@ 436
rah 436
sco@@ 436
tts 436
zip 436
4,000 435
Abra@@ 435
Britta 435
Chef 435
Jun 435
Lun@@ 435
Naomi 435
RS 435
Rocky 435
Wy@@ 435
bloke 435
blow@@ 435
briefing 435
buzz 435
housing 435
ingham 435
insulted 435
offend 435
organic 435
prophecy 435
psychopath 435
registration 435
rin 435
sacrifices 435
titude 435
twenty-@@ 435
undo 435
wizard 435
yan 435
-Sorry 434
Cin@@ 434
Civil 434
DEA 434
Desmond 434
Luca 434
Muslim 434
Santiago 434
batt@@ 434
ddled 434
dee 434
epic 434
extent 434
instantly 434
launched 434
razor 434
telegram 434
.S.@@ 433
Christians 433
Fire@@ 433
Garden 433
NYPD 433
Petro@@ 433
civilized 433
him@@ 433
historical 433
ized 433
layer 433
mini 433
ori 433
outstanding 433
psychotic 433
pudding 433
triumph 433
trousers 433
uro 433
valve 433
.5 432
Communist 432
ESS 432
Nat@@ 432
VING 432
anie 432
cane 432
combined 432
dedu@@ 432
delightful 432
erate 432
harbor 432
hhh 432
liber@@ 432
obliged 432
posed 432
pres@@ 432
sies 432
Battle 431
Camera 431
Nat 431
Wha 431
bands 431
despise 431
disa@@ 431
equals 431
identification 431
lay@@ 431
magnetic 431
ood 431
oughta 431
rab@@ 431
sai 431
veil 431
0s 430
Airport 430
Farewell 430
Gay 430
L.@@ 430
Married 430
Means 430
Rise 430
cottage 430
disappearance 430
dt 430
ement 430
invent 430
jected 430
logists 430
mainland 430
maj@@ 430
notion 430
predi@@ 430
shifts 430
slit 430
Arab 429
Ele@@ 429
Land@@ 429
Philly 429
Ran 429
UC@@ 429
atory 429
bling 429
dinosaur 429
fees 429
gener@@ 429
granny 429
snapped 429
stically 429
xie 429
¿ 429
's- 428
10th 428
Jupiter 428
Mea@@ 428
Military 428
NEVER 428
Rico 428
Spare 428
Staff 428
Total 428
bites 428
cocksucker 428
depending 428
iro 428
listens 428
misunderstood 428
pinch 428
scumbag 428
sum@@ 428
sunrise 428
thrill 428
yacht 428
zar@@ 428
-Now 427
Adele 427
Burns 427
GUYS 427
Geneva 427
Sle@@ 427
Smoke 427
Spread 427
acti@@ 427
bbing 427
beasts 427
borders 427
departure 427
flights 427
mbo@@ 427
nation@@ 427
needles 427
objection 427
ounding 427
outing 427
powered 427
ranks 427
sought 427
stir 427
wardrobe 427
Ara@@ 426
Faith 426
Forces 426
Harriet 426
Hush 426
Several 426
T-shirt 426
Wife 426
Zone 426
behaved 426
bidding 426
fabric 426
hu 426
installed 426
legit 426
llet 426
psychology 426
ried 426
samurai 426
seized 426
sights 426
sunny 426
techniques 426
vin@@ 426
12th 425
Af@@ 425
Bit 425
Lexie 425
Sau@@ 425
Tiny 425
Vienna 425
Vito 425
architect 425
assu@@ 425
ignoring 425
mel@@ 425
operational 425
quo@@ 425
sage 425
satisfy 425
sson 425
towns 425
Brady 424
G.@@ 424
Pakistan 424
Works 424
blend 424
cred@@ 424
cuffs 424
engineering 424
hangs 424
hit@@ 424
itting 424
nish 424
retrieve 424
roun@@ 424
splendid 424
verify 424
wishing 424
Alaska 423
Josie 423
Just@@ 423
PL@@ 423
Upstairs 423
charts 423
divide 423
heel 423
interviewed 423
marching 423
polar 423
rains 423
rendezvous 423
rental 423
risked 423
rup@@ 423
sant 423
toll 423
triggered 423
wre@@ 423
13th 422
Brooks 422
IE 422
Omar 422
Orange 422
Pig 422
Rain@@ 422
SURE 422
Solomon 422
babysitter 422
brake 422
channels 422
forged 422
goals 422
hanged 422
ices 422
quar@@ 422
realised 422
sinking 422
smartest 422
veling 422
volunteers 422
Bou@@ 421
DING 421
GIVE 421
Guards 421
INE 421
Kon@@ 421
Miguel 421
Rach 421
SW@@ 421
advertising 421
altitude 421
antly 421
ast@@ 421
bunker 421
enton 421
intellectual 421
pus 421
spon@@ 421
wer@@ 421
BB@@ 420
Cheryl 420
Cleveland 420
Colorado 420
Fol@@ 420
Kat 420
Lionel 420
OD 420
Roosevelt 420
SWAT 420
See@@ 420
Spartacus 420
Yale 420
armies 420
bed@@ 420
copper 420
dinosaurs 420
involvement 420
organize 420
tablet 420
tonic 420
'm@@ 419
53 419
88 419
Adrian 419
Along 419
Denny 419
FUCKING 419
Fir@@ 419
Gol@@ 419
L.A 419
Local 419
Lu 419
Nadia 419
Sky@@ 419
arrows 419
chen 419
driveway 419
facilities 419
matched 419
opinions 419
precinct 419
proposition 419
rail 419
shovel 419
ssive 419
stine 419
wager 419
DJ 418
Fanny 418
Quentin 418
Shadow 418
Twi@@ 418
Warden 418
cular 418
drawings 418
iced 418
rainbow 418
reconsider 418
rio 418
tossed 418
voting 418
Boyd 417
DU@@ 417
Forest 417
Judith 417
Sooner 417
TY 417
Wes 417
condoms 417
context 417
entertain 417
footsteps 417
foreigners 417
freed 417
llman 417
lords 417
lounge 417
medium 417
politician 417
power@@ 417
py@@ 417
sac@@ 417
salon 417
stag@@ 417
tov 417
Due 416
IM@@ 416
Jose 416
Nowhere 416
Personally 416
Rusty 416
Uhh 416
bake 416
demanding 416
dru@@ 416
freezer 416
logically 416
strangled 416
stray 416
supermarket 416
sushi 416
900 415
Flor@@ 415
KGB 415
LES 415
Marilyn 415
Von 415
ambitious 415
anyhow 415
attempting 415
dont 415
interference 415
lookout 415
ppa 415
sensation 415
tv 415
warden 415
Chocolate 414
Dru@@ 414
Fil@@ 414
Foo@@ 414
Fowler 414
Isabelle 414
Precisely 414
Slo@@ 414
TWO 414
Yoon 414
blunt 414
edition 414
eleven 414
inspection 414
ound 414
ret 414
shepherd 414
wind@@ 414
Diamond 413
Griffin 413
Terrific 413
agrees 413
bedtime 413
bluffing 413
cations 413
convict 413
cozy 413
darn 413
earrings 413
equipped 413
fair@@ 413
freakin 413
imagining 413
learnt 413
leash 413
oceans 413
reactor 413
slipping 413
smiled 413
voyage 413
workin 413
� 413
Cousin 412
Elaine 412
Gabby 412
Hand@@ 412
Happ@@ 412
Hom@@ 412
LS 412
Yi@@ 412
body@@ 412
boyfriends 412
ckie 412
embarrassment 412
ice@@ 412
ize 412
salvation 412
savior 412
squirrel 412
stitches 412
supported 412
swap 412
tequila 412
transportation 412
unarmed 412
12-@@ 411
Chun 411
DOOR 411
Holden 411
Otis 411
athlete 411
businesses 411
chie 411
courthouse 411
defe@@ 411
ential 411
historic 411
hound 411
hs 411
idea@@ 411
interrupted 411
iso@@ 411
lah 411
pairs 411
peculiar 411
predators 411
regulations 411
sour 411
translate 411
Choose 410
Gracie 410
Hardly 410
Kit 410
Rest@@ 410
Switch 410
clea@@ 410
dable 410
dd 410
donkey 410
eared 410
massacre 410
pending 410
shorter 410
surviving 410
tun@@ 410
wrecked 410
Body 409
Columbia 409
LEA@@ 409
Py@@ 409
Sanders 409
breaker 409
communist 409
disabled 409
eri 409
exotic 409
mpe@@ 409
mute 409
nea@@ 409
on-- 409
organi@@ 409
radical 409
rebuild 409
supportive 409
void 409
womb 409
Almighty 408
Among 408
Armstrong 408
Baltimore 408
CE@@ 408
Cora 408
Health 408
Lyle 408
Pepper 408
Stre@@ 408
attic 408
banker 408
buil@@ 408
casting 408
cey 408
dman 408
fbi 408
handcuffs 408
ished 408
jackass 408
locking 408
mattress 408
racket 408
spared 408
tutor 408
uri 408
01 407
Chu 407
Dong 407
Gerry 407
Hastings 407
PU@@ 407
Paddy 407
Reagan 407
cist 407
diplomatic 407
exhibit 407
hath 407
lars 407
managing 407
mbles 407
pajamas 407
ptic 407
rabbits 407
shaft 407
shook 407
traded 407
Beatrice 406
Ev@@ 406
Kitt 406
Lead 406
Violet 406
Web 406
accepting 406
devastated 406
drift 406
expertise 406
labs 406
matching 406
mma@@ 406
overwhelming 406
poly@@ 406
prettier 406
recruit 406
saki 406
skipped 406
tail@@ 406
tary 406
teaches 406
High@@ 405
Liberty 405
Patterson 405
Syd 405
Thousands 405
Wu@@ 405
associated 405
cant 405
comple@@ 405
cture 405
dity 405
dy-@@ 405
euros 405
ghetto 405
gler 405
hai 405
hottest 405
les@@ 405
sch 405
shers 405
strap 405
villa 405
AY 404
Byron 404
GE@@ 404
HAS 404
Jefferson 404
KE@@ 404
Luis 404
Luther 404
Oh. 404
Strong 404
Thailand 404
Tim@@ 404
consultant 404
itter 404
peach 404
procedures 404
reef 404
reserved 404
so-- 404
soo 404
stom@@ 404
vit@@ 404
vomit 404
weir@@ 404
zaki 404
Aim 403
Barbie 403
EVEN 403
Hardman 403
KNO@@ 403
Michigan 403
Mol@@ 403
Rev@@ 403
THAN 403
Wea@@ 403
achi 403
baggage 403
faked 403
fracture 403
insu@@ 403
lifting 403
memo 403
nik 403
occasionally 403
operative 403
restraining 403
supposedly 403
-Shut 402
9th 402
Figure 402
Homeland 402
Mills 402
Ramon 402
Tiffany 402
VER@@ 402
Virgil 402
`t 402
aces 402
ari 402
biology 402
busting 402
chea@@ 402
corporation 402
horizon 402
itis 402
marijuana 402
mechanic 402
popcorn 402
provo@@ 402
reflect 402
say@@ 402
sleeve 402
tham 402
tuna 402
'T@@ 401
Damien 401
Dawson 401
Fr@@ 401
Lo 401
Penelope 401
Pleased 401
Prove 401
chambers 401
courts 401
finance 401
gins 401
hearted 401
thetic 401
ul 401
 401
· 401
Helena 400
Lose 400
Na 400
S. 400
Sli@@ 400
Stru@@ 400
Voice 400
ables 400
astronaut 400
eper 400
flown 400
graves 400
grill 400
heroic 400
pel 400
processing 400
qualities 400
seize 400
30s 399
Appreciate 399
Bloo@@ 399
Churchill 399
Final 399
Mozzie 399
Noel 399
a. 399
ape 399
feature 399
ffer@@ 399
grandchildren 399
mbers 399
mule 399
pple 399
respectable 399
six@@ 399
slaughtered 399
surf 399
18th 398
Anita 398
Cherry 398
Out@@ 398
camps 398
coats 398
competitive 398
enters 398
gio 398
hides 398
locals 398
lump 398
noisy 398
sensors 398
stunning 398
tu 398
uh- 398
violated 398
visions 398
Date 397
Dominic 397
Free@@ 397
Harder 397
Mercedes 397
Olive 397
Takes 397
appli@@ 397
badass 397
bred 397
dra 397
infla@@ 397
owl 397
rey 397
selection 397
sensible 397
sign@@ 397
weep 397
.You 396
25@@ 396
Festival 396
Neu@@ 396
Revolution 396
Sum@@ 396
Truly 396
Well@@ 396
acquaintance 396
audio 396
devices 396
ele@@ 396
loa@@ 396
premises 396
separation 396
spect@@ 396
sten@@ 396
tying 396
-For 395
Es@@ 395
Hasn 395
Ireland 395
LED 395
Ronald 395
THESE 395
Tree 395
VERY 395
Vin@@ 395
adding 395
bishop 395
boun@@ 395
branches 395
condemned 395
contractor 395
currency 395
estimate 395
ferry 395
for-@@ 395
inci@@ 395
limb 395
mish 395
murdering 395
nickel 395
programmed 395
provi@@ 395
ric 395
shly 395
straighten 395
tals 395
-Have 394
199@@ 394
Bones 394
Fli@@ 394
Katrina 394
Pearson 394
Snake 394
Spock 394
W. 394
alongside 394
band@@ 394
burgers 394
choir 394
collateral 394
dire@@ 394
equ@@ 394
exits 394
lone 394
midst 394
refrigerator 394
refuge 394
vibe 394
whe@@ 394
Ace 393
BOTH 393
Cynthia 393
Elias 393
Feng 393
Natasha 393
Pussy 393
WO@@ 393
cease 393
collector 393
d. 393
define 393
dolphins 393
eria 393
guarded 393
hawk 393
housekeeper 393
instructed 393
intercept 393
successfully 393
tate 393
tory 393
trainer 393
tubes 393
uring 393
-Bye 392
15th 392
DY 392
Dani 392
Fang 392
Georgie 392
Glen 392
Hiya 392
Ji-@@ 392
bats 392
cheeks 392
flock 392
halt 392
ico 392
idol 392
list@@ 392
marshal 392
stated 392
ón 392
Empty 391
Rosemary 391
about@@ 391
antique 391
arch 391
assaulted 391
atomic 391
bluff 391
compartment 391
discreet 391
dol@@ 391
generator 391
intervention 391
moti@@ 391
notify 391
playground 391
portion 391
ry-@@ 391
sau@@ 391
stoned 391
surgeries 391
tches 391
thoroughly 391
21st 390
Chester 390
Chin@@ 390
KED 390
Nana 390
Nothin 390
au 390
erman 390
frightening 390
onic 390
steer 390
time-@@ 390
unacceptable 390
unpredictable 390
vian 390
,000 389
Arti@@ 389
Beer 389
COU@@ 389
HOME 389
Proceed 389
Scho@@ 389
Sell 389
Sold 389
brandy 389
cism 389
cker@@ 389
clowns 389
dged 389
hideous 389
novels 389
payback 389
tobacco 389
tre 389
tsu 389
vanish 389
yin 389
ANT 388
BREA@@ 388
Dancing 388
Dick@@ 388
Maj@@ 388
Os@@ 388
Zeus 388
bathtub 388
committing 388
coon 388
dir@@ 388
disk 388
inv@@ 388
lam 388
liz@@ 388
mummy 388
preferred 388
psych 388
serena 388
sued 388
tening 388
visa 388
Add 387
Ana@@ 387
Bron@@ 387
Hades 387
Stuff 387
U. 387
acles 387
banned 387
careless 387
cles 387
ense 387
hotter 387
insanity 387
mainly 387
relieve 387
sufficient 387
tactics 387
they@@ 387
wai@@ 387
Arctic 386
Cer@@ 386
Mother@@ 386
Parents 386
TOO 386
V. 386
Yankee 386
ati 386
belle 386
clumsy 386
cone 386
contents 386
entertaining 386
mechanical 386
shattered 386
subpoena 386
you. 386
's--@@ 385
Behold 385
Fabi@@ 385
Knox 385
S.H.I.E.L.D. 385
SHI@@ 385
TRA@@ 385
Tanya 385
Vel@@ 385
beacon 385
continuing 385
denying 385
elaborate 385
flipped 385
greatly 385
inquiry 385
isa 385
jeez 385
languages 385
lobster 385
pounding 385
practiced 385
pursuing 385
referred 385
scal@@ 385
tant 385
tapped 385
uh-@@ 385
warmer 385
DER 384
Hate 384
Initi@@ 384
McDonald 384
Rabbit 384
Storm 384
Trea@@ 384
dic 384
ee@@ 384
ffed 384
gangs 384
landscape 384
metaphor 384
overtime 384
poems 384
static 384
suckers 384
utterly 384
winners 384
Angelo 383
Chil@@ 383
Clarence 383
DOING 383
END 383
Ginger 383
Herman 383
Huang 383
Impressive 383
Keeping 383
Queens 383
Rosewood 383
ales 383
auto 383
baby-@@ 383
bree@@ 383
connecting 383
cracks 383
dancers 383
eric 383
ess@@ 383
oper@@ 383
regularly 383
stering 383
93 382
All@@ 382
Comman@@ 382
Google 382
Isa@@ 382
Nature 382
Pain@@ 382
Settle 382
Some@@ 382
Stal@@ 382
Tripp 382
amb@@ 382
bran@@ 382
commissioner 382
dog@@ 382
drunken 382
employment 382
feather 382
heating 382
lockdown 382
sama 382
stly 382
sung 382
then@@ 382
ttin 382
zombies 382
62 381
69 381
ATI@@ 381
Delicious 381
Dolores 381
Haw@@ 381
Keys 381
Republican 381
Stanford 381
bot 381
documentary 381
edi@@ 381
eks 381
elbow 381
homeland 381
insects 381
leaking 381
long@@ 381
overboard 381
pher@@ 381
pis@@ 381
tab 381
travelling 381
tron 381
tο 381
9.@@ 380
Aha 380
Amsterdam 380
CT 380
Führer 380
Mao 380
Monroe 380
Pizza 380
bark 380
countryside 380
dus 380
forma@@ 380
hail 380
hn 380
lock@@ 380
lyrics 380
regardless 380
self-defense 380
smith 380
tidy 380
yang 380
Greendale 379
K. 379
Mayday 379
Newton 379
Sick 379
Stern 379
Turkey 379
addiction 379
fade 379
knot 379
mans 379
ological 379
shment 379
tactical 379
volcano 379
Abigail 378
Beware 378
Consu@@ 378
Daily 378
Denver 378
Fairy 378
Fool 378
Gabe 378
Guns 378
Institute 378
McNally 378
Mou@@ 378
Rainbow 378
Seen 378
Venus 378
ahold 378
artillery 378
discharged 378
gno@@ 378
hacker 378
hydra@@ 378
insulting 378
l`m 378
rep 378
tick 378
és 378
ν@@ 378
05 377
Barrett 377
Champagne 377
ESE 377
Enter@@ 377
Guilty 377
Hassan 377
Jing 377
MEN 377
Ny@@ 377
Oxford 377
Wah 377
Zor@@ 377
attraction 377
candidates 377
cat@@ 377
cio 377
dicks 377
disappearing 377
eland 377
enthusiasm 377
essay 377
lis 377
manipulate 377
merry 377
mmm 377
oom 377
polish 377
predator 377
programme 377
rain@@ 377
shakes 377
slam 377
starters 377
teenagers 377
wheat 377
Η@@ 377
-ls 376
Liv 376
Scar@@ 376
aa@@ 376
amounts 376
chapel 376
choking 376
evolved 376
freaky 376
goo 376
ically 376
inheritance 376
jelly 376
popping 376
proving 376
publicly 376
rag 376
spells 376
tuition 376
-in 375
6,000 375
Bradley 375
Horn 375
Indi@@ 375
Piss 375
alists 375
bunk 375
cellphone 375
d- 375
deca@@ 375
diagnosis 375
download 375
ental 375
faking 375
gator 375
investors 375
liability 375
newest 375
no-one 375
nude 375
payroll 375
suc@@ 375
vely 375
100@@ 374
AIDS 374
Chung 374
Climb 374
Forty 374
Manager 374
Near 374
Tr@@ 374
UM 374
UN 374
Xia@@ 374
appreciation 374
banquet 374
detailed 374
gag 374
homecoming 374
instructor 374
look@@ 374
me. 374
mey 374
moon@@ 374
morphine 374
oh-@@ 374
perfection 374
restored 374
Days 373
Empress 373
Fan 373
Gave 373
Museum 373
Thorne 373
cali@@ 373
eu 373
ligh@@ 373
posts 373
relation 373
screamed 373
substitute 373
virginity 373
'em 372
'm-- 372
97 372
Creek 372
Eden 372
Fren@@ 372
Goodness 372
Nik@@ 372
Paper 372
Present 372
Ras@@ 372
Sab@@ 372
beautifully 372
blur@@ 372
claws 372
commands 372
eding 372
evacuation 372
gic 372
gles 372
hysterical 372
lessness 372
links 372
puppies 372
repeating 372
stion 372
swinging 372
temp@@ 372
tley 372
tougher 372
waits 372
-kun 371
Beck 371
Blan@@ 371
Chip 371
Clayton 371
Ful@@ 371
Ride 371
Skye 371
bler 371
coolest 371
crop 371
dations 371
diagnosed 371
gling 371
independence 371
lon 371
mating 371
nan 371
peek 371
poured 371
promp@@ 371
resignation 371
restroom 371
spear 371
token 371
wat@@ 371
-Me 370
-Then 370
Dusty 370
Metro 370
Palm 370
Ressler 370
Sad 370
adver@@ 370
airline 370
arresting 370
avoided 370
axe 370
bankrupt 370
bruises 370
ckey 370
cott 370
div@@ 370
dumping 370
extermin@@ 370
fucking-@@ 370
groceries 370
ici@@ 370
poisonous 370
provides 370
sketch 370
Brendan 369
Brick 369
Gabrielle 369
Horse 369
Ping 369
Zhao 369
competing 369
contempt 369
fainted 369
forty 369
nursery 369
productive 369
rays 369
seduce 369
solitary 369
thra@@ 369
tionally 369
wretched 369
xy 369
Cour@@ 368
Lets 368
Prize 368
Smell 368
Two-@@ 368
agi 368
barrier 368
challenges 368
conditioning 368
cont@@ 368
dynamite 368
examined 368
fairies 368
flirt 368
har 368
hospitality 368
humiliation 368
inherited 368
introduction 368
inventory 368
son-in-law 368
sorted 368
temptation 368
trafficking 368
tripped 368
yan@@ 368
Bli@@ 367
Bridget 367
Def@@ 367
Express 367
Ph@@ 367
Plaza 367
Sadie 367
Scoo@@ 367
Trade 367
WAIT 367
affects 367
cuz 367
dging 367
med@@ 367
ounded 367
overheard 367
platoon 367
summoned 367
villagers 367
whining 367
Abe 366
Beast 366
Bert 366
HEA@@ 366
Lockwood 366
Milton 366
SED 366
Seal 366
aff@@ 366
block@@ 366
bloom 366
cereal 366
clears 366
females 366
je 366
maps 366
masterpiece 366
modeling 366
part-time 366
rigged 366
smokes 366
steri@@ 366
tex 366
-When 365
00,000 365
68 365
AC 365
Christy 365
Darren 365
Doctors 365
Missy 365
Ner@@ 365
Unh 365
Vis@@ 365
anced 365
beliefs 365
bility 365
imagin@@ 365
lily 365
litt@@ 365
morons 365
sedu@@ 365
teau 365
transition 365
unlucky 365
valid 365
vor@@ 365
5.@@ 364
Bates 364
Jedi 364
Julius 364
Patricia 364
Shen 364
Smi@@ 364
Soo 364
absent 364
academic 364
classy 364
countless 364
distribution 364
docks 364
erie 364
ests 364
experiencing 364
flags 364
fulfilled 364
gifted 364
grabbing 364
here-- 364
impli@@ 364
infinite 364
injection 364
investigated 364
kay 364
opposition 364
rance 364
rt 364
rubbing 364
steals 364
tman 364
vated 364
vein 364
-Nothing 363
16th 363
Bee 363
Bit@@ 363
Buck@@ 363
Finished 363
Global 363
Nag@@ 363
Paolo 363
Pretend 363
Rodney 363
Sad@@ 363
Tuck 363
agencies 363
boost 363
cour@@ 363
creeps 363
demonstrate 363
drugged 363
extraction 363
heist 363
irony 363
kman 363
mato@@ 363
mor 363
ples 363
professionals 363
savage 363
stabbing 363
syndrome 363
teasing 363
thered 363
Affairs 362
Camille 362
Dash 362
Erin 362
Fel@@ 362
Fen@@ 362
Jer@@ 362
Kingdom 362
Prote@@ 362
Shin 362
accounted 362
broad@@ 362
compensation 362
dances 362
followers 362
ghs 362
hybrid 362
imaginary 362
irresponsible 362
ky@@ 362
llings 362
lor@@ 362
mics 362
pact 362
robber 362
rol 362
sabotage 362
stat 362
two@@ 362
BODY 361
Childs 361
Dalton 361
GIRL 361
Gas 361
Homicide 361
Il@@ 361
PE@@ 361
Pole 361
Wash 361
Willy 361
Words 361
Yeah. 361
analyst 361
denial 361
diseases 361
dwarf 361
gracious 361
grease 361
indu@@ 361
instruments 361
mourning 361
od 361
thought@@ 361
thy@@ 361
yi@@ 361
yl@@ 361
Care@@ 360
DEA@@ 360
Deli@@ 360
Hallelujah 360
Indiana 360
ONLY 360
OUS 360
Philippe 360
Rice 360
Underwood 360
bies 360
bomber 360
cheerleader 360
chopped 360
dee@@ 360
discharge 360
embe@@ 360
grandparents 360
guarding 360
haunt 360
loneliness 360
numb 360
oko 360
reader 360
rebellion 360
reno@@ 360
souvenir 360
taped 360
villages 360
Afternoon 359
Draw 359
MON@@ 359
Mississippi 359
Sev@@ 359
Y-@@ 359
condolences 359
dependent 359
devi@@ 359
dishon@@ 359
ef 359
folded 359
hell@@ 359
inde@@ 359
lim@@ 359
maids 359
mura 359
occupation 359
one-- 359
remorse 359
roller 359
snacks 359
vegetarian 359
101 358
70s 358
Arman 358
Cap 358
Long@@ 358
Mah@@ 358
Pure 358
Rebekah 358
SEA@@ 358
Tae 358
Tessa 358
a.@@ 358
butts 358
cautious 358
cht 358
cum 358
diaper 358
dicta@@ 358
discretion 358
dismiss 358
harmony 358
horns 358
ired 358
janitor 358
jumps 358
mirrors 358
not-- 358
psychiatric 358
ripping 358
sab@@ 358
sessions 358
sew 358
shipped 358
vie@@ 358
οn 358
54 357
Alzheimer 357
EI@@ 357
Reli@@ 357
blues 357
consu@@ 357
coral 357
disappointing 357
elderman 357
geek 357
loo 357
melting 357
nipples 357
pinned 357
requ@@ 357
stored 357
zen 357
ó@@ 357
14th 356
Declan 356
ENCE 356
Kentucky 356
LIFE 356
Law@@ 356
Lock@@ 356
Norris 356
O.R 356
Powell 356
Pratt 356
Swedish 356
Twilight 356
Wagner 356
abs 356
authentic 356
crib 356
desp@@ 356
employed 356
fee@@ 356
garlic 356
get@@ 356
headaches 356
initiative 356
lodge 356
pig@@ 356
refugees 356
ring@@ 356
roy 356
slapped 356
soaked 356
storms 356
streak 356
sual 356
tle@@ 356
unfinished 356
wning 356
yman 356
Celia 355
Fon@@ 355
Geor@@ 355
Oh@@ 355
Original 355
PING 355
SHOULD 355
STOP 355
Scarlett 355
acceler@@ 355
addicted 355
analyze 355
chatting 355
contro@@ 355
crate 355
delusional 355
designs 355
extract 355
french 355
hacking 355
negotiating 355
obje@@ 355
orian 355
presidential 355
rs 355
shit-@@ 355
supreme 355
thless 355
tively 355
wee@@ 355
where@@ 355
wrists 355
500,000 354
Dogs 354
Edith 354
Fab@@ 354
Forty-@@ 354
Frankenstein 354
Games 354
Goes 354
Port 354
Suzanne 354
V-@@ 354
Vul@@ 354
Wesley 354
addresses 354
behaving 354
carved 354
complained 354
fling 354
full-time 354
hating 354
long-term 354
ood@@ 354
ption 354
purely 354
stains 354
tellin 354
61 353
AH 353
Bol@@ 353
Crowley 353
Fuller 353
Lars 353
TE 353
ce-- 353
cers 353
contrac@@ 353
ea 353
ex-boyfriend 353
foreigner 353
ichi 353
ket 353
medals 353
moo@@ 353
phenomenon 353
pp 353
shaved 353
worldwide 353
zio 353
-See 352
Bottom 352
Dom@@ 352
Five-O 352
ITE 352
MP 352
Machine 352
Mademoiselle 352
Margot 352
Ton 352
X-@@ 352
dis 352
enne 352
ius 352
loans 352
mach@@ 352
mining 352
mushrooms 352
oak 352
photo@@ 352
pi 352
policemen 352
rotting 352
rus 352
sentences 352
stadium 352
stered 352
traumatic 352
vegetable 352
Carolina 351
Duck 351
Embassy 351
Miriam 351
Pamela 351
Sco@@ 351
Yea 351
ado 351
aver@@ 351
boiling 351
booty 351
brook 351
comforting 351
decom@@ 351
escaping 351
eving 351
fewer 351
gasps 351
gawa 351
muffin 351
or-- 351
paralyzed 351
rai@@ 351
tox 351
ungrateful 351
56 350
Agnes 350
Cass 350
Egyptian 350
Henderson 350
Honest 350
Leon@@ 350
MAT@@ 350
MIN@@ 350
NY 350
Plea@@ 350
SAID 350
Sno@@ 350
Story 350
ang-@@ 350
dition 350
dium 350
exceptional 350
expi@@ 350
fingernails 350
hipp@@ 350
pasta 350
peak 350
peasant 350
phan@@ 350
preliminary 350
properties 350
smelling 350
sp 350
stocks 350
tab@@ 350
witz 350
-Maybe 349
7.@@ 349
Alaric 349
Archer 349
Bunch 349
Carmine 349
EE@@ 349
Monster 349
Survi@@ 349
Thunder 349
cess@@ 349
dors 349
eastern 349
lu 349
modi@@ 349
negotiations 349
old-@@ 349
overwhelmed 349
profound 349
prototype 349
smoo@@ 349
splitting 349
sunk 349
sweetest 349
temporarily 349
Ariel 348
Doe 348
Floyd 348
Gather 348
Hobbs 348
Kenneth 348
Les@@ 348
Norma 348
Prague 348
Sonia 348
Weapons 348
YING 348
apologizing 348
assembly 348
dispatch 348
environmental 348
establishment 348
features 348
mb 348
nick@@ 348
pharmacy 348
rapidly 348
reservations 348
single-@@ 348
stages 348
syn@@ 348
syrup 348
ten-@@ 348
tis@@ 348
tro 348
xi 348
66 347
Aiden 347
Cand@@ 347
Cape 347
Finding 347
KIM 347
Piece 347
TT@@ 347
Vil@@ 347
WS 347
Wipe 347
aka 347
ali 347
breakthrough 347
caution 347
darkest 347
dash 347
defin@@ 347
errand 347
fiancee 347
fortress 347
imperson@@ 347
loaf 347
lun@@ 347
nets 347
nett 347
occasions 347
prostitutes 347
refu@@ 347
revol@@ 347
rider 347
ripe 347
saddle 347
simpler 347
staf@@ 347
vert 347
you-@@ 347
zar 347
19th 346
3,@@ 346
Association 346
Cliff 346
Day@@ 346
Driver 346
Industries 346
Montgomery 346
ONG 346
Olga 346
Skip 346
association 346
bow@@ 346
buckle 346
chewing 346
diver@@ 346
enter@@ 346
focusing 346
homemade 346
judged 346
producing 346
requesting 346
showers 346
smallest 346
solving 346
speeding 346
spra@@ 346
wilderness 346
Ax@@ 345
Bite 345
Caught 345
Dy@@ 345
Eun@@ 345
Hiro@@ 345
Kinda 345
Missing 345
Rad@@ 345
Self-@@ 345
anya 345
bbed 345
bullied 345
burial 345
contribution 345
ddles 345
elderly 345
eves 345
holder 345
improvement 345
like-- 345
madman 345
millionaire 345
mme 345
motivated 345
quarantine 345
scattered 345
secre@@ 345
wie 345
-Stop 344
CO 344
Called 344
HELP 344
How@@ 344
MIL@@ 344
Merlin 344
Morrison 344
Moz 344
Ser 344
Swee@@ 344
apparent 344
autumn 344
caller 344
cripple 344
diapers 344
dous 344
ek@@ 344
fron@@ 344
insight 344
interior 344
kidneys 344
la-@@ 344
maze 344
mustard 344
promote 344
radio@@ 344
relate 344
salute 344
seller 344
span@@ 344
tened 344
tracker 344
vague 344
-what 343
86 343
Ignore 343
Job 343
Kings 343
Lara 343
Pascal 343
Stacy 343
Wars 343
Whole 343
acious 343
apologized 343
attempts 343
barracks 343
del@@ 343
evaluation 343
fantasies 343
ggie 343
incapable 343
intercourse 343
laun@@ 343
markets 343
orderly 343
pol@@ 343
pos 343
sured 343
wrong@@ 343
APP@@ 342
Canyon 342
Cul@@ 342
Hammond 342
Meadow 342
Pity 342
Qin 342
Revenge 342
Spa@@ 342
Sully 342
THER 342
Tae-@@ 342
bal 342
belongings 342
caliber 342
compliments 342
crow@@ 342
dings 342
elephants 342
equation 342
fai@@ 342
fusion 342
honors 342
hostess 342
lowing 342
mole@@ 342
oos 342
resigned 342
rev@@ 342
slower 342
surgeons 342
thank@@ 342
unemployed 342
8,000 341
Busy 341
CAL@@ 341
CALL 341
Columbus 341
Gin@@ 341
Hundreds 341
Ow@@ 341
Reich 341
Scre@@ 341
Suspect 341
Wai 341
Warrior 341
craz@@ 341
decline 341
ffles 341
gasoline 341
infe@@ 341
nicest 341
onions 341
pie@@ 341
poll@@ 341
regre@@ 341
shri@@ 341
sided 341
tribute 341
try@@ 341
't- 340
ANY@@ 340
COR@@ 340
Daryl 340
Dire@@ 340
Disapp@@ 340
Eigh@@ 340
Hsi@@ 340
Hurley 340
Leah 340
PH@@ 340
aching 340
alter 340
artifact 340
automatically 340
bricks 340
chooses 340
cocky 340
cowards 340
dal@@ 340
easiest 340
fanta@@ 340
flashlight 340
inmates 340
ious 340
makin 340
monthly 340
ongoing 340
purchased 340
qualify 340
ru 340
stur@@ 340
Bin 339
EST@@ 339
Hell@@ 339
Hero 339
IR 339
Kiki 339
Rod 339
Sharp 339
VIP 339
Ying 339
crooked 339
endor@@ 339
foam 339
pas 339
plumber 339
sham 339
spaghetti 339
sponsor 339
tains 339
tching 339
une@@ 339
vage 339
veness 339
63 338
91 338
ALLY 338
Ay@@ 338
Bianca 338
CLO@@ 338
Fei 338
Hair 338
INTO 338
Sons 338
Wilden 338
Xiao@@ 338
brunch 338
bureau@@ 338
buster 338
camel 338
caps 338
cher@@ 338
downs 338
duke 338
dwell 338
encouraged 338
flows 338
forensics 338
forests 338
humiliate 338
ima@@ 338
kneel 338
lemonade 338
restricted 338
rusty 338
sett@@ 338
spla@@ 338
ssor 338
telescope 338
top-@@ 338
weirdo 338
whoo@@ 338
won@@ 338
Alec 337
Breaking 337
Cao 337
House@@ 337
Jer 337
Soldiers 337
batch 337
breeding 337
confuse 337
eds 337
fills 337
flooded 337
generate 337
graph 337
jan@@ 337
jer@@ 337
juvenile 337
parlor 337
really@@ 337
refusing 337
twee@@ 337
urban 337
Boy@@ 336
Devon 336
Jody 336
Marianne 336
Monte 336
Morse 336
Ori@@ 336
PLA@@ 336
Putting 336
Remove 336
Spit 336
Sustained 336
Walsh 336
Win 336
Yin 336
ami@@ 336
blue@@ 336
coded 336
collabor@@ 336
convenience 336
counseling 336
erry 336
extre@@ 336
ingle 336
mechanism 336
negotiation 336
privileged 336
reign 336
rick 336
sam 336
sidewalk 336
vings 336
92 335
BABY 335
Gently 335
H. 335
Jor@@ 335
Mercy 335
Nig@@ 335
Pain 335
assessment 335
borne 335
culprit 335
ec@@ 335
frustrating 335
glimpse 335
irrit@@ 335
ninth 335
ousness 335
quarrel 335
ranking 335
recruited 335
reform 335
screws 335
thirst 335
turn@@ 335
vie 335
Alma 334
Aww 334
Bac@@ 334
Bat@@ 334
Butch 334
DR@@ 334
EAR@@ 334
Ex-@@ 334
Marina 334
Nearly 334
Olympic 334
Ray@@ 334
Rock@@ 334
Tried 334
Waldorf 334
Worth 334
grad 334
providing 334
stroll 334
sures 334
tain@@ 334
toothbrush 334
treaty 334
wages 334
Ass 333
Briggs 333
Crying 333
HAL@@ 333
Inn 333
MAN@@ 333
Nan 333
Secure 333
Single 333
Smo@@ 333
bushes 333
cardiac 333
elders 333
ener 333
fol@@ 333
heated 333
lens 333
lore 333
manife@@ 333
manifest 333
numerous 333
ordin@@ 333
potentially 333
proposing 333
punc@@ 333
stry 333
takin 333
Diaz 332
Gab@@ 332
Gulf 332
Langley 332
Oregon 332
Portland 332
Scor@@ 332
X-ray 332
ass-@@ 332
centi@@ 332
challenged 332
ddler 332
deciding 332
dell 332
distinguished 332
estimated 332
expressed 332
fag 332
lace 332
logs 332
ly-- 332
mourn 332
naval 332
permanently 332
permitted 332
pigeon 332
pr@@ 332
transformed 332
workshop 332
03 331
77 331
96 331
Alert 331
Antony 331
Birkhoff 331
Bull@@ 331
Caitlin 331
Colombia 331
Goddess 331
No-one 331
Righ@@ 331
Schu@@ 331
Singing 331
Woods 331
accounting 331
argued 331
aspect 331
contemp@@ 331
cunning 331
dier 331
dislike 331
experimental 331
gaining 331
happen@@ 331
hollow 331
lap@@ 331
progre@@ 331
raft 331
represented 331
sick@@ 331
skilled 331
vating 331
vessels 331
weighs 331
-Nice 330
25,000 330
87 330
Charley 330
Destroy 330
ENT@@ 330
Folks 330
MOR@@ 330
Meeting 330
Resistance 330
Rou@@ 330
bate 330
broom 330
concussion 330
considerate 330
deceived 330
det 330
duct 330
eight-@@ 330
exile 330
makers 330
mali@@ 330
primitive 330
resent 330
restless 330
retard 330
scoop 330
tract 330
tramp 330
ugh@@ 330
Assistant 329
Axel 329
Goldberg 329
Greene 329
Hola 329
Jes@@ 329
SA 329
STE@@ 329
blouse 329
coinci@@ 329
confe@@ 329
decorated 329
eldest 329
emails 329
gle@@ 329
head-@@ 329
ile 329
kling 329
make@@ 329
moonlight 329
nin 329
privileges 329
roughly 329
secondary 329
seizure 329
shoo@@ 329
sincerely 329
soy 329
ssi 329
stamps 329
testified 329
weddings 329
ylon 329
6.@@ 328
Caro@@ 328
Christianity 328
Comp@@ 328
Cop@@ 328
Di 328
Emp@@ 328
FIRST 328
GRO@@ 328
Gig@@ 328
Iris 328
Ko 328
Raf@@ 328
Rhodes 328
Yankees 328
barge 328
bypass 328
clinical 328
complications 328
consumed 328
dared 328
dolphin 328
don`t 328
expe@@ 328
glowing 328
hustle 328
kindergarten 328
kly 328
manship 328
resolution 328
saves 328
summit 328
tackle 328
them@@ 328
zzo 328
ée 328
-Mr 327
CBI 327
Hungry 327
Ji 327
Low 327
MU@@ 327
Mozart 327
Pho@@ 327
Preston 327
SCREAMING 327
Thief 327
Top@@ 327
alties 327
cartoon 327
colli@@ 327
dig@@ 327
donate 327
dum 327
exce@@ 327
iser 327
jerks 327
kas 327
morality 327
nah 327
particles 327
penguins 327
postcard 327
protects 327
superhero 327
unlock 327
unlocked 327
00-@@ 326
Aurora 326
Brought 326
COMP@@ 326
Cinderella 326
D.C 326
Daphne 326
Gerard 326
Gren@@ 326
Henri 326
Highway 326
I.D 326
PRI@@ 326
Port@@ 326
Pru@@ 326
Serious 326
Taka@@ 326
Thu@@ 326
Warsaw 326
Wine 326
artistic 326
astro@@ 326
bis@@ 326
boil 326
broo@@ 326
cetera 326
dense 326
ethics 326
girl@@ 326
goats 326
ito 326
licking 326
melted 326
optimistic 326
pos@@ 326
reinforcements 326
ribbon 326
sburg 326
slippery 326
stab@@ 326
strawberry 326
stud 326
sweets 326
tit 326
季 326
67 325
Auto@@ 325
Carly 325
Hit@@ 325
Lang 325
MENT 325
NOR@@ 325
Patience 325
Research 325
bacteria 325
banking 325
convoy 325
crook 325
difficulties 325
ding@@ 325
eva@@ 325
froze 325
galaxies 325
greatness 325
gui@@ 325
integra@@ 325
meta@@ 325
news@@ 325
penthouse 325
pet@@ 325
printing 325
privately 325
proble@@ 325
scans 325
sco 325
servers 325
steering 325
torturing 325
unity 325
vile 325
wley 325
78 324
82 324
Antoine 324
Barb 324
Die@@ 324
Michel 324
Roberto 324
Wanda 324
apprentice 324
bladder 324
clone 324
cracker 324
delight 324
dentally 324
disin@@ 324
eded 324
eld 324
emer@@ 324
extensive 324
napkin 324
physician 324
plaintiff 324
ptions 324
punishing 324
road@@ 324
runnin 324
speculation 324
suited 324
swelling 324
tenth 324
Asa@@ 323
Buster 323
Castro 323
Colt 323
Cuban 323
Explo@@ 323
Nevada 323
Officers 323
Paradise 323
Polly 323
accusations 323
atro@@ 323
big-@@ 323
cherish 323
conclusions 323
constru@@ 323
day-@@ 323
depths 323
gardener 323
illegally 323
lio 323
mph 323
need@@ 323
nod 323
psy 323
slim 323
sper 323
ter-@@ 323
tomato 323
uns 323
50-@@ 322
Auth@@ 322
Brett 322
Crac@@ 322
Dracula 322
Forrest 322
HU@@ 322
Hoyt 322
Ok@@ 322
STU@@ 322
annoyed 322
anomaly 322
ault 322
be-- 322
contra@@ 322
dares 322
demanded 322
dunno 322
eliminated 322
gge@@ 322
hamburger 322
kh@@ 322
mattered 322
motto 322
nis 322
obse@@ 322
parallel 322
predicted 322
recovering 322
sewing 322
shments 322
town@@ 322
transmitter 322
Arms 321
Classic 321
FUL 321
Gretchen 321
Hale 321
Jasper 321
Nas@@ 321
Reyes 321
Thor 321
Tired 321
WORLD 321
acquainted 321
crushing 321
demonstra@@ 321
doorstep 321
elev@@ 321
get-@@ 321
gress 321
heights 321
implying 321
kidnapper 321
mara 321
paged 321
pat 321
pron@@ 321
realizes 321
secrecy 321
strangle 321
superiors 321
upsetting 321
vase 321
verge 321
Allan 320
Bastards 320
CC 320
Cock@@ 320
Enter 320
Handsome 320
Higher 320
Joanna 320
Kis@@ 320
MIS@@ 320
PR 320
Swear 320
`@@ 320
admired 320
blades 320
bun 320
conce@@ 320
cycles 320
decency 320
dispute 320
faculty 320
functions 320
gents 320
karma 320
mailbox 320
mop 320
neighbours 320
notch 320
ounds 320
pain@@ 320
rewarded 320
rians 320
right@@ 320
sheer 320
snitch 320
striking 320
tuck 320
unbearable 320
wand 320
world-@@ 320
wrath 320
-Give 319
Anyways 319
Arnie 319
Cambridge 319
Comes 319
Ding 319
Edmund 319
Guil@@ 319
Jenkins 319
Maine 319
Oil 319
Pittsburgh 319
Sheng 319
Victory 319
Whitney 319
addressed 319
believer 319
bugging 319
ctively 319
employ 319
expects 319
eyebrows 319
getaway 319
hr@@ 319
impulse 319
paycheck 319
rel 319
scratched 319
severed 319
slavery 319
tempted 319
truce 319
unite 319
vulgar 319
've@@ 318
Daniels 318
Dixie 318
FIN@@ 318
Gets 318
Jensen 318
Jong-@@ 318
Salt 318
Tin 318
YouTube 318
achievement 318
banged 318
caves 318
considerable 318
dialogue 318
four@@ 318
ghts 318
inherit 318
insect 318
inte@@ 318
invade 318
lov 318
mous 318
neighbour 318
pageant 318
processed 318
quali@@ 318
siren 318
stead 318
vac@@ 318
warfare 318
yogurt 318
Andre@@ 317
Archie 317
Bowl 317
Contin@@ 317
Gale 317
Gideon 317
Hazel 317
MUSIC 317
Priya 317
Quin@@ 317
bombed 317
ctic 317
detector 317
drilling 317
duel 317
elf 317
essentially 317
indul@@ 317
inted 317
mens 317
parti@@ 317
polis 317
safest 317
seasons 317
sewer 317
smuggling 317
so-@@ 317
spicy 317
strate 317
third-@@ 317
thrust 317
ugh 317
venom 317
Angus 316
Assuming 316
BIT@@ 316
Bis@@ 316
Blessed 316
Crawford 316
Equ@@ 316
Gibson 316
Lis@@ 316
Losing 316
Male 316
Matthews 316
PARK 316
Wig@@ 316
Yuki 316
agony 316
assassins 316
bailed 316
clicks 316
congressman 316
deser@@ 316
exhibition 316
gans 316
gender 316
going@@ 316
indication 316
microphone 316
ming@@ 316
neu@@ 316
num 316
out-of-@@ 316
raging 316
shack 316
teen@@ 316
ution 316
Alvin 315
Amazon 315
Ange@@ 315
Av@@ 315
BS 315
But@@ 315
allowance 315
bourbon 315
clon@@ 315
comparison 315
concerning 315
courier 315
existing 315
glance 315
hiking 315
hot@@ 315
imit@@ 315
imper@@ 315
minu@@ 315
mol@@ 315
neutral 315
poorly 315
probe 315
scrap 315
semen 315
sium 315
squa@@ 315
stepfather 315
tated 315
teenth 315
tering 315
traitors 315
vering 315
81 314
Bomb 314
Boring 314
Constitution 314
Gotham 314
Hayes 314
Sage 314
Stef 314
air-@@ 314
bananas 314
cavalry 314
consen@@ 314
contagious 314
ctomy 314
footprints 314
gence 314
ists 314
lingerie 314
mpi@@ 314
omi 314
on. 314
onboard 314
operated 314
pearls 314
pli@@ 314
preacher 314
punching 314
pyramid 314
ramp 314
responded 314
shaken 314
shrin@@ 314
ssa@@ 314
sympathetic 314
vul@@ 314
-If 313
76 313
BOY 313
Elise 313
HQ 313
Incoming 313
Laurie 313
Liang 313
Respect 313
Steel 313
Yes@@ 313
adrenaline 313
cea@@ 313
condo 313
crosses 313
dwe@@ 313
favorites 313
ffled 313
filth 313
functional 313
gravy 313
hydro@@ 313
identities 313
kable 313
noted 313
observed 313
orphans 313
prefer@@ 313
pumping 313
spelled 313
tolerance 313
wild@@ 313
58 312
90s 312
Chelsea 312
Drugs 312
Figured 312
Lau 312
Lucia 312
Ty 312
Winnie 312
acs 312
alias 312
altered 312
bubbles 312
cle@@ 312
consequence 312
damages 312
definite 312
ener@@ 312
fisherman 312
foods 312
hypnoti@@ 312
impatient 312
interviewing 312
kilos 312
kitten 312
mee@@ 312
obtain 312
ong-@@ 312
satellites 312
select 312
taker 312
towers 312
wers 312
2008 311
ASAP 311
Computer 311
Dodge 311
Grover 311
Iowa 311
Italians 311
K.@@ 311
Key 311
Lexi 311
Lying 311
Mad@@ 311
Note 311
Siu 311
Swan@@ 311
balloons 311
champions 311
devils 311
enced 311
eth 311
fa 311
gir@@ 311
grapes 311
mam@@ 311
pled 311
pry 311
rest@@ 311
shines 311
small-@@ 311
vious 311
well@@ 311
wrin@@ 311
yuan 311
的@@ 311
Bennet 310
Gonz@@ 310
Kol@@ 310
Level 310
Naked 310
ONS 310
Photo@@ 310
Schi@@ 310
Six@@ 310
Warehouse 310
az@@ 310
boob 310
buffalo 310
buffet 310
captive 310
conducting 310
coordin@@ 310
deception 310
divi@@ 310
ented 310
ex-girlfriend 310
expli@@ 310
gigantic 310
increasing 310
journalists 310
laboratory 310
lum 310
nightclub 310
override 310
racial 310
reck@@ 310
richer 310
shoul@@ 310
sister-in-law 310
snatch 310
throats 310
thugs 310
virtually 310
walker 310
wo 310
-Take 309
-To 309
Fatty 309
Fran 309
GRA@@ 309
Howie 309
Kil@@ 309
LAST 309
MUCH 309
Punch 309
Renee 309
Rose@@ 309
Scra@@ 309
Simply 309
ampu@@ 309
authorization 309
balanced 309
canal 309
close@@ 309
consulting 309
cricket 309
cut@@ 309
guil@@ 309
karate 309
liars 309
percentage 309
pps 309
prettiest 309
railway 309
shman 309
teller 309
tomatoes 309
Beli@@ 308
Checking 308
Jang 308
Nobel 308
North@@ 308
Raven 308
Splendid 308
Standard 308
Witch 308
allegations 308
alleged 308
apartments 308
archy 308
birth@@ 308
brag 308
corn@@ 308
drich 308
fit@@ 308
gunfire 308
lization 308
peed 308
protein 308
pupil 308
routes 308
short-@@ 308
spiders 308
strea@@ 308
sustained 308
viol@@ 308
yton 308
، 308
-Because 307
-One 307
89 307
Australian 307
Ha-ha 307
Oh-@@ 307
Saying 307
THANK 307
adapt 307
amusement 307
ashi@@ 307
exten@@ 307
functioning 307
ge-@@ 307
ign@@ 307
insecure 307
invincible 307
killings 307
mented 307
nuisance 307
pics 307
posters 307
potion 307
roommates 307
span 307
starved 307
thead 307
vintage 307
Augu@@ 306
Brit@@ 306
EL 306
Information 306
Jung-@@ 306
Louisiana 306
Luci@@ 306
Ollie 306
Sweden 306
Tas@@ 306
Tit@@ 306
a- 306
awa 306
bic 306
buyers 306
consolation 306
covert 306
crews 306
defended 306
dr@@ 306
eled 306
execu@@ 306
fish@@ 306
flour 306
gest 306
heartless 306
infant 306
lays 306
led@@ 306
lighten 306
m. 306
prostitution 306
punks 306
queer 306
remotely 306
rer@@ 306
rine 306
soul@@ 306
squir@@ 306
thfully 306
tified 306
transaction 306
vre 306
Alliance 305
Bell@@ 305
Cheer 305
Fernando 305
Flowers 305
Frea@@ 305
Gemma 305
Goose 305
Heil 305
J-@@ 305
Jeanne 305
Leg@@ 305
Provi@@ 305
Richards 305
Seung-Jo 305
Sparrow 305
Springs 305
Table 305
Utah 305
aggression 305
aly@@ 305
attorneys 305
bulb 305
compel 305
daring 305
dio 305
evich 305
feel@@ 305
fications 305
guchi 305
imminent 305
marker 305
ool 305
ppe 305
prece@@ 305
refer@@ 305
repu@@ 305
slippers 305
slowing 305
stationed 305
teddy 305
thou@@ 305
Andrews 304
Demo@@ 304
Engine 304
Five-@@ 304
Kru@@ 304
Pour 304
Samaritan 304
Wes@@ 304
Wo 304
admitting 304
alternate 304
appearances 304
certainty 304
classmates 304
deleted 304
draws 304
generals 304
i-i 304
mir 304
mur 304
nay 304
noses 304
ppings 304
pupils 304
regime 304
rested 304
skate 304
snor@@ 304
ssen 304
suffers 304
sunglasses 304
surprisingly 304
than@@ 304
ttery 304
valet 304
vous 304
wandered 304
yne 304
0.@@ 303
AD@@ 303
Angels 303
Animal 303
Chapter 303
Female 303
Georgina 303
HR 303
Honour 303
IRS 303
Jennings 303
MAYBE 303
Madrid 303
Mate 303
SOME@@ 303
Sak@@ 303
Singh 303
Tung 303
adventures 303
awaiting 303
baker 303
bil@@ 303
breakup 303
crates 303
enly 303
forgets 303
genes 303
harmon@@ 303
ject 303
not-@@ 303
peanuts 303
pil@@ 303
severely 303
skeleton 303
tummy 303
wei 303
Cher@@ 302
Circle 302
Dwight 302
Gang@@ 302
Normal 302
Sadly 302
Stro@@ 302
Tai@@ 302
Tech 302
Treasury 302
VES 302
WORK 302
aring 302
attendant 302
bbling 302
bravery 302
conducted 302
dove 302
filmed 302
fuzzy 302
gladly 302
hau@@ 302
recess 302
sil 302
tchy 302
temperatures 302
yon 302
11th 301
Chiu 301
Every@@ 301
FATHER 301
Few 301
Franco 301
Grow 301
Javier 301
Oklahoma 301
Ridge 301
Turkish 301
Wolowitz 301
abi 301
abort 301
accommo@@ 301
advisor 301
capit@@ 301
cheerful 301
chores 301
ctory 301
engineers 301
excused 301
feelin 301
ffe@@ 301
gaze 301
ila 301
kite 301
kor@@ 301
loosen 301
lowest 301
meaningful 301
ose 301
readers 301
richest 301
schoo@@ 301
suspension 301
swollen 301
tour@@ 301
triangle 301
vio 301
whispers 301
whites 301
ANYTHING 300
Altman 300
Con 300
HOUSE 300
Hopkins 300
Kry@@ 300
Lab@@ 300
Mina 300
Moe 300
Pride 300
Rho@@ 300
Rit@@ 300
Saunders 300
Som@@ 300
banished 300
cling 300
dab@@ 300
divor@@ 300
eng 300
errands 300
extinct 300
flatter 300
ignorance 300
inspire 300
itched 300
karaoke 300
manipulated 300
merchandise 300
mir@@ 300
monks 300
publishing 300
quarterback 300
refre@@ 300
rehearse 300
sounding 300
spice 300
strapped 300
-In 299
84 299
BA 299
Cé@@ 299
Ferris 299
HON@@ 299
Ira 299
José 299
Libby 299
Mae 299
Memphis 299
Olympics 299
Rig@@ 299
Sir@@ 299
Spider 299
arrests 299
chilly 299
chum 299
coaches 299
contribute 299
crat 299
firms 299
iko 299
latte 299
notorious 299
ona@@ 299
orium 299
peel 299
rascal 299
righty 299
yield 299
40,000 298
8.@@ 298
Carolyn 298
Charlene 298
Cookie 298
FINE 298
Louder 298
Nanny 298
Russo 298
Trish 298
Truman 298
Yan@@ 298
abdomen 298
amends 298
doubted 298
ginger 298
goon 298
gu 298
homosexual 298
inconvenience 298
liberal 298
mari@@ 298
mild 298
moaning 298
moustache 298
opium 298
paddle 298
reset 298
retro@@ 298
rib 298
sanctuary 298
speeches 298
stern 298
transform 298
yn@@ 298
-Excuse 297
73 297
Cain 297
Darby 297
Fac@@ 297
Foreman 297
Hear@@ 297
L. 297
Missed 297
Springfield 297
System 297
aro 297
await 297
bridges 297
bugger 297
cca 297
conductor 297
conservative 297
crippled 297
curfew 297
dimension 297
dots 297
initi@@ 297
isolation 297
itas 297
lene 297
match@@ 297
merciful 297
mysteries 297
nity 297
ologist 297
prescri@@ 297
ratt@@ 297
rocking 297
slate 297
stles 297
thighs 297
thumbs 297
zzie 297
BLO@@ 296
Chancellor 296
Chumhum 296
Dakota 296
Delhi 296
Drea@@ 296
Graysons 296
Lam 296
Singapore 296
TA 296
Tennessee 296
Trick 296
alpha 296
blankets 296
boxer 296
canvas 296
chee@@ 296
founder 296
insists 296
invaded 296
kis@@ 296
leman 296
limp 296
physicist 296
regiment 296
repeated 296
rests 296
thanking 296
180 295
Ani@@ 295
Demon 295
Dia@@ 295
Forgot 295
Hiro 295
INTER@@ 295
Iron@@ 295
LAPD 295
Lit@@ 295
Rid@@ 295
Ski@@ 295
Sports 295
Sunny 295
Vas@@ 295
Your@@ 295
baths 295
bbs 295
bows 295
cape 295
capsule 295
curve 295
delu@@ 295
endings 295
eral 295
gled 295
gorilla 295
ign 295
incoming 295
intu@@ 295
onally 295
peop@@ 295
placing 295
shampoo 295
skiing 295
smelly 295
stripped 295
tenants 295
toilets 295
tooth@@ 295
troop 295
troubling 295
-Like 294
59 294
ALL@@ 294
Anyhow 294
Considering 294
Grandfather 294
Hil@@ 294
Mass 294
Presi@@ 294
THINGS 294
WAN@@ 294
Willow 294
ana@@ 294
bad-@@ 294
bber@@ 294
dag@@ 294
dete@@ 294
dryer 294
gree@@ 294
offshore 294
roman@@ 294
ruler 294
stop@@ 294
zoo@@ 294
ﬂ@@ 294
AJ 293
Anna@@ 293
Apart 293
Ari 293
Ball@@ 293
Dani@@ 293
Gerald 293
Heli@@ 293
Iot 293
Luck 293
Midnight 293
Sof@@ 293
Stor@@ 293
Tes@@ 293
U.S 293
Universe 293
Whew 293
awards 293
bombers 293
circum@@ 293
condu@@ 293
eda 293
fin 293
fulness 293
goddamned 293
iny 293
keep@@ 293
mad@@ 293
missi@@ 293
ov@@ 293
ratings 293
sadly 293
sailed 293
skating 293
spinal 293
stumbled 293
Burton 292
Chet 292
Gener@@ 292
Heavy 292
It@@ 292
Jarvis 292
KIND 292
Organi@@ 292
Request 292
Shop 292
Telling 292
Thirteen 292
Wave 292
disco 292
dit@@ 292
drawers 292
dungeon 292
erup@@ 292
graveyard 292
grim 292
hush 292
jolly 292
jung 292
laps 292
legends 292
lime 292
martini 292
occurs 292
ral@@ 292
self@@ 292
shortcut 292
swine 292
tment 292
Cease 291
Costa 291
Hawkins 291
JU@@ 291
Landing 291
Les 291
Mont@@ 291
Nixon 291
Spart@@ 291
WHAT@@ 291
Witness 291
baking 291
buses 291
grind 291
llion 291
longing 291
martyr 291
mold 291
moth 291
nings 291
ough@@ 291
persi@@ 291
poking 291
priceless 291
rejection 291
room@@ 291
scratching 291
surrendered 291
watch@@ 291
woul@@ 291
zy@@ 291
2012 290
60s 290
Alive 290
Betsy 290
Capitol 290
Cell 290
Concentrate 290
Forbes 290
Humans 290
Leland 290
Margaux 290
Tab@@ 290
Tito 290
Toni 290
admission 290
bumps 290
category 290
colle@@ 290
concluded 290
crust 290
disrup@@ 290
favor@@ 290
gman 290
governments 290
inspiring 290
jets 290
k-- 290
ling@@ 290
marble 290
name@@ 290
nut@@ 290
protocols 290
reminding 290
sailors 290
shima 290
torment 290
tric 290
underpants 290
vine 290
waitin 290
what-- 290
-Fuck 289
Band@@ 289
Fuhrer 289
Ishi@@ 289
Jed 289
Mafia 289
Manchester 289
RV 289
Rei@@ 289
Safety 289
Shel@@ 289
Sung 289
Swe@@ 289
TALK 289
Tank 289
Tristan 289
Waiter 289
Will@@ 289
advi@@ 289
analy@@ 289
annihi@@ 289
ante 289
bankruptcy 289
bible 289
blessings 289
bor 289
brothel 289
brow 289
clar@@ 289
claw 289
commanding 289
conceived 289
crowds 289
destructive 289
enie 289
hurricane 289
kidnappers 289
knights 289
lice 289
mini-@@ 289
nuns 289
releasing 289
right. 289
seri@@ 289
serum 289
shits 289
siblings 289
spontaneous 289
stool 289
summon 289
understandable 289
uptight 289
uts 289
willingly 289
'The 288
200@@ 288
Eating 288
Eng@@ 288
Hungarian 288
Load 288
Master@@ 288
NIGHT 288
Nations 288
No-@@ 288
No.@@ 288
Pau@@ 288
Stea@@ 288
Traffic 288
abor@@ 288
announ@@ 288
atch 288
ava@@ 288
bon 288
cloak 288
convent 288
creek 288
descent 288
earning 288
electro@@ 288
exquisite 288
foryou 288
hormones 288
ht 288
hugging 288
ily 288
inclined 288
infirmary 288
juicy 288
jump@@ 288
lage 288
leaning 288
linger 288
misfortune 288
poo 288
printer 288
propaganda 288
season@@ 288
simu@@ 288
slick 288
st-- 288
stressful 288
symbols 288
tractor 288
um-@@ 288
utter 288
vocal 288
5000 287
Come@@ 287
Commission 287
Darn 287
Earlier 287
Evidence 287
Fake 287
Glen@@ 287
Greeks 287
Hamptons 287
Isobel 287
Joon 287
Martinez 287
Nak@@ 287
PUT 287
Puerto 287
River@@ 287
Stin@@ 287
Sword 287
VO@@ 287
Yah 287
atri@@ 287
barber 287
butterflies 287
cator 287
cci 287
clap 287
deni@@ 287
devastating 287
dez 287
drones 287
dye 287
freeway 287
fru@@ 287
gna@@ 287
happ@@ 287
hay 287
imperial 287
injustice 287
instal@@ 287
kne@@ 287
late-@@ 287
moons 287
nine-@@ 287
nip 287
onion 287
perfe@@ 287
pot@@ 287
predictable 287
realizing 287
reborn 287
relatively 287
rit 287
shaving 287
shoved 287
ska 287
splash 287
story@@ 287
techni@@ 287
when@@ 287
15,000 286
Blanche 286
Bow 286
Clau@@ 286
McGee 286
Pis@@ 286
Psycho@@ 286
STILL 286
Sanchez 286
Shore 286
Shrek 286
Upon 286
acres 286
bandit 286
blackout 286
burner 286
chable 286
cide 286
conquered 286
contaminated 286
corporations 286
dads 286
debris 286
devotion 286
dorf 286
esh 286
hara@@ 286
helicopters 286
itate 286
ketchup 286
lt`s 286
marriages 286
promo@@ 286
quet 286
recorder 286
sively 286
skin@@ 286
stretched 286
trim 286
vou@@ 286
wang 286
wink 286
04 285
BAR@@ 285
Clea@@ 285
Dickens 285
Expe@@ 285
Fetch 285
Guido 285
Hanging 285
ICK 285
Ima@@ 285
Lf 285
Lightning 285
Merci 285
Poo@@ 285
Princeton 285
Rat 285
Sire 285
Trey 285
Whoo-hoo 285
bber 285
bel@@ 285
confi@@ 285
d.@@ 285
dson 285
gutter 285
hookers 285
intentionally 285
mory 285
ope 285
ouse 285
panda 285
pois@@ 285
rist 285
scenery 285
suppre@@ 285
sweeping 285
tedly 285
unra@@ 285
vaccine 285
voicemail 285
BEFORE 284
Bea 284
Bryce 284
Camp@@ 284
Desert 284
Drinking 284
Frances 284
Hotchner 284
Islands 284
Literally 284
Lui 284
Manu@@ 284
Micro@@ 284
NING 284
Nevertheless 284
Portuguese 284
Robby 284
battalion 284
cab@@ 284
chow 284
coughing 284
court-@@ 284
curb 284
directors 284
eless 284
findings 284
flare 284
frat 284
friggin 284
gur@@ 284
handkerchief 284
hot-@@ 284
inspe@@ 284
kets 284
motivation 284
orchestra 284
peacefully 284
relaxing 284
strated 284
Hall@@ 283
Iet 283
Iv@@ 283
Ls 283
Macau 283
Masters 283
Niko@@ 283
Positive 283
Rol@@ 283
Sherry 283
accusation 283
acle 283
acqu@@ 283
bian 283
cand@@ 283
christmas 283
cleaners 283
conqu@@ 283
cracy 283
dger 283
eas 283
eyewitness 283
forgiving 283
gangsters 283
guy@@ 283
handles 283
hooking 283
icy 283
ik@@ 283
immortality 283
ium 283
manuscript 283
marathon 283
masses 283
merit 283
natives 283
nies 283
oka 283
outbreak 283
pleasures 283
quantum 283
rema@@ 283
rhyme 283
rounded 283
sat@@ 283
scholar 283
univer@@ 283
weary 283
weasel 283
york 283
--it 282
40s 282
Andrei 282
Ike 282
Lex@@ 282
Lil 282
Massachusetts 282
Mori@@ 282
Nigh@@ 282
Rory 282
Sixteen 282
bonding 282
butler 282
cession 282
cka 282
classical 282
courtyard 282
echo@@ 282
initials 282
investigators 282
itching 282
lasting 282
mu 282
pitiful 282
rell 282
rifles 282
royalty 282
spaceship 282
starboard 282
tropical 282
underworld 282
unload 282
were@@ 282
A.J. 281
Ack@@ 281
Cecilia 281
Hanson 281
Herbert 281
Keung 281
Linus 281
Pom@@ 281
SUV 281
cigars 281
dden 281
determination 281
diversion 281
festi@@ 281
gid 281
heap 281
help@@ 281
incompetent 281
ks@@ 281
liness 281
litter 281
lizing 281
menting 281
motives 281
parenting 281
photography 281
pitcher 281
ssin 281
steroids 281
sustain 281
termin@@ 281
treasures 281
wits 281
y--@@ 281
's--it 280
2009 280
Au 280
Disney 280
FU@@ 280
Jin-@@ 280
Papi 280
Qi 280
Ric 280
Rodriguez 280
Spar@@ 280
alarms 280
anni@@ 280
antibiotics 280
bakery 280
bases 280
better@@ 280
celebrated 280
chili 280
dec@@ 280
doom 280
esta 280
inmate 280
ishes 280
joy@@ 280
lava 280
mentary 280
obe@@ 280
oi 280
opti@@ 280
plains 280
refreshing 280
standby 280
vens 280
voy 280
17th 279
Chance 279
FIND 279
GA@@ 279
Nathaniel 279
O.K. 279
Oli@@ 279
PR@@ 279
Recently 279
STR@@ 279
Sabrina 279
Signor 279
Tall 279
Trent 279
Vietnamese 279
Zeke 279
ached 279
asis 279
atten@@ 279
bam 279
billionaire 279
biscuits 279
calculations 279
comfor@@ 279
conventional 279
copied 279
doorbell 279
ed-@@ 279
flattering 279
gly@@ 279
gned 279
ingredients 279
mobi@@ 279
mother-in-law 279
musicians 279
noticing 279
occur@@ 279
offender 279
ox@@ 279
rement 279
sas 279
sculpture 279
staged 279
suggestions 279
tali@@ 279
tful 279
tresp@@ 279
urin@@ 279
weaker 279
wen 279
whole@@ 279
02 278
Across 278
Apple@@ 278
Bed@@ 278
Extra 278
Fas@@ 278
Franz 278
Hayden 278
IL 278
IP 278
Panthers 278
Rolling 278
STER 278
Salazar 278
Stone@@ 278
Su-@@ 278
TRY 278
Warning 278
Y-you 278
Yoυ 278
accessory 278
aiming 278
athletic 278
bandage 278
chur@@ 278
cise 278
encrypted 278
english 278
entity 278
esy 278
expanding 278
mson 278
packages 278
probable 278
provoke 278
recogni@@ 278
semi-@@ 278
strangely 278
tends 278
understand@@ 278
wich 278
à 278
24-hour 277
Amendment 277
Begin 277
Benedict 277
Elliott 277
God-@@ 277
Headquarters 277
IA 277
Juice 277
KEEP 277
Lives 277
Lucifer 277
Maxi@@ 277
Nell 277
Permission 277
Praise 277
Vampire 277
Vinci 277
arson 277
bikes 277
cupboard 277
eo 277
eva 277
feminine 277
ground@@ 277
olive 277
pro-@@ 277
prophet 277
receipts 277
signatures 277
Armed 276
Asse@@ 276
Bau@@ 276
Blo@@ 276
Del 276
Der 276
Driving 276
Dumb 276
Fellas 276
Haru@@ 276
Johan@@ 276
KER 276
Kawa@@ 276
Negro 276
Personal 276
Richmond 276
SEC 276
THEIR 276
Willis 276
algorithm 276
babysitting 276
ckled 276
cutie 276
dangers 276
daytime 276
dow 276
eth@@ 276
fundamental 276
heavenly 276
jacking 276
kles 276
layers 276
lizard 276
memor@@ 276
mity 276
multi-@@ 276
neighbourhood 276
orial 276
packet 276
pearl 276
rough@@ 276
seminar 276
Above 275
Bloom 275
Hag@@ 275
Head@@ 275
IC 275
Neville 275
Pak 275
Pike 275
SING 275
Sexy 275
Shawn 275
Stan@@ 275
Storybrooke 275
Suicide 275
TEL@@ 275
Wen 275
alizing 275
arch@@ 275
break-in 275
canv@@ 275
choked 275
chops 275
ckets 275
dige@@ 275
ditched 275
ed-- 275
encouraging 275
fluids 275
fucked-up 275
gauge 275
grabs 275
harmed 275
jewel 275
obtained 275
other@@ 275
oul 275
overreacting 275
peas 275
penetra@@ 275
preparation 275
rek 275
relay 275
respon@@ 275
seals 275
significance 275
sniffing 275
softly 275
stling 275
stun@@ 275
tery 275
ting@@ 275
zhou 275
ANCE 274
ANG 274
Adolf 274
Agents 274
Beethoven 274
Era@@ 274
Glory 274
Immediately 274
M.E. 274
Madonna 274
Race 274
Slater 274
cade 274
dite 274
exhausting 274
fingerprint 274
hypocrite 274
ima 274
less@@ 274
liable 274
modified 274
narcotics 274
of-- 274
phra@@ 274
postpone 274
real-@@ 274
slips 274
venti@@ 274
yar@@ 274
Adri@@ 273
Alexis 273
Bonjour 273
Clinton 273
ECT 273
Echo 273
Fate 273
II@@ 273
Mani@@ 273
Montana 273
Odd 273
Tomas 273
Wizard 273
ankles 273
blinded 273
chard 273
chet 273
da-@@ 273
flake 273
fo 273
liqui@@ 273
outsider 273
paw 273
suicidal 273
suspicions 273
waltz 273
wonder@@ 273
yi 273
06 272
83 272
Alberto 272
Aqu@@ 272
Chambers 272
DIE 272
EP 272
Feed 272
GG@@ 272
Hart 272
I-i 272
Lotus 272
Marse@@ 272
Palest@@ 272
Picture 272
Pie 272
Qi@@ 272
Respon@@ 272
THOSE 272
Taste 272
WE@@ 272
absorbed 272
backstage 272
beggar 272
compre@@ 272
donated 272
doughnuts 272
erotic 272
evid@@ 272
grieving 272
hardt 272
hooks 272
housewife 272
mated 272
mind-@@ 272
noodle 272
pastry 272
psies 272
sect 272
skins 272
stem 272
stitch 272
teen 272
um-- 272
universal 272
Apologize 271
Buckley 271
Connecticut 271
Dispatch 271
ELL 271
Emb@@ 271
IV 271
Krishna 271
Meat 271
Millions 271
NARRATOR 271
Nemo 271
Patsy 271
Produ@@ 271
Scottie 271
Terrace 271
WAR@@ 271
Wilcox 271
advis@@ 271
boiled 271
cially 271
diag@@ 271
disgust 271
ech 271
eun 271
expired 271
exploit 271
heim 271
ia@@ 271
imprisoned 271
justi@@ 271
knocks 271
limbs 271
minal 271
my-- 271
overhead 271
pastor 271
pots 271
scoo@@ 271
subsi@@ 271
tapping 271
ums 271
vanilla 271
vest@@ 271
weekly 271
Alabama 270
Assa@@ 270
Bern@@ 270
Cabinet 270
Chen@@ 270
Dare 270
LT 270
Opp@@ 270
Protection 270
Rough 270
Rupert 270
STA@@ 270
acceptance 270
acquire 270
anticipated 270
ffing 270
goti@@ 270
hong 270
incidents 270
intri@@ 270
ison 270
mary 270
mati@@ 270
merchant 270
preserved 270
progra@@ 270
province 270
rais@@ 270
reel 270
roles 270
seniors 270
sexuality 270
simi@@ 270
sniff 270
tness 270
valued 270
walkers 270
Alas 269
Baghdad 269
Birds 269
Cairo 269
Compli@@ 269
Eri@@ 269
Grady 269
Ham@@ 269
Huge 269
If@@ 269
Japs 269
Lion 269
Marnie 269
Pine 269
Split 269
Wild@@ 269
activate 269
applying 269
ature 269
beeping 269
bourne 269
buns 269
calf 269
ckle@@ 269
confronted 269
dre 269
encountered 269
entary 269
halls 269
ill-@@ 269
iter 269
juvie 269
ny-@@ 269
pads 269
pens 269
programming 269
publisher 269
readings 269
repaired 269
screw@@ 269
struggled 269
surfing 269
vities 269
Award 268
Beau@@ 268
Benji 268
Christ@@ 268
Closer 268
Executive 268
Ha-ha-ha 268
Judah 268
Oui 268
Perkins 268
Rescue 268
SD 268
SIDE 268
Slim 268
YS 268
bathe 268
bingo 268
briefly 268
carrot 268
cooks 268
crops 268
darker 268
deceive 268
disturbance 268
eing 268
elimin@@ 268
equity 268
father-in-law 268
fearless 268
fruits 268
gambler 268
grunts 268
hump 268
itz 268
penguin 268
riots 268
rite 268
sleeves 268
tags 268
trespassing 268
viewers 268
'er 267
-out 267
07 267
AG 267
ATM 267
BRO@@ 267
Ernest 267
HEAR@@ 267
KA@@ 267
Minnie 267
Ober@@ 267
Piper 267
Possible 267
Saddam 267
Silk 267
Su 267
Tan 267
Test 267
archi@@ 267
auntie 267
bein 267
clarify 267
dang 267
dedication 267
dys@@ 267
fel@@ 267
ggs 267
gimme 267
hallucin@@ 267
hazard 267
in-- 267
know. 267
lasagna 267
llies 267
mme@@ 267
poin@@ 267
rainy 267
sion@@ 267
substantial 267
sup 267
timeline 267
â 267
'n 266
Braddock 266
Butler 266
Cadillac 266
Erm 266
Fell 266
Fitzgerald 266
Hut 266
Jai 266
Memorial 266
Titan 266
aboli@@ 266
appro@@ 266
chimney 266
circulation 266
clearer 266
crawled 266
dim 266
filter 266
gaz@@ 266
hoe 266
idle 266
ingy 266
prin@@ 266
removing 266
restor@@ 266
secur@@ 266
sighted 266
sword@@ 266
tailor 266
tion-- 266
toa@@ 266
waffles 266
wool 266
'est 265
Aaah 265
Aram 265
Ark 265
Cohen 265
Darwin 265
Film 265
Hagen 265
Hui 265
Josephine 265
Lorraine 265
Madeleine 265
McQueen 265
Pack@@ 265
Patch 265
Sang-@@ 265
Sche@@ 265
Supp@@ 265
Twitter 265
adap@@ 265
american 265
amigo 265
beck 265
blon@@ 265
cultures 265
ecstasy 265
flexible 265
hippie 265
leys 265
magnet 265
objections 265
pigeons 265
plumbing 265
policies 265
radioactive 265
references 265
secon@@ 265
shapes 265
sponge 265
stranded 265
strung 265
t-up 265
ta-@@ 265
tative 265
tiles 265
tings 265
titles 265
tock 265
tongues 265
ttie 265
videotape 265
wells 265
08 264
1,500 264
Any@@ 264
Apollo 264
Barely 264
Casti@@ 264
Country 264
Eliza 264
Grin@@ 264
Nic@@ 264
Skipper 264
Soviets 264
TRI@@ 264
VP 264
anov 264
bouncing 264
crabs 264
dearly 264
dedicate 264
do-- 264
finger@@ 264
frac@@ 264
generosity 264
greeting 264
ingo 264
light-@@ 264
ownership 264
pins 264
prefers 264
repairs 264
repeatedly 264
right-@@ 264
te-@@ 264
thal 264
tivity 264
traditions 264
triggers 264
uncovered 264
upgrade 264
uru 264
007 263
Bride 263
Daughter 263
Deci@@ 263
Democratic 263
Frederick 263
Geoffrey 263
Hamlet 263
Internal 263
KO 263
MOVE 263
Mak@@ 263
Night@@ 263
Pirate 263
Qaeda 263
Stars 263
Strip 263
Surprised 263
UCK 263
USE 263
ato 263
bei 263
brightest 263
brotherhood 263
cello 263
cheque 263
ckling 263
delete 263
detained 263
dio@@ 263
examiner 263
excessive 263
exclu@@ 263
ght-@@ 263
guided 263
handler 263
honey@@ 263
misunderstand 263
motions 263
mpa 263
ound@@ 263
paci@@ 263
powerless 263
residue 263
rio@@ 263
scouts 263
shady 263
sier 263
subconscious 263
tenant 263
testifying 263
tto@@ 263
unreasonable 263
vervain 263
voters 263
wear@@ 263
,00@@ 262
.It 262
15-@@ 262
Alexandra 262
Augustine 262
Austria 262
CLEA@@ 262
Chapman 262
Chiang 262
Corn@@ 262
GRUNTS 262
Genius 262
HAN@@ 262
Heights 262
Iove 262
Jamal 262
Kev 262
Lie@@ 262
Lilly 262
Oc@@ 262
Pic@@ 262
Soft 262
Wisconsin 262
Yoo 262
ades 262
bbles 262
because@@ 262
bias 262
brace 262
chorus 262
crac@@ 262
defy 262
edges 262
etary 262
farms 262
feld 262
firearms 262
frequent 262
gat@@ 262
host@@ 262
jacked 262
leaks 262
liest 262
lop 262
microwave 262
neys 262
notified 262
persecu@@ 262
pickle 262
ques 262
sili@@ 262
spotlight 262
submitted 262
symbo@@ 262
terrain 262
white-@@ 262
Acting 261
Argh 261
Beg 261
Hou@@ 261
Lex 261
Mexicans 261
Mouse 261
OK@@ 261
Pil@@ 261
Quar@@ 261
Ting 261
Yard 261
architecture 261
arre@@ 261
ballistics 261
bind 261
bye-bye 261
casket 261
dili@@ 261
expansion 261
fiber 261
fireman 261
flute 261
ghan 261
headlines 261
knu@@ 261
learns 261
logi@@ 261
merge 261
monastery 261
newly 261
nos 261
row@@ 261
slammed 261
sneaky 261
syste@@ 261
tamp@@ 261
tart 261
trustworthy 261
twe@@ 261
venue 261
web@@ 261
yeon 261
Β@@ 261
'm-@@ 260
300,000 260
79 260
ABLE 260
Bethany 260
Brazilian 260
Cahill 260
Flo@@ 260
GUY 260
Georgetown 260
HAR@@ 260
Hence 260
Hon 260
Hooray 260
Munich 260
Rab@@ 260
Rat@@ 260
Reach 260
Reilly 260
Tat@@ 260
Umm 260
Wheeler 260
agreeing 260
casts 260
consume 260
cruelty 260
eno 260
enterprise 260
esty 260
fused 260
gem 260
handshake 260
herbs 260
intercepted 260
itters 260
money@@ 260
necks 260
neglected 260
ninja 260
oodles 260
peasants 260
priorities 260
proceedings 260
psy@@ 260
puff 260
repri@@ 260
saints 260
scep@@ 260
scription 260
seduced 260
shithead 260
siege 260
sorority 260
spike 260
travelled 260
vals 260
veteran 260
zza 260
--you 259
Bristow 259
CAN@@ 259
Cen@@ 259
Cry 259
ENTS 259
Eun 259
Federation 259
Guardian 259
I--@@ 259
Investi@@ 259
Likewise 259
Maestro 259
PRES@@ 259
Rosa@@ 259
Roth@@ 259
Route 259
Silent 259
Sis@@ 259
Spen@@ 259
THIN@@ 259
accompanied 259
approaches 259
banner 259
burglar 259
cate@@ 259
china 259
courageous 259
crocodile 259
dame 259
dat@@ 259
eclipse 259
enta 259
grilled 259
jab 259
kar 259
manly 259
pack@@ 259
politan 259
quick@@ 259
runaway 259
stability 259
stained 259
stupidity 259
taps 259
tuned 259
're-- 258
Aloha 258
Ami@@ 258
BER@@ 258
Clever 258
Farmer 258
Ginny 258
Holt 258
Jasmine 258
Judas 258
Kaplan 258
Kramer 258
LL@@ 258
Market 258
Minnesota 258
O.J. 258
Prentiss 258
Sag@@ 258
Saving 258
Spider-Man 258
Trek 258
ases 258
athletes 258
blackmailing 258
carrots 258
chemist 258
courses 258
deported 258
doggy 258
drun@@ 258
dumpster 258
empha@@ 258
excess 258
fleeing 258
geese 258
hitch 258
hum@@ 258
jeopardy 258
keepers 258
lander 258
michael 258
monu@@ 258
p.@@ 258
ports 258
punches 258
questi@@ 258
regain 258
salty 258
sim 258
sme@@ 258
stashed 258
toler@@ 258
transported 258
turtles 258
ving@@ 258
-a-@@ 257
110 257
71 257
Broken 257
Constance 257
Dag@@ 257
Eggs 257
Episode 257
Foot 257
Gasps 257
HECTOR 257
Janie 257
Looked 257
Mak 257
Momma 257
OTHER 257
Patient 257
SCHOOL 257
Savannah 257
Warm 257
Waters 257
Weaver 257
airborne 257
armored 257
atu@@ 257
barba@@ 257
bili@@ 257
billi@@ 257
crimin@@ 257
curry 257
deemed 257
deo 257
despicable 257
dickhead 257
docu@@ 257
elementary 257
fishy 257
fists 257
fragments 257
gradually 257
grapher 257
groans 257
hangover 257
ido@@ 257
juror 257
lik 257
mandatory 257
mn@@ 257
philosopher 257
refle@@ 257
scoundrel 257
sideways 257
slot 257
smashing 257
snea@@ 257
strokes 257
ty-five 257
wom@@ 257
ARY 256
Bag 256
Bow@@ 256
Dragons 256
Fields 256
Gali@@ 256
Godzilla 256
Grac@@ 256
Greta 256
Insurance 256
Jae-@@ 256
Lately 256
Lt. 256
NA 256
OT 256
Operator 256
Phantom 256
Poll@@ 256
Seo 256
Sinclair 256
Theodore 256
ae 256
allegiance 256
avi@@ 256
bedrooms 256
best-@@ 256
bia 256
bob 256
borrowing 256
bundle 256
butch@@ 256
calculated 256
certified 256
commit@@ 256
compu@@ 256
demoli@@ 256
echo 256
emerge 256
exhi@@ 256
horri@@ 256
indicated 256
inj@@ 256
insensitive 256
ler@@ 256
mentation 256
moun@@ 256
mpton 256
oodle 256
opener 256
ply 256
puzzles 256
sails 256
scrambled 256
simpli@@ 256
smoothly 256
swift 256
tex@@ 256
tighter 256
tomy 256
translation 256
viable 256
withdrawal 256
worthwhile 256
350 255
AGAIN 255
Amb@@ 255
Da-@@ 255
Dorota 255
Following 255
Hannibal 255
Hoover 255
Mer 255
Multiple 255
Nicolas 255
Raoul 255
Scofield 255
Twenty-five 255
With@@ 255
Yee 255
abdu@@ 255
anks 255
ashore 255
assumption 255
chained 255
destroys 255
doubled 255
eater 255
exercises 255
half-hour 255
havin 255
introducing 255
kai 255
lively 255
niggers 255
ork 255
orrow 255
previously 255
riddle 255
smu@@ 255
sway 255
torpedo 255
translator 255
untie 255
vors 255
whacked 255
yeong 255
-chan 254
Disgusting 254
FF 254
Godfather 254
Jerome 254
McCoy 254
Mimi 254
PRE@@ 254
Pinkie 254
Ripper 254
Season 254
Sending 254
Shan 254
Shots 254
Valent@@ 254
Wilkes 254
and-and 254
bikini 254
bomb@@ 254
bras 254
buzz@@ 254
chauffeur 254
cosmic 254
crank 254
ddies 254
distinct 254
dn 254
encing 254
hamster 254
haw@@ 254
home-@@ 254
hus@@ 254
immature 254
inc@@ 254
intersection 254
lain 254
mani 254
mista@@ 254
nam 254
occasional 254
open-@@ 254
opy 254
parachute 254
rabbi 254
retiring 254
savages 254
sians 254
snatched 254
swe@@ 254
swings 254
thunder@@ 254
viral 254
-off 253
Attaboy 253
BLE 253
Buffalo 253
Cele@@ 253
Dickie 253
Faye 253
Francesca 253
III 253
ISH 253
Leroy 253
Maddie 253
Mik@@ 253
NAME 253
PLAYING 253
Pressure 253
Records 253
Rivers 253
Sin 253
Vatican 253
Wrap 253
bis 253
carnival 253
charter 253
commen@@ 253
confidentiality 253
confirms 253
criticism 253
cynical 253
desi@@ 253
dios 253
embo@@ 253
envi@@ 253
exploring 253
fireplace 253
immigration 253
intimidated 253
itude 253
knob 253
mately 253
meteor 253
mpl@@ 253
persuaded 253
phy@@ 253
pic 253
pools 253
preten@@ 253
prophe@@ 253
psychologist 253
repli@@ 253
sele@@ 253
shred 253
soo@@ 253
thigh 253
tious 253
wis@@ 253
Callahan 252
Chri@@ 252
Conne@@ 252
Foundation 252
Fucker 252
Gu 252
Heading 252
Lip 252
Newark 252
Perfectly 252
Qua@@ 252
Sierra 252
Turned 252
Usher 252
White@@ 252
Youth 252
adds 252
aled 252
asthma 252
authenti@@ 252
bookstore 252
brother@@ 252
culti@@ 252
dded 252
face-to-face 252
first@@ 252
ggers 252
hour@@ 252
interns 252
kni@@ 252
los@@ 252
mafia 252
missus 252
mite 252
nex@@ 252
no. 252
race@@ 252
ras 252
reviews 252
sing@@ 252
snowing 252
spaces 252
specimen 252
suit@@ 252
thol@@ 252
vicinity 252
zia 252
BI@@ 251
Barcelona 251
Elder 251
Lac@@ 251
Ridiculous 251
SEAL 251
Siberia 251
Sykes 251
W.@@ 251
Wh 251
Yvonne 251
automobile 251
babysit 251
bron@@ 251
chester 251
cule 251
cyber@@ 251
daughter-in-law 251
fus 251
hal 251
ider 251
ole 251
pac@@ 251
pitched 251
pyramids 251
recon 251
rooftop 251
shrine 251
shu 251
spelling 251
springs 251
suction 251
swan 251
tball 251
tempting 251
tible 251
tightly 251
underestimated 251
unions 251
vanity 251
74 250
AFTER 250
Anti-@@ 250
Arts 250
Chemi@@ 250
Former 250
Hee 250
Keeps 250
Lannister 250
Neigh@@ 250
Radley 250
Surrender 250
Syn@@ 250
Tin@@ 250
Tun@@ 250
UNG 250
aven@@ 250
awareness 250
bos 250
cau@@ 250
chocolates 250
coconut 250
comet 250
cranky 250
differ@@ 250
dled 250
e--@@ 250
equivalent 250
fic 250
flaw 250
fury 250
impulsive 250
index 250
input 250
lur@@ 250
mantle 250
organism 250
sitter 250
spitting 250
structures 250
sub-@@ 250
survey 250
trails 250
vouch 250
well-known 250
y-you 250
3000 249
AF@@ 249
Dai@@ 249
Destiny 249
Dublin 249
Dunn 249
Gives 249
Herb 249
KO@@ 249
Met 249
Pos@@ 249
Raj@@ 249
Soci@@ 249
Sunshine 249
Vor@@ 249
Wall@@ 249
anny 249
chalk 249
chlor@@ 249
ckery 249
cub 249
designated 249
econom@@ 249
igh 249
initiated 249
instruction 249
kan 249
noti@@ 249
patent 249
portra@@ 249
prevented 249
roam 249
stalk 249
stalling 249
utmost 249
wrestle 249
Beale 248
Bend 248
Brad@@ 248
Enterprise 248
Fischer 248
Hilton 248
Krist@@ 248
Nick@@ 248
Poppy 248
Rene 248
Retreat 248
SINGING 248
Stanton 248
alu@@ 248
appealing 248
barred 248
blood-@@ 248
collision 248
craw@@ 248
darlin 248
decorate 248
deployed 248
doorway 248
frigging 248
funded 248
gis 248
histori@@ 248
hull 248
ins@@ 248
intervene 248
inti@@ 248
legi@@ 248
mc@@ 248
mend 248
pea 248
pronounced 248
rapist 248
remarks 248
shades 248
shelves 248
skipping 248
ssie 248
sso 248
supports 248
the- 248
vad@@ 248
ves@@ 248
vial 248
witchcraft 248
wrapping 248
wri@@ 248
7,000 247
Avi@@ 247
Bangkok 247
Beats 247
Eck@@ 247
Husband 247
INS 247
Ida 247
Kun@@ 247
Monk 247
Ours 247
Overruled 247
Scary 247
Secre@@ 247
Three-@@ 247
Toronto 247
Turning 247
Wester@@ 247
after-@@ 247
brain@@ 247
briefed 247
child@@ 247
compensate 247
credentials 247
eness 247
enjoys 247
evolutionary 247
factories 247
frequently 247
geon 247
giants 247
gible 247
hosting 247
intimacy 247
invitations 247
lengths 247
measured 247
org@@ 247
paro@@ 247
playin 247
plotting 247
pto@@ 247
rina 247
roa@@ 247
sensitivity 247
strategic 247
terrori@@ 247
testi@@ 247
underway 247
yearbook 247
40-@@ 246
CT@@ 246
Cobra 246
Coleman 246
Communi@@ 246
Dangerous 246
Dong-@@ 246
Eighteen 246
Ethel 246
Hawaiian 246
LL 246
Lordship 246
Mean 246
Missouri 246
Moon@@ 246
Pastor 246
Rhonda 246
Salute 246
Troo@@ 246
Wedding 246
attribu@@ 246
bankers 246
been@@ 246
bragging 246
ception 246
circling 246
coordinate 246
crude 246
degra@@ 246
eco@@ 246
ethical 246
flaws 246
fly@@ 246
frogs 246
gala 246
gots 246
hei 246
ides 246
liaison 246
navi@@ 246
por 246
rism 246
screening 246
soak 246
sobbing 246
stant 246
sure@@ 246
switching 246
tell@@ 246
thermal 246
tickle 246
treatments 246
turd 246
vius 246
warrants 246
-Tell 245
A.M. 245
AK@@ 245
And-@@ 245
BETTER 245
Card 245
Clive 245
Confi@@ 245
Dang 245
Dewey 245
Dory 245
Fourteen 245
Heidi 245
Message 245
Need@@ 245
Play@@ 245
SES 245
STO@@ 245
Subject 245
TE@@ 245
Tao 245
WN 245
Whom 245
Xu 245
acu@@ 245
alysis 245
convert 245
crack@@ 245
deterior@@ 245
distracting 245
dynamic 245
eyeballs 245
flooding 245
fright 245
joints 245
labour 245
licensed 245
longed 245
mermaid 245
prospect 245
rating 245
sanc@@ 245
sarcastic 245
som 245
tdown 245
tten 245
unaware 245
z-@@ 245
zones 245
νe 245
Adv@@ 244
Allie 244
Brain 244
CLI@@ 244
Cats 244
Christie 244
Clar@@ 244
Ei@@ 244
Enemy 244
HI 244
Luc 244
Manuel 244
Notice 244
Powers 244
THER@@ 244
YEAR 244
aby 244
almighty 244
applies 244
arrogance 244
aud@@ 244
butter@@ 244
chant 244
cip@@ 244
dette 244
dwar@@ 244
explosions 244
fascinated 244
fortunes 244
ghtly 244
high-school 244
hn@@ 244
ii 244
influ@@ 244
lawful 244
orientation 244
pint 244
pits 244
ppo 244
quin 244
resemblance 244
ré@@ 244
sday 244
terminated 244
toxin 244
tridge 244
ú@@ 244
-ho 243
-looking 243
Budapest 243
COMING 243
CTU 243
Cutter 243
Dry 243
Edison 243
Flash 243
Fritz 243
GREAT 243
Malik 243
Matsu@@ 243
Octa@@ 243
Orlando 243
Snap 243
THOUGHT 243
Theresa 243
Worst 243
abu@@ 243
alization 243
batter 243
beaches 243
comb@@ 243
epidemic 243
ggling 243
grenades 243
gunshots 243
hard-on 243
hosts 243
ination 243
indictment 243
light@@ 243
machinery 243
nn 243
one-way 243
paper@@ 243
paws 243
perception 243
polls 243
presenting 243
profitable 243
pros 243
quarter@@ 243
quir@@ 243
quiz 243
scare@@ 243
sinners 243
slug 243
stairwell 243
thug 243
virtual 243
wai 243
wheel@@ 243
wildlife 243
yummy 243
94 242
Aid 242
Capu@@ 242
FUC@@ 242
Giant 242
Igor 242
Ju 242
Julien 242
Laur@@ 242
Lean 242
Louie 242
Marian 242
Nad@@ 242
Pari@@ 242
Porsche 242
Reading 242
Sector 242
Thunder@@ 242
Xiang 242
annu@@ 242
blames 242
bullying 242
buzzing 242
coll@@ 242
dawg 242
discre@@ 242
fect 242
flash@@ 242
gale 242
gated 242
genuinely 242
incrimin@@ 242
key-@@ 242
leftovers 242
llas 242
og@@ 242
positively 242
possessions 242
prominent 242
recruiting 242
thera@@ 242
unprecedented 242
1945 241
Area 241
C.T. 241
Coco 241
Daw@@ 241
Dest@@ 241
Fuji@@ 241
Inv@@ 241
Lana 241
Loser 241
Marks 241
Monique 241
Pel@@ 241
Saturn 241
Slu@@ 241
So-@@ 241
Take@@ 241
Tarzan 241
Thir@@ 241
Zane 241
aldo 241
and- 241
and--and 241
ands 241
angu@@ 241
appointments 241
avo@@ 241
boarded 241
brute 241
chron@@ 241
chs 241
ckering 241
colours 241
corrupted 241
critici@@ 241
dex 241
divisions 241
drained 241
dresser 241
encryption 241
got@@ 241
graduating 241
heed 241
idiotic 241
immer@@ 241
ing- 241
interfering 241
joe 241
lef@@ 241
lotta 241
monitors 241
mrs 241
o.@@ 241
outfits 241
rim 241
sol 241
spee@@ 241
squat 241
thingy 241
Ancient 240
Apologies 240
Arch@@ 240
Capital 240
Corporation 240
Crow 240
Dwayne 240
East@@ 240
Hammer 240
Havana 240
Holding 240
Hulk 240
Io@@ 240
Irving 240
Kuro@@ 240
Lindsey 240
Lorelei 240
Mallory 240
Mumbai 240
Myka 240
Nova 240
Picasso 240
Ryu 240
STAR@@ 240
Typical 240
Victim 240
bamboo 240
bounds 240
bowls 240
breached 240
brighter 240
cabbage 240
canc@@ 240
carve 240
catastrophe 240
ceremon@@ 240
cob@@ 240
cocks 240
comedian 240
connects 240
d-out 240
defect 240
doppelganger 240
haired 240
harassing 240
impose 240
liner 240
lly-@@ 240
lts 240
manu@@ 240
master@@ 240
pumped 240
purity 240
riches 240
seven@@ 240
surve@@ 240
thering 240
visu@@ 240
zawa 240
第十@@ 240
25th 239
50s 239
ASS 239
Brent 239
Champ 239
Crash 239
Czech 239
DAD 239
EVERYTHING 239
Enrique 239
Guan 239
HUH 239
Lynch 239
Masa@@ 239
Milky 239
Movie 239
Phe@@ 239
Remy 239
Shri@@ 239
Tamara 239
Tex@@ 239
Wants 239
absorb 239
cessor 239
cile 239
conclusive 239
cot 239
culate 239
distinction 239
fabri@@ 239
fif@@ 239
fitted 239
fted 239
inje@@ 239
last-minute 239
loot 239
precaution 239
representation 239
scre@@ 239
seeks 239
spreads 239
thanked 239
yla 239
2004 238
23rd 238
9-1-1 238
AWAY 238
Access 238
CAR 238
Dreams 238
Dubai 238
Hiding 238
Indu@@ 238
Ingrid 238
Jealous 238
Lecter 238
Mach@@ 238
Rigsby 238
Scorpion 238
Shelby 238
Sid@@ 238
TEN@@ 238
Toma@@ 238
Treat 238
WAL@@ 238
aimed 238
applications 238
blacked 238
blue-@@ 238
cashier 238
combine 238
comeback 238
common@@ 238
conju@@ 238
ctives 238
documented 238
eval 238
fast-@@ 238
faults 238
gul@@ 238
internship 238
luckiest 238
magne@@ 238
movin 238
popu@@ 238
practices 238
protector 238
redu@@ 238
reindeer 238
sections 238
shooters 238
sizes 238
stripes 238
unclear 238
vered 238
werewolves 238
2006 237
Band 237
Bay@@ 237
Community 237
Hayley 237
LEE 237
Lom@@ 237
Maryland 237
Matter 237
Ops 237
Rela@@ 237
Resi@@ 237
Sas@@ 237
Sicily 237
Swing 237
Trudy 237
Ulti@@ 237
ambushed 237
asteroid 237
attach 237
attendance 237
bowel 237
brac@@ 237
class@@ 237
conclude 237
elding 237
expre@@ 237
external 237
factors 237
hallucinations 237
hedge 237
hybrids 237
inting 237
investigations 237
laced 237
obstacle 237
oro 237
out-@@ 237
poly 237
preparations 237
probability 237
prosecute 237
quette 237
robberies 237
sittin 237
solutions 237
spor@@ 237
squi@@ 237
superstar 237
testicles 237
til@@ 237
troll 237
twin@@ 237
unidentified 237
urn 237
vested 237
2001 236
AA 236
Aaa@@ 236
Are@@ 236
Buenos 236
Cali@@ 236
Carver 236
Chop 236
DOESN 236
Divine 236
Fortune 236
Fung 236
Investigation 236
Lab 236
Mm-mm 236
Nelly 236
Russ 236
Shakira 236
South@@ 236
Started 236
Tsui 236
Ugly 236
Video 236
Zola 236
accidental 236
ba-@@ 236
bursts 236
cid 236
ddy-@@ 236
decoy 236
dious 236
disrespectful 236
exceptions 236
exe@@ 236
fil 236
firmly 236
gey 236
half@@ 236
injected 236
jima 236
laundering 236
madly 236
melody 236
odor 236
offence 236
openly 236
paranoia 236
pati@@ 236
pneumonia 236
prop 236
rations 236
reveals 236
salvage 236
scrape 236
seldom 236
servatory 236
spectacle 236
spiral 236
splen@@ 236
tating 236
tucked 236
var 236
weaknesses 236
whit@@ 236
would@@ 236
y.@@ 236
ALWAYS 235
Bam 235
Bigfoot 235
Brun@@ 235
Chinatown 235
Cop 235
Drug 235
Emilio 235
Football 235
Marcia 235
Oswald 235
Pig@@ 235
Poly@@ 235
Sach@@ 235
Ske@@ 235
Smar@@ 235
Sundays 235
Travel 235
Webb 235
Zhou 235
anklet 235
artifacts 235
asser@@ 235
atic 235
base@@ 235
bio 235
charms 235
classmate 235
commo@@ 235
cornered 235
countdown 235
coven 235
critic 235
disconnected 235
drip 235
eg 235
eni@@ 235
evin 235
fossil 235
incu@@ 235
ingredient 235
inher@@ 235
itus 235
kee 235
ller@@ 235
mean-- 235
migra@@ 235
nosy 235
raided 235
rillo 235
rl 235
rockets 235
self-esteem 235
sition 235
stench 235
undone 235
updated 235
v. 235
wider 235
woken 235
​ 235
2010 234
60,000 234
Behave 234
CCTV 234
Fili@@ 234
Laden 234
MO 234
Max@@ 234
Mon 234
Say@@ 234
Spend 234
Turbo 234
ager 234
café 234
chun 234
communicating 234
crane 234
deep-@@ 234
elli 234
ghtful 234
graft 234
hari 234
icing 234
immense 234
lance 234
memb@@ 234
mick 234
networks 234
rehearsing 234
saurus 234
scanner 234
separately 234
spen@@ 234
ssional 234
taining 234
tasting 234
terminate 234
thanksgiving 234
vier 234
vitals 234
wah 234
wiser 234
zlo 234
--that 233
-Dad 233
...... 233
2007 233
AD 233
Bread 233
Chucky 233
Cigarette 233
Cobb 233
DM@@ 233
Ferrari 233
Gandhi 233
KES 233
KI 233
Katy 233
Kip 233
Laugh 233
Michi@@ 233
Naz@@ 233
Opera 233
Pac@@ 233
Pav@@ 233
Ra 233
Sent 233
Sixth 233
Solis 233
Ta 233
VE@@ 233
archives 233
blind@@ 233
booking 233
bre 233
commun@@ 233
congre@@ 233
currents 233
demo 233
elect 233
erm 233
fami@@ 233
finances 233
hero@@ 233
hydrogen 233
knee@@ 233
lady@@ 233
literary 233
llor 233
margar@@ 233
membership 233
mento 233
narcissi@@ 233
overdose 233
parks 233
piggy 233
poles 233
precautions 233
shower@@ 233
sor 233
stables 233
staircase 233
tranqui@@ 233
troupe 233
undress 233
1944 232
AROUND 232
Accept 232
Affirmative 232
CL@@ 232
Conan 232
Danger 232
Destro@@ 232
Earth@@ 232
Exc@@ 232
Fed 232
Heck 232
Helping 232
Hill@@ 232
Ita@@ 232
Jorge 232
Ka 232
Montreal 232
NZT 232
Riggs 232
Saved 232
Shing 232
Sung-@@ 232
`re 232
allo@@ 232
awarded 232
breaths 232
communi@@ 232
daw@@ 232
deton@@ 232
espionage 232
foreman 232
fraternity 232
frea@@ 232
hence 232
ifyou 232
ignition 232
kun 232
maneuver 232
mination 232
parasite 232
partying 232
perfor@@ 232
perish 232
perpetrator 232
ploy 232
poor@@ 232
priv@@ 232
pti@@ 232
real@@ 232
recruits 232
refugee 232
rotation 232
sixteen 232
snooping 232
ssly 232
stick@@ 232
stina 232
thie 232
transformation 232
tripping 232
uc@@ 232
vigilante 232
vor 232
weeds 232
workplace 232
yel@@ 232
Arri@@ 231
Bright 231
Che 231
Congrats 231
[...]
