我 3346559
你 2906303
的 2829031
了 2046958
， 1843222
是 1571509
- 1331795
？ 1079856
在 979583
。 840178
他 814275
我们 758702
? 736012
. 709170
不 697520
吗 670251
… 630269
, 549396
好 536916
什么 521910
有 493019
就 478543
她 465907
吧 456782
知道 435783
！ 434433
说 422649
这 421964
都 393454
会 361139
去 358544
很 352555
要 338148
想 317869
那 315025
我的 312032
和 310295
人 309948
也 304644
他们 295369
你的 288164
啊 285892
来 276666
一个 273609
! 270730
对 259481
把 255299
做 251589
没有 246754
不是 244730
让 241592
给 235787
' 235125
但 210666
可以 201450
还 195558
到 194426
能 187359
现在 186723
你们 184486
呢 183763
没 181386
这个 177265
\ 174246
跟 174196
得 172848
怎么 172002
如果 170114
上 167233
就是 162938
个 162200
走 153765
i 153144
you 152994
被 146559
这里 145758
这样 144877
事 141735
它 141367
过 140579
着 137488
看 133446
告诉 130195
不会 129356
" 126154
谁 124578
the 124047
这是 121744
} 119899
为什么 117921
只是 116837
不能 115784
真的 109348
先生 108745
已经 108554
需要 107088
因为 106750
{ 102579
里 102398
这么 101736
再 101394
“ 100610
他的 100237
可能 99155
” 97852
像 97471
觉得 97178
谢谢 96730
不要 95241
to 94998
所以 94313
喜欢 93603
那个 93254
a 92858
听 91986
别 91959
哦 91502
自己 90991
但是 89264
找 89189
s 88642
我要 87962
叫 86854
又 86455
还有 84987
多 83795
时候 83566
死 83147
东西 82826
快 81630
应该 81107
从 80685
一起 79297
这些 79119
等 78402
为 76689
孩子 74883
it 74735
而 73539
· 73167
看到 71777
用 71663
问题 71538
那么 70534
一下 70371
才 69795
还是 69667
请 68646
工作 67353
我们的 65976
一样 65003
真 63730
当 63610
然后 62294
开始 62049
帮 61550
朋友 61061
希望 60732
点 60543
找到 60163
中 59942
下 59704
吃 59619
t 59074
不想 58806
看看 58032
嘿 57856
拿 57230
一直 56579
一 56331
地方 56180
们 56112
回来 56104
that 55976
当然 55625
哪 55314
and 55187
可 55018
所有 54813
将 54812
只 54733
一定 54717
嗯 54708
爱 54455
今天 54232
您 54210
更 53872
事情 53745
时间 53638
天 53428
没事 52808
离开 52748
钱 52742
那些 52512
太 52482
相信 52077
最 52024
想要 51890
也许 51765
一切 51639
抱歉 51606
我們 51592
妈妈 51157
明白 51106
时 50997
发生 50915
打 50756
她的 50746
认为 50454
起来 50447
该 50138
大 50062
呀 48884
你好 48879
of 48591
杀 48248
爸爸 47383
一点 47347
必须 47301
有人 47281
带 46886
出来 46419
啦 46136
那里 45820
意思 45744
嗎 45209
准备 45009
的话 44837
非常 44573
比 44117
in 44115
后 44001
哪里 43820
不过 43416
并 42989
) 42865
真是 42811
大家 42264
前 41747
we 41550
is 41248
我会 41159
以为 41132
为了 41051
一些 40924
发现 40498
这儿 40425
过来 40334
与 39665
问 39341
說 39318
地 38859
女人 38532
而且 38498
一次 38442
感觉 38191
小 38104
出 37996
得到 37822
对不起 37724
见 37511
之前 37460
任何 37450
只有 37442
什麼 37308
怎么样 37109
what 37097
住 36626
这种 36560
很多 36205
來 35965
生活 35718
me 35679
没错 35394
妈 35386
向 35321
两个 34624
肯定 34453
记得 34311
是不是 34142
男人 34020
名字 33772
不用 33339
大@@ 33260
嗨 33079
可是 32662
新 32414
年 32213
最好 32147
不错 32064
亲爱 31992
m 31989
噢 31569
出去 31550
不@@ 31491
医生 31398
、 31302
家 31278
小@@ 31277
认识 31234
this 31217
一@@ 31035
担心 30971
电话 30970
有点 30837
等等 30836
先 30815
高兴 30463
干 30457
on 30085
# 29988
父亲 29933
我能 29761
快点 29500
如何 29392
那样 29245
he 29194
么 29126
・ 28886
（ 28861
正在 28850
行 28811
） 28753
3ch202020 28604
不行 28539
最后 28526
到底 28302
世界 28099
上帝 28060
今晚 27938
过去 27856
重要 27807
喂 27683
听到 27638
跑 27383
警察 27375
他妈的 27178
干什么 27098
干嘛 27065
继续 27021
回家 26975
for 26888
re 26824
或 26774
所 26753
买 26700
明天 26632
嘛 26481
只要 26462
要是 26428
车 26413
儿子 26304
( 26165
多少 26060
my 25796
看起来 25792
他们的 25715
马上 25528
再见 25483
说话 25480
your 25360
女孩 25333
以前 25295
哪儿 25293
写 25266
do 25200
小姐 25168
[ 25119
] 24959
月 24934
开 24777
have 24692
却 24661
好像 24661
0000 24632
永远 24381
放 24372
别人 24277
错 24168
送 24096
* 24051
以 23981
之后 23977
怎样 23939
情况 23894
no 23884
完全 23836
确定 23733
它们 23724
對 23697
该死 23688
我@@ 23632
其他 23575
或者 23554
be 23498
看见 23407
и 23342
會 23186
was 23083
not 23066
家伙 22483
了解 22481
打电话 22449
见到 22412
站 22340
回去 22333
玩 22288
小时 22286
机会 22109
穿 22093
are 22090
伙计 21975
不到 21966
can 21929
don 21859
话 21662
： 21645
决定 21573
号 21531
子 21504
者 21472
还好 21465
总是 21429
我来 21427
有没有 21426
美国 21393
喝 21363
公司 21302
回 21300
拜托 21230
阿@@ 21213
know 21197
结束 21180
為 21005
手 20916
枪 20906
帮助 20869
沒 20862
安全 20848
没什么 20833
关于 20808
一天 20669
里面 20662
如此 20650
成为 20638
他們 20568
唯一 20516
根本 20476
清楚 20443
坐 20403
计划 20365
懂 20358
办法 20288
斯 20258
有些 20245
晚上 20231
些 20186
房子 19898
小心 19845
all 19839
兄弟 19810
无法 19781
女儿 19711
just 19702
with 19683
成 19483
来说 19412
有@@ 19333
其实 19320
but 19192
不管 19158
怎么办 19029
搞 19026
愿意 18859
宝贝 18837
弄 18801
看着 18774
进来 18705
每个 18569
长官 18503
so 18302
呃 18296
好好 18259
进 18234
下来 18168
头 18008
混蛋 17984
 17980
已 17869
完 17788
是因为 17711
: 17654
你们的 17591
there 17547
人@@ 17503
打算 17500
拉 17490
they 17447
甚至 17400
麻烦 17325
夫人 17272
母亲 17268
关系 17233
于 17161
真正 17142
怎么回事 17128
一個 17102
忙 17072
或许 17068
进去 17064
救 17050
讓 17008
当时 16981
不了 16916
不好 16906
够 16882
房间 16843
 16808
接受 16785
漂亮 16689
听说 16674
那儿 16670
人们 16627
原因 16586
那边 16573
掉 16566
就要 16559
睡 16544
另 16524
起 16503
谈谈 16485
改变 16477
他会 16463
挺 16447
那@@ 16406
几个 16384
衣服 16293
故事 16247
妻子 16245
》 16205
《 16182
get 16137
保护 16055
－ 16055
路 16032
here 16007
选择 15978
一种 15926
害怕 15912
保证 15890
德 15880
这次 15814
是否 15775
喔 15742
.. 15740
注意 15738
失去 15734
花 15721
女士 15718
她们 15712
至少 15694
288 15584
這 15512
個 15485
这件 15485
岁 15429
笑 15401
疯 15390
有个 15350
正 15339
水 15300
3 15284
谈 15276
从来 15265
like 15256
2 15238
老 15193
ll 15165
抓 15162
出现 15123
学校 15112
求 15102
身上 15050
心 15022
♪ 15016
待 14998
go 14986
丈夫 14971
忘 14948
回到 14937
结婚 14874
还要 14844
之 14815
哇 14812
没@@ 14799
以后 14790
连 14784
处理 14781
5 14768
开心 14768
out 14757
多@@ 14737
怎麼 14696
看来 14629
特 14595
刚刚 14593
讲 14570
照片 14514
爸 14483
别的 14442
猜 14404
狗 14398
由 14311
性 14281
整个 14272
那种 14266
这@@ 14248
刚才 14161
倒 14147
1 14103
成功 14077
up 14054
一件 14054
没关系 14036
门 14022
外面 13947
派 13928
she 13907
at 13890
if 13854
行动 13854
电影 13843
参加 13828
one 13757
生命 13735
right 13722
特别 13715
about 13698
变成 13693
内 13588
律师 13581
拉@@ 13576
太太 13544
帮忙 13526
10 13500
结果 13495
进行 13490
奇怪 13475
三@@ 13443
才能 13439
卡 13332
它的 13322
方式 13317
不同 13243
杰克 13209
闭嘴 13196
很快 13169
而已 13161
像是 13156
刚 13138
样子 13126
下去 13120
难道 13064
高 13051
d 13023
只能 13015
最近 13005
主意 12997
做到 12988
绝对 12987
生 12982
消息 12955
太好了 12945
老@@ 12925
同意 12919
琌 12880
马@@ 12831
确实 12821
危险 12785
赢 12782
伤害 12743
． 12714
无@@ 12710
him 12709
著 12666
曾 12665
通过 12659
這@@ 12647
酒 12633
声音 12598
长 12591
国家 12582
妳 12574
日 12524
虽然 12493
你自己 12457
第一次 12444
理解 12423
眼睛 12392
容易 12373
恩 12347
要求 12347
感到 12344
达 12342
an 12339
使 12287
更好 12227
完成 12214
克 12210
欢迎 12203
调查 12174
上@@ 12134
斯@@ 12127
拍 12116
昨晚 12105
直到 12103
之@@ 12097
留下 12094
父母 12073
這個 12048
作为 12038
啥 12034
now 12027
本 12007
照顾 11996
活着 11995
证明 11978
got 11971
曾经 11950
多久 11926
办公室 11924
之间 11919
上面 11894
早 11889
医院 11874
马 11860
ve 11854
咱们 11834
有趣 11826
俩 11802
每 11800
靠 11776
收到 11760
讨厌 11750
开玩笑 11749
比赛 11735
高@@ 11726
how 11656
打开 11583
卖 11546
道 11495
oh 11485
努力 11485
20 11471
各位 11454
不再 11431
三个 11424
任何人 11424
呆 11423
解释 11411
这边 11405
放在 11360
一位 11281
简单 11249
所有人 11244
自@@ 11239
家人 11206
保持 11194
秘密 11180
死亡 11138
飞机 11138
回答 11130
案子 11102
除了 11066
证据 11052
替 11050
早上 11027
信 11017
联系 11002
yeah 10977
這樣 10954
4 10940
跳 10925
队 10879
书 10864
卡@@ 10841
解决 10840
鬼 10823
想法 10772
her 10756
其中 10724
特@@ 10690
可爱 10687
as 10681
控制 10669
晚安 10659
後 10638
存在 10614
re@@ 10595
接 10589
不好意思 10585
拿到 10576
這是 10571
6 10559
麽 10555
天@@ 10545
大概 10537
考虑 10495
可@@ 10479
們 10476
老婆 10442
家里 10441
突然 10438
教 10433
停 10432
脸 10430
come 10366
进入 10366
well 10360
船 10360
放弃 10353
小孩 10351
 10348
us 10346
离 10339
方法 10338
约翰 10330
终于 10319
will 10318
不该 10307
ぃ 10292
want 10278
其他人 10273
糟糕 10260
女 10242
两@@ 10237
直接 10230
为何 10195
后面 10189
自由 10185
抓住 10161
聪明 10141
think 10140
就算 10139
中@@ 10121
全部 10101
人类 10063
坐在 10040
战争 9994
休息 9993
身体 9992
约会 9991
本来 9978
真@@ 9972
家庭 9971
地@@ 9943
心@@ 9941
l 9930
米 9923
管 9920
留在 9913
每天 9910
打@@ 9907
球 9899
ﺎ 9892
我自己 9872
武器 9853
来自 9849
带来 9839
总统 9821
老师 9814
检查 9811
因此 9809
游戏 9792
三 9749
任务 9744
报告 9739
神 9729
金 9727
老板 9725
目标 9716
耶 9704
再说 9692
能够 9692
200 9683
怕 9682
监狱 9681
停止 9672
分钟 9671
尸体 9666
加@@ 9647
手机 9647
个人 9618
chffffff 9607
音乐 9590
好@@ 9586
水@@ 9582
血 9574
-- 9563
金@@ 9557
派对 9556
算 9553
会@@ 9533
坐下 9531
名 9508
想到 9506
o 9491
开枪 9483
利 9480
加 9473
负责 9467
姑娘 9466
除非 9450
别@@ 9448
感谢 9431
格 9410
从没 9409
分 9407
3ch000000 9399
阻止 9394
动 9385
想想 9377
尼 9371
答应 9352
did 9349
安@@ 9342
哥 9305
男孩 9299
疯狂 9297
太@@ 9295
美 9273
from 9260
出@@ 9248
裏 9245
年轻 9241
一只 9239
德@@ 9231
偷 9226
气 9221
哭 9196
变得 9176
小子 9164
see 9156
who 9150
睡觉 9149
man 9116
可怕 9113
那天 9098
海@@ 9092
放下 9078
间 9070
西@@ 9066
来到 9040
信息 9013
let 9010
坏 9009
这位 9007
不然 8998
shad1 8996
冷静 8979
事实 8953
你們 8949
good 8923
重新 8914
药 8901
政府 8899
完美 8867
先@@ 8849
新@@ 8846
i@@ 8842
娜 8825
gonna 8821
全@@ 8821
开车 8813
开@@ 8809
咖啡 8803
d@@ 8800
罗@@ 8797
儿 8788
大学 8787
安排 8785
哥哥 8762
很棒 8760
a@@ 8759
即使 8744
研究 8744
痛苦 8743
― 8738
博士 8732
约 8725
正常 8717
okay 8712
怪 8691
有关 8691
谢 8685
否则 8684
一条 8676
話 8676
似乎 8672
查 8669
学 8637
拥有 8634
等待 8634
手@@ 8633
why 8625
并且 8623
昨天 8612
画 8611
快乐 8601
or 8597
別 8594
不會 8576
力 8572
e@@ 8570
his 8560
对于 8547
誰 8546
7 8543
一年 8542
紧张 8540
bord1 8539
代表 8539
白@@ 8532
身边 8530
未来 8514
区 8510
若 8508
下@@ 8477
简直 8475
ﻟ 8472
從 8471
加入 8453
病 8445
忘记 8438
活 8434
陪 8432
現在 8413
要@@ 8409
因為 8407
消失 8404
附近 8401
back 8398
藏 8396
30 8384
记录 8370
支持 8364
命令 8355
聽 8353
往 8344
场 8337
time 8335
他@@ 8329
建议 8311
12 8308
森 8297
令 8293
唱 8286
系统 8283
机 8278
面 8274
尔 8272
一场 8257
8 8247
必要 8241
哈 8230
屁股 8218
「 8217
事实上 8216
能@@ 8214
变 8209
纽约 8186
上去 8182
西 8182
法官 8172
遇到 8170
使用 8146
二 8135
 8135
骗 8130
人生 8127
久 8120
换 8108
我爱你 8104
沒有 8103
不够 8098
线 8082
比较 8074
钥匙 8074
反正 8073
随便 8064
跟着 8052
老兄 8050
比@@ 8049
一份 8046
when 8045
错误 8038
组织 8015
過 8008
法 8005
k@@ 7998
生气 7993
信任 7992
过@@ 7992
关心 7975
位置 7961
指 7950
杀死 7946
此 7923
看过 7922
逼 7919
」 7918
太棒了 7913
城市 7907
远 7901
15 7890
发@@ 7883
腿 7842
以及 7835
发誓 7830
礼物 7830
正确 7822
度 7819
部 7812
厉害 7811
科 7794
处 7762
发 7747
告訴 7744
承认 7723
伟大 7720
仍然 7692
 7683
听见 7679
五@@ 7677
道歉 7663
命 7659
装 7651
可怜 7643
鱼 7635
真相 7621
美@@ 7620
受 7608
them 7589
丢 7589
交易 7584
凶手 7576
妹妹 7575
交给 7572
提供 7572
恨 7570
力量 7565
食物 7563
四@@ 7557
来@@ 7557
克@@ 7554
严重 7551
什 7550
打扰 7547
记住 7540
幸运 7528
器 7524
our 7521
再也 7517
塔 7517
安静 7517
ﺍ 7507
或是 7506
理由 7501
不必 7490
s@@ 7483
婚礼 7456
几乎 7452
c 7450
不得不 7450
弟弟 7446
另外 7431
放松 7414
山 7407
下面 7404
几@@ 7394
可不是 7390
想象 7382
再次 7379
室 7378
长@@ 7376
选 7374
病人 7372
e 7362
would 7362
到处 7362
块 7350
这事 7349
日子 7348
面前 7327
搞定 7318
生意 7317
黑@@ 7316
原谅 7314
试试 7313
星期 7312
跳舞 7310
going 7305
硂 7298
need 7296
b 7294
光 7279
照 7275
拒绝 7274
早就 7273
动物 7267
纳 7266
难 7266
次 7264
探员 7251
声 7248
地球 7245
街 7242
首先 7239
包 7235
利用 7232
留 7225
棒 7217
一张 7208
老爸 7208
意味着 7204
一名 7203
局 7179
美丽 7170
叔叔 7168
安 7168
表现 7160
通知 7160
迪 7157
关 7155
按 7155
彼得 7146
老天 7139
戴 7138
身 7137
艾@@ 7135
k 7134
加油 7128
认真 7128
经常 7119
少 7112
每次 7108
提 7104
脚 7104
表演 7100
正是 7099
take 7094
t@@ 7093
姐姐 7086
之一 7084
where 7080
有事 7079
看上去 7078
酒吧 7078
因 7066
花@@ 7064
而是 7059
操 7052
正@@ 7046
原来 7045
条 7044
见面 7035
坚持 7032
夫 7024
布 7009
一家 7005
再@@ 7001
飞 7001
第一个 6995
别说 6991
文件 6978
給 6978
in@@ 6976
爱@@ 6971
有时 6969
后来 6967
总 6966
谋杀 6962
值得 6954
不在乎 6953
舒服 6944
头发 6937
時候 6936
yes 6930
巴@@ 6929
经历 6923
攻击 6916
十@@ 6909
字 6907
been 6906
没法 6906
妮 6905
行为 6898
阿 6893
尼@@ 6869
受伤 6867
o@@ 6864
m@@ 6853
几天 6853
居然 6845
第 6844
那时 6842
口 6841
很大 6841
影响 6839
既然 6836
ch00ffff 6833
were 6833
威胁 6833
奇 6830
怀疑 6826
银行 6826
哈@@ 6822
分@@ 6821
顿 6815
份 6812
布@@ 6807
刀 6797
way 6790
家@@ 6777
伊@@ 6775
警官 6773
挂 6770
這麼 6766
差不多 6763
伤 6760
显然 6760
 6759
白痴 6755
万 6745
罗 6743
瞧 6742
利@@ 6738
ed 6730
属于 6729
大人 6724
精神 6716
身份 6715
你@@ 6711
吃饭 6681
look 6667
国王 6665
路上 6661
作 6652
謝謝 6652
毁 6650
学生 6648
法律 6648
件 6640
雷 6640
g@@ 6638
位 6629
見 6624
9 6621
意义 6620
足够 6612
一旦 6609
重@@ 6600
那個 6599
放开 6594
女朋友 6587
我家 6576
将军 6571
y 6567
杀人 6556
合作 6551
長 6551
 6550
 6540
我刚 6537
最大 6537
能力 6536
便 6533
雷@@ 6533
意外 6531
欠 6529
同样 6523
火 6514
办 6511
城 6509
主 6502
邀请 6488
科@@ 6485
意识 6479
读 6479
could 6478
一会儿 6471
教授 6455
寻找 6451
的确 6449
维@@ 6447
假 6446
可不 6443
神@@ 6441
幸福 6440
不如 6432
片 6431
店 6425
有时候 6424
had 6417
Τ 6409
查理 6408
第一 6407
下次 6406
前@@ 6406
哪个 6406
是从 6406
享受 6392
越 6387
晚 6383
手术 6382
事件 6370
該 6362
吓 6361
p@@ 6355
pos 6352
上次 6348
外 6347
波@@ 6326
英雄 6320
实际上 6317
讨论 6306
喝酒 6301
吻 6299
敢 6299
p 6296
受到 6296
50 6288
格@@ 6286
新闻 6285
some 6279
琳娜 6274
得@@ 6266
好多 6264
答案 6262
住手 6260
剩下 6249
扔 6249
猫 6248
许多 6237
试图 6232
碰 6228
回@@ 6226
奥@@ 6226
热 6221
ﾇ 6214
錢 6211
来看 6201
适合 6198
全都 6176
同 6171
很@@ 6164
不准 6159
down 6158
麦克 6155
定 6147
什么样 6143
班 6129
林 6124
黑 6124
by 6117
相@@ 6109
允许 6105
傻 6103
男 6094
then 6093
乔 6089
 6088
里@@ 6085
公寓 6084
殺 6084
多谢 6072
权利 6071
∮ 6070
tell 6068
呼吸 6057
n 6054
救命 6053
生@@ 6053
电视 6051
say 6044
在家 6041
乔治 6040
化 6035
姆 6034
一遍 6033
敌人 6026
岛 6024
反对 6020
於 6016
感受 6014
 6014
多么 6012
中心 6011
hey 6008
其 6005
介绍 6002
接下来 5996
蒂 5995
如 5992
重 5984
自杀 5982
不敢相信 5981
目前 5974
同时 5970
看@@ 5969
早上好 5963
入 5959
血@@ 5956
人家 5950
梦 5950
肉 5948
提@@ 5945
客户 5940
实在 5939
根据 5935
不知 5929
地狱 5927
带走 5920
没人 5920
票 5918
房 5889
喜歡 5886
二@@ 5885
more 5878
c@@ 5877
鸟 5877
放@@ 5871
本@@ 5861
撒谎 5859
愚蠢 5856
客气 5851
梦想 5851
迟到 5843
真实 5833
员 5831
搬 5831
躺 5831
快@@ 5830
想@@ 5829
好人 5826
還有 5819
犯 5811
11 5804
部分 5800
一般 5783
开门 5781
這裡 5779
做出 5771
de@@ 5769
风 5768
汤姆 5761
全 5760
无论 5753
n@@ 5747
饿 5742
something 5734
六@@ 5730
美元 5717
g 5706
史 5706
电脑 5704
晚餐 5693
笨蛋 5681
头@@ 5677
走开 5673
吉@@ 5663
好了吗 5658
丝 5650
didn 5645
酒店 5640
成@@ 5638
法@@ 5637
es 5626
说得对 5624
4ch000000 5620
美好 5614
婊子 5612
海 5610
文 5608
诺 5606
撞 5604
不介意 5594
接近 5593
已經 5591
玛丽 5589
皮@@ 5567
种 5566
make 5564
帶 5564
停下 5562
风@@ 5562
b@@ 5551
家族 5551
台 5547
最@@ 5545
训练 5541
迈克 5541
ma@@ 5540
灵魂 5533
张 5530
尽管 5529
3ch2f2f2f 5527
味道 5526
一杯 5524
别动 5519
弗兰克 5511
眼 5511
沙@@ 5509
活动 5509
點 5503
er 5498
立刻 5495
警方 5495
红@@ 5492
恭喜 5487
時 5487
曼 5486
获得 5484
明显 5479
吸血鬼 5478
万@@ 5475
尝试 5475
馬 5475
奶奶 5473
中国 5470
客人 5467
失败 5461
莫@@ 5461
州 5459
牌 5458
要说 5457
上班 5455
边 5451
面对 5450
确认 5449
一生 5447
尼克 5443
拿走 5442
黑暗 5437
y@@ 5436
不让 5436
ro@@ 5435
歌 5435
fn 5432
官 5429
公@@ 5428
ok 5427
請 5427
下午 5419
经过 5415
同@@ 5410
感情 5408
日本 5406
f@@ 5404
迪@@ 5401
失踪 5396
really 5394
式 5390
意见 5388
借 5384
托 5383
治疗 5374
警告 5373
反应 5372
犯罪 5370
滚 5369
比如 5366
情 5365
一半 5364
无 5364
恐怕 5362
穿着 5361
這些 5359
逮捕 5359
大卫 5356
出发 5354
波 5348
长大 5346
仍 5338
子弹 5335
从未 5334
如@@ 5333
连@@ 5327
节目 5314
躲 5314
火@@ 5308
而@@ 5295
罗斯 5291
老大 5287
词 5282
对方 5281
线索 5276
莉 5275
拜 5272
never 5268
包括 5267
冷 5261
造成 5259
遗憾 5258
前面 5248
co@@ 5241
失望 5238
上来 5234
教堂 5234
 5234
恶心 5233
半@@ 5232
历史 5228
及 5225
用@@ 5222
通常 5221
死@@ 5220
算了 5219
没用 5218
還@@ 5217
蛋糕 5216
亨利 5213
嘴 5205
皮 5203
究竟 5199
一会 5197
内@@ 5196
找个 5195
外@@ 5194
破坏 5191
不见 5188
基 5188
一步 5187
ri@@ 5186
愉快 5186
某个 5185
一块 5184
其它 5184
山@@ 5183
现场 5177
li@@ 5172
提醒 5164
has 5161
女@@ 5161
男朋友 5160
好吃 5159
变@@ 5157
安娜 5155
说真的 5155
ing 5152
事儿 5147
只会 5145
生日 5145
课 5145
破 5140
people 5139
法庭 5134
al@@ 5133
转 5129
普@@ 5119
抱 5117
am 5111
事@@ 5106
一把 5102
物 5100
用来 5098
学习 5096
求求 5089
一句 5082
祝 5081
兹 5076
还给 5075
要么 5072
说明 5070
爆炸 5069
费 5069
炸弹 5068
赶紧 5068
取 5064
床 5063
勒 5062
有意思 5061
不起 5059
差点 5059
ar@@ 5057
追 5054
尔@@ 5048
公平 5046
帕@@ 5043
竟然 5041
目的 5040
米@@ 5039
令人 5036
说谎 5031
兴趣 5030
en@@ 5028
哥们 5025
军队 5022
洛@@ 5020
菜 5020
龙 5014
收拾 5010
多年 5009
沒@@ 5004
最终 4991
错过 4990
纳@@ 4987
le@@ 4984
不幸 4982
五 4981
案 4980
啤酒 4976
圣@@ 4972
英国 4971
方向 4970
慢慢 4967
付 4958
算是 4951
没想到 4950
還是 4947
责任 4946
方面 4945
战斗 4944
頭 4943
飞@@ 4938
当@@ 4935
干净 4934
想起 4934
罪 4930
玩笑 4912
跟踪 4912
幫 4911
明@@ 4910
差 4908
一樣 4906
公主 4906
東西 4898
我该 4894
v@@ 4892
难过 4890
资料 4881
在乎 4877
塞@@ 4876
di@@ 4875
号码 4872
上床 4868
八@@ 4868
两 4865
服务 4860
可惜 4856
收 4851
問題 4850
做好 4846
和@@ 4843
莎 4839
亚 4838
赛 4837
我會 4835
转@@ 4833
空@@ 4830
光@@ 4829
痛 4825
盯 4820
出生 4819
周末 4818
超过 4818
私人 4817
确保 4815
麦@@ 4810
旅行 4808
~ 4806
随时 4803
保罗 4790
车@@ 4790
主@@ 4785
为@@ 4784
糟 4781
不少 4775
一部分 4773
亚@@ 4770
象 4769
over 4758
王 4753
son 4752
行@@ 4746
w@@ 4745
婚姻 4741
对付 4741
接着 4739
越来越 4739
疯子 4737
树 4734
塔@@ 4733
梅@@ 4733
分手 4732
心脏 4729
too 4726
干得 4716
裡 4716
那麼 4714
七@@ 4713
好事 4704
威尔 4701
习惯 4697
于是 4693
点@@ 4688
一边 4687
st@@ 4678
ㄓ 4677
将会 4677
四 4674
尊重 4673
mo@@ 4669
赶快 4669
贝@@ 4668
队长 4666
白 4664
床上 4662
这点 4662
健康 4660
干吗 4659
巴黎 4657
元 4654
丹尼 4645
好看 4645
去过 4644
off 4637
说@@ 4637
星 4635
u@@ 4633
镇 4633
垃圾 4628
时@@ 4621
疼 4612
组 4611
惊喜 4605
测试 4604
人员 4603
宝宝 4600
日@@ 4600
相当 4596
根 4595
压力 4593
史@@ 4591
河 4587
r 4586
名@@ 4580
餐厅 4579
自从 4572
士兵 4571
证人 4571
时刻 4569
洗 4569
自然 4568
后@@ 4567
货 4564
报 4560
萨@@ 4558
上校 4552
con@@ 4548
拯救 4547
 4546
手上 4544
ra@@ 4541
留下来 4539
an@@ 4536
很漂亮 4533
彼此 4532
那家伙 4532
傻瓜 4531
平@@ 4526
only 4523
文@@ 4523
百@@ 4519
瓦@@ 4518
对@@ 4515
庆祝 4515
地址 4512
袭击 4512
费@@ 4510
你家 4506
法国 4505
就行了 4504
any 4497
艾 4495
入@@ 4493
离婚 4491
放心 4484
自 4483
巴 4478
怀孕 4477
记忆 4476
火车 4474
— 4472
不敢 4470
气@@ 4469
体 4467
强 4463
毒品 4460
秒 4457
little 4456
爱情 4456
四个 4455
旁边 4454
瑞@@ 4454
起@@ 4454
哎 4451
到达 4449
跟我来 4449
陛下 4438
伊 4436
基@@ 4436
状况 4434
said 4430
l@@ 4426
脑袋 4425
表示 4425
死去 4424
應該 4423
达@@ 4421
ﺃ 4419
b0 4418
色 4412
信号 4411
参与 4411
所@@ 4411
be@@ 4409
绑架 4408
德国 4406
没见 4401
瑟 4401
红 4401
数 4400
非 4400
sa@@ 4399
狗屎 4392
杀手 4384
口@@ 4381
只@@ 4380
杯 4380
好玩 4379
伦敦 4376
十分 4376
正好 4376
常 4375
乱 4374
问问 4374
反@@ 4371
灯 4371
 4370
should 4369
抢 4367
设计 4364
空 4362
不可 4360
会议 4359
心里 4358
璶 4357
亲 4353
假装 4353
量 4353
because 4347
名单 4347
兰 4340
ts 4339
2@@ 4336
主人 4332
uh 4331
ch@@ 4330
性感 4326
输 4324
楼 4322
显示 4321
热@@ 4320
sorry 4319
時間 4319
女士们 4318
交@@ 4315
合@@ 4315
古@@ 4313
巨大 4313
无聊 4311
未 4311
语 4309
赚 4307
克斯 4306
明 4304
充满 4296
好极了 4291
love 4290
断 4290
祈祷 4290
超@@ 4288
洛 4281
very 4279
提到 4278
茶 4278
浪费 4275
搞砸 4272
吹 4268
丹 4267
就让 4266
普 4266
警长 4264
取消 4263
咬 4262
埃 4260
女性 4260
兵 4258
动@@ 4252
奇@@ 4252
40 4250
满 4250
国 4249
关闭 4242
太多 4238
情@@ 4238
25 4236
然 4233
er@@ 4226
士 4225
门@@ 4216
这场 4209
thing 4202
轻松 4201
合适 4194
谈论 4194
至 4193
day 4189
lo@@ 4188
瑞 4188
表 4187
mean 4186
接@@ 4186
r@@ 4181
惹 4180
流@@ 4179
急 4178
监视 4176
靠近 4175
神父 4169
開始 4168
你别 4165
se@@ 4163
心情 4163
李@@ 4162
ﻴ 4161
东@@ 4160
演 4159
叫@@ 4156
臭 4154
请问 4154
ê 4152
嫁给 4149
见鬼 4148
马克 4148
好处 4144
ﺮ 4143
剩 4142
这会 4138
厕所 4136
sure 4135
人民 4135
身@@ 4135
记者 4129
un@@ 4128
图 4128
受害者 4127
型 4127
工 4125
以@@ 4121
俱乐部 4121
托@@ 4121
周围 4120
冲 4118
做爱 4116
去年 4111
说实话 4109
好不好 4108
机器 4108
two 4107
汽车 4107
近 4107
mar@@ 4106
開 4102
聊 4101
铁@@ 4100
伯 4099
两年 4098
千@@ 4090
超级 4084
味 4083
恐惧 4082
弹 4080
ﻣ 4078
尤其 4073
give 4070
一周 4070
怪物 4069
回事 4067
怎 4066
大哥 4065
运动 4062
从不 4060
罗马 4060
毛 4059
条件 4057
盾 4057
猪 4056
品 4055
有钱 4053
洞 4051
100 4046
报警 4046
♬ 4045
移动 4045
干掉 4041
丽 4040
埃@@ 4036
很难 4036
九@@ 4031
詹姆斯 4029
送到 4029
thank 4028
就@@ 4028
索 4028
欧@@ 4025
谈话 4024
玛@@ 4022
找@@ 4019
sir 4018
做@@ 4017
命运 4012
只不过 4010
3ch111111 4007
4ch111111 4007
角色 4007
荣幸 4006
回來 4003
好消息 4002
ta@@ 3999
斯特 3999
3@@ 3998
去世 3995
蛋 3994
吉 3992
無@@ 3992
鞋 3987
受@@ 3986
希@@ 3984
车里 3984
感 3983
技术 3980
太阳 3979
复杂 3977
总@@ 3971
叫做 3967
追踪 3967
帽子 3966
不停 3965
嫌犯 3965
流 3962
请求 3962
协议 3961
那好 3961
兴奋 3960
玛 3960
副 3958
/ 3957
交 3955
博@@ 3953
机场 3953
拿@@ 3949
方 3949
逃跑 3949
地点 3946
累 3945
动作 3944
u 3943
烂 3943
尽 3942
念 3940
阁下 3939
不断 3938
別@@ 3938
停下来 3935
见过 3934
朝 3932
不算 3931
价值 3931
please 3930
黑人 3929
国@@ 3927
面@@ 3925
一辆 3924
更@@ 3924
板 3924
从@@ 3919
提出 3919
恢复 3915
直@@ 3913
ha@@ 3912
mi@@ 3909
作@@ 3908
社会 3906
性@@ 3905
糖 3902
制造 3898
每@@ 3897
高中 3896
两天 3895
doing 3892
me@@ 3892
石@@ 3892
踢 3892
创造 3884
我妈 3884
困难 3881
la@@ 3879
清@@ 3879
维 3875
落 3874
收@@ 3873
牛 3871
期待 3869
演出 3865
师 3864
想念 3864
圈 3861
油 3854
无关 3851
當然 3850
通 3850
整@@ 3840
厨房 3839
失@@ 3836
尼尔 3835
同志 3833
主要 3827
干杯 3827
介意 3820
还@@ 3819
难@@ 3818
牺牲 3812
天堂 3811
18 3810
mr 3810
莎拉 3809
不许 3808
走@@ 3805
手下 3804
丹尼尔 3802
干@@ 3801
状态 3799
乐队 3798
爷爷 3797
4@@ 3796
醒 3796
似的 3791
人会 3787
find 3786
这份 3781
同性恋 3780
害 3780
舞 3780
冒险 3776
折磨 3775
速度 3775
尽快 3773
x 3770
喝一杯 3770
天使 3766
言 3765
专家 3764
意 3762
玩意 3762
其@@ 3759
生物 3759
比尔 3758
演员 3755
老公 3753
那位 3751
su@@ 3746
子@@ 3746
背叛 3746
第一@@ 3745
into 3743
情报 3742
警探 3741
公园 3740
报纸 3740
fnsimhei 3739
一群 3739
养 3739
爾 3739
船长 3739
戒指 3731
正式 3731
理 3731
作品 3729
上车 3725
一点点 3724
把手 3721
普通 3718
穦 3718
调@@ 3718
骄傲 3718
座 3717
even 3716
这才 3714
旧 3713
help 3712
路@@ 3710
po@@ 3709
无辜 3709
大约 3708
娶 3708
手指 3697
j 3694
期 3694
哈维 3690
一辈子 3686
单独 3684
卡尔 3684
伯@@ 3683
低 3680
早餐 3680
带@@ 3679
天才 3678
等到 3678
吉姆 3677
嘘 3677
之中 3675
安妮 3674
恐怖 3674
带到 3673
不過 3670
所说 3670
霍@@ 3669
看不到 3667
数@@ 3666
第二 3666
亲自 3665
these 3662
老实 3662
z@@ 3659
烧 3659
不去 3658
感激 3657
石 3656
妓女 3653
泰@@ 3652
醒来 3648
在@@ 3647
之类 3645
林@@ 3645
段 3644
英里 3643
ho@@ 3642
今年 3641
南@@ 3640
過@@ 3640
装@@ 3638
原@@ 3632
山姆 3632
查@@ 3632
麦 3632
甜心 3631
le 3630
沒事 3630
同事 3625
克里斯 3624
冰@@ 3624
听听 3624
案件 3624
骗子 3624
动手 3623
人物 3620
地上 3616
爬 3616
田 3613
深@@ 3610
架 3607
我爸 3605
世上 3604
几年 3603
女生 3600
杜@@ 3599
现实 3597
进展 3597
god 3596
木@@ 3593
much 3592
年轻人 3592
眼@@ 3591
⊿ 3590
权 3589
教练 3588
满@@ 3588
时代 3584
神秘 3581
犹太人 3580
work 3576
辛苦 3574
思考 3573
有用 3573
乐意 3572
激动 3572
h 3571
推@@ 3571
ﻨ 3570
好笑 3569
聚会 3569
帮帮 3568
未@@ 3568
石头 3567
双@@ 3566
死者 3563
still 3560
值 3560
一个月 3558
邪恶 3558
開@@ 3558
酒@@ 3557
to@@ 3556
盖 3556
16 3554
还会 3554
塞 3552
说服 3550
哪@@ 3549
de 3547
执行 3546
耶稣 3546
病毒 3544
节 3544
尿 3543
由于 3542
顺利 3541
送给 3540
点儿 3537
舞会 3537
成员 3536
接到 3534
桌子 3533
暂时 3532
军 3531
愛 3531
切 3530
意大利 3527
鸡 3527
威@@ 3525
屋 3525
耍 3524
吃@@ 3523
戴@@ 3522
密码 3520
剑 3518
肯 3518
警局 3518
烟 3517
魔法 3517
政治 3516
醫生 3516
你俩 3513
life 3511
学会 3510
申请 3509
真是太 3509
赌 3504
bu@@ 3503
土地 3503
ﺪ 3500
24 3499
修 3499
勇敢 3498
颜色 3495
特殊 3494
登 3494
一段时间 3493
满足 3493
乐 3491
森林 3490
 3488
他来 3487
规矩 3487
一段 3484
指控 3484
电@@ 3483
碞 3481
索@@ 3479
做些 3476
活@@ 3476
奥 3474
承诺 3473
狼 3472
建立 3471
睡着 3471
找出 3469
调 3469
ぐ 3468
总之 3467
萨 3467
ted 3464
bo@@ 3462
部队 3461
想着 3460
天呐 3456
尽力 3455
过程 3455
部门 3454
莫 3451
路易 3450
魔鬼 3447
卡车 3446
学@@ 3446
吉米 3444
估计 3443
免费 3441
两次 3438
停车 3438
夜晚 3433
则 3431
ca@@ 3430
引起 3430
称 3430
碰到 3427
ti@@ 3426
产生 3426
赢得 3425
距离 3425
样 3422
锁 3421
ﻳ 3419
惊讶 3418
后悔 3416
它会 3412
14 3411
鲁@@ 3406
do@@ 3403
宇宙 3402
记 3398
顺便 3397
空间 3396
车上 3395
ﻧ 3393
婴儿 3392
谈过 3383
幹 3382
el@@ 3381
某人 3381
邻居 3380
一分钟 3379
步 3377
maybe 3376
印度 3373
their 3372
音 3372
覺得 3371
通@@ 3371
十年 3370
重点 3368
带上 3364
恩@@ 3362
教@@ 3358
界 3358
ac@@ 3356
唔 3352
包@@ 3351
吸引 3351
全世界 3346
去@@ 3343
凯@@ 3335
笑话 3334
罪犯 3334
before 3332
分享 3331
瓦 3330
草 3330
迈克尔 3326
立@@ 3319
排@@ 3318
杰 3314
某些 3313
琳 3313
接触 3312
更加 3311
杀害 3308
生存 3306
莱@@ 3305
巧克力 3302
楼上 3302
从来不 3301
试 3301
客 3300
莉莉 3297
 3297
导致 3296
推 3295
王子 3294
裤子 3294
想像 3290
不怕 3289
人来 3289
保@@ 3289
发展 3289
特工 3289
call 3288
美女 3288
半 3287
南 3286
废话 3285
than 3283
手里 3283
战 3281
凭 3279
套 3276
切@@ 3275
信@@ 3270
进@@ 3269
别管 3267
常@@ 3265
满意 3264
午餐 3263
比利 3261
北@@ 3260
地区 3260
17 3257
sam 3257
墙 3257
se 3254
下车 3254
弗 3252
饭 3252
恶魔 3250
惩罚 3250
抽 3250
吵 3247
不像 3246
中间 3246
程序 3240
经验 3239
我想 3236
胜利 3235
以来 3234
世纪 3229
他人 3229
变化 3229
三年 3227
脖子 3226
力@@ 3224
数字 3223
投@@ 3222
19@@ 3219
雅 3217
不太 3216
规则 3216
night 3215
泰勒 3213
ers 3212
汉娜 3212
和平 3211
媽媽 3207
签 3206
强大 3205
想过 3201
曼@@ 3201
put 3199
讲话 3199
呵呵 3198
苏@@ 3197
停@@ 3195
市 3194
服 3193
科学 3192
13 3191
机@@ 3191
ﻮ 3190
暴力 3188
症 3186
麦克斯 3186
洛杉矶 3185
酷 3184
骨 3184
大部分 3183
會@@ 3183
年前 3182
fs14 3181
乱@@ 3181
角 3181
我用 3178
白人 3178
ever 3177
伤心 3172
丁 3170
印象 3170
anything 3167
坐@@ 3167
做事 3166
受不了 3166
单@@ 3164
关键 3163
first 3162
福 3162
在场 3160
6@@ 3158
愿 3158
请@@ 3158
分开 3157
法官大人 3157
那晚 3153
所谓 3150
某种 3150
委员会 3149
少@@ 3149
艺术 3149
留言 3148
菲@@ 3147
非@@ 3147
稱 3146
鼻子 3145
联邦 3144
两位 3142
整天 3142
油@@ 3141
破@@ 3140
离@@ 3140
而言 3139
打赌 3138
瞧瞧 3138
清理 3136
唱歌 3135
h@@ 3130
毛@@ 3130
一點 3128
代 3128
左右 3124
car@@ 3123
了不起 3122
诺@@ 3122
這兒 3122
张@@ 3120
老鼠 3120
熊 3119
射 3118
耳朵 3118
兰@@ 3112
脱 3110
凯特 3108
生病 3108
搭 3106
事业 3104
小组 3104
自我 3104
丽@@ 3103
聊聊 3103
越@@ 3103
司机 3102
喝点 3100
箱子 3100
乔@@ 3099
杰@@ 3099
蠢 3097
夏天 3095
揍 3095
大脑 3094
翻@@ 3094
小时候 3093
系 3089
但@@ 3088
指@@ 3087
跳@@ 3085
ation 3084
stop 3083
一片 3083
艾伦 3079
关@@ 3078
威 3077
nothing 3075
练习 3072
范围 3072
这太 3072
拍摄 3071
好运 3070
醒醒 3070
talk 3068
本书 3066
秀 3066
刺激 3065
道理 3064
sh@@ 3063
al 3059
哈利 3058
难以置信 3057
环境 3056
or@@ 3055
虫 3055
摆 3054
玩@@ 3054
见@@ 3054
不肯 3053
發生 3053
问@@ 3052
佛@@ 3050
红色 3050
夜 3048
肚子 3047
伦 3046
修@@ 3046
起來 3044
一对 3043
逃 3043
si@@ 3042
仔 3041
报道 3041
必須 3040
戏 3040
瑞秋 3039
起诉 3037
好奇 3036
解@@ 3036
释放 3034
即将 3033
吐 3033
穿过 3033
故意 3032
彻底 3029
车子 3029
这话 3025
宣布 3024
牧师 3022
上学 3021
new 3019
明星 3019
摸 3017
打破 3016
实验室 3015
again 3013
z 3013
菲尔 3013
一堆 3012
各种 3012
留@@ 3012
福@@ 3012
说出 3010
刚@@ 3009
窗户 3007
团队 3006
旅馆 3003
层 3002
蛇 3001
三天 3000
奇迹 3000
有所 3000
king 2995
理论 2995
杂志 2994
so@@ 2993
周 2990
一部 2989
档案 2989
年纪 2983
归 2983
墨西哥 2981
然而 2979
弧 2975
护士 2975
thought 2971
搭档 2970
away 2969
头上 2969
尽量 2966
th@@ 2965
毫无 2965
别忘了 2964
拿来 2964
浪漫 2964
脸上 2964
要死 2964
项目 2963
last 2961
wait 2959
牙 2959
笔 2959
男@@ 2958
船@@ 2957
取@@ 2956
背 2954
载 2954
珍妮 2953
小伙子 2952
keep 2951
牛@@ 2951
假@@ 2950
道@@ 2950
離開 2949
雨 2947
球@@ 2946
紧急 2945
5@@ 2944
付出 2943
those 2942
邦 2941
上尉 2940
加上 2938
相同 2938
时光 2937
运气 2937
细节 2933
谎言 2932
轮 2932
料 2931
年@@ 2930
喝醉 2929
大多数 2927
康@@ 2927
亲@@ 2926
車 2921
看法 2920
分析 2919
纸 2919
不仅 2918
依然 2918
付钱 2917
卖@@ 2915
骑 2915
呼叫 2914
船上 2913
变态 2912
香港 2910
星@@ 2909
other 2908
送@@ 2907
随 2907
ne@@ 2906
五分钟 2906
at@@ 2905
理@@ 2903
级 2903
vi@@ 2902
非常感谢 2901
何时 2900
早安 2900
圣诞节 2899
死定了 2897
联络 2897
弗@@ 2896
乐@@ 2895
盖@@ 2895
反 2894
定@@ 2893
蓝色 2893
艾米 2892
食 2892
神奇 2891
一间 2890
做点 2890
卷 2887
史蒂夫 2887
对待 2887
000 2886
退出 2883
雪@@ 2883
何@@ 2882
露@@ 2882
被捕 2881
强@@ 2880
st 2879
things 2879
现金 2877
需 2877
华@@ 2876
放手 2876
一人 2875
合 2874
搜查 2874
蒙@@ 2874
j@@ 2871
won 2871
对此 2870
采取 2870
广告 2868
guy 2865
毕业 2865
ate 2864
启动 2864
年代 2864
認為 2864
愛@@ 2863
毕竟 2862
大声 2860
规定 2859
互相 2858
愤怒 2858
六 2856
造 2855
游泳 2853
ﻲ 2853
準備 2850
ru@@ 2849
视频 2848
v 2845
听@@ 2845
抛弃 2845
擦 2844
打死 2843
专业 2842
教育 2840
远离 2840
les 2839
代@@ 2839
发射 2837
早@@ 2837
no@@ 2836
思 2834
蒂@@ 2834
制 2832
换@@ 2832
全是 2831
天气 2831
ds 2829
背后 2829
诅咒 2827
个@@ 2826
媒体 2826
聊天 2825
可恶 2824
喊 2824
還 2824
温@@ 2822
街上 2822
试着 2821
方@@ 2820
發@@ 2819
箱 2818
万一 2817
仔细 2817
治 2817
集 2817
信仰 2816
沙 2816
仅仅 2815
ba@@ 2813
龙@@ 2813
en 2812
精彩 2811
打败 2809
倒@@ 2808
咯 2808
芝加哥 2808
方便 2807
作用 2805
五个 2804
地图 2804
孤独 2803
 2801
home 2800
响 2800
ly 2799
盒子 2799
空气 2799
发出 2798
希 2797
菲 2797
偷@@ 2796
紧 2794
检察官 2792
脚@@ 2792
说不定 2792
懂吗 2791
桥 2791
long 2786
这张 2786
改 2785
表情 2784
9@@ 2783
冷@@ 2780
尖叫 2780
辦 2780
椅子 2778
行李 2778
闻 2778
伤口 2777
网 2776
任 2774
真棒 2774
重复 2774
7@@ 2773
右 2772
价 2771
欧 2771
不来 2768
退后 2768
大量 2767
管理 2767
面包 2767
小女孩 2766
过得 2764
王@@ 2763
做过 2762
敬 2762
专@@ 2761
有效 2760
赫@@ 2760
都行 2758
after 2757
业 2756
优秀 2755
拉斯 2753
轻@@ 2751
瓶 2750
抢劫 2748
指纹 2747
逃走 2747
思@@ 2746
第二@@ 2746
录像 2745
无所谓 2745
简 2745
体@@ 2741
关注 2741
place 2740
香@@ 2740
清 2738
基地 2737
1ch00ffff 2736
放到 2736
立即 2736
pe@@ 2735
了@@ 2734
观察 2732
无论如何 2731
遇见 2731
实现 2729
超 2729
摆脱 2728
展示 2727
意@@ 2727
must 2725
便宜 2724
观众 2722
f 2721
fnmicrosoft 2720
到来 2720
内容 2719
yahei 2717
欣赏 2717
熟悉 2717
作家 2716
坏人 2716
埋 2716
錯 2715
关掉 2714
持续 2714
不止 2713
尴尬 2713
款 2713
假如 2711
拖 2711
低@@ 2709
劳@@ 2709
感兴趣 2709
told 2708
汤 2708
市场 2707
职业 2707
on@@ 2706
赶 2706
乔伊 2705
夜@@ 2704
這種 2701
格雷 2700
罢了 2699
解雇 2699
剂 2698
改@@ 2697
桑@@ 2697
相处 2696
佬 2695
监控 2695
摧毁 2694
飞行 2694
不可思议 2691
嫉妒 2690
與 2690
葬礼 2690
抽@@ 2689
青@@ 2689
实验 2688
这有 2688
情绪 2686
ﺘ 2685
传统 2684
失陪 2684
玩具 2684
绝不会 2683
之外 2682
想见 2681
sp@@ 2679
挖 2678
设备 2678
太久 2676
衣 2676
冠军 2675
ﻫ 2675
does 2674
一支 2674
有空 2674
绝不 2673
葛@@ 2671
博 2669
态度 2668
排 2668
竞选 2668
女王 2667
感染 2667
佛 2666
底 2666
权力 2666
走进 2666
60 2663
女友 2663
打个 2663
正要 2663
该@@ 2663
不住 2662
刺 2662
掌握 2662
吸 2661
一套 2660
那条 2660
团 2659
罗伯特 2659
升 2658
独自 2658
华盛顿 2657
袋 2657
佩@@ 2656
狗@@ 2656
蓝@@ 2656
一面 2655
别碰 2654
能量 2654
慢 2652
站住 2648
落@@ 2648
跟@@ 2648
早晨 2647
挑 2646
区域 2643
哼 2643
员工 2641
数据 2640
外套 2639
梅 2639
趴下 2637
游@@ 2636
pa@@ 2635
姐 2635
此事 2632
为此 2631
知 2631
教会 2630
列@@ 2629
毒 2629
娘 2628
班@@ 2628
過來 2628
滚开 2627
五年 2624
哟 2623
异@@ 2622
 2621
 2620
ine 2616
john 2616
养@@ 2616
族 2614
莱 2614
一颗 2613
此@@ 2613
类 2612
让开 2612
几次 2609
独@@ 2609
快去 2608
骂 2606
七 2605
单 2605
带你去 2605
洗澡 2605
當@@ 2605
肉@@ 2603
years 2602
清醒 2602
乖 2601
克莱尔 2601
英尺 2601
1chff8000 2600
dna 2600
机器人 2599
ch 2597
黑色 2597
500 2596
doesn 2596
买@@ 2596
ﻠ 2595
乌@@ 2594
血液 2594
事物 2592
everything 2591
冰 2591
世@@ 2590
動 2590
战@@ 2589
脑子 2588
name 2587
损失 2585
沃@@ 2585
说完 2585
幻想 2584
暗 2582
深 2582
抱怨 2581
男友 2580
na@@ 2579
前进 2579
阿姨 2579
00 2578
ton 2575
正如 2575
欧洲 2574
感覺 2573
鞋子 2573
党 2570
说法 2570
ad@@ 2569
處 2569
事故 2568
夫@@ 2568
民@@ 2568
陌生人 2568
如今 2567
起床 2567
爾@@ 2566
杀@@ 2565
better 2564
代价 2564
很少 2563
house 2562
表达 2561
阿曼 2561
回忆 2560
望 2559
莉@@ 2558
结@@ 2557
支付 2556
冒 2554
战士 2550
考@@ 2550
风险 2550
狂 2549
frank 2548
度过 2548
裙子 2548
um 2546
宁愿 2546
抽烟 2546
 2546
香 2544
黄@@ 2544
没想 2543
盘 2542
野@@ 2542
钻石 2542
洛克 2540
证 2539
审判 2536
打架 2536
投资 2536
買 2536
出事 2535
齐 2535
威廉 2534
并非 2533
發現 2533
隐藏 2533
la 2532
库@@ 2532
it@@ 2531
一根 2530
打来 2530
被@@ 2530
保险 2528
交往 2526
擅长 2526
guys 2525
always 2524
英@@ 2522
around 2521
姐妹 2520
斯特凡 2520
云@@ 2519
祝你好运 2519
星球 2518
雅@@ 2516
守 2515
内心 2510
说好 2510
那次 2510
杀掉 2509
相 2508
在意 2507
柯@@ 2507
著@@ 2507
描述 2503
1@@ 2502
表@@ 2502
各@@ 2499
每年 2497
看不见 2496
警@@ 2496
这条 2495
fs20 2494
千万 2494
烦 2494
额 2494
干活 2493
不太好 2492
他自己 2492
遍 2492
草@@ 2491
信心 2488
亮 2487
ﺗ 2487
made 2485
挑战 2485
ﻤ 2485
投票 2484
同学 2483
指望 2483
贱人 2482
女孩子 2481
吹@@ 2480
退 2480
ab@@ 2478
回头 2478
陪审团 2478
俄罗斯 2477
李 2477
白色 2477
夏@@ 2476
集中 2476
中尉 2475
左@@ 2475
忍受 2475
汤米 2475
爵士 2475
知不知道 2474
ms 2473
村 2472
怎麼樣 2468
马丁 2468
ley 2466
追@@ 2465
伙伴 2464
雇 2464
someone 2462
版 2462
world 2461
救救 2459
背@@ 2459
化@@ 2458
合法 2457
网络 2457
转移 2457
贼 2456
饼 2456
苦@@ 2454
间谍 2453
顶 2453
周@@ 2452
太空 2452
胡@@ 2452
姓 2451
语言 2451
森@@ 2450
杰夫 2447
达到 2446
退休 2446
图@@ 2445
松@@ 2445
用力 2445
话题 2445
管@@ 2444
达蒙 2444
出來 2443
保安 2439
硬 2437
算@@ 2436
 2436
x@@ 2435
灵@@ 2435
爆 2435
同一个 2434
犯人 2434
登@@ 2434
接电话 2433
笵 2433
能否 2433
守@@ 2432
知@@ 2431
您好 2430
表明 2430
今早 2427
见见 2427
长时间 2427
 2425
人人 2424
勇气 2424
想来 2424
走路 2424
fbi 2421
我见 2421
指挥 2421
留给 2421
农场 2419
亚当 2418
熟 2418
托尼 2417
男生 2417
楼下 2416
病@@ 2416
助理 2415
那樣 2415
果 2414
一声 2412
兩@@ 2412
女巫 2412
混 2412
渴望 2412
儿童 2411
勒@@ 2409
密@@ 2409
按照 2409
薇 2409
那会 2409
工厂 2408
传@@ 2407
制作 2407
商店 2407
小孩子 2407
列 2406
对手 2406
露 2406
做个 2403
able 2402
早点 2402
出口 2400
饼干 2400
du@@ 2399
远@@ 2399
心理 2398
类似 2398
阳光 2396
done 2395
尊敬 2395
海滩 2395
醉 2395
口袋 2393
pro@@ 2392
乖乖 2392
稳定 2392
through 2391
药物 2391
举 2390
到时候 2390
防@@ 2389
露西 2388
真想 2387
great 2386
假设 2386
男子 2386
贵 2386
ks 2381
增加 2381
实@@ 2381
手段 2381
承受 2381
八 2380
极@@ 2379
克拉克 2378
爹 2378
立 2378
圣 2377
老妈 2377
耐心 2377
鬼@@ 2377
支票 2376
派@@ 2375
混乱 2375
砸 2375
非法 2375
根@@ 2374
兩個 2370
查尔斯 2369
坚强 2368
蒙 2367
feel 2366
土@@ 2366
欺骗 2365
形 2364
爽 2364
不信 2363
合伙人 2363
误会 2363
快要 2362
精@@ 2362
看吧 2361
书@@ 2360
碎 2360
码 2359
coming 2358
偷走 2358
城里 2358
悲伤 2358
签名 2357
may 2355
封 2354
年龄 2354
邮件 2354
工具 2353
美妙 2353
城堡 2352
te@@ 2349
这辈子 2349
丹@@ 2347
屋子 2347
药@@ 2347
ﺑ 2347
丝@@ 2346
没人会 2345
不久 2344
拜拜 2343
思想 2341
收集 2341
經@@ 2341
压@@ 2340
母@@ 2340
既 2337
筁 2337
考 2337
工@@ 2336
避免 2336
多次 2335
朗 2335
電話 2334
出色 2333
二十@@ 2332
微软 2332
21 2331
出门 2331
期间 2331
w 2329
微笑 2329
喝@@ 2328
长得 2328
old 2327
对象 2326
快點 2325
might 2324
你自己的 2324
情人 2324
害死 2323
借@@ 2322
凯瑟琳 2320
告 2320
ss 2319
短 2319
shit 2318
率 2317
公开 2316
公里 2316
45 2315
将来 2315
不吃 2314
眔 2313
绝@@ 2312
翻 2312
盒 2311
毛病 2310
射击 2309
不愿 2308
万岁 2307
临 2306
平 2306
我俩 2305
经理 2305
世 2304
搞错 2304
布朗 2303
大麻 2302
威士忌 2302
ma 2301
寫 2301
引@@ 2301
教训 2301
 2300
脑@@ 2299
max 2298
殿下 2298
英语 2298
首@@ 2297
0 2296
报@@ 2296
every 2294
也就是说 2294
19 2293
律 2293
宝 2291
皮肤 2291
艾丽西娅 2291
完@@ 2290
装置 2290
進 2290
卡特 2289
牛奶 2289
库 2287
打扮 2287
海洋 2285
应@@ 2284
弹@@ 2284
玫瑰 2284
 2284
22 2283
夫妇 2283
lot 2282
基本 2282
最高 2282
直升机 2282
仪式 2280
屎 2280
依@@ 2279
茨 2279
fs16 2278
hu@@ 2278
稍 2278
腔 2278
招 2277
就行 2276
木 2276
洗@@ 2276
带我去 2275
师父 2273
更糟 2273
举行 2272
吵架 2272
端 2271
不管怎样 2268
传 2266
武@@ 2265
隐瞒 2265
大楼 2264
野 2264
三明治 2263
ke 2262
当初 2262
术 2262
生日快乐 2262
左边 2261
雅黑 2260
探@@ 2259
地板 2257
gu@@ 2255
区别 2255
尽@@ 2254
three 2253
大事 2252
ni@@ 2251
ge@@ 2250
一刻 2250
玻璃 2249
雪 2249
电梯 2248
鱼@@ 2246
我本 2244
礼貌 2244
ﻌ 2244
建 2240
怎樣 2240
係 2239
卡拉 2239
压 2239
效果 2239
鲍勃 2238
少校 2237
当地 2237
钱@@ 2237
el 2235
礼拜 2235
刚好 2232
沙发 2232
磅 2232
兒 2231
开口 2231
搜索 2231
混@@ 2231
胡说 2231
believe 2230
据 2230
迷人 2230
真心 2229
练 2229
领@@ 2229
名叫 2228
戈 2228
 2228
命@@ 2227
一整天 2226
暗@@ 2226
isn 2223
放过 2223
當 2222
左 2221
地下室 2220
急@@ 2220
撒 2219
艾玛 2219
妓 2217
da@@ 2214
商 2214
想干什么 2214
撒@@ 2214
小说 2212
我自己的 2212
 2212
ex@@ 2210
即 2210
槍 2210
电 2210
苦 2210
退@@ 2210
卧室 2208
柏@@ 2207
针 2207
州长 2205
狄@@ 2205
真不错 2205
随@@ 2204
到@@ 2203
午饭 2202
小镇 2201
有罪 2201
泡 2201
kind 2200
沙漠 2200
主任 2199
几分钟 2199
诗 2199
贝 2199
stay 2198
这座 2198
发明 2197
游 2196
赛@@ 2196
针对 2194
毁掉 2193
门口 2193
布莱尔 2192
毁灭 2192
维尔 2192
扯 2191
he@@ 2190
艾莉 2190
手臂 2189
主义 2188
大师 2186
big 2185
前往 2185
坐牢 2185
天空 2185
机构 2185
踩 2185
短信 2184
禁止 2184
認識 2184
射@@ 2181
sh 2180
一切都是 2180
程 2179
胖 2177
当成 2176
leave 2175
恶@@ 2175
般 2175
保密 2173
流血 2173
ﻋ 2173
fuck 2171
完毕 2171
艰难 2170
杰西 2169
堡 2167
引擎 2167
财产 2166
qu@@ 2165
两人 2165
科学家 2165
工人 2163
which 2161
士@@ 2161
拳 2161
_ 2160
借口 2160
艾米莉 2160
end 2159
已@@ 2159
这么久 2159
镜头 2159
随着 2159
杰瑞 2157
钱包 2156
for@@ 2155
打击 2155
王八蛋 2155
旧@@ 2154
是@@ 2154
kill 2153
人质 2153
施@@ 2153
太晚 2152
当心 2152
我试 2152
提议 2152
汉@@ 2152
朱@@ 2151
猜猜 2150
双手 2149
丽莎 2148
结局 2148
谈@@ 2148
谷 2148
門 2148
私@@ 2147
ent 2146
th 2145
趁 2145
制服 2144
常常 2143
议员 2143
霍华德 2143
卢@@ 2142
很酷 2142
被害人 2142
护@@ 2141
降落 2140
也好 2139
車@@ 2139
懂得 2138
招@@ 2138
国际 2137
第二次 2137
玩意儿 2136
主席 2135
帅 2135
网站 2135
程度 2134
若@@ 2133
圣诞 2131
开火 2131
总会 2129
直 2129
院 2129
完蛋 2128
ㄆ 2127
之内 2127
戈@@ 2127
辛@@ 2126
争取 2125
小家伙 2125
米奇 2125
mon@@ 2124
救@@ 2123
神圣 2122
ﻭ 2122
pre@@ 2121
良好 2121
red 2120
一座 2119
支援 2118
甩 2117
开除 2116
断@@ 2116
te 2115
fa@@ 2114
大街 2114
心中 2114
da 2113
下班 2113
哎呀 2113
烤 2113
蕾 2113
非洲 2113
地下 2112
文章 2112
章 2110
分子 2109
厂 2109
枪@@ 2109
浴室 2109
建筑 2107
言@@ 2107
帝 2106
拿出 2106
波特 2106
尼斯 2105
运行 2105
十分钟 2104
饮料 2104
采访 2103
云 2102
冲@@ 2102
华 2102
进攻 2102
驾驶 2102
掩护 2101
著名 2101
明明 2100
投降 2099
风格 2099
总部 2098
巨@@ 2097
笨 2097
至于 2097
奴隶 2096
哪裡 2094
座位 2094
妈咪 2093
猴子 2093
michael 2092
后果 2092
求@@ 2092
伪 2091
新娘 2091
as@@ 2090
ting 2090
试@@ 2090
在于 2089
成熟 2088
打断 2088
斯宾塞 2088
传说 2087
复@@ 2087
宝@@ 2087
神经 2086
群 2086
解 2086
父親 2085
 2085
奖 2084
有权 2084
丢下 2083
第三@@ 2083
男性 2082
粉 2082
魔@@ 2082
具 2081
滑@@ 2081
帕 2080
救护车 2080
算了吧 2078
联盟 2078
砍 2077
确信 2077
hello 2076
理查德 2076
色@@ 2075
赚钱 2075
瑞克 2074
队伍 2074
全国 2073
我覺 2072
23 2071
食@@ 2071
必@@ 2070
沒錯 2070
租 2070
利亚 2069
下手 2068
妞 2068
目@@ 2068
声@@ 2067
散 2067
你们好 2066
录 2066
证实 2066
重大 2066
點@@ 2066
魔 2065
资格 2064
卻 2063
九 2062
观点 2062
时期 2061
走出 2060
运 2060
hi 2058
网上 2058
内部 2057
因@@ 2057
提前 2056
第@@ 2056
东 2055
屋里 2055
画@@ 2055
肖恩 2055
挡 2053
整晚 2053
辆 2052
整理 2051
阴@@ 2051
擔心 2050
合同 2049
它们的 2049
愿望 2049
炒 2049
癸 2048
投 2047
陷入 2047
$ 2045
pi@@ 2045
脱@@ 2045
坏事 2044
六个 2043
单身 2043
节@@ 2043
坦白 2042
汉 2042
角度 2042
凯文 2041
物@@ 2041
dead 2039
曲 2038
弄@@ 2037
闹 2036
am@@ 2035
演@@ 2035
大不了 2034
处于 2033
乐趣 2032
音@@ 2032
唉 2031
韦@@ 2031
妹 2029
提起 2027
安迪 2026
浪费时间 2026
考试 2026
own 2024
指挥官 2024
绑 2024
沃 2023
烟@@ 2023
复仇 2022
联调 2022
出卖 2021
共同 2020
girl 2019
着@@ 2019
being 2018
硬@@ 2018
another 2017
cu@@ 2016
同情 2016
照@@ 2016
联邦调查局 2016
贾@@ 2016
fine 2015
受够了 2015
镇上 2015
惨 2014
不安 2013
噩梦 2013
眼神 2013
有點 2012
布莱恩 2011
眼前 2011
首歌 2011
军@@ 2010
实话 2009
money 2008
何不 2008
最佳 2008
爱人 2008
老朋友 2007
一趟 2006
卫星 2006
富@@ 2006
判断 2005
繼續 2005
道路 2005
sheldon 2004
一项 2004
情感 2004
炸 2003
这下 2003
几点 2002
报复 2002
陈@@ 2002
wanted 2001
抓@@ 2001
经济 2001
配 2001
两周 2000
吸@@ 2000
jane 1999
事要 1999
交换 1999
右边 1999
选@@ 1999
法院 1998
wa@@ 1997
不明 1997
ter 1995
尺 1995
应 1995
独立 1995
talking 1993
保留 1993
商量 1993
崩溃 1993
经 1993
dad 1992
导演 1992
問 1991
罗杰 1991
一架 1990
一路 1990
原本 1990
加州 1989
mike 1988
这句 1988
关门 1987
注意力 1987
魅力 1987
che@@ 1986
ge 1986
• 1986
羅 1986
course 1985
句 1985
香槟 1985
惊人 1984
bad 1983
写@@ 1981
隆 1981
安慰 1980
辞职 1980
= 1979
gi@@ 1979
回报 1979
痕迹 1979
睡@@ 1979
质 1978
远点 1978
领 1978
不仅仅 1977
强奸 1977
波士顿 1977
之下 1974
伙 1974
娅 1974
标准 1974
造@@ 1974
搞笑 1973
铁 1973
海军 1972
革命 1972
remember 1971
滚出去 1971
ﻘ 1971
ss@@ 1970
enough 1968
美味 1966
谋杀案 1964
透 1964
et 1963
fucking 1963
wrong 1963
一口 1963
伦@@ 1963
同一 1963
影 1963
煮 1963
哪来 1962
湖 1962
逃@@ 1962
der 1961
核@@ 1961
屁 1960
期望 1960
走运 1960
餐馆 1959
保重 1958
拖@@ 1957
袋子 1957
骨头 1956
荒谬 1955
ﻞ 1955
peter 1954
原 1954
扎 1954
ment 1953
中情局 1952
hear 1951
他用 1951
艺术家 1951
刀@@ 1950
挺@@ 1950
摩@@ 1950
整 1950
职 1949
足 1949
happened 1947
共@@ 1947
有着 1947
可笑 1946
四处 1946
页 1944
hell 1943
零@@ 1943
ﻦ 1943
35 1942
tra@@ 1942
市长 1941
成长 1941
暴@@ 1941
闻到 1941
省 1940
苏珊 1940
mu@@ 1938
相关 1938
速 1938
上课 1937
喜 1937
诚实 1937
不得 1936
应付 1935
敲 1935
1chf0f0f0 1934
left 1933
目 1933
ﺔ 1933
é 1932
艾米丽 1932
修好 1931
斯科特 1930
永@@ 1930
il@@ 1929
歲 1929
lu@@ 1928
咱俩 1928
民 1927
紧@@ 1927
茜 1924
学院 1923
肮脏 1922
外星人 1921
视 1921
一顿 1920
兔子 1920
我敢 1920
撑 1920
短@@ 1920
傢 1919
树林 1918
女子 1917
类型 1917
老人 1916
帝国 1915
齐@@ 1915
背景 1913
臭@@ 1913
准 1912
初@@ 1912
 1912
快速 1911
有种 1911
符合 1911
走廊 1911
河@@ 1910
try 1909
一本 1909
反抗 1909
哥@@ 1909
存 1909
很长 1909
维持 1908
move 1907
否认 1907
海伦 1907
boy 1906
交流 1906
好孩子 1906
恋爱 1906
種 1906
说些 1906
fi@@ 1905
ﻥ 1905
father 1904
取得 1904
归@@ 1904
某 1904
一瓶 1903
协助 1903
我怕 1903
伤@@ 1902
君 1902
格斯 1902
演讲 1902
制@@ 1901
手中 1901
骑士 1901
壞 1900
结 1900
安东尼 1899
肯@@ 1899
松 1898
痛@@ 1898
绿色 1898
文化 1897
施 1897
返回 1897
订 1896
ﺳ 1896
ver@@ 1895
他杀 1895
疾病 1895
往@@ 1894
环 1894
pu@@ 1893
一百@@ 1893
三次 1893
喜@@ 1893
圣经 1893
段时间 1893
衬衫 1893
 1893
man@@ 1892
麼 1892
寄 1891
当年 1890
星星 1890
修女 1889
由@@ 1889
玩得 1888
癌症 1887
ga@@ 1886
植物 1886
楼梯 1885
拥抱 1884
洗手间 1884
西班牙 1884
保姆 1883
密 1883
母 1883
bar@@ 1881
場 1881
求婚 1881
回家吧 1880
帮@@ 1880
柏林 1880
ev@@ 1879
ous 1879
产品 1879
人能 1879
吓坏 1879
爸妈 1879
牙齿 1879
jack 1878
trying 1878
鲁 1878
ﾊ 1877
忠诚 1876
瞎 1876
拍@@ 1875
简@@ 1875
这家 1875
將 1874
皇后 1874
功夫 1873
德国人 1873
注射 1873
ah 1872
─ 1872
冒犯 1872
咱 1871
计 1871
80 1870
荣誉 1870
迪克 1870
else 1869
占 1869
内裤 1868
四年 1868
谢尔顿 1868
钟 1868
全球 1867
嘲笑 1867
翻译 1867
指示 1864
nice 1863
鸡@@ 1863
宗教 1862
手枪 1862
羊 1862
哪兒 1861
屋顶 1860
莎@@ 1860
做梦 1859
崔@@ 1859
配@@ 1859
尾 1858
果@@ 1858
警察局 1858
贝利 1857
8@@ 1856
ネ 1856
领导 1856
杰森 1855
步@@ 1855
除 1855
same 1854
毒@@ 1854
不錯 1852
就是说 1852
found 1851
瞒 1851
福瑞克 1848
俄国 1847
托马斯 1847
一致 1846
棒极了 1846
皮特 1846
300 1845
有过 1844
給@@ 1844
蠢货 1844
再来 1843
呼 1843
老头 1842
适应 1842
per@@ 1841
告@@ 1841
土 1841
斗 1841
自私 1841
参议员 1840
完整 1840
活下去 1840
被告 1840
贴 1840
getting 1839
je@@ 1837
基本上 1835
岛上 1835
明早 1835
莱纳 1835
信用卡 1834
关上 1834
对话 1834
英 1834
且 1833
校长 1833
禁@@ 1833
 1833
对抗 1832
親愛的 1832
新鲜 1831
ask 1830
动机 1830
东尼 1829
只好 1829
起飞 1829
ie 1828
晓得 1828
致命 1828
蓝 1828
bi@@ 1827
建@@ 1827
交谈 1826
出于 1826
职责 1826
六个月 1824
热情 1824
眼镜 1824
别闹 1823
陷阱 1823
天赋 1822
贾 1822
甘@@ 1821
这部 1821
去死吧 1820
消@@ 1820
称为 1820
追求 1820
18@@ 1819
近@@ 1819
小偷 1818
ﾑ 1818
支 1817
艘 1817
队员 1817
room 1816
平静 1816
时机 1815
航班 1815
台@@ 1813
善良 1813
地面 1813
爱上 1813
下降 1812
维多利亚 1811
胳膊 1811
hold 1810
校@@ 1810
自动 1810
wasn 1809
looking 1808
上周 1808
封信 1808
發 1808
脱掉 1808
came 1806
jo@@ 1806
ter@@ 1806
中士 1806
击@@ 1806
警报 1806
查查 1805
瑟@@ 1805
运@@ 1805
sha@@ 1804
扂 1804
ka@@ 1803
吃掉 1803
敏感 1802
本人 1801
堂 1798
父 1796
摄像头 1795
然後@@ 1795
稍微 1795
is@@ 1792
一眼 1792
也許 1791
中央 1789
歌手 1789
叶 1788
浮@@ 1788
赫 1788
封@@ 1786
批准 1786
极了 1786
爱丽丝 1786
咋 1785
抓到 1785
正义 1785
德尔 1783
警 1783
逃避 1783
温暖 1782
gh@@ 1781
向@@ 1781
祝贺 1781
苹果 1780
real 1779
sc@@ 1779
房@@ 1779
第一天 1779
谢@@ 1779
高级 1779
姬 1778
度假 1778
下周 1777
小丑 1777
最新 1777
脸@@ 1777
head 1776
演奏 1776
ﺬ 1776
几周 1775
平常 1775
脑 1775
艾莉森 1775
show 1774
baby 1773
室友 1772
穿@@ 1772
est 1771
扣 1771
黄金 1771
伊丽莎白 1770
冰箱 1770
利益 1770
杆 1770
耶@@ 1770
ding 1769
友 1769
侦探 1768
託 1768
囚犯 1767
学到 1767
灵 1767
升@@ 1766
纸@@ 1765
具有 1764
将要 1763
胜 1762
范@@ 1762
號 1762
david 1761
扎@@ 1761
菲利普 1761
ﺭ 1761
太大 1760
自豪 1760
试试看 1760
偶尔 1759
夺走 1759
树@@ 1759
現 1759
西蒙 1759
嘉@@ 1758
强迫 1758
第三 1758
第二天 1757
喷@@ 1755
慢点 1755
搞@@ 1755
黄 1754
合理 1753
微@@ 1753
想不到 1753
零 1753
下雨 1752
当中 1752
撤退 1752
第二个 1752
阶段 1752
next 1751
不怎么 1751
咒语 1751
leonard 1749
衣@@ 1749
men 1748
唱片 1748
灰@@ 1748
选手 1748
材料 1747
路易斯 1747
 1747
有何 1746
car 1744
从前 1744
痷 1744
 1744
敌 1743
智慧 1743
祝福 1743
ﻓ 1743
尔斯 1742
空中 1742
配合 1742
古怪 1741
坦@@ 1741
麻@@ 1741
部长 1740
右@@ 1739
汀 1739
具体 1737
相反 1737
不出 1736
大臣 1736
隔壁 1736
顾客 1736
ﻛ 1736
别想 1735
care 1734
体内 1734
果然 1734
看好 1734
辩护 1734
today 1733
十 1733
叔 1733
唐@@ 1733
城@@ 1733
护照 1733
连接 1733
倍 1732
危机 1732
查出 1732
细胞 1732
its 1730
氣 1730
许 1730
ated 1729
劲 1729
有件事 1728
珍 1728
解开 1728
出租车 1727
义@@ 1725
炮 1725
横@@ 1724
行事 1724
货@@ 1723
古老 1722
认得 1722
頭@@ 1722
为止 1721
各 1721
客@@ 1721
耳@@ 1720
那裡 1720
刺@@ 1719
慰 1719
主管 1718
員 1718
希特勒 1718
插@@ 1717
社区 1717
违反 1717
静@@ 1717
迷路 1716
底下 1715
账户 1714
杰西卡 1713
讲@@ 1713
发表 1711
mp@@ 1710
烧@@ 1710
全身 1709
头脑 1708
拍照 1708
par@@ 1707
局长 1707
拼@@ 1707
滑 1707
状 1706
虎 1706
迷@@ 1706
半个 1705
白天 1705
绝望 1704
 1704
医疗 1703
琼斯 1703
经@@ 1703
酸 1703
ja@@ 1702
幹什麼 1702
这片 1702
cause 1701
剧 1701
孤单 1701
等@@ 1701
谈判 1701
鸡蛋 1701
帽 1700
电话号码 1700
關 1700
会来 1699
好点 1699
尸 1698
提高 1698
纹身 1698
舞台 1698
記得 1698
尤@@ 1697
 1697
cor@@ 1696
万美元 1696
广场 1696
谢天谢地 1696
那件事 1696
钉 1696
shad0 1695
但愿 1695
大门 1695
暴露 1695
機 1694
足@@ 1694
保 1693
海盗 1693
best 1692
mind 1692
安德鲁 1692
月@@ 1692
理想 1692
绳子 1692
陷害 1691
性命 1690
一家人 1689
千万别 1688
权@@ 1688
die 1687
手套 1687
ir@@ 1686
不成 1686
它@@ 1686
形成 1686
90 1685
tu@@ 1685
understand 1684
本身 1684
脏 1684
战场 1683
报导 1683
挑@@ 1683
杂种 1683
胸@@ 1683
瑞斯 1682
舌头 1682
go@@ 1681
帅哥 1681
视@@ 1681
容 1680
將@@ 1680
拜访 1680
觉 1680
可能性 1679
蛮 1679
阿尔@@ 1679
注 1677
har@@ 1676
many 1676
的@@ 1675
达成 1675
开会 1674
投入 1674
科尔 1674
ce 1673
冬天 1673
幾@@ 1673
汉堡 1673
馆 1673
日期 1672
礼 1672
一笔 1671
插 1671
税 1671
摩 1670
查看 1670
认出 1670
企业 1669
失控 1669
官@@ 1668
本该 1668
道德 1668
向前 1667
狗屁 1667
三十@@ 1666
喝杯 1666
逊 1666
产 1665
激情 1665
顺@@ 1665
保佑 1664
晚饭 1664
花园 1664
作证 1663
ﺒ 1663
通话 1662
颗 1662
尼亚 1661
朗@@ 1661
贝尔 1661
墙上 1660
歌@@ 1660
小小的 1659
遭遇 1659
§ 1658
为啥 1658
公路 1657
市@@ 1657
午夜 1656
请原谅 1656
wi@@ 1655
啰 1655
预@@ 1655
卖掉 1654
实 1654
ant 1653
ne 1653
罪名 1653
來@@ 1651
兒子 1651
扮演 1651
給我 1651
雨@@ 1651
新来 1650
達 1650
難 1650
miss 1649
难受 1649
面具 1649
一向 1648
很久以前 1648
自信 1648
虎@@ 1648
小狗 1647
校 1647
没人能 1646
镜子 1646
比如说 1645
画面 1645
资金 1645
thanks 1644
只想 1644
卢 1643
叛徒 1643
当作 1643
棒球 1643
罪行 1643
强烈 1642
斯坦 1642
ﻚ 1642
dean 1641
内特 1641
素 1641
要不是 1641
﹣ 1641
很久 1640
ju@@ 1639
马特 1639
发疯 1638
饭店 1637
善@@ 1636
戴夫 1636
里斯 1636
不是故意 1635
问过 1635
70 1634
一员 1634
大海 1634
川 1633
恰克 1633
萨姆 1633
凯蒂 1632
散步 1632
他家 1631
坎@@ 1631
奈@@ 1631
一枪 1630
透@@ 1630
ve@@ 1629
店里 1629
拜@@ 1629
最棒 1629
琴 1629
姆@@ 1628
日记 1628
走走 1628
恐怖分子 1627
倒霉 1626
成就 1626
得了吧 1625
一号 1624
唐 1624
舞蹈 1624
证词 1624
镜 1624
哈哈 1623
回应 1623
温 1623
论 1623
车祸 1623
一台 1622
受害人 1622
对面 1622
细@@ 1622
侮辱 1621
夏 1621
悲剧 1621
月亮 1621
带给 1620
待@@ 1620
消灭 1620
古 1618
掌控 1618
单位 1617
失 1617
边@@ 1617
丁@@ 1616
知识 1616
豆 1616
布里 1615
会见 1614
妇女 1614
本事 1614
集团 1614
min@@ 1613
秘书 1613
谓 1613
، 1612
井 1612
助手 1612
所知 1612
老是 1612
27 1611
周五 1611
唱@@ 1611
圆@@ 1611
弱 1610
亿 1609
遵守 1609
郡 1609
一头 1608
供 1608
凯勒 1608
天天 1608
残忍 1608
尝尝 1606
0@@ 1605
寂寞 1605
雄@@ 1605
ck 1604
印 1604
地盘 1604
ﺣ 1604
ﻜ 1604
迟 1603
saw 1602
称呼 1602
後@@ 1601
厌倦 1600
首 1600
于@@ 1599
作战 1599
商@@ 1599
散@@ 1599
这人 1599
功@@ 1598
哪怕 1598
才行 1598
ker 1597
这辆 1597
兵@@ 1596
影@@ 1596
胸部 1596
轮到 1595
可悲 1594
寻求 1594
很小 1594
条@@ 1594
舱 1594
记@@ 1594
那有 1594
贝克 1593
保存 1592
朝@@ 1592
wouldn 1591
暗示 1591
辣 1591
薄 1590
险 1590
most 1589
ci@@ 1588
僵尸 1588
泰 1588
猎人 1588
怀@@ 1587
格林 1587
迷 1587
不要紧 1586
今 1586
按摩 1586
晚点 1586
杂@@ 1586
滴 1586
莫妮卡 1586
＃ 1586
ia 1585
乘客 1585
牛仔 1585
狂@@ 1585
學 1584
犹太 1584
季 1583
28 1582
仓库 1582
被困 1582
佐@@ 1581
宫 1581
艾迪 1581
; 1580
whole 1580
探长 1580
警卫 1580
送来 1580
这一 1579
摩根 1578
成绩 1576
不对劲 1575
举@@ 1575
博物馆 1575
天生 1575
太快 1575
阿门 1575
抗@@ 1574
面试 1574
嫁 1572
ger 1571
打仗 1571
休@@ 1570
入侵 1570
宰 1570
绿@@ 1570
ner 1569
伯特 1569
嘴里 1569
旁 1569
口气 1568
境 1568
师傅 1568
糖果 1568
亚瑟 1567
飞行员 1567
bri@@ 1566
敢肯定 1566
租@@ 1566
奶酪 1565
她们的 1565
use 1564
dy 1563
依 1563
治愈 1563
苏 1563
莫斯科 1563
限制 1563
together 1562
今日 1562
坑 1562
情況 1562
蔚 1562
两分钟 1561
hi@@ 1560
准确 1560
换个 1560
液 1560
军人 1559
史密斯 1559
温柔 1559
透露 1559
mother 1558
汗 1558
绅士 1558
胡子 1558
遭到 1558
ﺴ 1558
任@@ 1557
巧合 1557
春@@ 1557
出席 1556
放进 1556
live 1555
伊恩 1555
斯基 1555
明确 1555
钩 1554
别无选择 1553
喉咙 1553
经营 1553
il 1552
会面 1552
公民 1552
水平 1552
裡@@ 1552
无线电 1551
期@@ 1551
码头 1551
com@@ 1550
went 1549
ya 1548
冷静下来 1548
談 1548
used 1547
澡 1547
鲨鱼 1547
默 1547
伊莱 1546
理智 1546
基因 1545
基金 1545
隊 1545
mb@@ 1544
声明 1544
作出 1543
孔 1543
學@@ 1543
布鲁斯 1543
模特 1543
迅速 1543
amy 1542
ty 1542
文明 1542
桌上 1542
聽著 1542
诉讼 1542
進來 1542
志@@ 1541
萨拉 1541
餐 1541
mom 1540
娃娃 1540
现@@ 1540
表面 1540
family 1539
listen 1539
yourself 1539
专门 1539
机密 1539
默@@ 1539
补@@ 1538
超人 1538
逃脱 1538
凌晨 1537
印@@ 1537
工资 1537
甜 1537
ity 1536
女兒 1536
导弹 1536
银@@ 1536
我查 1535
贝丝 1535
坦 1534
復 1534
没来 1534
秨 1534
赶到 1534
逗 1534
价格 1533
展@@ 1533
披萨 1533
沉@@ 1533
约@@ 1533
ぱ 1532
注定 1532
迹象 1532
八卦 1531
再見 1531
南方 1531
唐娜 1531
地位 1531
face 1530
mer@@ 1530
一阵子 1530
人才 1530
击 1530
大叔 1530
 1530
亞@@ 1529
晚@@ 1529
错@@ 1529
居@@ 1528
gra@@ 1527
job 1527
豪@@ 1527
降@@ 1527
高度 1527
pretty 1525
周六 1525
建造 1525
强壮 1525
来过 1525
胸 1525
野兽 1525
杯子 1524
約 1524
双 1523
ta 1522
一晚 1522
仅 1522
会儿 1522
标@@ 1521
精 1520
检测 1519
瞷 1519
翴 1519
坏消息 1518
我現 1518
晕 1518
灾难 1518
藏@@ 1518
ff@@ 1517
friend 1517
全新 1517
心灵 1517
所在 1517
要不然 1517
收回 1516
这笔 1516
装备 1515
桌 1514
解除 1514
主题 1513
偷偷 1513
決定 1513
總 1513
肌肉 1513
飯 1513
爷 1512
idea 1511
困扰 1511
师@@ 1511
惊@@ 1511
项 1511
ke@@ 1510
吸毒 1510
图书馆 1510
把门 1510
烦恼 1510
用不着 1510
肩膀 1510
be1 1509
却是 1509
奶 1509
26 1508
gotta 1508
mc@@ 1508
the@@ 1508
以上 1508
我会@@ 1508
already 1507
中午 1507
剧本 1507
形象 1507
无意 1507
甜蜜 1507
離 1507
兹@@ 1506
卢克 1506
吃晚饭 1506
极 1506
祖母 1506
西装 1506
傻子 1505
法语 1505
牙@@ 1505
跟上 1505
琪 1504
弥补 1503
米勒 1503
苏联 1503
按@@ 1502
照看 1502
塔克 1501
联@@ 1501
冲动 1500
源 1500
转身 1500
鼠 1500
摄像机 1499
这样的话 1499
夫妻 1498
不论 1497
废物 1497
职位 1497
我來 1496
seen 1495
席 1495
存@@ 1494
讽刺 1494
异常 1493
读@@ 1493
难以 1493
领袖 1493
knew 1492
参观 1492
搞清楚 1492
凯尔 1491
脾气 1491
吊@@ 1490
金钱 1490
mor@@ 1489
…… 1489
产@@ 1489
以外 1489
沃尔特 1489
tri@@ 1488
內 1488
后退 1488
吓人 1487
孤@@ 1487
感动 1487
扔掉 1487
舒@@ 1487
如同 1486
实际 1486
相机 1486
编 1486
闭上 1486
凯西 1485
吃惊 1485
报仇 1485
停车场 1482
凯 1482
快到 1482
wanna 1481
直觉 1481
确@@ 1481
等不及 1481
actually 1480
case 1480
run 1480
捉 1480
瞄准 1479
大道 1478
总有一天 1478
公众 1476
忘掉 1476
打扫 1476
政@@ 1476
汤@@ 1476
～ 1475
lin@@ 1474
while 1474
加拿大 1474
收入 1474
死刑 1474
球员 1474
羊@@ 1474
『 1473
丹尼斯 1473
宝贝儿 1473
纳粹 1473
mat@@ 1472
上司 1472
发动 1472
欺负 1472
瘦 1472
路线 1472
亲密 1471
薪水 1471
闭@@ 1471
骗人 1471
不爽 1470
劝 1470
标志 1470
等一等 1470
人群 1469
友谊 1469
湿 1469
自行车 1469
em 1468
happy 1468
性交 1468
抢@@ 1468
洋@@ 1468
一团糟 1467
尾@@ 1467
没能 1467
morning 1466
半小时 1466
大厅 1466
统治 1466
可靠 1465
得知 1465
支@@ 1465
高興 1465
订婚 1464
这项 1464
phone 1463
包裹 1463
尽可能 1463
生产 1463
展 1462
幸好 1462
days 1461
击中 1461
说起 1461
間 1460
东京 1459
heard 1458
確定 1458
線 1458
临@@ 1457
形@@ 1457
才刚 1457
上帝保佑 1456
托比 1456
泽 1456
车站 1456
封锁 1455
電@@ 1455
赶上 1454
隐@@ 1454
软@@ 1453
一副 1452
助@@ 1452
角落 1452
订@@ 1452
平时 1451
怪@@ 1451
時@@ 1451
』 1450
娃 1450
字@@ 1450
結束 1450
維@@ 1450
爆发 1449
碎片 1449
joe 1448
修理 1447
說過 1447
当事人 1446
模式 1446
看出 1446
everyone 1445
夏洛特 1444
祖@@ 1444
祖父 1444
罗伊 1444
> 1443
太迟 1443
懦夫 1443
tom 1442
took 1442
圣诞老人 1442
标记 1442
读书 1442
辦法 1442
面临 1442
哈里 1441
己 1441
< 1440
我错 1440
缺 1440
飞船 1440
撞@@ 1439
打过 1438
ence 1437
es@@ 1437
機會 1437
gar@@ 1436
代替 1436
裤 1436
便@@ 1435
其實 1435
或@@ 1435
操@@ 1435
顾问 1435
黑鬼 1435
包围 1434
堆 1434
ea@@ 1433
嫌疑人 1433
接手 1433
法兰克 1433
之所以 1432
哪些 1431
过夜 1431
without 1430
推荐 1430
环@@ 1430
進@@ 1430
ready 1429
原则 1429
穆@@ 1429
penny 1428
一首 1428
捡 1428
窝 1428
隧道 1428
食品 1428
不上 1427
身材 1427
非得 1427
fs12 1426
开个 1426
成立 1426
潘@@ 1426
舔 1426
服@@ 1425
真有 1424
可疑 1423
好几个 1423
形式 1423
赌场 1423
id 1422
ou@@ 1422
乳@@ 1422
漏 1422
還好 1422
再也不会 1421
可不可以 1421
問@@ 1421
干脆 1421
清白 1421
项链 1421
搭@@ 1420
骨@@ 1420
once 1419
千 1419
拿下 1419
操作 1419
書 1419
冰淇淋 1418
户 1418
脆弱 1418
ain 1417
ray 1417
业务 1417
球队 1417
义 1416
沮丧 1416
一个@@ 1415
yet 1414
感@@ 1414
要来 1414
㎝ 1413
劳 1413
心跳 1413
ﾚ 1413
vo@@ 1412
抵达 1412
柏 1412
胡扯 1412
障碍 1412
儿@@ 1411
准@@ 1411
录音 1411
摔 1411
除掉 1411
优@@ 1410
小男孩 1410
流行 1410
深刻 1410
绕 1410
丑 1409
旅程 1409
胖子 1409
荒唐 1409
轻易 1409
war@@ 1408
北 1408
好莱坞 1408
灭 1408
吼 1407
怀念 1407
整整 1407
歌曲 1407
相爱 1407
few 1406
卡罗琳 1406
哪位 1406
承担 1406
瓜 1406
體 1406
之夜 1405
連@@ 1405
called 1404
gone 1404
guess 1404
huh 1404
形容 1404
另一边 1402
做生意 1401
划@@ 1401
友好 1401
播 1401
斕 1401
每周 1401
伯格 1400
切断 1400
奈 1400
今天下午 1399
使命 1399
宾 1399
置 1399
open 1398
ph@@ 1398
saying 1398
嘴巴 1398
方案 1397
一夜 1396
人性 1396
保守 1395
性爱 1395
技巧 1395
谢谢你们 1395
这块 1395
48 1394
燃烧 1394
谋 1394
金发 1394
小鬼 1393
据说 1393
杀人犯 1393
然@@ 1393
费用 1393
克劳斯 1392
both 1391
受欢迎 1391
坟墓 1391
泥@@ 1391
登记 1391
考虑一下 1391
ﻬ 1391
打中 1390
科技 1390
ic@@ 1389
备@@ 1389
湾 1389
玩玩 1389
再有 1388
卑鄙 1388
喽 1388
20@@ 1387
؟ 1387
多人 1386
婚 1386
斗@@ 1386
磨@@ 1386
竞争 1386
西亚 1386
设 1386
转过 1386
选举 1386
凯丽 1385
死人 1385
辛 1385
占@@ 1384
軍@@ 1384
@ 1383
我花 1383
跟我走 1383
附@@ 1383
嗑 1382
有意 1382
小姑娘 1381
居民 1381
ﾈ 1381
剪 1380
品@@ 1380
里克 1380
判 1379
坦克 1379
戴维 1379
迈@@ 1379
ps 1378
厚 1378
主动 1377
翅膀 1377
赶@@ 1377
巧 1376
组@@ 1376
hard 1375
上升 1375
不妙 1375
不说 1375
给予 1375
膝盖 1375
访问 1375
息 1374
許@@ 1374
孙子 1373
爱德华 1373
物质 1373
癬 1373
致 1373
亲吻 1372
加西亚 1372
平衡 1372
ago 1371
anyone 1371
start 1371
严肃 1371
新人 1371
睡不着 1371
稍后 1371
街道 1371
除@@ 1371
寻常 1370
握 1370
桶 1370
网@@ 1370
追查 1370
假期 1369
家长 1369
席@@ 1369
皇帝 1369
待会儿 1368
点子 1367
蟿 1367
轻 1367
killed 1366
р 1366
小队 1366
ey 1365
呐 1365
夏威夷 1365
鹰 1364
伯爵 1363
ko@@ 1362
共 1362
害羞 1362
模仿 1362
军官 1361
凉 1361
哈罗 1361
小屋 1361
隻 1361
寄@@ 1360
强尼 1360
牢 1360
ct 1358
巫师 1358
帐 1358
点钟 1358
纪念 1358
保险箱 1357
增@@ 1357
珠宝 1357
蜘蛛 1357
起码 1357
 1357
告知 1356
足球 1356
1ch00ff00 1355
前来 1355
卫@@ 1355
联合 1355
人去 1354
他媽 1354
夸张 1354
她自己 1354
崇拜 1354
足以 1354
那就好 1354
欲望 1353
海岸 1353
芙 1353
 1353
挤 1352
田@@ 1352
线@@ 1352
聲 1352
lt 1351
woman 1351
一共 1351
两名 1351
贵@@ 1351
人士 1350
身后 1350
charlie 1349
德斯 1349
把@@ 1349
营地 1349
呼@@ 1348
固定 1348
币 1348
本地 1348
杰茜 1348
產 1348
剪@@ 1347
功能 1347
精灵 1347
供@@ 1346
双胞胎 1346
henry 1345
偏@@ 1345
营 1345
街区 1345
伴 1344
位子 1344
宾@@ 1344
抵抗 1344
政策 1344
痕 1344
质疑 1344
预约 1344
ﾟ 1344
令人@@ 1343
它們 1343
猛@@ 1343
fe@@ 1342
op@@ 1342
出手 1342
头儿 1342
贷款 1342
赌@@ 1342
进步 1342
sarah 1341
患者 1341
挖@@ 1341
气味 1341
菲比 1341
震惊 1341
字母 1340
不可@@ 1339
号@@ 1339
嘴@@ 1339
富有 1339
少女 1339
捅 1339
沒什麼 1339
清除 1338
症状 1338
ki@@ 1337
物品 1337
破产 1337
农@@ 1336
策略 1336
莫拉 1336
债 1335
宽恕 1335
开着 1335
这来 1335
side 1334
接吻 1334
望@@ 1334
获取 1334
认 1334
过度 1334
弟 1333
猪@@ 1333
羅@@ 1333
闲@@ 1333
sing 1332
巴士 1332
肥 1332
妮@@ 1331
灰 1331
下场 1330
什@@ 1330
套@@ 1330
通讯 1330
体验 1329
扶 1329
狼@@ 1329
花钱 1329
善 1328
過去 1328
价钱 1327
厅 1327
外婆 1327
开放 1326
無法 1326
秀@@ 1326
试验 1326
货车 1326
飘@@ 1326
付出代价 1325
及时 1325
鬼魂 1325
ck@@ 1324
回复 1324
惠 1324
昏迷 1324
次@@ 1324
弄清楚 1323
总算 1323
美國 1323
bring 1322
你老 1322
我求 1322
更大 1322
粉丝 1322
街头 1322
避@@ 1322
编@@ 1321
ard 1320
一小 1320
好听 1320
犯罪现场 1320
呗 1319
虚@@ 1319
钓鱼 1319
青 1319
上午 1318
哈特 1318
奶油 1318
气氛 1317
留着 1317
赶走 1317
闹@@ 1317
摇@@ 1316
英国人 1316
幕 1315
扎克 1315
易@@ 1315
雷蒙德 1315
上楼 1314
同伴 1314
周一 1314
器官 1314
我点 1314
终@@ 1314
跑@@ 1314
风暴 1314
很糟 1313
箭 1313
涉及 1312
賣 1312
闪@@ 1312
即便 1311
发型 1311
神经病 1311
签字 1311
功 1310
抓紧 1310
棍 1310
调整 1310
mary 1309
凡 1309
哭泣 1309
蘭@@ 1309
ﻢ 1309
ina 1308
买卖 1308
播放 1308
穿越 1308
逃离 1308
韩@@ 1308
吉尔 1307
喝咖啡 1307
棺材 1307
般的 1307
块钱 1306
欧文 1306
港 1306
美国@@ 1306
san@@ 1305
搜 1305
被迫 1305
作业 1304
小朋友 1304
巨人 1304
卧底 1303
大小 1303
杰里米 1303
葛 1303
承@@ 1302
毛巾 1302
聚@@ 1302
致@@ 1302
临时 1301
摇滚 1301
機@@ 1301
皇上 1301
萬 1301
企图 1300
内衣 1300
德里克 1300
欲 1300
爆@@ 1300
阴谋 1300
ance 1299
丛林 1299
例 1299
窗 1299
经纪人 1299
手表 1298
指甲 1298
最初 1298
ber@@ 1297
平安 1297
杯酒 1297
haven 1296
买下 1296
永不 1296
能行 1296
金属 1296
hand 1295
委托人 1295
显得 1295
继承 1295
股票 1295
诡异 1295
ating 1294
每個 1294
自愿 1294
入口 1293
减@@ 1293
好久 1293
碎@@ 1293
隔 1293
收养 1292
氣@@ 1292
维斯 1292
这帮 1292
until 1291
从小 1291
做饭 1291
总有 1290
资源 1290
sta@@ 1289
tr@@ 1289
检查一下 1289
欲@@ 1289
米尔 1289
羞辱 1289
询问 1289
听过 1288
高手 1288
cha@@ 1287
傷 1287
官员 1287
影片 1287
茶@@ 1287
 1287
ﺟ 1287
帮个 1286
总得 1286
挂@@ 1286
方正 1286
fu@@ 1285
lost 1285
寻@@ 1285
小時 1285
来得 1285
熊@@ 1285
老爷 1285
邊 1285
黛 1285
听懂 1284
sen@@ 1283
琵 1283
八个 1282
村子 1282
親@@ 1282
解释一下 1282
输@@ 1282
频道 1282
ser@@ 1281
参@@ 1281
检@@ 1281
隆@@ 1281
群@@ 1280
迷失 1280
遭受 1280
难怪 1280
黄色 1280
ali@@ 1279
景 1279
荷@@ 1279
– 1278
尔德 1278
仗 1277
把戏 1277
立场 1277
danny 1276
meet 1276
找回 1276
观@@ 1276
遭 1276
基督 1275
施密特 1275
那兒 1275
碗 1274
鼓励 1274
姓名 1273
下令 1272
快来 1272
查克 1272
舞@@ 1272
一番 1271
专心 1271
哩 1271
心脏病 1271
王国 1271
ven@@ 1270
叶@@ 1270
na 1269
做法 1269
搬走 1269
糟透了 1269
裝 1269
turn 1268
明年 1268
判决 1267
发挥 1267
奇妙 1267
夹 1266
市民 1266
盐 1266
良@@ 1266
割 1265
抹 1265
电池 1265
纪录 1265
pp@@ 1264
军事 1264
那邊 1264
bit 1263
昨天晚上 1263
集合 1263
例如 1262
汁 1262
法案 1262
瘋 1262
石油 1262
ster 1261
丢脸 1261
北方 1261
差劲 1261
老虎 1261
修复 1260
克拉 1260
始终 1260
工程 1260
采@@ 1260
萬@@ 1259
 1259
10@@ 1258
不动 1258
大伙 1258
忍 1258
怀 1258
扁 1258
走向 1258
速@@ 1258
集@@ 1258
matter 1257
一百 1257
发作 1257
炸@@ 1257
设置 1257
less 1256
sk@@ 1256
出名 1256
反而 1256
吃点 1256
英寸 1256
鸟@@ 1256
ans 1255
泽@@ 1255
认罪 1255
那辆 1255
伪造 1254
感谢上帝 1254
论文 1254
幼@@ 1253
1000 1252
911 1252
小事 1252
康 1252
骚扰 1252
魂 1252
等于 1251
輕 1251
dra@@ 1250
情形 1250
协会 1249
總@@ 1249
营@@ 1249
伴侣 1248
光明 1248
感恩节 1248
罐 1248
酸@@ 1247
代理 1246
鲍比 1246
基恩 1245
宠物 1245
珊 1245
祷告 1245
代码 1244
电台 1244
补偿 1244
ses 1243
宽@@ 1243
弃 1243
押 1243
服装 1243
沙滩 1243
蜡烛 1243
部落 1243
﻿ 1243
couldn 1242
别跟我 1242
坏蛋 1242
林肯 1242
 1242
倆 1241
大夫 1241
桑 1241
耳 1241
苏菲 1241
详细 1241
一道 1240
以下 1240
六年 1240
幻觉 1240
目前为止 1240
闯入 1240
场景 1239
灯@@ 1239
舍 1239
遵命 1239
還在 1239
land 1238
处@@ 1238
沿着 1238
亞 1236
多亏 1236
布兰登 1236
条子 1236
樣 1236
蜜@@ 1236
國@@ 1235
潮 1235
眼里 1235
血迹 1235
不通 1234
奧@@ 1234
拼 1234
来不及 1234
狠 1234
疼痛 1234
艾比 1234
追捕 1234
bra@@ 1233
周日 1233
奶@@ 1233
宴会 1233
拆 1233
水果 1233
狗娘养 1233
随意 1233
塊 1232
感冒 1232
虐待 1232
评论 1232
声称 1231
天下 1231
應 1231
行星 1231
两种 1230
慢慢来 1230
珠 1230
院长 1230
吉他 1229
残@@ 1229
这套 1229
公正 1228
典型 1228
别提 1228
地说 1228
探 1228
毕@@ 1228
沉默 1228
违法 1228
园 1227
处女 1227
狗狗 1227
荣耀 1227
ﻗ 1227
业@@ 1226
展开 1226
舰长 1226
评估 1226
手法 1225
牛肉 1225
真不知道 1225
雷丁顿 1225
吵醒 1224
床单 1224
每晚 1224
过世 1224
针@@ 1224
ﺤ 1224
32 1223
alex 1223
door 1223
lan@@ 1223
一无所知 1223
之地 1223
伍 1223
所作所为 1223
超越 1223
paul 1222
几句 1222
報 1222
妨碍 1222
容@@ 1222
心理医生 1222
敲@@ 1222
赞成 1222
钻@@ 1222
争@@ 1221
伊拉克 1221
black 1220
pri@@ 1220
百万 1220
亲人 1219
希尔 1219
幫助 1219
個@@ 1218
臭小子 1218
见识 1218
身为 1218
鲍@@ 1218
发布 1217
困 1217
带回 1217
玉@@ 1217
老二 1217
老天爷 1217
遇上 1217
上场 1216
凯莉 1216
 1216
says 1215
给@@ 1215
通道 1215
首相 1215
从此 1214
怪兽 1214
沙拉 1214
hmm 1213
刻@@ 1213
對@@ 1213
意志 1213
湖@@ 1213
经典 1213
课程 1213
谎 1213
赞 1213
取出 1212
國 1212
我们自己 1212
炸药 1212
笑@@ 1212
結婚 1212
多长时间 1211
干扰 1211
数学 1211
无人 1211
甚么 1211
美人 1211
触@@ 1211
那场 1211
亲戚 1210
亲手 1210
壳 1210
狮子 1210
麻煩 1210
howard 1209
tion 1209
烫 1209
瓶子 1209
等候 1209
那一刻 1209
那人 1209
应得 1208
得不到 1208
钢琴 1208
alone 1207
休 1207
顺 1207
mark 1206
亨特 1206
佳@@ 1206
摆@@ 1206
芬 1206
ins 1205
working 1205
久@@ 1204
仪 1204
写信 1204
好样 1204
牛排 1204
hope 1203
作者 1203
头部 1203
行不行 1203
11@@ 1202
ed@@ 1202
fntahoma 1202
吐@@ 1202
当做 1202
插手 1202
母親 1202
玛利亚 1202
突破 1202
five 1201
动力 1201
枪击 1201
ally 1200
tony 1200
一模一样 1200
瀑布 1200
火星 1200
免@@ 1199
女神 1199
烂@@ 1199
突@@ 1199
韩国 1199
预备 1199
全体 1198
厨师 1198
春天 1198
無 1198
friends 1197
上路 1197
住在一起 1197
圣诞快乐 1197
奥斯卡 1197
氏 1197
深呼吸 1197
燃料 1197
吓死 1196
山上 1196
慢着 1196
软 1196
high 1195
人們 1195
并@@ 1195
扫描 1195
搬家 1195
智@@ 1195
范 1195
逮到 1195
提过 1194
甜@@ 1194
wants 1193
严格 1193
尚@@ 1193
永遠 1193
爬@@ 1193
论@@ 1193
广播 1192
有名 1192
相互 1192
隐私 1192
不足 1191
现象 1191
脑子里 1191
隔@@ 1191
底@@ 1190
梦@@ 1190
欢乐 1190
没收 1190
凡@@ 1189
動@@ 1189
国会 1189
彩 1189
怎能 1189
矛盾 1189
认@@ 1189
举办 1188
哈啰 1188
坚@@ 1188
媽 1188
得来 1188
街@@ 1188
许可 1188
沉 1187
过分 1187
ic 1186
乘 1186
指令 1186
泄露 1186
胃 1186
谨慎 1186
 1186
ka 1185
ver 1185
wh@@ 1185
幽默 1185
抛 1185
样本 1185
金子 1185
困惑 1184
题 1184
內@@ 1183
惨@@ 1183
戴上 1183
爱尔兰 1183
缺乏 1183
酱 1183
point 1182
since 1182
win@@ 1182
不多 1182
度@@ 1182
策划 1182
舒适 1182
首席 1182
wife 1181
不太@@ 1181
家乡 1181
排除 1181
火箭 1181
烈 1181
部@@ 1181
黑帮 1181
mm 1180
ul@@ 1180
尽头 1180
白宫 1180
成交 1179
戒 1179
房間 1179
数量 1179
月球 1179
残酷 1179
一大堆 1178
刑 1178
刘@@ 1178
寒@@ 1178
砰 1178
计算 1178
顶@@ 1178
香烟 1178
暂停 1177
老爹 1177
设法 1177
looks 1176
咦 1176
毫无疑问 1176
覺 1176
较 1176
der@@ 1175
一千@@ 1175
保释 1175
内疚 1175
明智 1175
确切 1175
美金 1175
英文 1175
problem 1174
保住 1174
试过 1174
了结 1173
像@@ 1173
念@@ 1173
我先 1173
淹死 1173
运作 1173
im@@ 1172
差@@ 1172
1chff8080 1171
42 1171
一艘 1171
七个 1171
怪胎 1171
武士 1171
精神病 1171
罪恶 1171
myself 1170
信念 1170
嘴唇 1170
沟通 1170
碧@@ 1170
英俊 1170
进一步 1170
图片 1169
堂@@ 1169
答 1169
一命 1168
初 1168
怪异 1168
骑@@ 1168
ol@@ 1167
ur@@ 1167
亚历克斯 1167
会想 1167
卫 1167
运动员 1167
tonight 1166
仁慈 1166
尔顿 1166
星期五 1166
枪杀 1166
粗@@ 1166
需求 1166
地毯 1165
盛@@ 1165
警员 1165
那才 1165
领带 1165
 1165
佩妮 1164
玉米 1164
е 1163
埃及 1163
埃里克 1163
处境 1163
守卫 1163
平民 1163
挣扎 1163
优势 1162
创@@ 1162
犬 1162
移民 1162
肿瘤 1162
董事会 1162
普通人 1161
蘭 1161
证件 1161
诊所 1161
赶来 1161
ﺖ 1161
set 1160
傻@@ 1160
斯汀 1160
来电 1160
领先 1160
true 1159
人手 1159
夺@@ 1159
作案 1158
公 1158
就够 1158
手术室 1158
拔@@ 1158
趟 1158
局@@ 1157
曼尼 1157
柯 1157
皇家 1157
艾瑞亚 1157
400 1156
一大 1156
定位 1156
我操 1156
摩托车 1156
无论是 1156
饶 1156
饿死 1156
佐 1155
做得好 1155
割@@ 1155
坏@@ 1155
浪 1155
res 1154
watch 1154
冲突 1154
凯里 1154
刻 1154
語 1154
卡住 1152
卡洛斯 1152
戴尔 1152
筒 1152
阿里 1152
争 1151
医@@ 1151
发给 1151
按钮 1151
朱 1151
模@@ 1151
闪 1151
面子 1151
ben 1150
ves 1150
傳@@ 1150
围@@ 1150
帮不了 1150
幸会 1150
影子 1150
组成 1150
den@@ 1149
井@@ 1149
出售 1149
竟 1149
臣 1149
领域 1149
五十 1148
准时 1148
移 1148
袜子 1148
盘子 1147
多大 1146
省@@ 1146
ﾓ 1146
year 1145
减少 1145
天上 1145
打包 1145
敲门 1145
杠 1145
梦娜 1145
结论 1145
这么晚 1145
75 1144
丢掉 1144
听不懂 1144
服用 1144
play 1143
主教 1143
俄@@ 1143
犯下 1143
谈到 1143
这方面 1143
卢卡斯 1142
皆 1142
贱 1142
als 1141
二十 1141
仆人 1141
介 1141
可卡因 1141
布莱克 1141
得出 1141
永恒 1141
看电视 1141
啊哈 1140
宁 1140
甲@@ 1140
相似 1140
元@@ 1139
抬起 1139
很多年 1138
指责 1137
men@@ 1136
创伤 1136
友@@ 1136
审讯 1136
导@@ 1136
灯光 1136
老師 1136
dar@@ 1135
交通 1135
会长 1135
前妻 1135
少来 1135
屋子里 1135
板@@ 1135
着想 1135
繫 1135
還要 1135
brother 1134
少年 1134
尖@@ 1134
性格 1134
有什麼 1134
没说 1134
谢谢您 1134
part 1133
ا 1133
小妞 1133
欢@@ 1133
肥@@ 1133
躲起来 1133
限 1133
ian 1132
搬@@ 1132
星期六 1132
王后 1132
核 1131
述 1131
在我看来 1130
大使 1130
帐篷 1130
缝@@ 1130
美的 1130
貌似 1130
全面 1129
出路 1129
医学 1129
用于 1129
說@@ 1129
15@@ 1128
ded 1128
ked 1128
发送 1128
很久没 1128
que 1127
sal@@ 1127
thinking 1127
under 1127
划 1127
办事 1127
官方 1127
来源 1127
种族 1127
身份证 1127
销售 1127
heart 1126
口音 1126
幾個 1126
朵 1126
那種 1126
锁定 1126
医师 1125
猜测 1125
老弟 1125
 1125
安全带 1124
帕特里克 1124
康拉德 1124
毙 1124
牢房 1124
亂 1123
好友 1123
着火 1123
老子 1123
见证 1123
遠 1123
鼓@@ 1123
minister 1122
布雷 1122
童年 1122
端@@ 1122
魔术 1122
有個 1121
约定 1121
2000 1120
deal 1120
gs 1120
救援 1120
考验 1120
臉 1120
误@@ 1120
伍德 1119
备 1119
安保 1119
岩石 1119
遗嘱 1119
助 1118
擦@@ 1118
杜 1118
称之为 1118
膜 1118
软件 1118
以色列 1117
合约 1117
我读 1117
礼服 1117
聚 1117
藥 1117
elena 1116
nick 1116
做不了 1116
強@@ 1116
皮尔斯 1116
目击 1116
lie 1115
剧院 1115
吞@@ 1115
樓 1115
财富 1115
跪下 1115
好些 1114
效劳 1114
历@@ 1113
大陆 1113
折@@ 1113
此刻 1113
边缘 1113
吃药 1112
弄错 1112
嘉 1111
奔 1111
现代 1111
瞭解 1111
连续 1111
成為 1110
攻@@ 1110
江@@ 1110
轨道 1110
酒精 1110
au@@ 1109
kid 1109
使得 1109
36 1108
双方 1108
pen@@ 1107
不利 1107
丰富 1107
义务 1107
學校 1107
聚集 1107
ﻪ 1107
不远 1106
库珀 1106
请别 1106
负@@ 1106
29 1105
后门 1105
奎@@ 1105
幽灵 1105
获 1105
不赖 1104
和解 1104
好象 1104
尿@@ 1104
牵@@ 1104
裸体 1104
康复 1103
简体 1103
高潮 1103
┮ 1102
全家 1102
复活 1102
征服 1102
ㄇ 1101
伸@@ 1101
剧@@ 1101
奈特 1101
标 1101
留意 1101
硬币 1101
祥 1101
防止 1101
word 1100
兴@@ 1100
嘿嘿 1100
居 1100
怎么着 1100
恐慌 1100
抗议 1100
芬@@ 1100
仇 1099
夹@@ 1099
惠@@ 1099
斗争 1099
无能为力 1099
比起 1099
至今 1099
要命 1099
剛@@ 1098
力气 1098
圆 1098
尸@@ 1098
带领 1098
敬@@ 1098
航 1098
蚊子 1098
mine 1097
名义 1097
海边 1097
pe 1096
ǐ 1096
不许动 1096
事先 1096
何 1096
區 1096
取决于 1096
史蒂芬 1096
大胆 1096
小岛 1096
布拉德 1096
改變 1096
清单 1096
苏格兰 1096
關@@ 1096
阵@@ 1096
难看 1096
怪人 1095
漫长 1095
裝@@ 1095
ﾃ 1095
仅@@ 1094
我想@@ 1094
洁@@ 1094
浪@@ 1094
温度 1094
量@@ 1094
铃 1094
寶貝 1093
积@@ 1093
鹿 1093
亦 1092
告别 1092
招待 1092
掩盖 1092
秋@@ 1092
移@@ 1092
说来 1092
香肠 1092
ry 1091
tomorrow 1091
珍@@ 1091
alicia 1090
jimmy 1090
tt@@ 1090
漫@@ 1090
院子 1090
exactly 1089
ny 1089
夢 1089
得分 1089
猜@@ 1089
素@@ 1089
dan 1088
sts 1088
仇恨 1088
垫 1088
姿势 1088
依靠 1087
几 1087
大会 1087
德州 1087
成年人 1087
措施 1087
沃特 1087
痒 1087
目击者 1087
can@@ 1086
太小 1086
温斯顿 1086
gre@@ 1085
仙@@ 1085
巴特 1085
患 1085
捕@@ 1085
遗@@ 1085
ce@@ 1084
宣传 1084
恐龙 1084
执@@ 1084
缠 1084
这能 1084
那小子 1084
stu@@ 1083
人要 1083
位于 1083
妻 1083
碰@@ 1083
等会儿 1083
维亚 1083
车辆 1083
那段 1083
ﻻ 1083
候选人 1082
华文 1082
恶 1082
杨 1082
轉@@ 1082
開心 1082
刑@@ 1081
勒索 1081
商业 1081
败@@ 1081
都@@ 1081
ger@@ 1080
ws 1080
咬@@ 1080
带子 1080
戴安 1080
理查 1080
系@@ 1080
計劃 1080
豹 1080
驾 1080
far@@ 1079
ling 1079
此外 1079
真理 1079
眼泪 1079
蹲 1079
chi@@ 1078
七年 1078
万圣节 1078
机票 1078
進去 1078
鼓 1078
her@@ 1077
她家 1077
征@@ 1077
过敏 1077
change 1076
james 1076
未婚妻 1076
私下 1076
血管 1076
许@@ 1076
话@@ 1076
负担 1076
问好 1076
付@@ 1075
现 1075
胡说八道 1075
至@@ 1075
评价 1075
远远 1075
郎 1075
勒斯 1074
胜@@ 1074
腳 1074
艇 1074
蒂娜 1074
诱惑 1074
说错 1074
轮胎 1074
迈阿密 1074
马修 1074
公爵 1073
别哭 1073
前途 1073
治@@ 1073
炮@@ 1073
猎@@ 1073
降临 1073
cre@@ 1072
何必 1072
倒下 1072
出局 1072
匹配 1072
取代 1072
天后 1072
清洁 1072
称@@ 1072
門@@ 1072
sho@@ 1071
乘@@ 1071
岸 1071
德里 1071
房里 1071
拿给 1071
故障 1071
星期天 1071
良心 1071
亲近 1070
侠 1070
布鲁克林 1070
扮 1070
无比 1070
礼@@ 1070
纹 1070
候@@ 1069
皇@@ 1069
粉@@ 1069
罚款 1069
购买 1069
體@@ 1069
一时 1068
一身 1068
做手术 1068
分离 1068
劳拉 1068
卓@@ 1068
未婚夫 1068
激烈 1068
确 1068
课@@ 1068
走过 1068
選擇 1068
check 1067
we@@ 1067
並 1067
停留 1067
大型 1067
小小 1067
府 1067
故@@ 1067
瞎@@ 1067
祖先 1067
静 1067
jake 1066
加速 1066
叫醒 1066
心意 1066
氧气 1066
浴缸 1066
电子 1066
轮@@ 1066
冒@@ 1065
慢@@ 1065
里德 1065
全力 1064
出血 1064
多钱 1064
巴克 1064
指着 1064
混球 1064
签署 1064
角@@ 1064
仿佛 1063
南部 1063
召唤 1063
韦恩 1063
马车 1063
佳 1062
半夜 1062
基于 1062
授权 1062
晚会 1062
换衣服 1061
猎物 1061
everybody 1060
ten@@ 1060
事實 1060
其余 1060
地铁 1060
昆@@ 1060
灵感 1060
签@@ 1060
没事儿 1059
结合 1059
赤@@ 1059
车库 1059
bel@@ 1058
到此为止 1058
基础 1058
富 1058
扇 1058
曼哈顿 1058
有点像 1058
桃@@ 1058
练@@ 1058
風@@ 1058
別人 1057
钟@@ 1057
four 1056
忽略 1056
这算 1056
阅读 1056
靴子 1056
means 1055
人选 1055
四十@@ 1055
地震 1055
娱乐 1055
指出 1055
橄榄球 1055
潜艇 1055
胆 1055
隔离 1055
中有 1054
外公 1054
怒 1054
明晚 1054
穷@@ 1054
鸽子 1054
close 1053
line 1053
司 1053
弱点 1053
房租 1053
汇报 1053
罩 1053
船员 1053
侄子 1052
呦 1052
烤@@ 1052
笔@@ 1052
上天 1051
可乐 1051
47 1050
also 1050
梅森 1050
英格兰 1050
这时候 1050
预测 1050
sa 1049
一辆车 1049
严@@ 1049
以防 1049
凱@@ 1049
势 1049
工程师 1049
攻 1049
服务员 1049
荒@@ 1049
购物 1049
打倒 1048
數@@ 1048
晚宴 1048
补 1048
幫忙 1047
睡眠 1047
蛋@@ 1047
變 1047
赌博 1047
二十年 1046
杨@@ 1046
说了算 1046
ies 1045
倾向 1045
刮 1045
西部 1045
那事 1045
野蛮 1045
额外 1045
and@@ 1044
eyes 1044
两点 1044
巴西 1044
过于 1044
brian 1043
each 1043
局里 1043
招呼 1043
ren@@ 1042
second 1042
抽屉 1042
账 1042
b1 1041
一阵 1041
俄国人 1041
埋@@ 1041
引爆 1041
忏悔 1041
果汁 1041
民主 1041
略 1041
边境 1041
bobby 1040
excuse 1040
友善 1040
受过 1040
女郎 1040
篇 1040
糊涂 1040
ﾏ 1040
sit 1039
young 1039
仁 1039
當時 1039
着急 1039
荣@@ 1039
喝茶 1038
尾巴 1038
每当 1038
菲尔德 1038
far 1037
knows 1037
尖 1037
钻 1037
ﾝ 1037
wor@@ 1036
休假 1036
探索 1036
每人 1036
甜点 1036
酒鬼 1036
person 1035
乐观 1035
小人 1035
池 1035
38 1034
late 1034
之上 1034
咱@@ 1034
四周 1034
遮@@ 1034
陶@@ 1034
gb2312 1033
伸出 1033
慷慨 1033
矿@@ 1033
组合 1033
人口 1032
弗兰基 1032
汽油 1032
看來 1032
答@@ 1032
鉴于 1032
fnfangsong 1031
雷斯 1031
such 1030
出院 1030
刷 1030
撤 1030
某@@ 1030
档 1030
诞生 1030
whatever 1029
先进 1029
大多 1029
恶梦 1029
或許 1029
找点 1029
指导 1029
火焰 1029
阳 1029
3ch800000 1028
fnvrinda 1028
别看 1028
快死了 1028
操纵 1028
放屁 1028
片@@ 1028
肠 1028
芭芭拉 1028
蛤 1028
business 1027
他俩 1027
糖@@ 1027
解放 1027
鬆 1027
del@@ 1026
fri@@ 1026
inter@@ 1026
一種 1026
再谈 1026
学家 1026
尽情 1026
西方 1026
醉@@ 1026
钢@@ 1026
吓唬 1025
电报 1025
變成 1025
长期 1025
忍不住 1024
忠@@ 1024
戰@@ 1024
搞不懂 1024
％ 1024
分别 1023
家具 1023
拉斯维加斯 1023
模 1023
脱离 1023
这群 1023
mel@@ 1022
场@@ 1022
希腊 1022
罪@@ 1022
鼻@@ 1022
bur@@ 1021
ful 1021
人渣 1021
壮@@ 1021
巢 1021
德拉 1021
抬@@ 1021
朱利安 1021
清晰 1021
相遇 1021
第五 1021
腰 1021
象征 1021
髮 1021
厚@@ 1020
双眼 1020
口味 1020
客厅 1020
彩@@ 1020
慈善 1020
談談 1020
迎接 1020
阴影 1020
仅此而已 1019
别吵 1019
師 1019
扬 1019
秩序 1019
移植 1019
维克多 1019
缺@@ 1019
署 1019
股 1019
黑体 1019
bill 1018
み 1018
例外 1018
數 1018
热爱 1018
肺 1018
death 1017
两者 1017
卷@@ 1017
旗 1017
无数 1017
旧金山 1017
衫 1017
comes 1016
倾@@ 1016
喘 1016
巡逻 1016
消除 1016
血压 1016
150 1015
water 1015
凯撒 1015
撤离 1015
来临 1015
社交 1015
两只 1014
幕后 1014
感谢您 1014
朝鲜 1014
一具 1013
充@@ 1013
安心 1013
收获 1013
整件事 1013
爸@@ 1013
特洛伊 1013
阵 1013
gave 1012
务 1012
小费 1012
汉克 1012
damn 1011
inside 1011
實@@ 1011
湿@@ 1011
维护 1011
通电话 1011
van 1010
一分 1010
传奇 1010
台词 1010
干过 1010
感謝 1010
服从 1010
终 1010
麻 1010
ﻔ 1010
戳 1009
手術 1009
教师 1009
翼 1009
醫院 1009
不感兴趣 1008
八年 1008
張 1008
戈登 1008
我給 1008
摄影机 1008
模型 1008
結果 1008
缝 1008
吞 1007
星期一 1007
緊 1007
講 1007
防 1007
执照 1006
有点儿 1006
福特 1006
背着 1006
蜂蜜 1006
police 1005
商人 1005
外表 1005
肯尼 1005
逐渐 1005
始@@ 1004
海里 1004
独特 1004
睡衣 1004
米歇尔 1004
light 1003
保镖 1003
吩咐 1003
扭@@ 1003
旋转 1003
腹@@ 1003
里奥 1003
鸭子 1003
 1003
lady 1002
亚洲 1002
听话 1002
奖金 1002
從@@ 1002
操心 1002
珍贵 1002
胆小鬼 1002
赖@@ 1002
一手 1001
花费 1001
probably 1000
ran@@ 1000
一点儿 1000
击败 1000
又@@ 1000
宽 1000
政 1000
谣言 1000
贝拉 1000
这回 1000
连环 999
铺 999
尊严 998
拼命 998
搬进 998
摇 998
礛 998
happen 997
story 997
化学 997
家园 997
绿 997
酗酒 997
fight 996
q 996
ノ 996
几小时 996
办不到 996
十字架 996
接管 996
漫画 996
看待 996
贡献 996
hit 995
不得了 995
两杯 995
争吵 995
做成 995
弗斯 995
玛雅 995
贿赂 995
阳@@ 995
免得 994
寄给 994
掉下来 994
没空 994
病房 994
负 994
minutes 993
交代 993
朱莉 993
犯错 993
直说 993
西班牙语 993
讽 993
读过 993
超市 993
taking 992
创意 992
占领 992
太过分 992
尝 992
康纳 992
抬 992
雇佣 992
一百万 991
别墅 991
咧 991
太过 991
斯拉 991
概念 991
犯@@ 991
谋@@ 991
safe 990
supposed 990
关联 990
写作 990
弗雷迪 990
旅游 990
污染 990
球场 990
ler 989
い 989
争论 989
另@@ 989
听不见 989
计@@ 989
﹚ 989
举起 988
从事 988
填@@ 988
引 988
绝 988
越过 988
保護 987
决@@ 987
好戏 987
曾@@ 987
肿 987
贺 987
這次 987
一篇 986
余@@ 986
克莱 986
控 986
柜 986
滋味 986
稳 986
非要 986
专注 985
主持 985
亮@@ 985
停手 985
同伙 985
墓地 985
奉@@ 985
流氓 985
芙@@ 985
蠢蛋 985
这间 985
哪有 984
影像 984
愿@@ 984
深入 984
莲 984
討厭 984
鲜@@ 984
ations 983
having 983
凶 983
出狱 983
没到 983
画家 983
破解 983
那辆车 983
黛@@ 983
sion 982
帮派 982
店@@ 982
潘 982
祖 982
笑容 982
裂 982
ar 981
sin@@ 981
一封 981
斯特@@ 981
滚@@ 981
sto@@ 980
т 980
克服 980
命名 980
大厦 980
浓@@ 980
被判 980
赖 980
fire 979
别去 979
巴里 979
引发 979
料到 979
模糊 979
滚蛋 979
甲 979
避开 979
雕像 979
chance 978
买点 978
伪装 978
咨询 978
想得到 978
摸@@ 978
陪@@ 978
頓 978
wal@@ 977
例子 977
场面 977
妈@@ 977
弃@@ 977
手腕 977
赞@@ 977
預@@ 977
t恤 976
二号 976
屠杀 976
死神 976
火鸡 976
良 976
贵族 976
那要 976
std 975
枕头 975
bro@@ 974
makes 974
stuff 974
ys 974
在外 974
太远 974
遥远 974
cro@@ 973
fo@@ 973
fs48 973
tal@@ 973
ㄠ 973
分散 973
哈罗德 973
才@@ 973
接收 973
毫米 973
谱 973
阿富汗 973
難道 973
预言 973
厄尔 972
埋葬 972
够@@ 972
无效 972
海莉 972
驾照 972
垂@@ 971
开启 971
挑选 971
稀@@ 971
管用 971
舰队 971
 971
different 970
soon 970
人有 970
歡迎 970
虾 970
语@@ 970
雖然 970
ors 969
别急 969
卡片 969
哈佛 969
居住 969
恕 969
荡妇 969
象@@ 969
school 968
も 968
撤@@ 968
艾尔 968
cut 967
lily 967
making 967
示@@ 967
含@@ 966
吵@@ 966
弹药 966
戴维斯 966
碰巧 966
血腥 966
kids 965
余生 965
原始 965
帶@@ 965
词@@ 965
难堪 965
rick 964
因素 964
大象 964
罗比 964
菜@@ 964
靠@@ 964
偶然 963
姨妈 963
悲惨 963
玉 963
种@@ 963
33 962
fnhobo 962
led 962
人数 962
召集 962
回归 962
手铐 962
指引 962
约瑟夫 962
结构 962
伊尔 961
制度 961
县 961
发短信 961
右手 961
填 961
奸@@ 961
打个招呼 961
打招呼 961
抓走 961
柱 961
汇@@ 961
沾 961
泳池 961
鸡肉 961
ssed 960
呵 960
夠 960
真够 960
蝴蝶 960
記@@ 960
诗人 960
遇 960
饮@@ 960
勃@@ 959
北部 959
婆 959
实施 959
貝@@ 959
踢@@ 959
首次 959
ning 958
傑@@ 958
惹麻烦 958
把握 958
抱抱 958
新生 958
游行 958
过后 958
body 957
副@@ 957
团体 957
怪怪的 957
时尚 957
降低 957
霜 957
fin@@ 956
出版 956
出現 956
國家 956
妙 956
巡@@ 956
挽救 956
柔@@ 956
泥 956
見過 956
餐@@ 956
名片 955
有利 955
甩掉 955
hands 954
事务所 954
俊 954
测@@ 954
稿 954
葡萄酒 954
pat@@ 953
巴斯 953
正直 953
洁 953
狂欢 953
荡 953
视线 953
努@@ 952
哈尔 952
真话 952
绳 952
cks 951
复制 951
扫@@ 951
枝 951
涂@@ 951
玛格丽特 951
疑问 951
第四@@ 951
鞋@@ 951
anna 950
优雅 950
拨@@ 950
暗杀 950
海上 950
蹤 950
动静 949
头盔 949
开发 949
扇门 949
格蕾丝 949
特別 949
莉亚 949
蟽 949
领养 949
馬@@ 949
乡 948
使@@ 948
待命 948
波兰 948
爱好 948
红酒 948
陌生 948
char@@ 947
george 947
robert 947
妮可 947
欠@@ 947
火灾 947
那张 947
電影 947
met 946
哥们儿 946
打交道 946
改天 946
水管 946
逻辑 946
trust 945
小鸟 945
无礼 945
粘@@ 945
维克 945
越南 945
众@@ 944
导师 944
持 944
搜寻 944
整個 944
新闻@@ 944
玩吧 944
這件 944
防御 944
骑马 944
bord0 943
somebody 943
不理 943
叉 943
哭@@ 943
威利 943
提示 943
样@@ 943
馅饼 943
lea@@ 942
侧 942
撤销 942
牙医 942
cia 941
充分 941
凯伦 941
摄影师 941
涂 941
絲 941
雾 941
ons 940
shi@@ 940
就位 940
岆 940
打電話 940
社 940
胃@@ 940
节奏 940
透过 940
逼@@ 940
锅 940
game 939
亚历山大 939
住口 939
务@@ 939
十个 939
名人 939
婚@@ 939
战胜 939
打工 939
抓狂 939
终结 939
他自己的 938
侵犯 938
审问 938
排练 938
昏@@ 938
格蕾 938
纯@@ 938
comp@@ 937
基督教 937
壁 937
护 937
柴@@ 937
雄 937
est@@ 936
rest 936
stand 936
乐子 936
印第安人 936
吸烟 936
堵 936
孤儿 936
忘@@ 936
摔@@ 936
此地 936
easy 935
单纯 935
属 935
那件 935
那样的话 935
主角 934
传播 934
只管 934
来个 934
死因 934
琼 934
腹 934
舅舅 934
观 934
 934
gg@@ 933
下流 933
察@@ 933
成人 933
排队 933
收藏 933
格里 933
烧掉 933
稳@@ 933
蠢@@ 933
誓言 933
间@@ 933
tw@@ 932
一处 932
法国人 932
监禁 932
胖@@ 932
躲@@ 932
凯利 931
往前 931
早已 931
通往 931
cho@@ 930
婆婆 930
宫@@ 930
将@@ 930
玛莎 930
藤 930
财@@ 930
17@@ 929
上海 929
之处 929
债务 929
暖 929
穿衣服 929
行业 929
追杀 929
香水 929
 929
white 928
匿名 928
古巴 928
射杀 928
延@@ 928
折 928
点心 928
路过 928
風 928
party 927
shot 927
墨菲 927
或者说 927
玩游戏 927
重建 927
问候 927
ゴ 926
乡村 926
缩@@ 926
青少年 926
參加 925
名声 925
纯粹 925
装饰 925
jim 924
ky 924
信封 924
凶器 924
壮 924
志 924
独处 924
疑犯 924
违背 924
gun 923
half 923
一组 923
发言 923
堕落 923
异 923
戏剧 923
洪@@ 923
狠狠 923
目的地 923
能带 923
自由@@ 923
跟随 923
露出 923
blood 922
今@@ 922
俊@@ 922
就此 922
握手 922
法医 922
瑞士 922
积极 922
gr@@ 921
个性 921
主义者 921
传给 921
害@@ 921
截@@ 921
教徒 921
某处 921
樣子 921
没听说过 921
眼中 921
瞬间 921
镇@@ 921
rea@@ 920
下个 920
乐团 920
床@@ 920
未知 920
水手 920
沒人 920
處理 920
衣柜 920
辆车 920
那年 920
醒过来 920
31 919
richard 919
万美金 919
之旅 919
以此 919
医 919
十二 919
反击 919
没完 919
看得出来 919
贝蒂 919
这栋 919
钱德 919
﹝ 919
des 918
plan 918
ten 918
保管 918
夹克 918
嫌疑犯 918
帕克 918
tor@@ 917
五千 917
危險 917
瓜@@ 917
不用说 916
仁@@ 916
叫声 916
瑞德 916
震@@ 916
饮 916
伏特加 915
凯琳 915
犹豫 915
纯 915
office 914
tt 914
一幅 914
下來 914
住@@ 914
德曼 914
效 914
旁@@ 914
欢呼 914
矮 914
祇 914
第三个 914
艾德 914
节日 914
萊@@ 914
萝@@ 914
damon 913
di 913
一千 913
乱来 913
怀特 913
戏@@ 913
戰 913
而战 913
计程车 913
領@@ 913
co 912
之王 912
你現 912
帮帮忙 912
強 912
武装 912
萨克 912
解决问题 912
beautiful 911
times 911
农民 911
取笑 911
可否 911
海豚 911
风景 911
删除 910
基督徒 910
紫@@ 910
继续前进 910
os 909
question 909
恐吓 909
生长 909
童 909
笔记本 909
计算机 909
運@@ 909
gets 908
一圈 908
尚未 908
游泳池 908
监@@ 908
骨折 908
兴 907
四点 907
墨@@ 907
早该 907
枪声 907
没带 907
滑雪 907
胃口 907
ang@@ 906
大衣 906
娜@@ 906
掌 906
撕@@ 906
琳达 906
设施 906
這邊 906
那份 906
tre@@ 905
创作 905
势@@ 905
品味 905
投诉 905
无视 905
民众 905
法兰 905
你会@@ 904
杀戮 904
编辑 904
缘 904
覆盖 904
wil@@ 903
办到 903
曲子 903
朴@@ 903
毒药 903
看不出 903
讲讲 903
铺@@ 903
37 902
三点 902
博德 902
听证会 902
抚养 902
桌@@ 902
誓 902
辐射 902
鸡尾酒 902
uc@@ 901
zz@@ 901
台上 901
小便 901
最快 901
毯子 901
没准 901
自身 901
设@@ 901
评@@ 901
位@@ 900
卡洛琳 900
幸@@ 900
文字 900
條 900
激@@ 900
登上 900
解釋 900
講@@ 900
迟早 900
里奇 900
队@@ 900
hurt 899
ze 899
令@@ 899
十点 899
好心 899
妖 899
恶作剧 899
持@@ 899
止 899
预感 899
16@@ 898
sy 898
几岁 898
判@@ 898
尽全力 898
布置 898
帮手 898
幅 898
收下 898
放学 898
歌唱 898
疑 898
adam 897
pay 897
公斤 897
剛才 897
沒關 897
真该 897
賸 897
遇@@ 897
陆@@ 897
魔力 897
び 896
一匹 896
众 896
废@@ 896
来得及 896
死后 896
珍惜 896
遗产 896
香蕉 896
crazy 895
shut 895
交出 895
gen@@ 894
ship 894
举动 894
凝@@ 894
咒 894
头痛 894
steve 893
他會 893
恒星 893
春 893
标签 893
眼光 893
诺兰 893
wish 892
兰德 892
共度 892
跑掉 892
behind 891
moment 891
並@@ 891
剑@@ 891
加德纳 891
宝石 891
怎@@ 891
特里 891
西斯 891
讯息 891
账单 891
难得 891
kes 890
打猎 890
泰德 890
催@@ 889
元素 889
勉强 889
大使馆 889
控告 889
村庄 889
演戏 889
献给 889
猴 889
珊@@ 889
空军 889
讨@@ 889
against 888
worry 888
枚 888
枪手 888
模样 888
父@@ 888
盡 888
相比 888
给你个 888
聖@@ 888
洞穴 887
甲板 887
腐@@ 887
谁@@ 887
列车 886
爱过 886
一无所有 885
动物园 885
喇叭 885
拔 885
蝙蝠 885
least 884
各自 884
态 884
拆@@ 884
斯塔 884
泰迪 884
熱@@ 884
种子 884
第一件 884
銀行 884
under@@ 883
中学 883
很想 883
赞美 883
铁路 883
walk 882
ǎ 882
外科 882
抛@@ 882
正经 882
要点 882
ched 881
med 881
read 881
不下 881
官司 881
热狗 881
画画 881
精神@@ 881
艾丽 881
跑步 881
龟 881
pete 880
决赛 880
囊 880
场合 880
烧死 880
观看 880
责怪 880
陈 880
预算 880
age 879
clear 879
sky 879
一下子 879
吾 879
峰 879
梅丽莎 879
源@@ 879
聯 879
肖 879
艾瑞克 879
败 879
闯进 879
city 878
喷 878
开关 878
绕@@ 878
鲸鱼 878
1040 877
会为 877
住院 877
区@@ 877
找人 877
精力 877
裡面 877
bl@@ 876
lee 876
与众不同 876
利斯 876
埃迪 876
悲@@ 876
我得 876
机械 876
狙击手 876
甜甜 876
虫子 876
ha 875
win 875
前任 875
多数 875
安息 875
老家伙 875
该是 875
一伙 874
一同 874
土豆 874
屋@@ 874
挡住 874
苍蝇 874
str@@ 873
一到 873
兰斯 873
冠 873
开头 873
适当 873
minute 872
number 872
tro@@ 872
吨 872
呻吟 872
噪音 872
失业 872
心思 872
拨 872
收音机 872
木头 872
武 872
混合 872
狦 872
自首 872
蜜 872
飛@@ 872
克里 871
厄@@ 871
商场 871
失败者 871
宿舍 871
总能 871
旅@@ 871
早期 871
杰克逊 871
渡@@ 871
熟@@ 871
達@@ 871
養 871
bor@@ 870
一行 870
墓 870
审@@ 870
成果 870
第四 870
背包 870
舰 870
解脱 870
陪伴 870
顾@@ 870
不小 869
漏@@ 869
百分之@@ 869
罚 869
羞耻 869
軍 869
链 869
si 868
吓@@ 868
幫@@ 868
扬@@ 868
管道 868
耍@@ 868
胆@@ 868
藤@@ 868
一枚 867
最坏 867
業 867
洞@@ 867
真他妈 867
票@@ 867
aren 866
五十@@ 866
外出 866
弯 866
无罪 866
紧急情况 866
质@@ 866
赔 866
辩论 866
驱@@ 866
下落 865
五百 865
偷看 865
局面 865
打球 865
无情 865
看著 865
真名 865
职@@ 865
解決 865
资 865
free 864
候 864
拘留 864
斷 864
比特 864
窗口 864
累@@ 864
须 864
公共 863
哄 863
平等 863
換@@ 863
西雅图 863
va 862
保證 862
勤@@ 862
太平洋 862
妇 862
幼稚 862
教室 862
脚下 862
蒙特 862
蜜蜂 862
赌注 862
闪电 862
fer@@ 861
八点 861
巴瑞 861
幸存者 861
得以 861
着迷 861
色情 861
行程 861
caroline 860
den 860
寒冷 860
扫 860
治安 860
注册 860
诶 860
lord 859
上台 859
下巴 859
仓 859
以便 859
外国 859
娜塔莉 859
止@@ 859
笔记 859
羡慕 859
變@@ 859
资产 859
防守 859
sch@@ 858
va@@ 858
尔特 858
柳@@ 858
核心 858
检 858
莱特 858
ﺇ 858
stefan 857
互@@ 857
免 857
情侣 857
掌@@ 857
染@@ 857
浩@@ 857
fun 856
tar@@ 856
叹气 856
工业 856
拉屎 856
股@@ 856
诉 856
转向 856
ll@@ 855
做人 855
拳@@ 855
易 855
曲@@ 855
牵扯 855
看見 855
费城 855
依旧 854
元首 854
材 854
注@@ 854
社会@@ 854
过头 854
顾 854
ther@@ 853
九点 853
宣誓 853
滑稽 853
福尔摩斯 853
纵@@ 853
细 853
裸@@ 853
途中 853
为难 852
千年 852
大人物 852
奖励 852
往常 852
清洗 852
行不通 852
豪 852
降 852
马里 852
一流 851
丽贝卡 851
加里 851
定义 851
尊@@ 851
帕特 851
抵@@ 851
版本 851
畜生 851
笼子 851
航空 851
billy 850
dri@@ 850
企鹅 850
共事 850
处置 850
大地 850
奴 850
当着 850
提斯 850
樂 850
猛 850
蛋蛋 850
ㄛ 849
劳伦斯 849
振@@ 849
掩饰 849
暑假 849
本能 849
约翰尼 849
饭@@ 849
bye 848
chris 848
傷害 848
光荣 848
太美 848
录像带 848
微 848
撒尿 848
看不出来 848
賽 848
ill@@ 847
分鐘 847
大便 847
客房 847
拉里 847
正面 847
asked 846
人情 846
低调 846
到哪去 846
勇士 846
图像 846
妙@@ 846
嫌 846
工作室 846
忙@@ 846
流浪汉 846
片子 846
級 846
聊@@ 846
胡 846
ﻰ 846
over@@ 845
桥@@ 845
pl@@ 844
捐@@ 844
条款 844
着陆 844
贴心 844
输入 844
雇用 844
han@@ 843
ite 843
por@@ 843
quite 843
几时 843
刀子 843
宁@@ 843
悬@@ 843
5000 842
ford 842
nobody 842
ste@@ 842
wing 842
契@@ 842
纪@@ 842
蠅 842
認@@ 842
负责人 842
 842
ir 841
别怕 841
常见 841
敌@@ 841
三号 840
丑陋 840
仙 840
团结 840
工作@@ 840
巴比 840
改造 840
淡@@ 840
球赛 840
背上 840
蘇@@ 840
裔 840
边界 840
ary 839
别处 839
毫无意义 839
蒂姆 839
赞同 839
边上 839
通過 839
道别 839
雪茄 839
信件 838
催眠 838
守护 838
已婚 838
当晚 838
有事吗 838
村@@ 838
︽ 838
兄 837
小弟弟 837
槽 837
牠 837
菌 837
识别 837
佩 836
健@@ 836
办@@ 836
妥协 836
工会 836
布兰 836
毫不 836
镇子 836
whoa 835
住嘴 835
就别 835
有史以来 835
欢迎光临 835
气球 835
纽@@ 835
ches 834
ters 834
体会 834
前线 834
即@@ 834
嫌疑 834
宣@@ 834
暴风雨 834
束 834
水里 834
短暂 834
脑海 834
蟻 834
与@@ 833
乔丹 833
便是 833
安德烈 833
彻 833
我哥 833
有位 833
污@@ 833
洗个 833
火山 833
ati@@ 832
waiting 832
【 832
体重 832
冬@@ 832
剛剛 832
后院 832
城镇 832
屬 832
幕@@ 832
抱@@ 832
据我所知 832
极端 832
溜 832
潜@@ 832
获@@ 832
遗传 832
镑 832
马蒂 832
魚 832
上下 831
功课 831
市中心 831
狡猾 831
乡下 830
住处 830
你會 830
單 830
宗 830
每件事 830
結@@ 830
规@@ 830
说句话 830
 830
事是 829
周二 829
她@@ 829
安装 829
打听 829
挣 829
格尔 829
毒贩 829
盖尔 829
bob 828
展现 828
手脚 828
斯蒂芬 828
讯 828
骗@@ 828
dr 827
他妈 827
家中 827
布鲁克 827
薄@@ 827
一所 826
作弊 826
借给 826
小卡 826
棘手 826
漂@@ 826
载@@ 826
阴茎 826
fs22 825
上诉 825
先是 825
咪 825
存活 825
小马 825
座@@ 825
树上 825
潜水 825
為@@ 825
直播 825
这要 825
進行 825
fnstkaiti 824
不开 824
劫 824
很帅 824
急事 824
狩猎 824
肯尼迪 824
金斯 824
願 824
顿@@ 824
ﺩ 824
283 823
dro@@ 823
flo@@ 823
乔纳森 823
佛罗里达 823
处在 823
宁可 823
情报@@ 823
来接 823
99 822
上船 822
两张 822
国内 822
待会 822
想想看 822
憎恨 822
能干 822
表弟 822
软弱 822
ban@@ 821
per 821
】 821
伊莎贝尔 821
半年 821
天呀 821
扣@@ 821
洒 821
疏散 821
索尔 821
莉娅 821
cool 820
hours 820
不干 820
修改 820
域 820
浴@@ 820
这招 820
七点 819
意图 819
校园 819
炎 819
瑞恩 819
电视台 819
违@@ 819
银 819
魂@@ 819
1chd1d1d1 818
wn 818
一系列 818
仿宋 818
哎哟 818
战术 818
提问 818
昏 818
活儿 818
笑声 818
請@@ 818
赢@@ 818
身处 818
这段 818
雪莉 818
马克斯 818
hel@@ 817
ness 817
地步 817
太糟 817
当天 817
当局 817
焦虑 817
罗宾 817
资@@ 817
丢@@ 816
决心 816
祸 816
讯号 816
騙 816
山谷 815
应对 815
有力 815
碰面 815
邀 815
韦 815
黛比 815
started 814
珀 814
稍@@ 814
迎@@ 814
驴 814
ﺫ 814
died 813
truth 813
字幕 813
尚 813
心想 813
我教 813
毛衣 813
线路 813
要花 813
误解 813
这行 813
逆@@ 813
alive 812
full 812
专辑 812
宾馆 812
怎会 812
權 812
物理 812
玡 812
穷 812
簡單 812
融化 812
陈述 812
all@@ 811
mer 811
ra 811
傻事 811
屈@@ 811
玛丽亚 811
瑪@@ 811
诊断 811
bed 810
fs90 810
俗 810
奥斯@@ 810
循环 810
报酬 810
昂 810
看清 810
能源 810
腐败 810
麥@@ 810
黎明 810
between 809
大赛 809
当真 809
月光 809
江 809
生死 809
童话 809
落下 809
葬 809
表哥 809
要钱 809
霍 809
cal@@ 808
不满 808
介入 808
伊森 808
怕@@ 808
惹@@ 808
抢走 808
换成 808
sel@@ 807
乱七八糟 807
以往 807
好转 807
无限 807
灌@@ 807
送回 807
閉嘴 807
青年 807
马歇尔 807
later 806
ned 806
一双 806
不管怎么 806
世人 806
好几年 806
小东西 806
很会 806
我快 806
拳击 806
比賽 806
进屋 806
向上 805
含 805
洛斯 805
癌 805
调查员 805
辈 805
4chff0000 804
ball 804
eat 804
gh 804
亚伦 804
形状 804
慌 804
挪@@ 804
換 804
梦里 804
菜单 804
质量 804
ﾍ 804
1ch3cf1f3 803
break 803
cur@@ 803
fnarial 803
傲慢 803
太早 803
宗@@ 803
挥@@ 803
文森特 803
灰色 803
現@@ 803
福德 803
获胜 803
蔬菜 803
魏@@ 803
ob@@ 802
回避 802
外遇 802
提要 802
炳 802
牌子 802
秋 802
第三次 802
管家 802
納@@ 802
路边 802
war 801
休想 801
干涉 801
棕色 801
码@@ 801
祈求 801
蝙蝠侠 801
那座 801
55 800
ass 800
emily 800
florrick 800
下注 800
传言 800
夜总会 800
委 800
安全@@ 800
批@@ 800
本案 800
波比 800
物种 800
记着 800
信不信 799
小弟 799
摘 799
盆 799
65 798
news 798
乳房 798
好日子 798
擊 798
早晚 798
点燃 798
舍@@ 798
过会 798
麦克@@ 798
afraid 797
少爷 797
尺寸 797
服务生 797
考慮 797
鲸 797
hy@@ 796
mil@@ 796
tried 796
丢失 796
发现自己 796
只用 796
摔倒 796
胎 796
% 795
team 795
ward 795
买家 795
制定 795
庭 795
我带 795
游客 795
议会 795
识 795
sy@@ 794
town 794
切除 794
担任 794
汽水 794
站@@ 794
青春 794
dan@@ 793
reason 793
丢人 793
持有 793
深处 793
萨尔 793
进化 793
钮 793
饥饿 793
act 792
困境 792
引导 792
推测 792
终止 792
羞愧 792
航@@ 792
车厢 792
col@@ 791
ments 791
出价 791
尘 791
那家 791
酷@@ 791
hal@@ 790
johnny 790
一拳 790
丑闻 790
好痛 790
我付 790
独自一人 790
监督 790
真好 790
趣 790
邪@@ 790
pped 789
一口气 789
三個 789
事务 789
体育 789
各地 789
好几@@ 789
屏幕 789
秒钟 789
窗外 789
饱 789
lar@@ 788
修道院 788
届 788
指定 788
海洛因 788
窒息 788
這里 788
ana 787
dge 787
奥利弗 787
显@@ 787
策 787
耽误 787
莱克 787
遗忘 787
五点 786
渴 786
特征 786
解散 786
这本 786
闯 786
闷 786
34 785
pan@@ 785
不配 785
丫头 785
何处 785
别来 785
套房 785
检验 785
疯@@ 785
追逐 785
逃犯 785
fran@@ 784
vic@@ 784
万元 784
拉克 784
捕 784
损伤 784
接通 784
本性 784
民族 784
港口 784
烦人 784
登陆 784
这时 784
一股 783
喝水 783
多好 783
旅途 783
申@@ 783
粗 783
邦德 783
ﾞ 783
ai@@ 782
㎡ 782
伏@@ 782
化妆 782
发动机 782
奋斗 782
继续下去 782
脱身 782
芝士 782
dis@@ 781
克里斯蒂娜 781
刹车 781
勋章 781
吸引力 781
堆@@ 781
敏@@ 781
毕 781
粘 781
转变 781
迪恩 781
闭上眼睛 781
難@@ 781
ates 780
eli@@ 780
save 780
一分钱 780
十五 780
天亮 780
暴 780
節 780
触摸 780
马戏团 780
speak 779
下载 779
回合 779
回见 779
困住 779
奖学金 779
州@@ 779
斯顿 779
焦@@ 779
用品 779
落后 779
衡 779
诗@@ 779
豆@@ 779
迪斯 779
阁楼 779
yours 778
丸 778
大叫 778
心爱 778
重视 778
陆军 778
预期 778
 778
kin 777
不怪 777
中枪 777
减 777
宝藏 777
成年 777
歌词 777
神经@@ 777
离去 777
雅各布 777
公布 776
妹子 776
布尔 776
律所 776
情人节 776
戒@@ 776
柜子 776
永生 776
着手 776
艾琳 776
调情 776
贴@@ 776
goes 775
之間 775
兽 775
分配 775
发火 775
均 775
忽视 775
戰爭 775
斯隆 775
给钱 775
锻炼 775
骗局 775
一程 774
侵入 774
圣人 774
垃圾桶 774
愛的 774
泉 774
睡得 774
碰上 774
蛮@@ 774
迫不及待 774
196@@ 773
bar 773
mal@@ 773
再度 773
宝贵 773
忍@@ 773
思维 773
歇 773
sur@@ 772
though 772
上级 772
侄女 772
团@@ 772
开战 772
杰米 772
查到 772
沃克 772
特定 772
蠢事 772
走私 772
轰@@ 772
一级 771
可别 771
渐渐 771
睇 771
窗@@ 771
翠@@ 771
肯特 771
邪 771
重量 771
勾引 770
品牌 770
才华 770
挤@@ 770
改善 770
真要 770
笨@@ 770
蜜月 770
语气 770
鲜血 770
个人@@ 769
交叉 769
伟@@ 769
偷来 769
大自然 769
援助 769
播@@ 769
肩@@ 769
ben@@ 768
售 768
扶@@ 768
携带 768
活该 768
浑身 768
百 768
粗鲁 768
耻辱 768
芯片 768
sed 767
一秒钟 767
提升 767
步枪 767
邮@@ 767
一秒 766
唤醒 766
天黑 766
庆幸 766
放大 766
聋 766
装修 766
chan@@ 765
一封信 765
从现在起 765
喝完 765
略@@ 765
祖国 765
蕾@@ 765
贺@@ 765
important 764
ined 764
一方 764
上个月 764
克莱夫 764
十万 764
十足 764
呜 764
夜里 764
布拉 764
技 764
英镑 764
一看 763
出场 763
匠 763
十岁 763
多远 763
惡 763
批评 763
活在 763
深深 763
艺 763
赐 763
辞 763
逃出 763
高速公路 763
power 762
喜爱 762
挨 762
程@@ 762
竒 762
两句 761
国际@@ 761
師@@ 761
彭@@ 761
泡@@ 761
琴@@ 761
瑞奇 761
看清楚 761
聯@@ 761
聲音 761
韦伯 761
telling 760
丧@@ 760
人间 760
培@@ 760
好久没 760
战役 760
扭曲 760
晒 760
替@@ 760
納 760
調查 760
谷@@ 760
赐予 760
600 759
ki 759
兔 759
回头见 759
惊奇 759
拖车 759
敞开 759
正想 759
迈 759
連 759
里头 759
shall 758
三周 758
司@@ 758
恋 758
真让人 758
腾 758
升起 757
大众 757
庭审 757
很晚 757
息@@ 757
放棄 757
磁带 757
荣 757
这倒 757
人体 756
唯@@ 756
德语 756
极度 756
赔偿 756
超出 756
采 756
首领 756
一万@@ 755
不爱 755
威尔逊 755
治好 755
覆@@ 755
贤@@ 755
非凡 755
robin 754
ying 754
不見 754
克莉丝 754
别以为 754
好久不见 754
布鲁@@ 754
意愿 754
振作 754
有的是 754
病情 754
看书 754
适@@ 754
forget 753
传送 753
数据库 753
祝你们 753
行動 753
装满 753
重生 753
钞票 753
 753
想一想 752
末 752
航行 752
coun@@ 751
刮@@ 751
器@@ 751
季节 751
必 751
檢查 751
真会 751
缺少 751
贪婪 751
铜@@ 751
i1 750
six 750
一切顺利 750
厌恶 750
哥伦比亚 750
多一点 750
大规模 750
张开 750
我累 750
最多 750
三十 749
世界末日 749
买个 749
值钱 749
周四 749
蛇@@ 749
蟺 749
一层 748
不好玩 748
会上 748
前科 748
势力 748
效力 748
无人机 748
腐烂 748
门外 748
鸟儿 748
almost 747
tommy 747
光线 747
屌 747
幻@@ 747
弄出来 747
滿 747
演唱会 747
犯罪@@ 747
盯上 747
看守 747
纯洁 747
臂 747
诺夫 747
輕@@ 747
辛普森 747
阿瑟 747
val@@ 746
不难 746
亿@@ 746
开走 746
接下 746
選 746
陆地 746
享用 745
念头 745
戴着 745
推迟 745
摩尔 745
草莓 745
青蛙 745
受苦 744
口香糖 744
固@@ 744
大战 744
打得 744
染 744
棋 744
椅 744
淡 744
盘@@ 744
目睹 744
send 743
乱动 743
冰块 743
券 743
带回家 743
赢家 743
hun@@ 742
供应 742
入狱 742
吃醋 742
售@@ 742
坚信 742
安吉拉 742
扯@@ 742
终身 742
肝@@ 742
agent 741
bal@@ 741
clo@@ 741
un 741
事后 741
入睡 741
六点 741
凶@@ 741
寡妇 741
悲哀 741
沉重 741
督察 741
要紧 741
blo@@ 740
needs 740
之子 740
卡夫 740
好喝 740
季@@ 740
梦见 740
潜在 740
维奇 740
运输 740
一队 739
先来 739
奔@@ 739
ice 738
tic@@ 738
一幕 738
一批 738
军方 738
没命 738
热闹 738
身子 738
闻@@ 738
ó 737
克洛伊 737
前方 737
圣母 737
大王 737
娇@@ 737
摄影 737
港@@ 737
限@@ 737
黑客 737
会合 736
并不知道 736
扯淡 736
批 736
来讲 736
极其 736
枪支 736
渣 736
瘦@@ 736
費 736
转告 736
驱逐 736
air 735
cted 735
low 735
nie 735
sted 735
一票 735
册 735
可真 735
审查 735
缩 735
罢工 735
英勇 735
表格 735
贏 735
贪@@ 735
跌 735
音乐会 735
hor@@ 734
jeremy 734
walter 734
万块 734
克尔 734
大腿 734
孙@@ 734
工作人员 734
左手 734
技@@ 734
敏 734
猫@@ 734
砆 734
稲 734
筹码 734
自已 734
艺术品 734
预定 734
ssing 733
串 733
前夫 733
樂@@ 733
爪 733
爱上你 733
app@@ 732
gan 732
morgan 732
ved 732
挖掘 732
掌声 732
星系 732
活力 732
珍珠 732
男女 732
ok@@ 731
susan 731
worth 731
yo@@ 731
不带 731
咱們 731
帐户 731
很累 731
总共 731
教皇 731
歇@@ 731
求救 731
没得 731
盛 731
竹@@ 731
起立 731
轻轻 731
 731
andy 730
zo@@ 730
不快 730
冲浪 730
提交 730
时会 730
曝光 730
疑@@ 730
神话 730
贩毒 730
跪 730
選@@ 730
ay 729
sleep 729
top 729
剪刀 729
勤 729
哪种 729
备用 729
导 729
挺不错 729
无知 729
烂摊子 729
玩弄 729
米拉 729
肺@@ 729
补充 729
警戒 729
ﺓ 729
field 728
girls 728
ones 728
包含 728
心碎 728
確實 728
迷惑 728
不接 727
加班 727
口交 727
嘅 727
庄园 727
有關 727
租金 727
那间 727
 727
ﾉ 727
els 726
前提 726
围绕 726
处决 726
废 726
操控 726
玲 726
甘 726
电力 726
盲@@ 726
童@@ 726
走上 726
ﺧ 726
front 725
ing@@ 725
会带 725
卫生间 725
历克斯 725
妮娜 725
完事 725
弗雷德 725
景@@ 725
梅尔 725
模拟 725
瓣 725
瓶@@ 725
百年 725
福利 725
秋天 725
薩@@ 725
迪伦 725
随后 725
ff 724
week 724
借用 724
往往 724
抗拒 724
案@@ 724
脸色 724
視 724
親 724
选票 724
kar@@ 723
mrs 723
trac@@ 723
两条 723
偏见 723
加点 723
勇 723
嗷 723
契 723
歌剧 723
沿@@ 723
用心 723
脂肪 723
諾 723
諾@@ 723
那本书 723
book 722
ces 722
ction 722
outside 722
下楼 722
传达 722
伤人 722
出动 722
别跑 722
动脉 722
恶劣 722
最有 722
荷兰 722
触 722
运转 722
还行 722
逃出来 722
通缉 722
乌鸦 721
付给 721
佩服 721
加布 721
没人@@ 721
溜@@ 721
相片 721
赛车 721
轰炸 721
递给 721
fre@@ 720
pas@@ 720
sco@@ 720
不问 720
军团 720
农 720
匕首 720
卡斯 720
暖和 720
特权 720
瘾君子 720
礼拜@@ 720
鸡巴 720
boys 719
wat@@ 719
welcome 719
仇@@ 719
卓 719
实力 719
恶意 719
毫无@@ 719
狐狸 719
ster@@ 718
从未见过 718
卸@@ 718
娘们 718
容忍 718
小宝贝 718
撞击 718
激怒 718
獺 718
胸口 718
餓 718
ko 717
spe@@ 717
wood 717
一大笔钱 717
为什 717
劫@@ 717
引诱 717
气体 717
水晶 717
肉体 717
艺@@ 717
装作 717
九个 716
别傻了 716
喘气 716
多余 716
大笑 716
救世主 716
族人 716
系列 716
耶稣基督 716
货物 716
以防万一 715
多点 715
小鸡 715
年来 715
开工 715
引用 715
扔下 715
拦住 715
收买 715
星际 715
穷人 715
笆 715
虚弱 715
那套 715
； 715
drink 714
pping 714
发烧 714
同行 714
吸收 714
基佬 714
惡@@ 714
有钱人 714
极限 714
架@@ 714
河流 714
牢@@ 714
电源 714
眉@@ 714
谈恋爱 714
je 713
伊朗 713
伤亡 713
功劳 713
宴 713
專@@ 713
崔 713
弦 713
我以 713
技能 713
政客 713
效@@ 713
淫@@ 713
混帐 713
漢@@ 713
牧@@ 713
盆@@ 713
等着瞧 713
籍 713
谈一谈 713
隨@@ 713
couple 712
eddie 712
sen 712
ρ 712
三分钟 712
上衣 712
咳嗽 712
固 712
帝@@ 712
服务器 712
现身 712
肖@@ 712
自称 712
anymore 711
假释 711
听从 711
坚定 711
搜@@ 711
文学 711
监 711
马桶 711
answer 710
别太 710
启@@ 710
此时 710
社@@ 710
窗帘 710
老太太 710
花花公子 710
華@@ 710
製 710
麗@@ 710
rin@@ 709
tic 709
不曾 709
催 709
小学 709
撑@@ 709
育@@ 709
脚趾 709
試試 709
设定 709
说得好 709
ﺷ 709
ore 708
亲生 708
别问 708
加油站 708
勞@@ 708
困@@ 708
国外 708
已有 708
布斯 708
星期四 708
海豹 708
胶 708
蹲下 708
逐@@ 708
grace 707
tu 707
tur@@ 707
分裂 707
制止 707
卷入 707
帮到 707
悬崖 707
拉姆 707
推进 707
架飞机 707
柠檬 707
海底 707
相对 707
身體 707
躲避 707
遭@@ 707
铃声 707
 707
eye 706
nu@@ 706
审 706
广@@ 706
文斯 706
早饭 706
腊 706
鸭 706
lat@@ 705
之名 705
今后 705
刻薄 705
同居 705
天真 705
护送 705
日落 705
脉搏 705
艾略特 705
葡萄 705
＊ 705
marie 704
亲热 704
共同点 704
出自 704
加强 704
吉娜 704
多个 704
太高 704
应当 704
晃 704
有限 704
棵 704
沟 704
猭 704
索菲 704
西尔 704
詞 704
195@@ 703
冻@@ 703
升级 703
唐尼 703
情报局 703
新年 703
火力 703
照顧 703
竟敢 703
腻 703
舞者 703
融入 703
認 703
选中 703
金色 703
高贵 703
鳄鱼 703
一击 702
到手 702
年级 702
忘記 702
控@@ 702
无关紧要 702
浅@@ 702
烈@@ 702
犯法 702
眖 702
真的假 702
裁决 702
迈尔斯 702
预计 702
不谈 701
别烦 701
十二@@ 701
吊 701
女孩儿 701
弟兄 701
拉德 701
最美 701
槍@@ 701
目光 701
解药 701
距 701
黃 701
 701
 701
cla@@ 700
付款 700
先知 700
分心 700
呆@@ 700
意大利人 700
狄 700
總統 700
ching 699
seems 699
久等 699
山羊 699
打劫 699
搬出去 699
救出 699
纪念日 699
遇害 699
don@@ 698
months 698
tan@@ 698
习@@ 698
从中 698
余 698
好意 698
末@@ 698
机长 698
磨 698
离谱 698
缩小 698
血统 698
表妹 698
daughter 697
写下 697
况且 697
恶化 697
报应 697
浩 697
精确 697
跑道 697
采取行动 697
鼓掌 697
tara 696
偷东西 696
可行 696
外科医生 696
妄想 696
差别 696
愈@@ 696
沃德 696
給你 696
级别 696
荷 696
這位 696
還沒 696
館 696
van@@ 695
偶@@ 695
关在 695
冻 695
切尔 695
單@@ 695
墙壁 695
大老远 695
安德森 695
封面 695
强调 695
怜悯 695
找些 695
缺陷 695
舌 695
費@@ 695
除此之外 695
child 694
人心 694
共享 694
唷 694
宅 694
涨 694
燃@@ 694
纠结 694
谎话 694
黑夜 694
人類 693
固执 693
夸奖 693
很重 693
掉@@ 693
昂贵 693
有毒 693
牌@@ 693
謝 693
身旁 693
两样 692
予 692
前辈 692
喉 692
地带 692
坡 692
增长 692
披@@ 692
杰作 692
核弹 692
蟼 692
跌@@ 692
迹 692
闪开 692
雇@@ 692
雷达 692
霸 692
shed 691
wow 691
团伙 691
培养 691
情节 691
成千上万 691
炫耀 691
纸条 691
莉娜 691
证@@ 691
pick 690
一栋 690
低估 690
咩 690
屁眼 690
担忧 690
法学院 690
科林 690
脏@@ 690
mp 689
thy 689
ウ 689
可憐 689
史上 689
安全感 689
津@@ 689
煎饼 689
護@@ 689
运送 689
这幅 689
上网 688
仙子 688
圈套 688
奏 688
拳头 688
撒旦 688
男孩子 688
罗恩 688
视为 688
认同 688
设计师 688
谜 688
anyway 687
cri@@ 687
不合 687
传来 687
传闻 687
精神病院 687
见过面 687
高尚 687
800 686
ble 686
key 686
不定 686
出去玩 686
召@@ 686
好大 686
快给我 686
怨@@ 686
愧疚 686
正当 686
烧伤 686
阻碍 686
顶级 686
pla@@ 685
stri@@ 685
ze@@ 685
兼@@ 685
包装 685
君@@ 685
吻合 685
欺@@ 685
每天晚上 685
漏洞 685
符号 685
类@@ 685
纽 685
能夠 685
鐘@@ 685
﹁ 685
夥計 684
怎么弄 684
拍卖 684
摩托 684
格拉 684
法郎 684
磁@@ 684
約翰 684
诱饵 684
鼠@@ 684
ber 683
jason 683
一回 683
健身 683
克劳 683
四天 683
安定 683
怒@@ 683
机关 683
测 683
玩完 683
监听 683
簿 683
罗德 683
腿@@ 683
资助 683
趕@@ 683
陷 683
露营 683
马路 683
鸣@@ 683
brought 682
dave 682
star@@ 682
我开 682
新郎 682
楼@@ 682
熙 682
盛大 682
两倍 681
彈 681
指向 681
授@@ 681
有天 681
望远镜 681
隐形 681
honey 680
冬 680
呈 680
形势 680
控制@@ 680
摩西 680
放假 680
细菌 680
讀 680
逛 680
乐园 679
乳 679
出庭 679
原諒 679
快滚 679
条路 679
號@@ 679
ﺠ 679
ken@@ 678
保持沉默 678
巴基斯坦 678
斯托 678
第一步 678
蜂@@ 678
魏 678
harry 677
任命 677
实习生 677
急救 677
教导 677
昂@@ 677
服役 677
杰出 677
歌声 677
锁@@ 677
阴道 677
雞 677
72 676
ee@@ 676
ron@@ 676
丧失 676
共和国 676
大忙 676
尘@@ 676
庆@@ 676
无权 676
第一位 676
羽毛 676
马尔科 676
﹐ 676
ens 675
jan@@ 675
raymond 675
会派 675
克莱@@ 675
厲害 675
名誉 675
救人 675
炸掉 675
碧 675
艾莉@@ 675
裙 675
買@@ 675
赏@@ 675
44 674
carter 674
五分 674
俗@@ 674
周三 674
太高兴 674
捏 674
水面 674
生命危险 674
销毁 674
bitch 673
hot 673
一是 673
不死 673
丽塔 673
亡 673
会员 673
勇@@ 673
华丽 673
气色 673
ag@@ 672
either 672
jesus 672
一首歌 672
别过来 672
剩@@ 672
口径 672
垒 672
朕 672
松鼠 672
登机 672
立马 672
耐@@ 672
試 672
證明 672
重新@@ 672
43 671
sting 671
发觉 671
回电 671
定罪 671
托德 671
拽 671
掩@@ 671
爽@@ 671
物体 671
聰明 671
莱斯 671
質 671
赋予 671
欣@@ 670
瘤 670
罗素 670
腰@@ 670
赎金 670
难忘 670
集体 670
露面 670
sense 669
保护@@ 669
出租 669
商品 669
梁@@ 669
此案 669
珠@@ 669
贫@@ 669
1chc2cecf 668
5% 668
mag@@ 668
世界各地 668
厄 668
周年 668
就象 668
扳机 668
本质 668
薯条 668
返 668
互联网 667
传递 667
召 667
头疼 667
学期 667
希拉 667
录影带 667
永久 667
牧场 667
產@@ 667
益 667
米兰 667
芽 667
走到 667
飛機 667
284 666
clay 666
gue 666
married 666
million 666
不惜一切 666
优先 666
围 666
岿 666
法子 666
溫@@ 666
滴@@ 666
睡覺 666
私事 666
诺拉 666
金币 666
49 665
gri@@ 665
三人 665
东部 665
布莱@@ 665
拘捕 665
梅根 665
洋 665
海水 665
眠 665
管理员 665
联合国 665
那太 665
br@@ 664
lose 664
sent 664
ty@@ 664
塞尔@@ 664
打住 664
朮 664
近来 664
首都 664
ged 663
一早 663
上演 663
不堪 663
忠实 663
数目 663
方位 663
畫@@ 663
舌@@ 663
莎莉 663
豪华 663
途径 663
.@@ 662
ell@@ 662
mi 662
state 662
thomas 662
你行 662
光临 662
包里 662
北京 662
塞进 662
小型 662
扩大 662
東@@ 662
正常人 662
繁@@ 662
繷 662
胆子 662
阿拉 662
零钱 662
τ 661
以免 661
兼 661
姑妈 661
弥@@ 661
棚 661
甜美 661
维拉 661
脂 661
自以为是 661
试镜 661
说点 661
达尔 661
返@@ 661
阿布蒂 661
stan@@ 660
似 660
偶像 660
升职 660
戴安娜 660
渡 660
真诚 660
起初 660
长相 660
fla@@ 659
不會@@ 659
假发 659
商业@@ 659
在线 659
外星 659
扔进 659
阿拉伯 659
carl 658
sound 658
丑@@ 658
咆哮 658
学费 658
斯塔克 658
書@@ 658
欺诈 658
请客 658
键 658
陷@@ 658
鹅 658
ns 657
ran 657
running 657
伏 657
兒@@ 657
冠@@ 657
凶案 657
前男友 657
左转 657
庆 657
老娘 657
脚步 657
诸@@ 657
这真 657
这起 657
部位 657
镇定 657
韦德 657
blake 656
倫 656
梯 656
洋葱 656
班机 656
积 656
茱莉亚 656
袭 656
計@@ 656
跳下去 656
dou@@ 655
ges 655
government 655
历史@@ 655
報@@ 655
暖@@ 655
條@@ 655
纪 655
那群 655
192 654
23@@ 654
sti@@ 654
下水 654
前门 654
圖 654
年度 654
懒@@ 654
楚@@ 654
爱河 654
玩儿 654
粪 654
迟早会 654
锡@@ 654
验@@ 654
 654
ach 653
利润 653
刺杀 653
喜剧 653
幸存 653
庞@@ 653
我出 653
扭 653
牢里 653
破裂 653
紅@@ 653
罕见 653
不知情 652
伞 652
南希 652
崎 652
棒@@ 652
母狗 652
腹部 652
致敬 652
通信 652
ced 651
世界@@ 651
会到 651
作為 651
保障 651
做错 651
失误 651
嫩 651
廉价 651
戒酒 651
汽@@ 651
洛夫 651
狠@@ 651
理性 651
神盾 651
粉碎 651
芬奇 651
裁判 651
還能 651
doctor 650
中断 650
净 650
担保 650
更新 650
汽车旅馆 650
派出 650
海外 650
财 650
过时 650
lo 649
nor@@ 649
凑@@ 649
手册 649
秘@@ 649
黄油 649
kevin 648
president 648
岩 648
我剛 648
战略 648
拿些 648
无需 648
框 648
灭绝 648
电线 648
缺点 648
自大 648
辩 648
bit@@ 647
仰@@ 647
依赖 647
參@@ 647
安全局 647
帮上 647
怪不得 647
打開 647
杂 647
独一无二 647
编号 647
罪人 647
胜过 647
认定 647
願意 647
3ch008080 646
shar@@ 646
匹 646
呕吐 646
報告 646
奉献 646
姓@@ 646
川@@ 646
玛莉 646
番 646
继@@ 646
闭 646
霍尔 646
鲍尔 646
ﻱ 646
gps 645
sd 645
sometimes 645
Ω 645
别用 645
封闭 645
彩虹 645
往前走 645
我還 645
清晨 645
無論 645
窃听 645
责 645
集中营 645
雇员 645
sli@@ 644
sort 644
伯伯 644
伽@@ 644
侧@@ 644
响@@ 644
挨@@ 644
搞不好 644
没门 644
洲 644
潮@@ 644
烦@@ 644
畅@@ 644
看一看 644
给出 644
胆量 644
贸易 644
邓@@ 644
anne 643
不光 643
圈@@ 643
妖@@ 643
守住 643
宋@@ 643
拿点 643
用到 643
穆斯林 643
脏话 643
舞伴 643
重回 643
隨便 643
 643
ﾌ 643
asking 642
ill 642
julie 642
tly 642
健身房 642
偷窃 642
减肥 642
吴@@ 642
坦诚 642
娘娘腔 642
待遇 642
打搅 642
烹饪 642
眨眼 642
負責 642
sophie 641
乱跑 641
保险公司 641
哈里斯 641
回想 641
底特律 641
服务@@ 641
海报 641
特斯 641
电子邮件 641
紧紧 641
而来 641
踏@@ 641
46 640
country 640
sar@@ 640
亡@@ 640
况 640
探望 640
昆虫 640
正事 640
狂热 640
电话@@ 640
男爵 640
职员 640
运动@@ 640
ez 639
lisbon 639
ryan 639
touch 639
下士 639
凌@@ 639
吉利 639
天花板 639
安宁 639
房屋 639
无能 639
資@@ 639
麦特 639
living 638
五天 638
克里@@ 638
應@@ 638
搅@@ 638
搶 638
梅瑞狄 638
沃尔@@ 638
管子 638
纠缠 638
莉兹 638
锁上 638
boo@@ 637
ear 637
不但 637
伊万 637
使劲 637
向下 637
墙@@ 637
夸@@ 637
性别 637
斯坦@@ 637
浮 637
狼人 637
疫苗 637
科特 637
肠@@ 637
莱恩 637
辉煌 637
顺序 637
ale 636
han 636
non 636
shouldn 636
trouble 636
不在意 636
兰迪 636
合并 636
提及 636
星期二 636
滾 636
跨@@ 636
陪审员 636
乎 635
傷@@ 635
十三 635
否 635
姐@@ 635
宪法 635
患有 635
此人 635
涴 635
炉 635
生涯 635
耳环 635
解救 635
证物 635
ek 634
eli 634
patrick 634
一切正常 634
勃 634
属@@ 634
帅气 634
拖延 634
栋 634
記 634
野餐 634
鹿@@ 634
cli@@ 633
cru@@ 633
ground 633
husband 633
od@@ 633
sounds 633
taken 633
ぇ 633
一有 633
兽@@ 633
司令 633
奉 633
数到 633
最後@@ 633
真为 633
能耐 633
醫@@ 633
闲 633
飛 633
din@@ 632
hang 632
security 632
sses 632
ving 632
women 632
だ 632
冷血 632
原來 632
可好 632
壶 632
太漂亮 632
实情 632
性关系 632
甚@@ 632
稱@@ 632
肾 632
艾弗里 632
詹姆士 632
調@@ 632
这比 632
雷诺 632
驶@@ 632
ble@@ 631
finch 631
信徒 631
几句话 631
味@@ 631
姑姑 631
孟@@ 631
承 631
拿掉 631
最小 631
潜入 631
酒保 631
阿成 631
box 630
fs21 630
human 630
imp@@ 630
哲@@ 630
尔克 630
弗朗@@ 630
摔跤 630
月份 630
步行 630
烧毁 630
结尾 630
罗莎 630
股份 630
覆 630
那本 630
阳台 630
ap@@ 629
cap@@ 629
mo 629
Θ 629
中毒 629
乌龟 629
别理 629
剛 629
另一半 629
可要 629
安东 629
强盗 629
欢 629
沃伦 629
液@@ 629
病例 629
矿 629
精英 629
結 629
蠀 629
ﺐ 629
1.@@ 628
scre@@ 628
不顾 628
主演 628
再也不能 628
加密 628
喀@@ 628
消防员 628
爱因斯坦 628
獨@@ 628
男士 628
疭 628
这车 628
送走 628
销 628
artie 627
tions 627
吊死 627
囚禁 627
据@@ 627
无敌 627
没理由 627
菜鸟 627
里昂 627
频率 627
cen@@ 626
lives 626
一代 626
出差 626
姆斯 626
孙女 626
室@@ 626
房地产 626
汗@@ 626
監@@ 626
规模 626
记下 626
 626
務 625
发泄 625
大伙儿 625
头号 625
寄养 625
裂@@ 625
阿什 625
past 624
val 624
一出 624
不关 624
其次 624
坐标 624
市区 624
水中 624
职业生涯 624
试一下 624
那头 624
cooper 623
dog 623
fun@@ 623
一个男孩 623
不清 623
内森 623
屁@@ 623
布洛克 623
往后 623
打人 623
握@@ 623
深度 623
特雷 623
總是 623
财务 623
超能力 623
魔术师 623
 623
3ch6c3300 622
乡@@ 622
似@@ 622
保卫 622
哈哈哈 622
土耳其 622
弱@@ 622
缓 622
诺言 622
這事 622
od 621
out@@ 621
よ 621
不知@@ 621
亿美元 621
備 621
头绪 621
效忠 621
来点 621
格伦 621
漆 621
脱衣舞 621
讨 621
﹗ 621
ca 620
ely 620
ga 620
io 620
klaus 620
wall 620
一站 620
威力 620
幽默感 620
德鲁 620
據 620
朴 620
柜台 620
电子@@ 620
瘟疫 620
癡 620
科夫 620
變得 620
ﻝ 620
ele@@ 619
q@@ 619
ring 619
寸 619
滩 619
管好 619
詹娜 619
論 619
證 619
转过身 619
运用 619
阻挡 619
carrie 618
伴娘 618
写给 618
刘易斯 618
外国人 618
恩怨 618
肝脏 618
臀部 618
诀 618
迫 618
音乐@@ 618
ile 617
万物 617
体贴 617
剥夺 617
半天 617
博客 617
发了 617
发起 617
益@@ 617
kitt 616
perhaps 616
加斯 616
口供 616
喊@@ 616
损 616
河边 616
演唱 616
生氣 616
知情 616
算不上 616
美军 616
虔诚 616
還沒@@ 616
邦@@ 616
队友 616
children 615
law 615
原来如此 615
唇 615
庞大 615
愁 615
擊@@ 615
收费 615
格雷格 615
狥 615
舧 615
藥@@ 615
规律 615
賺 615
賽@@ 615
逃亡 615
麻醉 615
feeling 614
价@@ 614
卧@@ 614
忽然 614
怎样才能 614
捣乱 614
癖 614
雙@@ 614
happens 613
價 613
充足 613
光芒 613
发财 613
塑料 613
小伙 613
打造 613
最糟 613
泄漏 613
看起 613
衛@@ 613
被关 613
阻@@ 613
马尔@@ 613
ale@@ 612
bla@@ 612
earth 612
五岁 612
但别 612
克雷格 612
坠落 612
場@@ 612
多多 612
宿 612
少数 612
徽章 612
把柄 612
拦 612
掉下去 612
禗 612
終@@ 612
電 612
sister 611
wan@@ 611
一招 611
危@@ 611
外人 611
抄 611
有话 611
珍娜 611
精子 611
絕對 611
肚 611
課 611
amanda 610
hen@@ 610
上头 610
东方 610
弓 610
损坏 610
有太多 610
汉弗莱 610
点火 610
絕@@ 610
请便 610
诺亚 610
ker@@ 609
传染 609
屈服 609
律@@ 609
德军 609
旨意 609
目標 609
缉毒 609
茱@@ 609
迷恋 609
黏@@ 609
bon@@ 608
may@@ 608
pas 608
协@@ 608
威廉姆斯 608
岩@@ 608
户@@ 608
权限 608
流浪 608
游艇 608
猫咪 608
術 608
ﺄ 608
ats 607
中校 607
党@@ 607
创建 607
小猫 607
栏 607
浴 607
车牌 607
这周 607
难题 607
jay 606
tran@@ 606
你給 606
兄弟会 606
后天 606
咁 606
律師 606
快进来 606
我救 606
摄@@ 606
火车站 606
蘑菇 606
识@@ 606
身邊 606
ly@@ 605
son@@ 605
ssion 605
à 605
个头 605
乘坐 605
仔@@ 605
天主教 605
家属 605
履行 605
庭上 605
忠 605
我犯 605
我过 605
特纳 605
萝 605
请来 605
ﻄ 605
figure 604
miles 604
仔细听 604
倫@@ 604
再聊 604
几张 604
圣地亚哥 604
夸 604
把头 604
探員 604
推销 604
江湖 604
畏 604
肌 604
蚂蚁 604
警车 604
认可 604
让你在 604
里尔 604
頂 604
cat@@ 603
dor@@ 603
mac@@ 603
nate 603
出错 603
夜间 603
姜@@ 603
帕蒂 603
拉拉 603
提取 603
瓦尔 603
男子汉 603
第七 603
第六 603
肩 603
菊 603
複 603
趴在 603
轉 603
maria 602
关进 602
影响力 602
所能 602
捞 602
无力 602
看得出 602
真爱 602
破碎 602
答复 602
缘故 602
行踪 602
谷仓 602
进出 602
roy 601
一轮 601
两份 601
值@@ 601
写信给 601
嚇@@ 601
太酷 601
引力 601
录取 601
时空 601
替代 601
毒气 601
灾@@ 601
禽兽 601
空调 601
進入 601
龙虾 601
不算什么 600
决斗 600
岛屿 600
希希 600
瑞典 600
赫克托 600
邓肯 600
 600
三十年 599
储@@ 599
到家 599
原地 599
否則 599
局势 599
快快 599
快樂 599
房东 599
扑 599
捷@@ 599
沼泽 599
爸爸妈妈 599
脫 599
謀 599
鐘 599
ro 598
人住 598
四十 598
得逞 598
活命 598
疗法 598
砍@@ 598
稳住 598
貨 598
随机 598
05 597
boss 597
fact 597
rebecca 597
ˋ 597
一刀 597
书里 597
安吉 597
抖 597
棉花 597
植入 597
涌@@ 597
矮@@ 597
粒 597
缠@@ 597
罐子 597
羞@@ 597
那笔 597
麦克风 597
along 596
elle 596
tyler 596
ur 596
凡人 596
后座 596
好棒 596
帆 596
破案 596
祝@@ 596
逃出去 596
int 595
ion 595
nikita 595
一切都在 595
冈 595
右转 595
喬@@ 595
差一点 595
徒@@ 595
报答 595
挖出来 595
无家可归 595
时髦 595
晕@@ 595
更是 595
痛恨 595
缝合 595
翩 595
野心 595
control 594
follow 594
乱搞 594
伙@@ 594
克利 594
分辨 594
勾@@ 594
危害 594
发抖 594
当个 594
志愿者 594
握住 594
添@@ 594
瓦斯 594
罗尼 594
美食 594
联 594
茲 594
规划 594
踪迹 594
01 593
ahead 593
ston 593
sw@@ 593
一班 593
兩 593
好不容易 593
宇 593
尤 593
广 593
建筑物 593
弯@@ 593
接待 593
收据 593
测验 593
烧烤 593
燒@@ 593
玛姬 593
魯@@ 593
亲眼 592
企@@ 592
卡罗 592
喝啤酒 592
很痛 592
沙子 592
济@@ 592
處@@ 592
虽 592
黎@@ 592
daniel 591
ties 591
上瘾 591
住所 591
出轨 591
嚼 591
打碎 591
雷蒙 591
 591
3000 590
till 590
下山 590
我们自己的 590
押@@ 590
推出 590
播出 590
支撑 590
東 590
步骤 590
税@@ 590
稰 590
草坪 590
达斯 590
齿 590
an8 589
fast 589
sara 589
sun@@ 589
亨@@ 589
出身 589
分成 589
南瓜 589
各个 589
快递 589
感人 589
我活 589
放进去 589
极大 589
秈 589
粄 589
能活 589
销@@ 589
cr@@ 588
dev@@ 588
hate 588
x光 588
伊娃 588
体面 588
哀悼 588
屍體 588
有份 588
杜克 588
篮@@ 588
肥皂 588
西德 588
访客 588
问起 588
麦斯 588
ders 587
hol@@ 587
ii 587
sou@@ 587
不妥 587
伤疤 587
减轻 587
占据 587
坠入 587
备份 587
妥 587
家庭@@ 587
實 587
悲痛 587
摆平 587
撕裂 587
火腿 587
省省 587
網@@ 587
胶@@ 587
色彩 587
裁@@ 587
ars 586
ba 586
daddy 586
perfect 586
sweet 586
卫生 586
园@@ 586
垮 586
感恩 586
捐 586
沾@@ 586
福斯特 586
終 586
胡闹 586
ah@@ 585
fall 585
shoot 585
也@@ 585
出示 585
可比 585
同胞 585
廷 585
很惨 585
徒 585
损害 585
杰里 585
派克 585
潜力 585
片刻 585
紫色 585
聊过 585
脫@@ 585
蹦@@ 585
辣@@ 585
采用 585
阿宝 585
难以@@ 585
雨果 585
anybody 584
buy 584
lar 584
martin 584
一万 584
丧命 584
丰@@ 584
兜 584
呆子 584
宫殿 584
归来 584
往事 584
梁 584
炒@@ 584
相识 584
继承人 584
艳@@ 584
行走 584
订单 584
較 584
金融 584
一丝 583
一帮 583
他们自己 583
俺 583
后备箱 583
总裁 583
教书 583
购 583
进晚餐 583
阿尔伯特 583
company 582
hour 582
不放 582
伪@@ 582
佩克 582
典礼 582
告发 582
哈妮 582
哪边 582
寄来 582
岗位 582
棍子 582
澳大利亚 582
猜想 582
生日礼物 582
肋骨 582
高速 582
52 581
building 581
不及 581
先去 581
公事 581
咸@@ 581
埋伏 581
姬@@ 581
寇 581
拥@@ 581
推翻 581
法则 581
约翰逊 581
续 581
闆 581
门前 581
鬼混 581
cannot 580
chuck 580
date 580
diane 580
fs18 580
一块儿 580
上空 580
不良 580
丘 580
人格 580
决不 580
培根 580
多事 580
姨@@ 580
幽@@ 580
我会用 580
欧元 580
禁 580
耻 580
辣椒 580
那幅 580
防卫 580
ㄢ 579
丟@@ 579
仿@@ 579
名称 579
当面 579
打斗 579
有枪 579
朱迪 579
涉嫌 579
窝@@ 579
老友 579
衰@@ 579
鉴定 579
鲜花 579
luc@@ 578
书店 578
作风 578
在内 578
挚爱 578
无趣 578
未必 578
直至 578
绝不能 578
讲述 578
離@@ 578
0.@@ 577
250 577
fac@@ 577
举止 577
伍@@ 577
十天 577
场所 577
張@@ 577
榜样 577
演习 577
点半 577
遠@@ 577
伴@@ 576
再见面 576
大学生 576
太近 576
帮会 576
新鲜空气 576
淘汰 576
灭@@ 576
爛 576
爱我吗 576
甚 576
离家出走 576
莉丝 576
踩@@ 576
黑洞 576
fle@@ 575
hand@@ 575
known 575
scared 575
上钩 575
任務 575
倾听 575
和尚 575
咪咪 575
察觉 575
成本 575
消 575
献@@ 575
碰过 575
社长 575
簡直 575
转弯 575
ﺼ 575
matt 574
严厉 574
凉@@ 574
口水 574
层@@ 574
平凡 574
愈 574
新泽西 574
无法@@ 574
比喻 574
為何 574
知名 574
科学@@ 574
织@@ 574
警惕 574
贱货 574
ash 573
stupid 573
估 573
圖@@ 573
基金会 573
奇特 573
巫@@ 573
痛快 573
發誓 573
翅 573
花生 573
谴责 573
逃生 573
那栋 573
bonnie 572
dance 572
street 572
sub@@ 572
书上 572
午@@ 572
展览 572
彻@@ 572
快点儿 572
挑剔 572
时速 572
杀了人 572
活人 572
用餐 572
畫 572
药品 572
轮椅 572
迫@@ 572
ﾐ 572
food 571
ick 571
yer 571
古代 571
学者 571
射中 571
恶棍 571
打发 571
教父 571
束@@ 571
浅 571
涅@@ 571
激光 571
珨 571
盲目 571
离家 571
美洲 571
赦免 571
金字塔 571
ak 570
maggie 570
tes 570
vel@@ 570
好多年 570
察 570
得救 570
摆在 570
料@@ 570
没干 570
泪 570
溅 570
聽@@ 570
莉迪亚 570
薪 570
这台 570
bre@@ 569
力克 569
北边 569
卡洛 569
受够 569
大爷 569
好比 569
教过 569
校对 569
火奴鲁鲁 569
火柴 569
狂野 569
硬盘 569
礚 569
胸罩 569
萍 569
过节 569
那块 569
雅各 569
hon@@ 568
order 568
仲@@ 568
壁@@ 568
处死 568
妓院 568
宁静 568
弄出去 568
景象 568
流言 568
电影院 568
纤维 568
规 568
锯@@ 568
鸣 568
possible 567
sig@@ 567
上将 567
世间 567
二位 567
围着 567
探险 567
摇摆 567
撑住 567
罪过 567
这么回事 567
饮食 567
驾@@ 567
lin 566
sign 566
乔希 566
佩吉 566
出海 566
厌烦 566
地下@@ 566
堡垒 566
外卖 566
媽@@ 566
峡谷 566
平均 566
感想 566
揭露 566
毀 566
窃听器 566
胜任 566
赏 566
转到 566
遵循 566
ser 565
几位 565
卡罗尔 565
姑@@ 565
悄悄 565
感应 565
我下 565
打赢 565
短裤 565
肚@@ 565
设想 565
赏金 565
還記 565
面对现实 565
dear 564
my@@ 564
promise 564
人命 564
医学院 564
合唱团 564
尼基塔 564
彼@@ 564
手续 564
拦截 564
斯图尔特 564
格兰特 564
毕夏普 564
稦 564
老人家 564
蒸@@ 564
見面 564
 564
ace 563
eric 563
下个月 563
再试一次 563
寇@@ 563
巫术 563
很傻 563
急诊室 563
故 563
斯卡 563
无尽 563
求助 563
淑女 563
溜走 563
絕 563
豆子 563
这颗 563
际 563
dly 562
off@@ 562
serena 562
会计 562
传唤 562
公车 562
复 562
忽@@ 562
性生活 562
恰好 562
打印 562
无可@@ 562
来回 562
气息 562
老头子 562
脚印 562
赣 562
集会 562
95 561
spo@@ 561
ya@@ 561
一滴 561
争执 561
你们自己 561
倒数 561
弗罗斯特 561
根本就是 561
皇室 561
莱斯特 561
部份 561
配不上 561
问题所在 561
ﺸ 561
ings 560
lucky 560
oc@@ 560
事态 560
人想 560
再会 560
卡莉 560
取证 560
安置 560
尊 560
智商 560
真主 560
筆 560
裹 560
證@@ 560
长久 560
面部 560
3c000000 559
drive 559
grand@@ 559
ls 559
turned 559
一度 559
一页 559
压根 559
去取 559
团聚 559
弗朗西斯 559
泰国 559
洛伊 559
瞎子 559
致死 559
转转 559
门锁 559
39 558
dream 558
一来 558
一脚 558
三角 558
今夜 558
信赖 558
俱@@ 558
大學 558
所见 558
甩@@ 558
监视器 558
绒 558
绰号 558
翘 558
自责 558
解剖 558
談@@ 558
赶出去 558
风趣 558
41 557
bb@@ 557
mit@@ 557
special 557
strong 557
人头 557
务必 557
喵 557
奸 557
威尼斯 557
恐@@ 557
振作起来 557
此次 557
洗衣服 557
照料 557
猩猩 557
看過 557
铐 557
fscy120 556
mon 556
ye@@ 556
交通@@ 556
培训 556
实习 556
寒 556
格瑞特 556
淋@@ 556
猪肉 556
统一 556
育 556
药丸 556
虚构 556
蟹 556
辩方 556
dark 555
住址 555
叛@@ 555
員@@ 555
国民 555
大姐 555
大火 555
奎恩 555
奖@@ 555
妈呀 555
得够 555
恰当 555
情妇 555
殴打 555
监管 555
翁 555
肝 555
进城 555
迷你 555
零件 555
dre@@ 554
murder 554
step 554
system 554
works 554
交給 554
京 554
优 554
吉尔伯特 554
哗 554
期限 554
杀光 554
猎杀 554
瑜伽 554
禮物 554
維 554
自卫 554
back@@ 553
drop 553
丫 553
冰激凌 553
冻结 553
吧台 553
團 553
桑德斯 553
毁@@ 553
特意 553
盗窃 553
笛 553
遺@@ 553
高大 553
cou@@ 552
cra@@ 552
ear@@ 552
tou@@ 552
十五@@ 552
半辈子 552
原理 552
手榴弹 552
某种程度 552
比不上 552
索菲亚 552
美国政府 552
贞@@ 552
高层 552
麵 552
.5 551
285 551
pa 551
不当 551
俘虏 551
副作用 551
压抑 551
哲学 551
小提琴 551
很差 551
扮@@ 551
敌军 551
无处不在 551
監獄 551
经济@@ 551
群岛 551
这艘 551
lead 550
lucy 550
shing 550
公室 550
利息 550
古董 550
呼唤 550
咖啡馆 550
忍耐 550
无耻 550
有件 550
松开 550
树木 550
每月 550
汉斯 550
爹地 550
碰头 550
罗西 550
马库斯 550
blue 549
william 549
za@@ 549
分数 549
匹@@ 549
屠夫 549
忠告 549
我国 549
我知 549
房产 549
暴躁 549
权威 549
桑德拉 549
熱 549
纪律 549
诚@@ 549
车道 549
bru@@ 548
dick 548
ise 548
pic@@ 548
不怎么样 548
之心 548
九岁 548
他长 548
内心深处 548
刚刚开始 548
名为 548
哲 548
唠叨 548
富人 548
歡@@ 548
河里 548
真美 548
確 548
记号 548
迪亚 548
beat 547
phil 547
raj 547
ti 547
一條 547
下水道 547
人死 547
介@@ 547
勢 547
原告 547
和谐 547
哪天 547
大屠杀 547
弄死 547
恰@@ 547
收购 547
救赎 547
普拉 547
没戏 547
湖边 547
钟头 547
驻 547
鳥 547
 547
14@@ 546
cd 546
ess 546
stan 546
三名 546
侯默 546
印度人 546
反映 546
子宫 546
打开门 546
特尔 546
瑞金 546
缓慢 546
逍遥法外 546
门铃 546
funny 545
与此同时 545
仪器 545
始 545
娘养 545
尼基 545
折腾 545
新手 545
泪@@ 545
洗手 545
自然@@ 545
視@@ 545
57 544
barney 544
bell 544
tch 544
丝毫 544
值班 544
双倍 544
夏洛克 544
小声点 544
尖叫声 544
并非如此 544
打动 544
極 544
滿@@ 544
碟 544
穿成 544
義@@ 544
脱衣服 544
通行证 544
驳回 544
 544
 544
hair 543
marshall 543
wit@@ 543
三百 543
亲亲 543
响起 543
坏话 543
塞斯 543
女仆 543
对比 543
战斗机 543
无疑 543
最早 543
束缚 543
柯林斯 543
气候 543
深爱 543
电影@@ 543
终点 543
贫穷 543
calling 542
九年 542
偷听 542
后代 542
坠毁 542
天性 542
强硬 542
当场 542
恋@@ 542
抉择 542
提名 542
有幸 542
本來 542
柴 542
樹 542
決@@ 542
泊 542
澳洲 542
画廊 542
督@@ 542
砍掉 542
自尊 542
莲娜 542
辦@@ 542
追随 542
饱@@ 542
ad 541
ative 541
scott 541
words 541
停电 541
去向 541
喂@@ 541
国家@@ 541
孙 541
废弃 541
摊 541
放出 541
瓳 541
白兰地 541
赚@@ 541
ﻊ 541
mission 540
queen 540
small 540
tte 540
乾@@ 540
从而 540
劇@@ 540
回收 540
太重 540
妆 540
布丁 540
战舰 540
政治@@ 540
松饼 540
氧 540
特拉 540
理会 540
示范 540
空虚 540
统@@ 540
诉@@ 540
诡计 540
身高 540
输掉 540
进度 540
雾@@ 540
音樂 540
黑手党 540
& 539
ku@@ 539
sor@@ 539
並且 539
使者 539
坎 539
失礼 539
建議 539
忘不了 539
班上 539
琳@@ 539
艺术@@ 539
视野 539
诺曼 539
谅谅 539
释@@ 539
饰 539
born 538
cary 538
dun@@ 538
lor@@ 538
seem 538
somewhere 538
中弹 538
乳头 538
及@@ 538
发脾气 538
台阶 538
太难 538
尿布 538
幹嘛 538
建设 538
必然 538
念书 538
我什至 538
拐 538
掉头 538
斯克 538
瘫痪 538
糊 538
艾尔@@ 538
衝@@ 538
警徽 538
身手 538
ig@@ 537
不变 537
不用谢 537
伦斯 537
信用 537
傳 537
刊 537
奋@@ 537
巨星 537
并未 537
心烦 537
梯子 537
極@@ 537
爱着 537
的士 537
真对不起 537
辣妹 537
面条 537
gor@@ 536
lly 536
ooh 536
pper 536
squ@@ 536
タ 536
不能@@ 536
国防部 536
忧郁 536
恨@@ 536
抵押 536
改革 536
暮 536
游荡 536
非常高兴 536
arthur 535
gas 535
mur@@ 535
music 535
上方 535
买单 535
争议 535
代号 535
会用 535
冰冷 535
冲着 535
奈德 535
女演员 535
很感兴趣 535
情愿 535
情景 535
持枪 535
界限 535
过错 535
那颗 535
酋长 535
2ch0080ff 534
dvd 534
ire 534
jo 534
uni@@ 534
口信 534
外界 534
安东尼奥 534
御@@ 534
忧@@ 534
拒絕 534
星期三 534
柄 534
置@@ 534
锡 534
開車 534
電視 534
需@@ 534
震 534
龍 534
 534
两边 533
倾诉 533
凶杀案 533
困在 533
婦 533
安靜 533
弗兰@@ 533
得意 533
手头 533
最低 533
来往 533
液体 533
灰尘 533
监护人 533
第五@@ 533
终极 533
脚踝 533
芭@@ 533
赞助 533
达拉斯 533
野人 533
闪亮 533
3ah82 532
fnyouyuan 532
墨西哥人 532
奏效 532
姿 532
打理 532
既@@ 532
粉红 532
蓋 532
重力 532
bs 531
choice 531
不能不 531
亚特兰大 531
众人 531
偏偏 531
兄弟姐妹 531
哒 531
失效 531
委@@ 531
寻 531
将近 531
布拉@@ 531
布鲁诺 531
捉@@ 531
杯@@ 531
核武器 531
歌洛莉亚 531
浑蛋 531
澄清 531
矣 531
绑起来 531
美分 531
能比 531
艾伯特 531
苦难 531
隙 531
一場 530
不已 530
传到 530
抄@@ 530
抗争 530
穴 530
第一名 530
蟑螂 530
退学 530
郁闷 530
che 529
lisa 529
sean 529
偏 529
具@@ 529
典 529
奎 529
山顶 529
得罪 529
恕我直言 529
架子 529
栓 529
案例 529
波斯 529
注视 529
活生生 529
百姓 529
罗密欧 529
诱@@ 529
适用 529
险@@ 529
 529
1chffff00 528
dj 528
piece 528
poli@@ 528
之道 528
克雷@@ 528
寡@@ 528
崩 528
总理 528
慧@@ 528
戲 528
抚摸 528
插入 528
有次 528
有病 528
牛仔裤 528
王牌 528
生日派对 528
研究@@ 528
粗倩 528
跌倒 528
车票 528
铃@@ 528
開槍 528
顺着 528
andrew 527
leaving 527
pull 527
人为 527
前女友 527
坤 527
很难说 527
心理@@ 527
总督 527
报社 527
抬头 527
最少 527
柔软 527
樱桃 527
续@@ 527
茨@@ 527
荡@@ 527
赵@@ 527
龙舌兰 527
＂ 527
cold 526
test 526
ture 526
历 526
圈子 526
塞尔 526
宣称 526
我放 526
有所@@ 526
树枝 526
激活 526
臀 526
記錄 526
退缩 526
gold 525
ot 525
sm@@ 525
sters 525
ゑ 525
凡事 525
命中注定 525
唐纳德 525
尔森 525
强制 525
报案 525
拍电影 525
操蛋 525
点事 525
知晓 525
粉红色 525
莫里斯 525
言语 525
路程 525
过份 525
通向 525
酒馆 525
骆驼 525
51 524
himself 524
iz@@ 524
shaw 524
ski 524
sla@@ 524
weeks 524
低头 524
公子 524
养活 524
冒出来 524
几百@@ 524
剥@@ 524
含义 524
夫斯基 524
底部 524
弟兄们 524
成分 524
执法 524
洛根 524
看样子 524
真能 524
科诺 524
群众 524
羽@@ 524
聲@@ 524
花样 524
辱 524
都还没 524
颤抖 524
bo 523
fully 523
humphrey 523
playing 523
人马 523
努 523
喜悦 523
录@@ 523
很烂 523
提早 523
改成 523
斑@@ 523
護 523
误 523
过床 523
遗体 523
邮箱 523
claire 522
happening 522
tru@@ 522
yo 522
一发 522
三千 522
司法 522
最强 522
猫王 522
眼看 522
還沒有 522
飞往 522
cle@@ 521
ist 521
一會兒 521
伤痕 521
体育@@ 521
关键@@ 521
复活节 521
媚 521
孔@@ 521
底线 521
担@@ 521
挽回 521
有助于 521
罗拉 521
胎儿 521
顶尖 521
fra@@ 520
serious 520
侏儒 520
受傷 520
妖怪 520
攀@@ 520
明亮 520
查明 520
管理@@ 520
聪明人 520
鱼雷 520
future 519
road 519
wo@@ 519
不大 519
动摇 519
友情 519
吉尔@@ 519
开动 519
掌管 519
未來 519
特遣队 519
电击 519
界@@ 519
盐@@ 519
看穿 519
種@@ 519
筿 519
罗宾斯 519
聽到 519
船只 519
貴 519
赛尔 519
carlos 518
cts 518
ial 518
questions 518
report 518
vol@@ 518
一包 518
与否 518
两件事 518
刺客 518
常规 518
心事 518
捡起来 518
有家 518
朝着 518
每隔 518
海湾 518
痊愈 518
稍等一下 518
趁@@ 518
过量 518
部署 518
黑社会 518
stephen 517
人造 517
体系 517
余地 517
冯 517
冲击 517
另一只 517
哀@@ 517
征 517
桑尼 517
深夜 517
清空 517
狟 517
琩 517
罪孽 517
自制 517
蔚@@ 517
藏身 517
行政 517
迫使 517
锅@@ 517
镜@@ 517
露丝 517
顽固 517
鹦鹉 517
kers 516
ner@@ 516
图案 516
坐飞机 516
大块头 516
大西洋 516
孝@@ 516
岁月 516
晓@@ 516
油漆 516
法律@@ 516
真得 516
纠正 516
罢 516
腦@@ 516
艾拉 516
马拉 516
龟@@ 516
bishop 515
court 515
meeting 515
moving 515
secret 515
takes 515
举报 515
优点 515
作对 515
勾搭 515
化验 515
国土 515
库克 515
找寻 515
拜斯 515
挣@@ 515
敦 515
无法忍受 515
杰克森 515
煙 515
皇 515
老家 515
赶时间 515
领导人 515
黛西 515
dd@@ 514
gardner 514
ily 514
mes 514
不看 514
会变 514
借钱 514
十字 514
千元 514
啥事 514
園 514
已知 514
整夜 514
灭亡 514
越狱 514
跳动 514
躲开 514
辛格 514
阶 514
120 513
与其 513
中风 513
匆忙 513
吞噬 513
大名 513
大方 513
好话 513
胎@@ 513
诈骗 513
cy@@ 512
kat@@ 512
举起手来 512
二人 512
众多 512
刷@@ 512
动身 512
娘@@ 512
完全正确 512
寫@@ 512
当选 512
怨 512
放開 512
来时 512
毫不@@ 512
背部 512
脑筋 512
莱西 512
超自然 512
面对面 512
cover 511
public 511
pur@@ 511
tho@@ 511
乖@@ 511
光是 511
公牛 511
叛军 511
四分 511
地窖 511
孤儿院 511
寺 511
庇护 511
彈@@ 511
抢走了 511
果酱 511
滋@@ 511
生于 511
簽@@ 511
绞@@ 511
莎士比亚 511
贝卡 511
［ 511
2.@@ 510
alright 510
ken 510
others 510
press 510
zach 510
乃 510
保利 510
军事@@ 510
凭@@ 510
合格 510
哔 510
大桥 510
惊吓 510
扯平 510
日出 510
暗号 510
点击 510
烟雾 510
瞶 510
行李箱 510
跟进 510
颈 510
马文 510
骨灰 510
jerry 509
oliver 509
rachel 509
为荣 509
先别 509
克莱儿 509
到场 509
华莱士 509
巫婆 509
役 509
很强 509
恭@@ 509
摸摸 509
旺@@ 509
盼 509
突袭 509
级@@ 509
议 509
踏 509
这不关 509
兑现 508
关照 508
大侠 508
尤金 508
承認 508
指证 508
曲棍球 508
浆 508
润@@ 508
焦点 508
營 508
特种部队 508
痴@@ 508
瘋狂 508
盗@@ 508
粥 508
罚单 508
诺斯 508
邊@@ 508
验 508
ﺻ 508
fly 507
sil@@ 507
丈 507
俄语 507
叹 507
告密 507
我选 507
扒 507
打擾 507
斤 507
新奥尔良 507
残骸 507
添 507
華 507
观念 507
重罪 507
野外 507
高跟鞋 507
鸡鸡 507
hank 506
伊凡 506
冤@@ 506
司法部 506
善于 506
是非 506
檢@@ 506
歪 506
生来 506
當我 506
迷信 506
面孔 506
高地 506
﹑ 506
bab@@ 505
charles 505
giving 505
owen 505
standing 505
内尔 505
北极 505
叮@@ 505
头骨 505
婚前 505
带有 505
开庭 505
淡定 505
煩 505
球迷 505
纪念品 505
草原 505
證據 505
路德 505
輸 505
防线 505
鲁莽 505
ered 504
lies 504
luck 504
seeing 504
三位 504
入住 504
刃 504
削减 504
十四 504
华尔街 504
可耻 504
奥巴马 504
學生 504
帖 504
成天 504
扫兴 504
擁有 504
明信片 504
构成 504
烤肉 504
电脑@@ 504
盘问 504
管制 504
裤@@ 504
诊 504
遊戲 504
勁 503
名下 503
堤 503
外边 503
岗 503
庆典 503
弗雷 503
格斗 503
津 503
盲 503
粮 503
身亡 503
鲁迪 503
］ 503
不夠 502
业余 502
伯恩 502
场地 502
子女 502
学过 502
泰瑞 502
盡@@ 502
經 502
者@@ 502
莱利 502
触发 502
诗歌 502
途 502
靡 502
 502
700 501
ella 501
rock 501
六岁 501
千块 501
哈克 501
大家伙 501
大炮 501
密切 501
崭新 501
懦弱 501
扑@@ 501
挖出 501
斑 501
煤@@ 501
维修 501
腾@@ 501
誓@@ 501
迁 501
追寻 501
铅笔 501
靈魂 501
鬧 501
12@@ 500
blair 500
sick 500
乡巴佬 500
产业 500
亲切 500
先前 500
出击 500
别生气 500
同情心 500
地雷 500
巴克利 500
律师@@ 500
拉杰 500
招募 500
拿枪 500
敲诈 500
渭 500
熟人 500
白白 500
眼睁睁 500
莲@@ 500
記住 500
轻点 500
革@@ 500
促 499
另一方面 499
向来 499
哪去 499
差事 499
强暴 499
性行为 499
惊慌 499
想不出 499
我成 499
景色 499
消化 499
签约 499
要用 499
转动 499
金刚 499
隐蔽 499
become 498
list 498
二十分钟 498
像样 498
兇手 498
冷靜 498
凤@@ 498
占用 498
发来 498
喂喂 498
围巾 498
坛 498
好歹 498
巾 498
懷@@ 498
指挥@@ 498
收留 498
火花 498
贝儿 498
這么 498
验尸 498
spi@@ 497
一桩 497
伊斯 497
传单 497
初步 497
咖啡店 497
处罚 497
寶@@ 497
尽我所能 497
平台 497
换掉 497
焦 497
私奔 497
組 497
調 497
调查局 497
飞去 497
 497
hill 496
kate 496
meant 496
出国 496
吴 496
埃尔@@ 496
壮观 496
外交 496
夜班 496
太阳@@ 496
应用 496
扩散 496
有多@@ 496
猎 496
破烂 496
竞赛 496
腳@@ 496
舊 496
邮局 496
领主 496
ﺕ 496
sk 495
中东 495
切斯特 495
劈 495
单词 495
天知道 495
屁话 495
怨恨 495
恋人 495
戀 495
斯利 495
曾經 495
查过 495
浦 495
爆米花 495
粉色 495
绑匪 495
貨@@ 495
跳过 495
重演 495
aaron 494
captain 494
ね 494
一瞬间 494
一类 494
上见 494
事关 494
会议室 494
女佣 494
室内 494
島 494
弄坏了 494
想象力 494
拉尔夫 494
推动 494
智 494
瘾 494
瞪 494
等级 494
緊張 494
自我介绍 494
芬妮 494
觉@@ 494
阻 494
霸@@ 494
ane 493
tor 493
休斯 493
健 493
副本 493
唬 493
增 493
姜 493
巨型 493
快感 493
燒 493
签个 493
群体 493
赔@@ 493
高尔夫 493
pin@@ 492
一日 492
同学们 492
吹牛 492
妄@@ 492
很近 492
忍者 492
惯@@ 492
扮成 492
捧 492
无人@@ 492
暂@@ 492
治療 492
热水 492
童子军 492
艾薇 492
賭 492
身分 492
ﺨ 492
catch 491
佢 491
受损 491
史考特 491
堅持 491
复合 491
头顶 491
怀抱 491
恳求 491
无名 491
日志 491
更衣室 491
汉弗瑞 491
竞@@ 491
耽搁 491
謊 491
诚意 491
那帮 491
音乐家 491
 491
rich 490
一带 490
之手 490
乾 490
佈 490
佐伊 490
先到 490
克特 490
冤枉 490
動物 490
哨 490
回顾 490
大餐 490
婚禮 490
必定 490
恩斯 490
懂@@ 490
我什麼 490
挣钱 490
斯坦利 490
未经 490
模特儿 490
盤 490
耗@@ 490
芭 490
那首歌 490
问得 490
類 490
art 489
eu@@ 489
tmd 489
上床睡觉 489
下雪 489
依据 489
侯 489
兜风 489
出钱 489
分歧 489
卡梅隆 489
吓跑 489
圣灵 489
坦白说 489
奖杯 489
戲@@ 489
沃斯 489
用处 489
看得见 489
社會 489
禮 489
芳@@ 489
萇 489
蜥蜴 489
避 489
 489
beth 488
var@@ 488
两件 488
乐器 488
冥@@ 488
分居 488
制片人 488
办案 488
协调 488
台湾 488
坚果 488
好受 488
守护者 488
慈悲 488
旅客 488
最先 488
木偶 488
本杰明 488
爭@@ 488
狮 488
用过 488
組織 488
门上 488
领地 488
马可 488
given 487
不惜 487
假扮 487
关押 487
兽医 487
前台 487
参赛 487
发狂 487
支配 487
激励 487
眼下 487
眾 487
莫斯 487
赛斯 487
趕 487
鲍伯 487
ator 486
simon 486
worked 486
儘 486
卜@@ 486
契约 486
娩 486
扑克 486
拉丁 486
按住 486
振 486
电视@@ 486
皮带 486
穝 486
言论 486
辩@@ 486
过日子 486
關於 486
ney 485
ol 485
ow@@ 485
í 485
以至于 485
份子 485
充电 485
兆 485
关节 485
勒死 485
多难 485
学位 485
岂 485
捍卫 485
捐赠 485
杰弗里 485
电邮 485
盟友 485
糕 485
薛@@ 485
alan 484
ho 484
京@@ 484
劇 484
勃起 484
吉斯 484
婚纱 484
愚@@ 484
无助 484
温馨 484
演示 484
玩偶 484
表現 484
觀 484
读者 484
造型 484
飓风 484
ell 483
セ 483
伊莎贝拉 483
体温 483
冈@@ 483
动议 483
厩 483
发光 483
巴德 483
我太@@ 483
打火机 483
找死 483
旺 483
没变 483
海军陆战队 483
犯傻 483
生物@@ 483
真遗憾 483
罐@@ 483
肢 483
诈 483
走着瞧 483
錄 483
關心 483
驹 483
clu@@ 482
ham@@ 482
katherine 482
linda 482
mad 482
nzt 482
temp@@ 482
不得@@ 482
堵住 482
境@@ 482
师兄 482
洱 482
爪子 482
继父 482
自负 482
莫莉 482
莱尔 482
说服力 482
输给 482
陶德 482
booth 481
mmm 481
不管是谁 481
十八 481
去查 481
吃饱 481
听得见 481
弄伤 481
录音带 481
沿 481
煎熬 481
猪头 481
自找 481
薄荷 481
abby 480
evidence 480
fair 480
不足以 480
侦察 480
发电机 480
叶子 480
嚴重 480
国度 480
如果说 480
妻@@ 480
尔曼 480
悠@@ 480
惯 480
拐@@ 480
死活 480
爱尔兰人 480
瑞安 480
被害 480
走动 480
这名 480
这首 480
追上 480
递@@ 480
tz 479
之力 479
亏@@ 479
冒昧 479
嚇 479
夺回 479
弗罗 479
徐@@ 479
搜集 479
晨@@ 479
暴徒 479
格兰@@ 479
营业 479
较@@ 479
锦@@ 479
镇静 479
雏@@ 479
黨 479
fil@@ 478
gla@@ 478
kim 478
一次性 478
上星期 478
不覺 478
侬 478
克里夫 478
准许 478
太紧 478
妒忌 478
屑 478
扰 478
挂断 478
斯科 478
王位 478
瑪 478
组长 478
舱@@ 478
这身 478
鎖 478
锤子 478
green 477
up@@ 477
ye 477
三倍 477
二楼 477
八岁 477
卵@@ 477
失落 477
山洞 477
忙碌 477
比萨 477
砖 477
结案 477
美极了 477
背面 477
虚伪 477
那片 477
鐵@@ 477
门票 477
驾车 477
fault 476
mail 476
sans 476
straight 476
伯纳 476
坏掉 476
夠了 476
巨 476
懒 476
我数 476
掰 476
撕 476
水泥 476
活得 476
演说 476
灾 476
特德 476
留个 476
盟 476
神龙 476
科斯 476
衣橱 476
记下来 476
语音 476
鎮 476
银河系 476
ﺀ 476
bet 475
gro@@ 475
lau@@ 475
missing 475
一两个 475
主持人 475
可可 475
哪個 475
喉@@ 475
庄 475
打出 475
找麻烦 475
梦境 475
燕@@ 475
片段 475
米克 475
腰带 475
途@@ 475
sex 474
〝 474
一团 474
不好受 474
东区 474
中途 474
书房 474
以後@@ 474
修正案 474
典@@ 474
可用 474
存款 474
岛@@ 474
带点 474
整体 474
无赖 474
柑 474
梨 474
棉@@ 474
水下 474
紅 474
罗伯 474
补给 474
记错 474
踏上 474
韩 474
须@@ 474
fit 473
反复 473
品质 473
地道 473
家门 473
尼娜 473
希德 473
想必 473
聞 473
自殺 473
谈起 473
路口 473
车队 473
週@@ 473
里佐利 473
钓@@ 473
阿尔 473
难民 473
85 472
felt 472
finally 472
larry 472
longer 472
none 472
weird 472
危 472
呼吁 472
四次 472
好想你 472
寿@@ 472
幾乎 472
控方 472
教士 472
斐@@ 472
新聞 472
日常 472
武力 472
真快 472
莉斯 472
蓬@@ 472
话说回来 472
88 471
las 471
message 471
star 471
庫 471
慎 471
桩 471
浪費 471
海瑟 471
父王 471
状@@ 471
盿 471
芭蕾 471
遥@@ 471
酮 471
黛安 471
deli@@ 470
duc@@ 470
indi@@ 470
两千 470
伴随 470
侦@@ 470
军火 470
初次 470
否定 470
小妹妹 470
屁屁 470
幢 470
德利 470
忠心 470
手镯 470
歷史 470
活著 470
活跃 470
测量 470
熏 470
犹@@ 470
碰撞 470
糊@@ 470
鉴证 470
驚@@ 470
00@@ 469
64 469
ali 469
dinner 469
fied 469
lock 469
さ 469
一无所获 469
不留 469
公公 469
南边 469
嘉宾 469
大错 469
打牌 469
来杯 469
經過 469
老太婆 469
脑部 469
自行 469
道具 469
雪梨 469
angela 468
parker 468
rac@@ 468
sun 468
别介意 468
將會 468
提夫 468
旨 468
沉睡 468
特地 468
砛 468
葬@@ 468
虫@@ 468
铜 468
weren 467
一心 467
乱说 467
勋 467
勺 467
千里 467
咖啡@@ 467
失手 467
幼儿园 467
徒弟 467
拇指 467
梦幻 467
燈 467
现状 467
箭@@ 467
裂缝 467
轨 467
震撼 467
ena 466
丘@@ 466
公鸡 466
匪 466
卡利 466
召开 466
小混蛋 466
干预 466
扩张 466
末日 466
東西@@ 466
歹徒 466
每日 466
泵 466
生前 466
真人 466
臭味 466
莱德 466
认不出 466
送死 466
预订 466
56 465
detective 465
gary 465
jer@@ 465
ming 465
vin 465
交朋友 465
几率 465
剂量 465
品尝 465
宇航员 465
版@@ 465
現場 465
社团 465
脉 465
ering 464
percy 464
roo@@ 464
throw 464
zi@@ 464
下方 464
下星期 464
丽丝 464
亚斯 464
塑@@ 464
大惊小怪 464
差错 464
当上 464
心理学 464
村民 464
水池 464
疑惑 464
筋 464
系統 464
让步 464
责备 464
钉子 464
30@@ 463
brown 463
ren 463
一大早 463
付费 463
侯@@ 463
决不会 463
囉 463
太忙 463
巧@@ 463
拍档 463
玻璃@@ 463
留住 463
確@@ 463
福音 463
跳跃 463
轻微 463
这支 463
阿拉斯加 463
鬼话 463
learn 462
protect 462
丽亚 462
乌 462
乌斯 462
再用 462
包包 462
坐坐 462
威脅 462
怀里 462
手機 462
敢@@ 462
桂@@ 462
比亚 462
签证 462
篮球 462
维特 462
薇@@ 462
薩 462
讨好 462
起身 462
辨 462
逛逛 462
里根 462
bag 461
fan@@ 461
sha 461
some@@ 461
专长 461
传输 461
偿还 461
凤凰 461
出入 461
前一天 461
号房 461
咳 461
囊@@ 461
媽的 461
拉开 461
挑起 461
早些时候 461
熬 461
爱伦 461
老哥 461
落到 461
道格拉斯 461
郑@@ 461
锁起来 461
领土 461
cy 460
mmy 460
公共@@ 460
单子 460
取悦 460
启发 460
奥利 460
女婿 460
奶牛 460
延期 460
心底 460
拿破仑 460
按时 460
挺住 460
揭发 460
时常 460
村里 460
涉@@ 460
照相 460
玩耍 460
珍妮特 460
皮埃尔 460
盗 460
組@@ 460
艾娃 460
落入 460
警署 460
配方 460
里边 460
马克思 460
乃@@ 459
五万 459
加倍 459
异教徒 459
扔@@ 459
扰乱 459
护理 459
探测 459
收钱 459
文森 459
旅 459
毛骨悚然 459
決 459
癘 459
立正 459
義 459
蔼 459
试一试 459
象是 459
郊区 459
钢铁 459
cher@@ 458
connor 458
helen 458
kelly 458
kins 458
sit@@ 458
tit@@ 458
两百 458
之神 458
他会来 458
收手 458
旗@@ 458
最爱 458
朱丽叶 458
殺@@ 458
管它 458
聆听 458
过不去 458
骇@@ 458
 458
mate 457
mouth 457
row 457
sue 457
table 457
┰ 457
一九@@ 457
亚当斯 457
准备就绪 457
國王 457
坠机 457
尼古拉斯 457
带个 457
後面 457
意味著 457
懒得 457
打給 457
接替 457
显而易见 457
樹@@ 457
正確 457
火辣 457
点头 457
用途 457
结了婚 457
绷带 457
雕 457
53 456
ish 456
〞 456
事会 456
前所未有 456
卖命 456
卫生@@ 456
寄宿 456
斯大林 456
晕倒 456
样品 456
灯泡 456
矗 456
织 456
膏 456
谦虚 456
錯誤 456
龙卷风 456
feet 455
上楼去 455
做主 455
切开 455
塔尔 455
大都会 455
巴恩斯 455
我媽 455
收看 455
枪伤 455
裁 455
这样一来 455
emma 454
fal@@ 454
josh 454
len 454
乞丐 454
共产党 454
吾@@ 454
员@@ 454
头晕 454
奥斯汀 454
寄生虫 454
德森 454
想通 454
时不时 454
炸毁 454
甚麼 454
痴迷 454
竞争对手 454
菊花 454
袖手旁观 454
责@@ 454
 454
 454
jesse 453
ong 453
rather 453
wy@@ 453
仍旧 453
十五分钟 453
口中 453
可见 453
在世界上 453
多米尼克 453
奏@@ 453
婓 453
应急 453
弗吉尼亚 453
愛情 453
我愿 453
秘诀 453
窥 453
纸巾 453
耶路撒冷 453
行為 453
调查@@ 453
靠着 453
靠边 453
驾驶@@ 453
ct@@ 452
nbsp 452
vin@@ 452
worse 452
不好过 452
不掉 452
不至于 452
再來 452
加快 452
好家伙 452
很爽 452
总监 452
捕捉 452
放走 452
欣慰 452
火車 452
真糟糕 452
终生 452
舉@@ 452
进水 452
開門 452
飞翔 452
len@@ 451
song 451
债@@ 451
出庭作证 451
出过 451
创 451
博拉 451
卵 451
天主教徒 451
好感 451
層 451
山脉 451
懷疑 451
歉意 451
毒素 451
爱死 451
玩家 451
电视节目 451
美麗 451
耗 451
苍白 451
董事 451
议@@ 451
走来 451
这部分 451
避孕套 451
避难所 451
邸 451
错乱 451
镇静剂 451
震动 451
kira 450
三岁 450
丫@@ 450
伺候 450
公道 450
利奥 450
刺伤 450
化石 450
同樣 450
唐纳 450
嫂子 450
指使 450
擅自 450
料理 450
标题 450
梅林 450
歪@@ 450
爺 450
相见 450
确是 450
累死 450
膨胀 450
选出 450
遲 450
遺憾 450
静脉 450
顯然 450
點兒 450
chief 449
cking 449
greg 449
plane 449
space 449
一張 449
一邊 449
上报 449
創@@ 449
塔斯 449
安德@@ 449
富兰克林 449
带回去 449
廊 449
思念 449
沙龙 449
生活@@ 449
盖瑞 449
窗子 449
评 449
请教 449
钓 449
雀 449
eve 448
pac@@ 448
ssi@@ 448
wayne 448
上士 448
冇 448
几十年 448
动人 448
厨 448
发音 448
外头 448
奴@@ 448
幸 448
建筑@@ 448
无法控制 448
暗中 448
煎 448
牵 448
猫头鹰 448
真令人 448
麗 448
imagine 447
sco 447
za 447
凯普 447
悟 447
早起 447
流动 447
測 447
炮弹 447
烤箱 447
用枪 447
脱下来 447
记载 447
運 447
霍奇 447
ack 446
honor 446
information 446
ris 446
不受 446
传真 446
伸 446
偿 446
刑事 446
剃@@ 446
南非 446
厂@@ 446
去掉 446
哑巴 446
四月 446
坨 446
手提箱 446
报名 446
拉特 446
显 446
更改 446
此时此刻 446
瞄 446
纽约市 446
说说话 446
閃@@ 446
 446
2chffffff 445
aa@@ 445
changed 445
ham 445
hannah 445
丹佛 445
休息室 445
农夫 445
力克斯 445
华生 445
好过 445
妇@@ 445
布什 445
晃@@ 445
止痛药 445
疤 445
睡一觉 445
答應 445
腺 445
航线 445
花朵 445
逮 445
都市 445
香味 445
kidding 444
lan 444
下毒 444
五月 444
伯爵夫人 444
决 444
别装 444
却@@ 444
培 444
增强 444
小声 444
尼克斯 444
心愿 444
招牌 444
新车 444
晶@@ 444
本地人 444
杯水 444
沒用 444
洗礼 444
燃 444
狐@@ 444
狱 444
秘 444
笼 444
航空公司 444
芳 444
蠈 444
视力 444
走近 444
郎@@ 444
阿米 444
难熬 444
预料 444
 444
 444
dee@@ 443
ri 443
thi@@ 443
从头开始 443
兼职 443
再生 443
听众 443
四号 443
地獄 443
堕胎 443
墨 443
尸检 443
带枪 443
意大利语 443
我生 443
柳 443
法西斯 443
爵 443
真面目 443
茱莉 443
调用 443
負@@ 443
闯进来 443
阅 443
隱@@ 443
饥渴 443
 443
facebook 442
pain 442
parents 442
tin@@ 442
tter 442
一线 442
会令 442
俯@@ 442
兰德尔 442
大军 442
天然 442
彩排 442
海关 442
淋浴 442
照着 442
爱丽卡 442
癒 442
米兰达 442
粒子 442
粮食 442
罐头 442
罚@@ 442
趴 442
躁 442
辛迪 442
送命 442
邓 442
闹着玩 442
雕塑 442
饿@@ 442
bran@@ 441
cin@@ 441
ive 441
unless 441
Ч 441
七岁 441
人來 441
发过 441
在此之前 441
太空船 441
孕 441
小宝宝 441
广告@@ 441
延长 441
必需 441
放置 441
整齐 441
最高法院 441
梦中 441
植 441
看似 441
精细 441
统计 441
认错 441
诱人 441
贵宾 441
转换 441
那句话 441
高尔夫球 441
ﾘ 441
vers 440
上传 440
刘 440
动手术 440
可言 440
吃个 440
处方 440
太多@@ 440
女主人 440
好时机 440
帮人 440
幾天 440
戈尔 440
战友 440
效率 440
瞎说 440
融合 440
轰炸机 440
buddy 439
ft 439
jax 439
tal 439
一大@@ 439
一盒 439
中止 439
仙女 439
你会 439
利兹 439
劲儿 439
嚟 439
异议 439
彩票 439
愚弄 439
拍到 439
有话要说 439
枪战 439
桃子 439
泥土 439
淘气 439
蒂斯 439
货币 439
那得 439
麦片 439
cal 438
fred 438
park 438
rou@@ 438
不該 438
克兰 438
厌 438
后台 438
哈珀 438
回话 438
好球 438
實際 438
巴巴 438
平息 438
幹@@ 438
拨打 438
条例 438
民主党 438
沃恩 438
派遣 438
生效 438
电视机 438
看望 438
蜂 438
行驶 438
西边 438
計 438
踢球 438
輪 438
随心所欲 438
 438
67 437
garcia 437
hurry 437
stark 437
vir@@ 437
wake 437
write 437
五零 437
務@@ 437
勾当 437
吐出来 437
唯有 437
外加 437
对准 437
对讲机 437
当下 437
性骚扰 437
意識 437
我会来 437
找份 437
拒 437
搅 437
枝@@ 437
查出来 437
深感 437
温和 437
火药 437
相当于 437
秆 437
芮@@ 437
補@@ 437
設@@ 437
谋杀罪 437
轿车 437
通通 437
金额 437
雌@@ 437
龍@@ 437
 437
glad 436
一死 436
丢弃 436
伤痛 436
克鲁@@ 436
动用 436
坑@@ 436
娱乐@@ 436
开花 436
徘徊 436
抗 436
明知 436
片名 436
精致 436
罕 436
聚在一起 436
赶出 436
钞 436
靜 436
clean 435
不太可能 435
严 435
冷酷 435
前行 435
司令部 435
同类 435
她自己的 435
婷 435
字条 435
开来 435
打爆 435
提起过 435
摘@@ 435
毫@@ 435
沒法 435
混账 435
滑板 435
炸死 435
珊瑚 435
班尼 435
約@@ 435
自我@@ 435
舵 435
要生 435
记起 435
鼻 435
fs19 434
ory 434
加把劲 434
天大 434
恋情 434
意味 434
斯塔@@ 434
服刑 434
本次 434
枪毙 434
葵 434
虚假 434
辞@@ 434
醒@@ 434
重返 434
驾驶员 434
髒 434
单单 433
叮当 433
总比 433
捷 433
斯特拉 433
旅店 433
有车 433
淹没 433
牙刷 433
猴@@ 433
玩过 433
瓦莱丽 433
睹 433
诸位 433
远处 433
bree 432
jj 432
service 432
╧ 432
万分 432
交到 432
亨 432
亲眼看到 432
体力 432
发布会 432
吗啡 432
大错特错 432
悔@@ 432
旅行者 432
歉 432
渡过 432
特雷@@ 432
玄@@ 432
矼 432
突击 432
繁殖 432
肾上腺素 432
苇 432
苍@@ 432
营救 432
詹@@ 432
这会儿 432
這就 432
邻@@ 432
驚 432
cat 431
cher 431
needed 431
return 431
uncle 431
事上 431
反射 431
合作伙伴 431
多謝 431
头条 431
并不需要 431
徹 431
抑制 431
沉浸 431
洪 431
缓@@ 431
老式 431
至极 431
薇薇安 431
诚 431
轴 431
选民 431
银行@@ 431
領 431
edie 430
karen 430
wear 430
令人兴奋 430
公尺 430
冷漠 430
压迫 430
堪@@ 430
影響 430
我常 430
果冻 430
比例 430
治疗师 430
激发 430
珀@@ 430
瑞格 430
研究所 430
空白 430
至关重要 430
营养 430
萨伊德 430
这头 430
道格 430
重新考虑 430
鑰匙 430
阿斯 430
餅 430
annie 429
dale 429
ills 429
sim@@ 429
york 429
万人 429
修斯 429
剖@@ 429
勝@@ 429
单车 429
屁事 429
炭 429
理念 429
疤痕 429
病态 429
祂 429
神明 429
祭@@ 429
私生子 429
种族歧视 429
职务 429
背心 429
蔓延 429
衄 429
辜负 429
陆 429
鞭 429
board 428
cer@@ 428
looked 428
marty 428
seven 428
住宅 428
停职 428
协商 428
同時 428
坚 428
慕@@ 428
排名 428
斩@@ 428
池@@ 428
洪水 428
用户 428
畏@@ 428
简历 428
统统 428
胶带 428
臉@@ 428
茉莉 428
药片 428
豬 428
陰@@ 428
露意丝 428
78 427
ate@@ 427
eva 427
□ 427
上岸 427
东边 427
伤感 427
佛罗伦萨 427
共识 427
命案 427
妥@@ 427
应有 427
心扉 427
恨死 427
手工 427
捉住 427
有鬼 427
朋@@ 427
渐@@ 427
真没想到 427
缓解 427
美景 427
責任 427
野马 427
騎@@ 427
ast 426
burn 426
ple@@ 426
sher@@ 426
そ 426
一宗 426
不久前 426
凯恩 426
别怪 426
占有 426
嗓子 426
在读 426
大个子 426
废墟 426
急需 426
恢复正常 426
敦@@ 426
款待 426
玛拉 426
白雪 426
真實 426
红灯 426
认输 426
蹭 426
逮住 426
還會 426
马子 426
骑车 426
 426
﹛ 426
eal 425
hou@@ 425
hur@@ 425
ious 425
kin@@ 425
ride 425
smart 425
专栏 425
串@@ 425
人工 425
会谈 425
共和党 425
去一趟 425
味儿 425
巴克斯 425
当前 425
我关 425
战利品 425
染上 425
歐@@ 425
永远都是 425
腕 425
莫尔 425
該@@ 425
詹森 425
集中精力 425
颜 425
高点 425
黑手 425
ath 424
form 424
inst@@ 424
kept 424
loved 424
smo@@ 424
suppose 424
一會 424
一通 424
书籍 424
共同@@ 424
別說 424
夢@@ 424
婆@@ 424
平方@@ 424
画像 424
百分之百 424
真像 424
研@@ 424
祥@@ 424
賭@@ 424
酸奶 424
闪耀 424
項 424
驗 424
brody 423
colle@@ 423
不堪@@ 423
不提 423
不朽 423
分局 423
嚷嚷 423
國人 423
大雨 423
奥尔@@ 423
实话实说 423
尼古拉 423
强行 423
按计划 423
烦死 423
玛吉 423
貌 423
问话 423
 423
ﻷ 423
ela 422
killer 422
picture 422
scar@@ 422
she@@ 422
stone 422
一个半 422
全靠 422
卡西 422
后方 422
嗒 422
奧 422
安琪拉 422
安眠药 422
宰@@ 422
想不起来 422
战机 422
抹@@ 422
搭配 422
撤回 422
枯@@ 422
浸@@ 422
牆 422
物理学家 422
网球 422
虐 422
遜 422
锁住 422
3.@@ 421
62 421
brea@@ 421
cell 421
ound 421
prison 421
san 421
一局 421
乙@@ 421
保持@@ 421
双重 421
喬 421
失敗 421
孽 421
感到高兴 421
我别 421
滥用 421
漏掉 421
牡 421
琼@@ 421
疲惫 421
盔甲 421
神秘@@ 421
衛 421
衰 421
裘德 421
车门 421
雷德 421
順@@ 421
養@@ 421
bi 420
ents 420
paper 420
pass 420
private 420
ō 420
五号 420
亚利桑那 420
勋爵 420
和平@@ 420
回国 420
在座 420
奔跑 420
宙斯 420
技术@@ 420
有条 420
没钱 420
焊 420
百分百 420
盖伊 420
称赞 420
羽 420
艾尔斯 420
计时 420
车库里 420
造就 420
那台 420
那時 420
锋 420
雇主 420
顿饭 420
飘 420
高明 420
bernard 419
ica 419
olivia 419
pal@@ 419
watching 419
冬季 419
双腿 419
圣诞礼物 419
屈 419
帐单 419
撞死 419
杂货店 419
泡妞 419
洗洗 419
溪@@ 419
疲@@ 419
胺 419
评判 419
辉 419
还清 419
酒瓶 419
鲁斯 419
1ch@@ 418
bb 418
calm 418
group 418
一英里 418
不得已 418
习 418
事来 418
人用 418
兰姆 418
含有 418
姊妹 418
摔下来 418
教养 418
有机 418
漫步 418
爲 418
禮@@ 418
蓄@@ 418
说来话长 418
逃命 418
风声 418
gon@@ 417
ita 417
一事 417
修正 417
克制 417
兔崽子 417
兜@@ 417
利特 417
吕@@ 417
小可爱 417
弄坏 417
挪 417
探测器 417
棋@@ 417
海绵 417
舞步 417
莫名其妙 417
重获 417
靈 417
主张 416
克劳德 416
具备 416
后援 416
地产 416
多尔 416
多管闲事 416
弗林 416
扔出去 416
新世界 416
查莉 416
殖民地 416
玛丽安 416
班克斯 416
生理 416
电视剧 416
穿著 416
节省 416
褐色 416
趾 416
面积 416
 416
ﻀ 416
gal@@ 415
举手 415
交配 415
呈现 415
太累 415
层面 415
岭 415
巴迪 415
支持者 415
敬意 415
球棒 415
眉毛 415
祸@@ 415
篮 415
索恩 415
融@@ 415
象棋 415
那会儿 415
难听 415
alice 414
chloe 414
dude 414
force 414
hospital 414
lying 414
master 414
poor 414
ㄤ 414
与你同在 414
关机 414
冻死 414
几条 414
匈牙利 414
回不来 414
型@@ 414
太紧张 414
憋@@ 414
掏出 414
日报 414
栅栏 414
流逝 414
滥@@ 414
百老汇 414
盽 414
粗暴 414
老鹰 414
苏西 414
路障 414
释 414
预知 414
骗过 414
ﺲ 414
28@@ 413
angel 413
dea@@ 413
trans@@ 413
è 413
克拉@@ 413
天主 413
妳是 413
寿司 413
小猪 413
尹 413
廳 413
彼特 413
戒烟 413
方向盘 413
来信 413
查德 413
澤 413
盖茨 413
筹@@ 413
簡@@ 413
紐約 413
試@@ 413
贞 413
錄@@ 413
锁门 413
響 413
ﻙ 413
ci 412
cul@@ 412
gers 412
share 412
worried 412
yn 412
不坏 412
两块 412
五块 412
全能 412
关乎 412
净@@ 412
剪掉 412
劳动 412
化学@@ 412
塔拉 412
安妮塔 412
標@@ 412
碰见 412
綁 412
罗夫 412
罢休 412
跨越 412
邮票 412
顾虑 412
early 411
explain 411
pun@@ 411
一一 411
上庭 411
你够 411
侍@@ 411
到头 411
加利福尼亚 411
原子 411
嘞 411
国安局 411
多麼 411
太慢 411
小路 411
带路 411
廉@@ 411
快逃 411
暴动 411
曹@@ 411
直线 411
第一条 411
结过婚 411
胡萝卜 411
袍 411
重重 411
阻止不了 411
靈@@ 411
題 411
马赛 411
驻@@ 411
 411
amazing 410
middle 410
wedding 410
一旁 410
下定决心 410
不值 410
传票 410
内脏 410
冷冻 410
办好 410
参选 410
各就各位 410
宠 410
帥 410
开场 410
抱住 410
昏倒 410
更为 410
有用吗 410
爱是 410
美貌 410
胆小 410
蜡 410
额@@ 410
ﺰ 410
54 409
92 409
98 409
entire 409
harold 409
wonder 409
为所欲为 409
假日 409
克里斯蒂 409
六十 409
减速 409
坠 409
坻 409
大喊大叫 409
弹头 409
惊 409
旋@@ 409
族@@ 409
混血儿 409
缴@@ 409
虚 409
觀@@ 409
解密 409
酬 409
龄 409
clar@@ 408
ph 408
position 408
quick 408
ville 408
zed 408
不回 408
乏味 408
俱 408
傑 408
入室 408
出面 408
反應 408
多岁 408
多种 408
太蠢 408
家里人 408
實話 408
尤里 408
延迟 408
开到 408
手电筒 408
投手 408
汤普森 408
泼 408
深渊 408
炼@@ 408
爷@@ 408
特曼 408
畏惧 408
程式 408
罗曼 408
芝 408
花点 408
街角 408
赎罪 408
闲聊 408
雀@@ 408
静静 408
93 407
crime 407
deep 407
history 407
speci@@ 407
ux 407
一塊 407
上当 407
丧生 407
伊甸园 407
偶 407
喜不喜欢 407
嘿@@ 407
大喊 407
妲 407
學習 407
弄清 407
报价 407
授予 407
政权 407
故乡 407
看不起 407
结实 407
美国佬 407
脊椎 407
被盗 407
这门 407
逝 407
闯@@ 407
ladies 406
ld 406
monica 406
不必要 406
书呆子 406
介紹 406
兔@@ 406
全美 406
列表 406
卡蜜 406
印第安 406
坚决 406
巡警 406
拿手 406
旦 406
泄 406
浇@@ 406
百万@@ 406
衣物 406
資料 406
起火 406
这些年来 406
锤 406
零食 406
58 405
73 405
appro@@ 405
ils 405
run@@ 405
ン 405
乔什 405
乳酪 405
侧写 405
傲@@ 405
凯斯 405
办公桌 405
听错 405
哀 405
回信 405
境地 405
就绪 405
枕@@ 405
玂 405
监护权 405
茜@@ 405
說話 405
设立 405
caught 404
cked 404
ef 404
goo@@ 404
フ 404
人行道 404
伴郎 404
信箱 404
冰球 404
凑 404
劣@@ 404
声誉 404
妥当 404
婶婶 404
小巷 404
屠@@ 404
拉塞尔 404
控制室 404
提案 404
旅館 404
朵@@ 404
泡泡 404
注入 404
牵连 404
眼熟 404
碳@@ 404
萝丝 404
薪@@ 404
透明 404
遥控器 404
野生 404
银行家 404
骰子 404
鲨 404
 404
 404
 404
fic@@ 403
juli@@ 403
round 403
中國 403
为生 403
交待 403
体型 403
信托 403
凉爽 403
变种 403
宏@@ 403
弹道 403
控制不了 403
流产 403
混在 403
特利 403
维也纳 403
芭比 403
进门 403
還活 403
還給 403
雪橇 403
饭碗 403
alex@@ 402
gran@@ 402
何况 402
卢比 402
周到 402
咗 402
夏季 402
太子 402
奇怪的是 402
布雷克 402
幸亏 402
开张 402
惜 402
拖住 402
拿回去 402
提姆 402
桃 402
楚 402
泡沫 402
涌 402
混混 402
演技 402
狀況 402
玛丽@@ 402
睡个 402
糖尿病 402
编造 402
艳 402
花生酱 402
茂@@ 402
遲到 402
钟声 402
钢 402
香草 402
jenny 401
tv 401
万能 401
伟 401
侦查 401
删掉 401
午安 401
卡门 401
及其 401
哈德 401
多莉 401
威尼 401
威特 401
德罗 401
搂 401
方舟 401
无常 401
材@@ 401
正中 401
比方说 401
消耗 401
滋 401
王冠 401
瑟夫 401
甡 401
看点 401
第六@@ 401
纳黛特 401
翘@@ 401
興趣 401
艾莉丝 401
螺@@ 401
警司 401
辅导 401
这类 401
那根 401
闽 401
顶部 401
黑市 401
cent 400
missed 400
tive 400
whit@@ 400
买不起 400
伐@@ 400
伯纳德 400
出城 400
嚴@@ 400
壓@@ 400
恢 400
政治家 400
条约 400
武功 400
管理局 400
约束 400
罗丝 400
胆敢 400
蕊 400
讨论一下 400
路易丝 400
1500 399
forever 399
stra@@ 399
保险@@ 399
偉大 399
光彩 399
剃 399
十六 399
大点 399
威斯 399
子民 399
当地人 399
擅@@ 399
时钟 399
检查@@ 399
橡胶 399
犯规 399
給我@@ 399
袜 399
跨 399
辨@@ 399
ere 398
using 398
不妨 398
仍@@ 398
击倒 398
同性 398
天地 398
容许 398
征兆 398
改进 398
柯蒂斯 398
洗脑 398
玩牌 398
琢磨 398
百元 398
耳机 398
胡言乱语 398
艾登 398
装扮 398
赫尔曼 398
遍@@ 398
金库 398
闷@@ 398
阶级 398
難過 398
骚 398
ﻼ 398
lou@@ 397
voice 397
一艘船 397
养育 397
内阁 397
多重 397
尋@@ 397
并不@@ 397
恶人 397
抗生素 397
抚@@ 397
指派 397
接纳 397
收容所 397
气管 397
煮@@ 397
熊猫 397
竟@@ 397
罗伯@@ 397
萨曼莎 397
购@@ 397
輛 397
锦标赛 397
预见 397
77 396
fix 396
ron 396
sive 396
一个个 396
一说 396
偷袭 396
前去 396
十五年 396
卡森 396
命中 396
复原 396
弱智 396
挑衅 396
消费 396
矿工 396
福克斯 396
精心 396
绑@@ 396
西蒙斯 396
討論 396
証 396
赶过来 396
醋 396
里拉 396
领导者 396
首要 396
sell 395
七月 395
之星 395
享@@ 395
亭 395
刑期 395
剥 395
勾 395
勿@@ 395
叔@@ 395
地去 395
心痛 395
搏斗 395
更换 395
期盼 395
汉普顿 395
法式 395
清洁工 395
溶@@ 395
灰烬 395
症@@ 395
皑 395
看不清 395
硝@@ 395
罗斯福 395
萝拉 395
视觉 395
解决办法 395
诺克斯 395
赛马 395
运输@@ 395
退役 395
遣@@ 395
面罩 395
66 394
absolutely 394
across 394
ai 394
kalinda 394
mea@@ 394
伯恩斯 394
嫁@@ 394
巴顿 394
归还 394
性质 394
拖鞋 394
拜伦 394
挂掉 394
接过 394
散开 394
时间表 394
格勒 394
毒死 394
硼 394
紀@@ 394
美梦 394
肤色 394
闺蜜 394
飞到 394
ﻒ 394
ﻩ 394
american 393
ther 393
ton@@ 393
乞求 393
体育馆 393
关灯 393
别杀 393
刻意 393
剧场 393
吉恩 393
外部 393
大家庭 393
女皇 393
寸@@ 393
开拍 393
很怪 393
挠 393
掠 393
斯托@@ 393
泼@@ 393
流感 393
炸彈 393
照亮 393
熄灭 393
特里普 393
看管 393
經歷 393
绳索 393
行家 393
足夠 393
递 393
逗@@ 393
鄉 393
闸 393
阿布 393
靴 393
马利 393
61 392
lynette 392
new@@ 392
smith 392
stick 392
任何@@ 392
伯尼 392
共有 392
兵团 392
升高 392
印记 392
口红 392
圣诞树 392
失明 392
头衔 392
建筑师 392
我照 392
手势 392
挨饿 392
救活 392
未成年 392
污点 392
没道理 392
消防@@ 392
疾 392
研发 392
祭 392
算法 392
節@@ 392
篇@@ 392
蛋白 392
被控 392
误导 392
诽谤 392
越是 392
輪@@ 392
镇长 392
broke 391
file 391
gie 391
supp@@ 391
事发 391
刺青 391
弗莱 391
怒火 391
换上 391
智力 391
有变 391
有益 391
正轨 391
满月 391
炖@@ 391
瓦解 391
蹲@@ 391
辩护律师 391
ack@@ 390
mac 390
saul 390
公关 390
创始人 390
劳伦 390
吸入 390
夏令营 390
太阳系 390
怪事 390
指认 390
正忙着 390
氧@@ 390
永 390
疏@@ 390
皇宫 390
真可怜 390
私人@@ 390
第八 390
罪案 390
莱拉 390
蓋@@ 390
薯 390
许可证 390
贩卖 390
越來 390
面包车 390
频繁 390
黑道 390
elizabeth 389
fear 389
fel@@ 389
hear@@ 389
inv@@ 389
mistake 389
moved 389
ng 389
thinks 389
一岁 389
一腿 389
今天上午 389
先回去 389
医疗@@ 389
反驳 389
可信 389
埃文 389
好美 389
怀着 389
恶毒 389
拉链 389
效应 389
术语 389
没电 389
珂 389
罗杰斯 389
肌@@ 389
花瓶 389
豆腐 389
那部 389
霞 389
busy 388
careful 388
north 388
sey 388
ways 388
不适 388
主宰 388
亏 388
你別 388
修补 388
六月 388
吃光 388
多加 388
大力 388
工地 388
幻象 388
彭 388
微小 388
快活 388
戒毒 388
敵人 388
普里 388
未能 388
泛@@ 388
煞@@ 388
私 388
种类 388
經常 388
胡思乱想 388
自有 388
角落里 388
诸如此类 388
过期 388
通宵 388
阿杰 388
ﾔ 388
coffee 387
ghts 387
quinn 387
vo 387
八月 387
劫匪 387
各种各样 387
多斯 387
宽容 387
尊贵 387
愈合 387
我們@@ 387
换句话说 387
排斥 387
救过 387
永别 387
汇 387
灼@@ 387
盗贼 387
碍 387
签了 387
米特 387
緊@@ 387
西娅 387
讲故事 387
轮子 387
达西 387
道奇 387
钡 387
 387
一袋 386
准则 386
卡伦 386
卫队 386
可得 386
四岁 386
墨水 386
媳妇 386
察觉到 386
尋找 386
旗帜 386
晓 386
来访 386
漆@@ 386
热烈 386
痴 386
纪录片 386
螃蟹 386
请稍等 386
读完 386
走開 386
近距离 386
遗弃 386
4.@@ 385
high@@ 385
rent 385
佩奇 385
切掉 385
別動 385
原子弹 385
大猩猩 385
奖赏 385
奶子 385
干酪 385
心血 385
慧 385
打起精神 385
搞不定 385
撒謊 385
斧头 385
格里@@ 385
毁坏 385
济 385
消遣 385
潜意识 385
爱意 385
疮 385
盟军 385
要开 385
見@@ 385
詹 385
適合 385
难度 385
 385
ﻡ 385
cop 384
plan@@ 384
prote@@ 384
sal 384
super@@ 384
万事@@ 384
乖孩子 384
付清 384
保持联系 384
债券 384
大城市 384
幾 384
开过 384
摇滚乐 384
昌@@ 384
杰斯 384
欣 384
激素 384
盲人 384
米娅 384
細@@ 384
莱昂 384
藉口 384
重伤 384
雨水 384
马力 384
attack 383
bat@@ 383
gentlemen 383
roll 383
一试 383
下药 383
伸手 383
保龄球 383
修车 383
善意 383
喷泉 383
團@@ 383
均@@ 383
妳在 383
审理 383
小船 383
峰@@ 383
截 383
找过 383
攻擊 383
是否是 383
有够 383
毒蛇 383
涨@@ 383
特区 383
百个 383
的确如此 383
眼球 383
睡过 383
祝您 383
突击队 383
落地 383
識 383
阿拉@@ 383
院@@ 383
韦尔 383
anywhere 382
cho 382
fish 382
ining 382
kno@@ 382
不來 382
五十万 382
交情 382
克莱德 382
到位 382
制裁 382
劫持 382
哪条 382
坚持下去 382
埃德 382
夜店 382
德克 382
总要 382
慈@@ 382
明日 382
某事 382
浓 382
渗@@ 382
灯塔 382
炼 382
空手道 382
符 382
艺人 382
艾蜜莉 382
让给 382
赫尔 382
过瘾 382
酒杯 382
革命@@ 382
ﾎ 382
pt 381
spent 381
上身 381
亵渎 381
凶杀 381
化名 381
十一 381
园丁 381
子彈 381
常说 381
德克萨斯 381
掏@@ 381
旋律 381
机枪 381
根據 381
水上 381
池塘 381
海浪 381
满是 381
猜猜看 381
獲得 381
简报 381
艰苦 381
衬衣 381
部下 381
锯 381
 381
cham@@ 380
viol@@ 380
㏑ 380
代理人 380
偷偷摸摸 380
厄尼 380
参考 380
娜塔莎 380
導@@ 380
小混混 380
帆@@ 380
张嘴 380
想当 380
扩@@ 380
指数 380
收起 380
无所@@ 380
普尔 380
檔 380
殘@@ 380
没多久 380
猛烈 380
病患 380
竭尽全力 380
蛤@@ 380
趣@@ 380
迫害 380
靓@@ 380
验证 380
ann 379
hunt 379
record 379
talked 379
不玩 379
争斗 379
享 379
卡里 379
叉子 379
咽@@ 379
坎宁 379
坦纳 379
填补 379
太空@@ 379
奋战 379
好奇心 379
庸@@ 379
录下来 379
德國 379
成名 379
找個 379
招供 379
捐款 379
斯通 379
最高@@ 379
案情 379
梦到 379
神像 379
突出 379
约瑟 379
绘画 379
绞死 379
编剧 379
脆 379
虽说 379
证书 379
赶不上 379
这天 379
迟@@ 379
鎮@@ 379
阿伦 379
齿@@ 379
 379
mini@@ 378
moon 378
near 378
tim@@ 378
vy 378
为您服务 378
买来 378
勺子 378
厘米 378
哪家 378
夏娃 378
完工 378
客氣 378
巷子 378
战俘 378
歸 378
汪@@ 378
爱心 378
罗兰 378
让@@ 378
训@@ 378
路克 378
重现 378
阿拉伯人 378
06 377
ddy 377
handle 377
tie 377
丙@@ 377
丹麦 377
允許 377
变形 377
告辞 377
哋 377
奖章 377
姐夫 377
实行 377
布罗 377
幸運 377
弧@@ 377
恐怖份子 377
惭愧 377
想开 377
我得@@ 377
手帕 377
最为 377
業@@ 377
消毒 377
潘妮 377
特勤 377
联手 377
肺部 377
肾脏 377
芭蕾舞 377
苗 377
賊 377
那艘 377
钉@@ 377
飞过 377
骑兵 377
76 376
arm 376
mic@@ 376
ェ 376
亚伯拉罕 376
則 376
勝 376
叠 376
属实 376
拥 376
指挥部 376
教教 376
最差 376
泄@@ 376
看作 376
睾丸 376
竿 376
纽约时报 376
脱光 376
被绑 376
认出来 376
诸神 376
这所 376
这杯 376
重要性 376
需要的话 376
首饰 376
68 375
present 375
争夺 375
储藏室 375
关头 375
军士 375
名牌 375
孕妇 375
小熊 375
床垫 375
捣@@ 375
控诉 375
搞不清楚 375
斗士 375
木材 375
横 375
欸 375
没完没了 375
活过来 375
渠道 375
生命@@ 375
用尽 375
疼@@ 375
眠@@ 375
绝佳 375
裘@@ 375
请假 375
起源 375
鄙视 375
金牌 375
阿姆斯特丹 375
 375
ak@@ 374
ality 374
cole 374
dangerous 374
molly 374
tage 374
vi 374
不择手段 374
从那以后 374
件@@ 374
停火 374
取回 374
埃伦 374
大吃一惊 374
头目 374
巴尔 374
帐@@ 374
心臟 374
我心 374
收益 374
殿 374
洛基 374
特色 374
珀西 374
理所当然 374
纳斯 374
肈 374
膝@@ 374
英国@@ 374
要学 374
記憶 374
議 374
贱@@ 374
軍隊 374
连累 374
钳 374
随你便 374
高中生 374
ﺏ 374
acy 373
lay 373
rose 373
saved 373
一如既往 373
不禁 373
何方 373
公交车 373
华特 373
即刻 373
发行 373
否决 373
垂 373
妖精 373
尼科 373
布莱斯 373
干完 373
延续 373
我待会 373
揭开 373
教学 373
有何贵干 373
殉@@ 373
汀娜 373
沈@@ 373
流泪 373
流行@@ 373
满脑子 373
灌 373
皮条客 373
而出 373
范德 373
蒙德 373
许愿 373
阀 373
非常@@ 373
高科技 373
63 372
america 372
dire@@ 372
ging 372
ics 372
land@@ 372
quiet 372
terrible 372
♫ 372
一脸 372
亲属 372
几杯 372
刚来 372
卫兵 372
叮 372
哈拉 372
地想 372
天分 372
店主 372
弄脏 372
战线 372
打伤 372
拦@@ 372
搏 372
搭车 372
放纵 372
柔 372
每一件 372
準 372
照相机 372
相互@@ 372
耶鲁 372
肃静 372
胜负 372
脑中 372
腔@@ 372
萨斯 372
课堂 372
这根 372
进食 372
還以 372
那双 372
防护 372
附身 372
barry 371
except 371
net 371
oun@@ 371
ple 371
wood@@ 371
做過 371
全力以赴 371
可说 371
史都华 371
咋样 371
太差 371
女主角 371
庭@@ 371
忌@@ 371
投票@@ 371
拆除 371
捷径 371
无用 371
枪械 371
毒瘾 371
犹大 371
神灵 371
舰@@ 371
药店 371
行刑 371
超棒 371
配偶 371
锋利 371
闲逛 371
鬥@@ 371
att@@ 370
cel@@ 370
holy 370
nic@@ 370
oned 370
sn@@ 370
tz@@ 370
七号 370
七天 370
之情 370
五次 370
仰 370
值得@@ 370
内斯 370
吃不@@ 370
哈里森 370
啃 370
啥意思 370
康妮 370
戈德 370
房客 370
手淫 370
换取 370
揪 370
普斯 370
杰伊 370
柯南 370
栖@@ 370
没睡 370
秦@@ 370
竞技场 370
給他 370
老套 370
训 370
跺 370
达成协议 370
逗留 370
+ 369
month 369
rex 369
uck 369
一方面 369
传球 369
信使 369
克劳迪 369
几秒钟 369
印度@@ 369
完善 369
射线 369
差點 369
想些 369
戏剧性 369
掷 369
源于 369
疲倦 369
紈 369
翰 369
薯片 369
说说看 369
趴@@ 369
雷克斯 369
马克@@ 369
180 368
bas@@ 368
dist@@ 368
hood 368
不着 368
两家 368
之战 368
刷牙 368
劑 368
即兴 368
县@@ 368
合成 368
复苏 368
姿态 368
孤身一人 368
宿@@ 368
工夫 368
心知肚明 368
我信 368
打烊 368
抽出 368
掠@@ 368
搭讪 368
智能 368
格温 368
正点 368
气温 368
淫 368
特质 368
白雪公主 368
百块 368
盟@@ 368
看不@@ 368
能救 368
自动@@ 368
賣@@ 368
迟钝 368
送过来 368
那就是说 368
陆战队 368
霍布斯 368
eight 367
emp@@ 367
ja 367
sel 367
創造 367
原先 367
咽 367
哥伦布 367
噁 367
已久 367
帅@@ 367
庫@@ 367
心肠 367
怎办 367
想過 367
我住 367
拒@@ 367
接住 367
杨医生 367
死于 367
活動 367
苏打水 367
英格@@ 367
蕾丝 367
贝特 367
路径 367
逃逸 367
采集 367
验尸官 367
鼓舞 367
 367
bul@@ 366
join 366
lon@@ 366
pal 366
vega 366
一百年 366
两颗 366
亲口 366
反过来 366
委托 366
婭 366
学学 366
密室 366
对决 366
寿命 366
小屁孩 366
打到 366
抢银行 366
拘@@ 366
拧 366
斯勒 366
死尸 366
温迪 366
湿透 366
漂浮 366
真心话 366
線索 366
综合 366
聘请 366
虾@@ 366
裕 366
观察@@ 366
语音信箱 366
谷歌 366
跟你走 366
这趟 366
逊@@ 366
 366
fscy100 365
不顺 365
卡通 365
咒@@ 365
国旗 365
垃圾箱 365
增援 365
失眠 365
常有 365
得手 365
快上车 365
拱@@ 365
掐死 365
攝@@ 365
敬礼 365
橙色 365
添麻烦 365
營@@ 365
畜牲 365
精明 365
精液 365
累坏 365
耕@@ 365
花园里 365
行得通 365
足迹 365
驴子 365
鱿鱼 365
4ah00 364
disa@@ 364
inten@@ 364
mar 364
price 364
ً 364
之後@@ 364
你查 364
克雷 364
只會 364
塌@@ 364
太好 364
实践 364
掛 364
播报 364
比利时 364
滔@@ 364
特点 364
种种 364
筆@@ 364
纳德 364
纹@@ 364
自慰 364
花招 364
说定了 364
財@@ 364
餐桌 364
 364
bby 363
nathan 363
psy@@ 363
ヴ 363
不杀 363
二十四 363
任由 363
入境 363
反常 363
合身 363
喧@@ 363
壓力 363
大大 363
威廉斯 363
定期 363
尽管如此 363
性欲 363
恒@@ 363
抢劫案 363
拍下来 363
斜@@ 363
杖 363
活活 363
猎枪 363
笑脸 363
篮子 363
絋 363
计较 363
載 363
那句 363
電腦 363
麻木 363
albert 362
birthday 362
charge 362
our@@ 362
两半 362
中文 362
乎@@ 362
乐乐 362
书面 362
保释金 362
关上门 362
内战 362
几件 362
分头 362
咖啡厅 362
婴 362
字眼 362
就会 362
尹@@ 362
巢穴 362
帶來 362
往来 362
微不足道 362
快些 362
思路 362
抓捕 362
拉维斯 362
无私 362
杰姬 362
次数 362
死不@@ 362
没拿到 362
烘@@ 362
瑞尔 362
知觉 362
紫 362
绝地 362
西瓜 362
访 362
谎@@ 362
辫子 362
送货 362
那首 362
鸟类 362
1ch3979ff 361
86 361
fnkaiti 361
ii@@ 361
slow 361
他会@@ 361
你媽 361
便士 361
保全 361
几百万 361
参 361
后备 361
嗬 361
圣地 361
大帝 361
奈尔 361
孟买 361
孤立 361
恭维 361
最难 361
没意思 361
温蒂 361
渭@@ 361
畸形 361
终究 361
维多 361
联邦政府 361
藍@@ 361
讨厌鬼 361
貓 361
道尔 361
里亚 361
额头 361
bun@@ 360
fell 360
grey 360
reese 360
wed 360
一案 360
充滿 360
六号 360
出演 360
别挡 360
刺穿 360
吃屎 360
同谋 360
哑 360
啦啦队 360
回事儿 360
坊 360
外伤 360
大大的 360
委员 360
宣言 360
密封 360
式@@ 360
村长 360
此处 360
沖 360
法警 360
浣熊 360
海龟 360
火烧 360
篇文章 360
绘@@ 360
缓刑 360
缺席 360
苟@@ 360
訓練 360
讀@@ 360
谭 360
连线 360
逛街 360
金融@@ 360
靜@@ 360
首尔 360
army 359
cab@@ 359
paid 359
see@@ 359
sons 359
两百万 359
你害 359
全城 359
别着急 359
受得了 359
哑@@ 359
塑造 359
安抚 359
尝@@ 359
推理 359
旁邊 359
曹 359
欢笑 359
浦@@ 359
潜伏 359
点点 359
烧焦 359
牧 359
看成 359
舅@@ 359
荒野 359
衰竭 359
西西里 359
贝斯 359
起点 359
转化 359
轰 359
阿德 359
麦当劳 359
cops 358
general 358
mou@@ 358
mul@@ 358
ssa 358
依照 358
再犯 358
很蠢 358
挥 358
散发 358
水槽 358
法师 358
灿烂 358
瑞特 358
示威 358
窃取 358
芥末 358
行政@@ 358
記者 358
诺玛 358
迟些 358
迷宫 358
鹤 358
logy 357
prime 357
stuart 357
一块钱 357
克林@@ 357
分明 357
别出 357
吸气 357
哈维@@ 357
履@@ 357
差异 357
无数次 357
本尼 357
渔@@ 357
温泉 357
爹@@ 357
糗 357
糟蹋 357
缇 357
職@@ 357
舞厅 357
莱尼 357
解决方案 357
赛季 357
迦@@ 357
通讯@@ 357
锚 357
action 356
walking 356
xi@@ 356
丹妮尔 356
大局 356
失灵 356
布拉格 356
彗星 356
憋 356
我留 356
捣蛋 356
摩洛哥 356
映@@ 356
杀人@@ 356
泽西 356
洛塔 356
火热 356
皇冠 356
监护 356
碭 356
耐 356
西恩 356
超爱 356
闪光 356
finish 355
hide 355
leo 355
situation 355
zi 355
上山 355
互相@@ 355
便会 355
公务员 355
备忘录 355
宣告 355
山里 355
巡演 355
广播@@ 355
庄@@ 355
弄掉 355
拉上 355
本周 355
机动 355
根烟 355
格利 355
梯@@ 355
步兵 355
歧视 355
溫 355
演得 355
灵活 355
生育 355
目录 355
组建 355
肾@@ 355
舟 355
苛刻 355
袖@@ 355
讲完 355
追赶 355
雷恩 355
霉 355
面包@@ 355
默里 355
82 354
97 354
officer 354
simple 354
一路上 354
义大利 354
会要 354
兄妹 354
八十 354
兰花 354
利亚姆 354
参军 354
发掘 354
发达 354
外号 354
夥@@ 354
大洋 354
巴仔 354
恩佐 354
我管 354
报上 354
捏造 354
敌意 354
敞@@ 354
東尼 354
混血 354
滑倒 354
父子 354
用钱 354
真行 354
移开 354
紧迫 354
绵@@ 354
袋@@ 354
财政 354
跡 354
輕人 354
電話給 354
频 354
馆@@ 354
5.@@ 353
ops 353
tel 353
休斯顿 353
史蒂文 353
国际刑警 353
壁橱 353
夺取 353
婆娘 353
度蜜月 353
手稿 353
抽筋 353
敌方 353
湯@@ 353
畅 353
留点 353
瞅 353
祭司 353
色情@@ 353
蒂尔 353
说不出 353
这得 353
逼近 353
 353
agree 352
brad 352
card 352
certain 352
claudia 352
gging 352
jean 352
judge 352
soul 352
trip 352
tting 352
一无是处 352
不离 352
专利 352
分类 352
叹息 352
太热 352
宾客 352
尿裤子 352
我會@@ 352
拔掉 352
挑逗 352
晒@@ 352
替换 352
灵顿 352
狐 352
玷污 352
矚 352
網 352
編@@ 352
菲利 352
裸 352
許 352
適@@ 352
面上 352
69 351
frankie 351
kiss 351
ow 351
一排 351
一盘 351
不便 351
亿年 351
伤到 351
伪君子 351
判定 351
加勒特 351
原以为 351
叠@@ 351
囚@@ 351
太长 351
姊姊 351
很早 351
微妙 351
教给 351
无缘无故 351
构@@ 351
林先生 351
查找 351
泳衣 351
流传 351
潜水艇 351
烟火 351
琪@@ 351
糑 351
系好 351
脊@@ 351
西奥 351
訴過 351
贤 351
跃 351
阿什利 351
雷斯勒 351
黑进 351
007 350
floor 350
hasn 350
jeff 350
yu@@ 350
一课 350
下台 350
会试 350
伦纳德 350
你明 350
優@@ 350
光顾 350
克林 350
出头 350
剧情 350
十一点 350
反应堆 350
同盟 350
天线 350
字幕组 350
安琪 350
宣判 350
尼特 350
己@@ 350
总结 350
愿不愿意 350
操作@@ 350
橙汁 350
歷@@ 350
汉森 350
沃尔 350
生下 350
繁荣 350
耳光 350
自主 350
舱门 350
蚁 350
西卡 350
过生日 350
這也 350
醉酒 350
长发 350
阔 350
音乐剧 350
项@@ 350
马蒂@@ 350
 350
blow 349
boat 349
darling 349
department 349
gibbs 349
mama 349
stein 349
support 349
visit 349
一棵 349
上前 349
专用 349
伐 349
伯母 349
估@@ 349
凡妮 349
出汗 349
力士 349
合伙 349
哩@@ 349
天下@@ 349
導 349
心存 349
态@@ 349
惩@@ 349
慌@@ 349
歇斯底里 349
洒@@ 349
海面 349
环节 349
现有 349
疾@@ 349
贡 349
起司 349
跑车 349
通告 349
里斯本 349
门廊 349
鹰@@ 349
april 348
count 348
du 348
neal 348
thor@@ 348
thro@@ 348
yesterday 348
三月 348
五百万 348
入侵者 348
出世 348
劝@@ 348
办公 348
外甥 348
多嘴 348
奥森 348
布莱德 348
很深 348
收工 348
救回 348
新书 348
日程 348
桃乐@@ 348
灰姑娘 348
爺爺 348
穆 348
章@@ 348
紅色 348
要害 348
过活 348
运到 348
远程 348
闭上嘴 348
ines 347
克拉拉 347
再好不过 347
半死 347
卸 347
四分之一 347
大鱼 347
夺 347
宅@@ 347
待在家里 347
悬赏 347
所罗门 347
揭@@ 347
更深 347
機器 347
法力 347
环保 347
看重 347
竊 347
粗糙 347
絲@@ 347
艾美 347
荷尔蒙 347
趕緊 347
踹 347
遊@@ 347
那点 347
酥 347
難以 347
青春期 347
颂 347
10% 346
expect 346
gate 346
mad@@ 346
sally 346
sea@@ 346
seriously 346
view 346
walt 346
不负责任 346
丧 346
你生 346
傀儡 346
元帅 346
先给 346
冷淡 346
列出 346
十六岁 346
卖出 346
卡洛@@ 346
叛国 346
咖啡因 346
垛 346
墓碑 346
大房子 346
客观 346
恐怖主义 346
打成 346
扳倒 346
拉比 346
梅格 346
水流 346
測試 346
皮包 346
空洞 346
置于 346
醇 346
醚 346
ﻑ 346
foster 345
gen 345
mit 345
个子 345
他们自己的 345
净化 345
太冷 345
太深 345
奶昔 345
宣战 345
希腊人 345
惑 345
按下 345
掛@@ 345
援@@ 345
泳@@ 345
消防 345
烂透 345
百万富翁 345
瞒@@ 345
经受 345
自家 345
茅@@ 345
血清 345
资讯 345
赌城 345
赞赏 345
路亚 345
迷住 345
酿@@ 345
醒来时 345
black@@ 344
ghost 344
hea@@ 344
一打 344
丽娅 344
乾杯 344
人生@@ 344
佑 344
充斥 344
哈桑 344
天鹅 344
奥地利 344
延伸 344
弗兰 344
彼得森 344
想不通 344
无法解释 344
會兒 344
有心 344
有点累 344
留心 344
登场 344
离不开 344
荒 344
费兹 344
过会儿 344
ﺋ 344
bruce 343
fer 343
gil@@ 343
lf 343
onal 343
spend 343
victor 343
┪ 343
不见得 343
亚伯 343
伪装成 343
伯克 343
例行 343
凤 343
凸@@ 343
别像 343
前后 343
剩余 343
参议院 343
含量 343
周边 343
呼气 343
太郎 343
平原 343
护卫 343
抬高 343
拐杖 343
捞@@ 343
无声 343
曹操 343
杀人狂 343
枪法 343
格罗 343
概率 343
洗钱 343
淘@@ 343
湖里 343
炉@@ 343
直到现在 343
睁 343
米亚 343
菊@@ 343
讨价还价 343
记不清 343
贩子 343
过往 343
迷航 343
遍布 343
钢琴@@ 343
陸 343
频@@ 343
9.@@ 342
af@@ 342
ased 342
lac@@ 342
mun@@ 342
russell 342
sty 342
上市 342
不可避免 342
严密 342
佣金 342
倒闭 342
克曼 342
冯@@ 342
口渴 342
叭 342
喝多 342
大意 342
女伴 342
岸边 342
弯曲 342
挪威 342
服侍 342
植@@ 342
毕生 342
洞里 342
溺水 342
烟草 342
示 342
空袭 342
经费 342
缘@@ 342
號碼 342
西德尼 342
超大 342
过失 342
连络 342
长城 342
险境 342
高档 342
鲍里斯 342
﹍ 342
geor@@ 341
taylor 341
wer 341
一天到晚 341
俄亥俄州 341
倍@@ 341
匆匆 341
娃@@ 341
对天发誓 341
小兄弟 341
平面 341
愛我 341
手艺 341
找找看 341
捕猎 341
放入 341
新年快乐 341
氯@@ 341
油门 341
潔 341
為止 341
烏@@ 341
猎犬 341
獎@@ 341
生意人 341
當你 341
疗养院 341
瞬@@ 341
紧急@@ 341
绒@@ 341
绩 341
缴 341
网络@@ 341
罪恶感 341
美满 341
航天@@ 341
访谈 341
说教 341
赠@@ 341
走狗 341
锐@@ 341
4chffffff 340
59 340
dy@@ 340
fs11 340
lip 340
pain@@ 340
suc@@ 340
一箱 340
三年级 340
人員 340
仪@@ 340
会付 340
冰川 340
司令官 340
唇@@ 340
嘢 340
妍 340
宇@@ 340
完全@@ 340
所愿 340
打烂 340
挥手 340
推断 340
斯巴达克斯 340
爱德华兹 340
疑虑 340
真傻 340
第一场 340
羔羊 340
股东 340
脉冲 340
解放@@ 340
賴 340
赠 340
這一點 340
重案 340
阔@@ 340
雞@@ 340
ch00f8fb 339
itu@@ 339
river 339
万年 339
不全是 339
之声 339
任意 339
全心全意 339
喋喋不休 339
崇高 339
崩@@ 339
巷 339
忌 339
我长 339
战后 339
戴克 339
挡@@ 339
揉 339
散散步 339
残 339
派来 339
热心 339
玲@@ 339
習慣 339
被子 339
警队 339
輸@@ 339
迪安 339
铲 339
除去 339
饒 339
駕@@ 339
appreciate 338
mb 338
zar@@ 338
买些 338
亚鲁曼 338
伯父 338
免疫 338
八成 338
分给 338
塌 338
姑 338
学业 338
巴布 338
当兵 338
悔 338
抑郁 338
折扣 338
洲@@ 338
箱@@ 338
绿灯 338
致力于 338
药房 338
虛@@ 338
血型 338
贡@@ 338
钦佩 338
颇 338
魁 338
 338
 338
gail 337
katie 337
peace 337
sie 337
single 337
sitting 337
一文不值 337
不忠 337
中世纪 337
争辩 337
初恋 337
别玩 337
卡萝 337
古拉 337
后卫 337
埃莉诺 337
夏日 337
多半 337
奇异 337
審@@ 337
尔多 337
开灯 337
开端 337
拷问 337
木星 337
树叶 337
死不了 337
水准 337
流放 337
減@@ 337
烟花 337
独 337
異 337
看着办 337
绕过 337
老爷子 337
耗尽 337
诊@@ 337
通报 337
遗言 337
野生动物 337
donna 336
gin@@ 336
ical 336
rain 336
risk 336
signed 336
slo@@ 336
stea@@ 336
tat@@ 336
一曲 336
三条 336
什麼樣 336
克里斯托弗 336
同一时间 336
壁炉 336
快好了 336
新兵 336
无害 336
有時 336
核实 336
橘子 336
消停 336
湾@@ 336
滨 336
演員 336
热量 336
白费 336
策@@ 336
简短 336
约书亚 336
豪宅 336
那去 336
雅克 336
黑白 336
03 335
bernadette 335
daisy 335
doug 335
ette 335
killing 335
ry@@ 335
sea 335
vous 335
不容 335
不然的话 335
些@@ 335
人世 335
低级 335
保险柜 335
冰毒 335
冷战 335
利尔 335
君子 335
坠@@ 335
外交@@ 335
大厨 335
奴役 335
姓氏 335
小黑 335
庙@@ 335
投资者 335
指南 335
捣 335
数百万 335
止血 335
烟囱 335
無關 335
狭@@ 335
用手 335
真巧 335
神马 335
给我发 335
罕@@ 335
联系人 335
膝 335
臨@@ 335
致电 335
茬 335
该不该 335
赫尔@@ 335
跑出去 335
遮住 335
颤 335
黑名单 335
blan@@ 334
built 334
chase 334
derek 334
earl 334
gan@@ 334
hole 334
lock@@ 334
ppy 334
tta 334
下跌 334
佣人 334
佩里 334
劳埃德 334
区分 334
外勤 334
崇@@ 334
您@@ 334
戒备 334
拥挤 334
拿个 334
救助 334
教官 334
本意 334
桨 334
棕@@ 334
源头 334
爭 334
生产@@ 334
电磁@@ 334
番茄酱 334
破壞 334
習 334
脸蛋 334
莓 334
行者 334
議@@ 334
超過 334
逃不掉 334
邁@@ 334
长老 334
阴暗 334
麦迪逊 334
 334
catherine 333
interesting 333
luke 333
reed 333
stopped 333
一走了之 333
不合理 333
伎俩 333
体制 333
反感 333
发生@@ 333
吞下 333
垫@@ 333
塔米 333
宜@@ 333
小女儿 333
得上 333
心头 333
戀@@ 333
特别@@ 333
看护 333
硬汉 333
私家侦探 333
穆德 333
笑一笑 333
脸颊 333
臣@@ 333
被害者 333
说道 333
谣 333
赛门 333
转达 333
鎖@@ 333
飞来 333
89 332
deb 332
ei@@ 332
hay@@ 332
jen@@ 332
national 332
oo@@ 332
ounds 332
tain 332
tch@@ 332
三楼 332
丽娜 332
九月 332
共产主义 332
出声 332
出版社 332
别扭 332
十亿 332
协定 332
可口 332
品种 332
在一起 332
埃米 332
奖品 332
宮 332
库尔特 332
憩 332
招惹 332
招来 332
未曾 332
栽 332
梳@@ 332
现代@@ 332
生个 332
私生活 332
纬 332
翔 332
臂@@ 332
进口 332
邀请函 332
鞠躬 332
顧 332
食谱 332
高山 332
 332
club 331
debra 331
jessica 331
personal 331
yang 331
一千万 331
一棵树 331
从未有过 331
低落 331
化身 331
医务室 331
反省 331
句子 331
哪样 331
坏处 331
埃文斯 331
境界 331
如下 331
寿 331
惯例 331
戰鬥 331
推开 331
洗衣 331
準@@ 331
瓦拉 331
砸@@ 331
糖浆 331
罗布 331
自便 331
血手 331
讲个 331
透透气 331
逝去 331
還想 331
阿根廷 331
雜@@ 331
雨林 331
順利 331
holding 330
majesty 330
movie 330
produc@@ 330
tea@@ 330
ung 330
下棋 330
亦@@ 330
储物柜 330
克丽丝 330
吐司 330
問問 330
国务院 330
学得 330
巴尼 330
引开 330
弗林特 330
往回 330
恩典 330
悬 330
搬到 330
擦伤 330
无畏 330
比拉 330
没人要 330
潮流 330
激进 330
环球 330
看透 330
統@@ 330
脆@@ 330
蜗牛 330
解答 330
辨认 330
遗传@@ 330
阿兰 330
陀@@ 330
離婚 330
顶多 330
魅@@ 330
casey 329
一世 329
不差 329
为时已晚 329
信号@@ 329
分解 329
十月 329
哨@@ 329
器材 329
土壤 329
圣徒 329
好了吧 329
家裡 329
引来 329
德文 329
心态 329
心目 329
思绪 329
拆掉 329
污 329
沟@@ 329
相伴 329
而生 329
表白 329
訪 329
超速 329
跳得 329
过奖 329
遗失 329
邋遢 329
野猪 329
闪烁 329
雪花 329
马上会 329
04 328
brain 328
chu@@ 328
cross 328
dying 328
hector 328
stage 328
totally 328
yed 328
一碗 328
三分 328
不敢@@ 328
冒充 328
凹@@ 328
劳驾 328
卢卡 328
变老 328
后背 328
告密者 328
哪能 328
宠坏 328
布利 328
接著 328
替身 328
沐浴 328
混淆 328
独家 328
獲@@ 328
电影明星 328
画作 328
睁开 328
约翰@@ 328
缸 328
航向 328
苏丹 328
薄饼 328
蝶 328
补救 328
豪斯 328
辅助 328
选美 328
阿尔法 328
隆重 328
风头 328
魚@@ 328
decided 327
gus 327
ities 327
vince 327
zoe 327
储存 327
具体@@ 327
加拉@@ 327
十七 327
千万@@ 327
启程 327
呼喊 327
圭 327
塞尔瓦 327
宵 327
忠于 327
急救@@ 327
我些 327
拆散 327
探访 327
教区 327
斤@@ 327
点到 327
犯案 327
王者 327
病历 327
碼 327
种植 327
穆罕默德 327
统治者 327
聿 327
行尸 327
躲藏 327
迪劳伦 327
闹剧 327
隊長 327
頗 327
顧@@ 327
食堂 327
骸 327
 327
ﺜ 327
3d 326
church 326
class 326
jac@@ 326
julia 326
一扇门 326
他現 326
传感器 326
切特 326
场上 326
孩 326
小白 326
常识 326
打声 326
挫折 326
敬畏 326
暴君 326
會給 326
杜威 326
根本无法 326
爱好者 326
第九 326
管教 326
耀@@ 326
耳边 326
肚子饿 326
脑海中 326
荷马 326
萧 326
評@@ 326
警报器 326
车手 326
還不 326
阿司匹林 326
100% 325
96 325
grab 325
im 325
leg@@ 325
suit 325
一整夜 325
不應 325
不要脸 325
五角大楼 325
傻蛋 325
先说 325
克隆 325
内幕 325
初中 325
危及 325
尘土 325
拷贝 325
日本@@ 325
昌 325
棚@@ 325
毯 325
番茄 325
確認 325
绊 325
翩@@ 325
虎克 325
警卫队 325
训练@@ 325
貌@@ 325
阿姆斯特朗 325
降到 325
隐 325
韦斯 325
gener@@ 324
plus 324
red@@ 324
sand@@ 324
丹妮 324
体现 324
侵略 324
兰妮 324
叛逆 324
只在乎 324
嚷 324
多诺万 324
太贵 324
姨 324
我行 324
我输 324
掘@@ 324
散布 324
比斯 324
气流 324
照样 324
熏@@ 324
率@@ 324
看得 324
研讨会 324
簡 324
荐 324
虚张声势 324
谨 324
赴 324
certainly 323
eff@@ 323
int@@ 323
ought 323
上膛 323
乔伊@@ 323
事兒 323
任性 323
加热 323
北美 323
卑@@ 323
叹@@ 323
咸 323
啰嗦 323
士气 323
大气 323
头等舱 323
小命 323
巴尔的摩 323
平静下来 323
忧 323
怀上 323
感激不尽 323
打不开 323
折断 323
指头 323
来此 323
榜 323
热门 323
理发 323
瑞夫 323
界线 323
肖像 323
装傻 323
谅解 323
跃@@ 323
這對 323
鞭@@ 323
麻痹 323
apartment 322
conne@@ 322
dal@@ 322
evening 322
forgive 322
loy@@ 322
ny@@ 322
seconds 322
teddy 322
丽雅 322
克森 322
出發 322
名气 322
啲 322
嚎 322
坚守 322
强力 322
循@@ 322
感知 322
扁@@ 322
拧@@ 322
掺和 322
摊@@ 322
歸@@ 322
泳 322
流程 322
百万美元 322
秋千 322
稀有 322
螟 322
跳进 322
近期 322
追究 322
鉴@@ 322
-… 321
87 321
dana 321
devil 321
goddamn 321
mickey 321
roger 321
tun@@ 321
╆ 321
三分之一 321
三张 321
之意 321
亚历 321
佐藤 321
初级 321
受罪 321
四百 321
宿醉 321
帮过 321
弗莱德 321
怪罪 321
总署 321
恩人 321
拼图 321
揽 321
敏锐 321
斗篷 321
无线 321
时间轴 321
普顿 321
棋子 321
橄榄 321
氏@@ 321
汽車 321
疏忽 321
皊 321
窄 321
胶片 321
腐 321
西伯利亚 321
赴@@ 321
退回去 321
遣 321
阵营 321
面谈 321
骷髅 321
08 320
dress 320
feels 320
free@@ 320
isa@@ 320
seat 320
station 320
us@@ 320
一扇 320
一罐 320
一针 320
下达 320
乔纳斯 320
休克 320
使出 320
傍晚 320
光辉 320
决策 320
击落 320
到头来 320
卡普@@ 320
吉普赛人 320
吸血 320
地牢 320
城墙 320
塔尼 320
外衣 320
安然无恙 320
家教 320
射手 320
廉 320
弗兰西斯 320
抢救 320
拔出来 320
柯克 320
梅拉 320
水牛 320
相當 320
竭 320
糟@@ 320
纳特 320
能用 320
蠂 320
表亲 320
遊 320
马拉松 320
ﺛ 320
good@@ 319
planet 319
qu 319
rob 319
short 319
swear 319
train 319
tti 319
wind 319
ら 319
不痛 319
丽萨 319
习俗 319
他开 319
众所周知 319
六周 319
写道 319
冷却 319
制品 319
发飙 319
城外 319
序@@ 319
抖@@ 319
普遍 319
标本 319
气死 319
洗车 319
浑@@ 319
炫@@ 319
独立@@ 319
瑞卡 319
皮尔逊 319
盎司 319
笔迹 319
簀 319
继 319
维斯特 319
缪 319
置信 319
聊聊天 319
苗@@ 319
茄子 319
萊 319
蓉 319
这钱 319
郭@@ 319
顶上 319
110 318
3ch@@ 318
christ 318
dash 318
flu@@ 318
gger 318
sions 318
sul@@ 318
一提 318
主義@@ 318
人待 318
他爸 318
偷窥 318
切割 318
前天 318
却说 318
右侧 318
叽@@ 318
墓@@ 318
太少 318
尼尔森 318
布鲁 318
开幕 318
弗利 318
弹钢琴 318
很烦 318
我时 318
搖@@ 318
摩擦 318
松手 318
案底 318
水域 318
洋娃娃 318
炒鱿鱼 318
照耀 318
用光 318
电器 318
矮子 318
竹 318
综合症 318
莱姆 318
要查 318
诺埃尔 318
账号 318
赤裸 318
违 318
阵亡 318
难免 318
馅 318
麦考@@ 318
鼎@@ 318
１ 318
aff@@ 317
nancy 317
pra@@ 317
rules 317
west 317
一门 317
你還 317
俄 317
副手 317
加大 317
原料 317
吟@@ 317
天前 317
婉@@ 317
平安无事 317
开往 317
從來 317
微弱 317
我姐 317
搭便车 317
核对 317
概@@ 317
氨 317
消极 317
礙 317
罪有应得 317
袖子 317
詩@@ 317
读读 317
资本 317
选项 317
那可真 317
84 316
attention 316
bene@@ 316
dennis 316
francis 316
一清二楚 316
上门 316
二重 316
人到 316
人民@@ 316
仿 316
借此 316
克里斯蒂安 316
冰冻 316
反悔 316
叫喊 316
呸 316
失忆 316
对外 316
幺 316
开球 316
影院 316
恐怖袭击 316
执着 316
拉丁语 316
援 316
搭乘 316
擂台 316
放火 316
普拉特 316
机车 316
梦寐以求 316
汉姆 316
波动 316
牌照 316
痘 316
看不懂 316
社工 316
米切尔 316
维加斯 316
脑后 316
舉 316
苔@@ 316
萌 316
葱 316
这裡 316
迪伊 316
通缉犯 316
酵 316
铲除 316
银色 316
题目 316
马姬 316
黄瓜 316
81 315
91 315
joey 315
ners 315
ち 315
一举一动 315
不靠 315
交火 315
人比 315
他时 315
传教士 315
何在 315
使用@@ 315
劫案 315
哇@@ 315
哪门子 315
定居 315
客户@@ 315
层楼 315
布赖恩 315
弦@@ 315
打扰到 315
抛开 315
捕鱼 315
捷克 315
木板 315
来宾 315
栽赃 315
沒見過 315
泊@@ 315
泪水 315
游乐场 315
犧牲 315
獎 315
祈禱 315
突发 315
符@@ 315
米娜 315
粪便 315
糊弄 315
绵 315
老板娘 315
訊 315
許是 315
趁机 315
阿比 315
魁@@ 315
ﻃ 315
74 314
bac@@ 314
code 314
fy 314
instead 314
pr@@ 314
僅僅 314
半岛 314
只顾 314
咖 314
埃尔 314
大吉 314
大头 314
嫌@@ 314
富裕 314
尽力而为 314
强奸犯 314
惧怕 314
愛上 314
手举 314
整洁 314
本土 314
某天 314
毛发 314
璸 314
登山 314
碍事 314
肠子 314
要給 314
設計 314
謝@@ 314
谨@@ 314
贝壳 314
躲过 314
银河 314
阴 314
马龙 314
鼻涕 314
 314
bou@@ 313
self 313
starting 313
weapon 313
一塌糊涂 313
两万 313
價@@ 313
写字 313
创新 313
包扎 313
卡德 313
叉@@ 313
太有 313
尔菲 313
尺@@ 313
干的事 313
座椅 313
快回去 313
想像中 313
成真 313
我問 313
推销员 313
斯蒂夫 313
新加坡 313
施舍 313
更长 313
机灵 313
桑迪 313
樓@@ 313
死前 313
涂鸦 313
炫 313
烫@@ 313
犹如 313
班长 313
真酷 313
碾@@ 313
笼@@ 313
联赛 313
脱下 313
膛 313
舍不得 313
衡量 313
西班牙人 313
陨石 313
陪你去 313
集市 313
音响 313
during 312
kyle 312
lyn 312
pes 312
respect 312
一顶 312
不易 312
两岁 312
侦察@@ 312
侧面 312
倒计时 312
做做 312
偷情 312
克罗 312
十八@@ 312
启示 312
哲学家 312
好开心 312
娘娘 312
弗里 312
惦@@ 312
户外 312
扇@@ 312
执行官 312
拢 312
採@@ 312
接听 312
摆布 312
救生@@ 312
施压 312
時刻 312
法國 312
潮湿 312
狀 312
病假 312
科医生 312
肩上 312
菲兹 312
费心 312
躯体 312
门开 312
马可@@ 312
驱使 312
arms 311
forward 311
ji@@ 311
ries 311
个个 311
免受 311
同一天 311
向导 311
大好 311
威克 311
完好 311
常去 311
德兰 311
德勒 311
德行 311
心肝 311
拉夫 311
拓@@ 311
日后 311
时分 311
来晚 311
极为 311
汝 311
灭口 311
牛顿 311
真不该 311
算数 311
練 311
表姐 311
许诺 311
谢尔盖 311
送花 311
違@@ 311
难吃 311
霍莉 311
鞋带 311
骚乱 311
骨骼 311
高音 311
＞ 311
bailey 310
bus 310
gam@@ 310
gay 310
irs 310
scene 310
serve 310
shu@@ 310
wearing 310
下沉 310
凯茜 310
切斯 310
受审 310
叛变 310
吉普 310
同感 310
哪里找 310
嗓音 310
天份 310
定下 310
实验@@ 310
巴尔@@ 310
恐懼 310
愉悦 310
我记 310
把酒 310
挡路 310
星座 310
有害 310
栽@@ 310
梅朵 310
比基尼 310
活不下去 310
流星 310
海鲜 310
热身 310
生子 310
相连 310
藏匿 310
观赏 310
识字 310
負 310
跟班 310
辩解 310
降落伞 310
 310
7.@@ 309
bel 309
completely 309
tin 309
东东 309
举杯 309
伤员 309
做错事 309
内在 309
刊登 309
受了伤 309
后腿 309
向前走 309
嗅 309
址 309
坐车 309
天杀 309
夫特 309
奥拉 309
學家 309
弗洛@@ 309
散播 309
无线@@ 309
权益 309
此生 309
死地 309
母牛 309
毕业生 309
法令 309
涅 309
牵涉 309
猁 309
硄 309
确凿 309
社交@@ 309
纠纷 309
羊肉 309
订购 309
课上 309
赶出来 309
起舞 309
跳伞 309
酚 309
量子 309
阵地 309
隨時 309
雙 309
马拉@@ 309
麥 309
dence 308
ery 308
lincoln 308
names 308
shh 308
stran@@ 308
ven 308
ـ 308
…@@ 308
一粒 308
不自在 308
中年 308
了如指掌 308
互动 308
但丁 308
别误会 308
匹兹堡 308
华府 308
商量一下 308
团长 308
对劲 308
小洁 308
惹火 308
愤@@ 308
手掌 308
擦掉 308
残留 308
波利 308
王室 308
理应 308
申请@@ 308
看能 308
纳西 308
罩@@ 308
老百姓 308
脑震荡 308
菲斯 308
蓄意 308
认知 308
这一@@ 308
这破 308
邻 308
铭记 308
閉 308
集结 308
风筝 308
马鞭草 308
鬼子 308
魔法师 308
麦肯@@ 308
140 307
comm@@ 307
grant 307
guns 307
harvey 307
lied 307
mcnally 307
miller 307
offer 307
shad2 307
tired 307
ア 307
主厨 307
供给 307
典狱长 307
冷水 307
卖淫 307
只得 307
大盗 307
大致 307
太坏 307
崖 307
年轻@@ 307
忙于 307
快进去 307
恰恰 307
慘 307
整座 307
晨 307
泉@@ 307
犬@@ 307
男女@@ 307
自欺欺人 307
草地 307
蛋白质 307
负面 307
走掉 307
起死回生 307
起誓 307
迷茫 307
送往 307
阿布@@ 307
 307
 307
anthony 306
dexter 306
oper@@ 306
pil@@ 306
rele@@ 306
一輩子 306
下潜 306
不卖 306
不知所措 306
个别 306
中介 306
代理@@ 306
儿童@@ 306
公告 306
匙 306
医治 306
单身汉 306
叙@@ 306
天吶 306
奉命 306
岳父 306
布鲁克斯 306
慢下来 306
斯蒂@@ 306
柜@@ 306
殖 306
漆黑 306
濒@@ 306
特警 306
白马王子 306
看中 306
矪 306
秃头 306
第一批 306
胜利者 306
莉安 306
西服 306
轻而易举 306
进到 306
远方 306
配备 306
预想 306
颈@@ 306
79 305
ceo 305
jack@@ 305
ler@@ 305
mond 305
phil@@ 305
tree 305
上线 305
不斷 305
中部 305
事宜 305
人权 305
六天 305
咚 305
品位 305
嗜血 305
小看 305
弄断 305
弹琴 305
打通 305
持久 305
捆 305
撐 305
放马过来 305
暴行 305
正向 305
深海 305
潇洒 305
疏远 305
盢 305
直视 305
破事 305
純@@ 305
職 305
茲@@ 305
莫扎特 305
译@@ 305
贊@@ 305
资深 305
轻举妄动 305
這不 305
露易丝 305
面粉 305
額 305
鼓手 305
bear 304
grand 304
joseph 304
rob@@ 304
rober@@ 304
ror 304
singing 304
ssy 304
ut 304
walker 304
之類 304
伸展 304
分不清 304
加仑 304
十年代 304
华沙 304
大奖 304
好觉 304
恼火 304
我應 304
拉尔 304
拳击手 304
搁 304
斩 304
更何况 304
楼层 304
然後我 304
熬夜 304
王妃 304
玛丽莲 304
病得 304
百列 304
眨 304
瞄@@ 304
禁令 304
纠@@ 304
耶和华 304
艾德@@ 304
蒙羞 304
裁定 304
西北 304
規@@ 304
车来 304
迪士尼 304
遥控 304
酷毙了 304
鲁比 304
bank 303
definitely 303
dent 303
eh 303
fiona 303
jackson 303
matthew 303
mber 303
struc@@ 303
ue 303
一丁点 303
一两天 303
不听话 303
不道德 303
乐于 303
传染病 303
做件 303
僵硬 303
克罗@@ 303
冲洗 303
凉快 303
制药 303
听得懂 303
哈瑞 303
地理 303
墓穴 303
壓 303
学长 303
對付 303
小伙伴 303
左侧 303
想都别想 303
我念 303
戴眼镜 303
所作 303
打探 303
拾@@ 303
支舞 303
日内瓦 303
有何不可 303
毫無@@ 303
炉子 303
爵士乐 303
玛格 303
现实生活 303
生化 303
睡觉时 303
穹顶 303
绝妙 303
翁@@ 303
腊肠 303
茵 303
蒙哥马利 303
记不起来 303
贼@@ 303
较量 303
辅 303
这么@@ 303
这般 303
非常感激 303
颁@@ 303
1chd8afaf 302
4chc08000 302
accident 302
dylan 302
gotten 302
heshe 302
pat 302
store 302
ぶ 302
三种 302
主机 302
之物 302
他关 302
光明@@ 302
全在 302
关爱 302
出没 302
刮胡子 302
奥利维亚 302
家庭主妇 302
得花 302
悲 302
想点 302
捕获 302
无处 302
某個 302
消逝 302
火山@@ 302
电流 302
筹备 302
賓@@ 302
轮流 302
队里 302
阿憨 302
黄昏 302
2008 301
900 301
contact 301
desp@@ 301
gene 301
kal@@ 301
mau@@ 301
mid@@ 301
natalie 301
normal 301
ped 301
peri@@ 301
pit@@ 301
proud 301
shakira 301
sm 301
une 301
不累 301
亚马逊 301
侵@@ 301
入伍 301
吉塔 301
呼吸@@ 301
喝光 301
家门口 301
巧妙 301
布满 301
帕斯 301
帽@@ 301
心理准备 301
承包商 301
挟持 301
探讨 301
推到 301
摘下 301
本领 301
林中 301
没劲 301
海斯 301
爬上去 301
癫痫 301
硫@@ 301
禁足 301
纳森 301
线人 301
记性 301
链@@ 301
闹事 301
阿公 301
2012 300
broken 300
fli@@ 300
gift 300
you@@ 300
一月 300
上任 300
不如@@ 300
享有 300
作响 300
克里斯多佛 300
全职 300
几分 300
出生@@ 300
分娩 300
叛乱 300
唱得 300
围墙 300
埃德加 300
奢侈 300
宝拉 300
帮得 300
年里 300
开支 300
戴维@@ 300
打了个 300
最长 300
格蕾@@ 300
椰子 300
汉子 300
漢 300
离奇 300
窜 300
维基 300
血流 300
西门 300
贝勒 300
败类 300
跳蚤 300
那真 300
醉鬼 300
限于 300
颈部 300
gabriel 299
glo@@ 299
hit@@ 299
memory 299
phi@@ 299
wilson 299
zzie 299
る 299
假定 299
偿@@ 299
光头 299
办完 299
加薪 299
否@@ 299
吱 299
大学@@ 299
孕@@ 299
字典 299
小天使 299
弱者 299
患@@ 299
想像力 299
意想不到 299
我进 299
插进 299
正当@@ 299
殺手 299
没救 299
海蒂 299
澳门 299
爱丽@@ 299
猎手 299
献 299
看得@@ 299
硕@@ 299
组装 299
英國 299
表示@@ 299
说唱 299
贸@@ 299
赌徒 299
逼迫 299
里瑟 299
重组 299
难搞 299
顯@@ 299
风流 299
驰 299
02 298
fn@@ 298
locked 298
ona 298
than@@ 298
wonderful 298
ゲ 298
两起 298
作主 298
儿女 298
全程 298
函 298
别挂 298
勞 298
北极@@ 298
北极熊 298
叙利亚 298
只能靠 298
听取 298
啪 298
大片 298
好坏 298
娇 298
徐 298
打着 298
描@@ 298
斯巴达 298
机制 298
模范 298
泥巴 298
牧羊人 298
看个 298
莫非 298
葡萄@@ 298
融 298
袖 298
谋生 298
进不去 298
錢@@ 298
铅 298
骚@@ 298
1200 297
13@@ 297
2009 297
commit@@ 297
east 297
keeping 297
meredith 297
ni 297
qui@@ 297
strange 297
vincent 297
window 297
不由@@ 297
二战 297
充 297
刚到 297
十二点 297
南美 297
压住 297
哈迪斯 297
在手 297
地形 297
堅@@ 297
奈杰尔 297
寺庙 297
导航 297
常客 297
廢@@ 297
德伍德 297
我馬上 297
拎 297
晴 297
服務 297
林顿 297
每秒 297
民主@@ 297
洗衣机 297
涩 297
爱抚 297
特拉@@ 297
特瑞 297
睁开眼睛 297
短时间 297
砂@@ 297
缩写 297
美人鱼 297
胡椒 297
这年头 297
郁@@ 297
里装 297
闻名 297
陽@@ 297
鞭子 297
饶恕 297
edward 296
enjoy 296
gun@@ 296
louis 296
pd 296
tea 296
以为@@ 296
卒 296
參 296
反恐 296
发号施令 296
唾@@ 296
喲 296
在世 296
坎贝尔 296
塔特 296
墨镜 296
复印 296
奥列格 296
小精灵 296
巡回 296
年长 296
弄完 296
录制 296
扣押 296
揭 296
摇晃 296
橡@@ 296
洛伦佐 296
活不了 296
炼狱 296
煩@@ 296
生死@@ 296
看病 296
瞞 296
碑 296
秘方 296
赚大钱 296
迷上 296
這點 296
金枪鱼 296
類@@ 296
骚货 296
24@@ 295
eld 295
guard 295
hotel 295
li 295
mais 295
pop 295
third 295
tm 295
​ 295
三角洲 295
不可理喻 295
事有 295
人力 295
仓@@ 295
低于 295
努力@@ 295
動手 295
包袱 295
化疗 295
十二个 295
厄运 295
发育 295
嘀@@ 295
国务卿 295
太陽 295
奔驰 295
学着 295
寓@@ 295
当回事 295
房车 295
扛 295
拟@@ 295
损@@ 295
掐 295
放着 295
整年 295
斯旺 295
水源 295
沙利文 295
波尔 295
注重 295
泰山 295
深陷 295
狗日 295
玩乐 295
瑞丝 295
社会主义 295
管闲事 295
簆 295
紧密 295
胶卷 295
警觉 295
跑腿 295
酱@@ 295
錯過 295
链子 295
間@@ 295
隊@@ 295
靠你了 295
1945 294
calls 294
harris 294
hh 294
rel@@ 294
smell 294
ssive 294
一战 294
万里 294
丘吉尔 294
二氧化碳 294
会输 294
伤势 294
偏离 294
全家人 294
制片 294
另有 294
哉 294
好怕 294
密谋 294
当过 294
心烦意乱 294
扼杀 294
换来 294
放逐 294
无事 294
无所事事 294
有大 294
比较@@ 294
炖 294
煙@@ 294
熬@@ 294
獶 294
獸 294
空缺 294
老兵 294
要塞 294
证券 294
进程 294
陪陪 294
雕刻 294
雷吉 294
麻醉@@ 294
黄金@@ 294
island 293
magic 293
surprise 293
whe@@ 293
within 293
不祥 293
东尼@@ 293
付账 293
你哥 293
同步 293
围栏 293
圣杯 293
夫斯 293
头颅 293
安顿 293
希拉里 293
弊 293
很多很多 293
很远 293
我学 293
戶 293
撕成 293
擔 293
替罪羊 293
杏仁 293
棉 293
满嘴 293
煤 293
玩个 293
琦 293
生物学 293
究 293
紙 293
紙@@ 293
給你@@ 293
繼@@ 293
维罗妮 293
艾丽克丝 293
贫民窟 293
贯 293
跟紧 293
跨过 293
酒会 293
陀 293
顯示 293
魔咒 293
ﻂ 293
83 292
ax@@ 292
build 292
chee@@ 292
dorothy 292
fro@@ 292
lic@@ 292
ski@@ 292
sna@@ 292
thin 292
一个多 292
不著 292
丰盛 292
伊兹 292
入院 292
博格 292
卡尔文 292
周期 292
夏洛蒂 292
奥利佛 292
就會 292
帆船 292
帕拉 292
常人 292
开出 292
恩惠 292
无妨 292
普罗@@ 292
最終 292
服药 292
椰@@ 292
款@@ 292
深深地 292
物资 292
狡@@ 292
电车 292
神仙 292
節目 292
绊倒 292
请等一下 292
身心 292
逢 292
霍伊特 292
顶楼 292
餐具 292
魔杖 292
鲑鱼 292
101 291
consi@@ 291
decision 291
dee 291
goodbye 291
indeed 291
mess 291
om 291
terri@@ 291
不合@@ 291
不大@@ 291
劲@@ 291
卜 291
卡姆 291
天国 291
天皇 291
妹@@ 291
容器 291
布伦达 291
意義 291
戏弄 291
拼写 291
提防 291
敏捷 291
斯堡 291
晕过去 291
晦 291
案发 291
灵媒 291
煮饭 291
睫 291
离职 291
章鱼 291
耀眼 291
老年人 291
肢体 291
自言自语 291
至此 291
英雄@@ 291
裁缝 291
起草 291
跳楼 291
重击 291
鏡@@ 291
键盘 291
预谋 291
fs30 290
gar 290
lawyer 290
lovely 290
mal 290
south 290
youtube 290
专员 290
保險 290
允 290
受伤害 290
告诉您 290
地里 290
填写 290
好極 290
妞儿 290
小妹 290
往下@@ 290
懂不懂 290
控制中心 290
揭穿 290
泡汤 290
海姆 290
牛津 290
狮@@ 290
电动 290
电缆 290
电路 290
眼镜蛇 290
神经质 290
科學 290
穿透 290
答对 290
羆 290
翻身 290
耶穌 290
脚踏车 290
臨 290
苏醒 290
藉由 290
象个 290
资本主义 290
走得 290
雷尼 290
霍道夫 290
顶端 290
顺其自然 290
食人@@ 290
马里奥 290
驱动 290
bought 289
cash 289
finn 289
jess 289
kenny 289
science 289
vie@@ 289
下属 289
假名 289
兮兮 289
兰人 289
分之一 289
勘@@ 289
十九 289
嘶@@ 289
噩@@ 289
国防 289
夠@@ 289
天父 289
好手 289
妄想症 289
季度 289
安好 289
宣 289
寂静 289
小兰 289
巡回@@ 289
巴拉 289
开销 289
心怀 289
抓紧时间 289
拉蒙 289
撕开 289
敬佩 289
昏过去 289
添加 289
物理学 289
独角兽 289
用得着 289
相亲 289
窥@@ 289
纵火 289
贷 289
走投无路 289
避难 289
關系 289
霸王 289
魯 289
3chff8000 288
blu@@ 288
courtney 288
martha 288
search 288
sol@@ 288
yep 288
一款 288
不测 288
來過 288
俩个 288
修剪 288
千个 288
即可 288
去過 288
叫作 288
嗜好 288
回音 288
地表 288
塞巴斯蒂安 288
大牢 288
奥运会 288
委屈 288
威尔@@ 288
尼可 288
废除 288
归宿 288
德雷克 288
恐惧症 288
扣留 288
搜救 288
撞见 288
新型 288
日夜 288
格雷厄姆 288
没试 288
法拉利 288
烂醉 288
用作 288
纱 288
经纪 288
绑架案 288
耀 288
膽@@ 288
费尔 288
路易@@ 288
达克 288
那能 288
０ 288
berg 287
custo@@ 287
dollars 287
dom 287
jones 287
legal 287
ours 287
stuck 287
upon 287
ure 287
usher 287
zo 287
一百块 287
一點點 287
不长 287
业主 287
乏 287
买票 287
偏僻 287
十二岁 287
厨艺 287
发给你 287
嘗試 287
填满 287
处处 287
大批 287
大提琴 287
失事 287
存放 287
学徒 287
安全部 287
小刀 287
屁滚尿流 287
很久很久 287
感官 287
暖气 287
氢@@ 287
沾满 287
炸鸡 287
玛蒂 287
琪琪 287
生小孩 287
电话响 287
畔 287
眉 287
积蓄 287
穿梭 287
萨特 287
详 287
调到 287
赛跑 287
遵从 287
那女 287
重逢 287
顺从 287
预料到 287
预防 287
魄 287
 287
07 286
cindy 286
fic 286
fighting 286
hunter 286
jackie 286
liz 286
rice 286
rid 286
smile 286
Ν 286
┬ 286
不顾一切 286
专 286
中队 286
之家 286
乘以 286
交战 286
侦测 286
侵蚀 286
加以 286
医学@@ 286
卓越 286
句@@ 286
吋 286
块@@ 286
天神 286
失血 286
委員會 286
富豪 286
憑 286
我全 286
战车 286
扯进来 286
排序 286
接上 286
搬回 286
敗 286
普利 286
智障 286
最酷 286
月底 286
气质 286
洗掉 286
理子 286
瘋子 286
真蠢 286
睁@@ 286
碍@@ 286
科拉 286
管辖 286
绣 286
贝茨 286
闹钟 286
阿诺德 286
饵 286
clin@@ 285
hall 285
quar@@ 285
stro@@ 285
truck 285
wendy 285
worst 285
て 285
上风 285
亚尼 285
令人震惊 285
优美 285
假象 285
傲 285
克莱恩 285
全部都是 285
军情 285
勒姆 285
受人 285
名流 285
喜好 285
四人 285
孩童 285
尔文 285
帕斯卡 285
干燥 285
征求 285
怜 285
悠 285
想家 285
托尔 285
收听 285
杰德 285
柱子 285
栓@@ 285
樣@@ 285
没骗 285
滅 285
煎@@ 285
矢@@ 285
税收 285
美酒 285
考察 285
胡话 285
胸腔 285
腦袋 285
苏珊娜 285
葡萄牙 285
证供 285
车是 285
農@@ 285
錯@@ 285
链接 285
 285
09 284
cameron 284
justice 284
nar@@ 284
nat@@ 284
stars 284
turns 284
wea@@ 284
丛@@ 284
乾淨 284
代人 284
会计师 284
佛罗里达州 284
养老院 284
办理 284
化妆@@ 284
北面 284
大佬 284
大气层 284
好要 284
娣 284
嫂 284
定律 284
家务 284
开饭 284
弗洛伊德 284
怡 284
总在 284
我告 284
我害 284
我画 284
投球 284
押韵 284
捏@@ 284
杠@@ 284
洗碗 284
热带 284
犯过 284
瓦内萨 284
瞧见 284
矹 284
竭尽所能 284
緣 284
维娅 284
艾丽@@ 284
观光 284
诞 284
退伍 284
這個@@ 284
銀@@ 284
鎘 284
铲子 284
镇定剂 284
长话短说 284
陳 284
韋@@ 284
麦琪 284
20% 283
71 283
boyfriend 283
cer 283
cker 283
cute 283
finished 283
keys 283
named 283
reas@@ 283
sis 283
stor@@ 283
stre@@ 283
一任 283
一体 283
不熟 283
判刑 283
利昂 283
土匪 283
坎普 283
大不@@ 283
奖牌 283
如你所愿 283
字游戏 283
就会@@ 283
情书 283
懷孕 283
房顶 283
手动 283
捉弄 283
摩斯 283
時代 283
梅里 283
段@@ 283
活捉 283
溪 283
照办 283
相符 283
第二名 283
结婚@@ 283
美容 283
聘 283
肥猪 283
苦恼 283
行凶 283
说得@@ 283
赐给 283
迟点 283
退休金 283
通行 283
造反 283
野狼 283
钓到 283
闹鬼 283
gordon 282
rat@@ 282
respon@@ 282
rey 282
wan 282
一大笔 282
伤者 282
分队 282
割断 282
化妆品 282
华德 282
哥們 282
声响 282
好得多 282
帮不上忙 282
序 282
忍住 282
提拔 282
撬 282
星光 282
最起码 282
有過 282
泄密 282
泻 282
淫荡 282
烈酒 282
焚@@ 282
爱戴 282
玩具@@ 282
現實 282
瓜葛 282
真凶 282
稿子 282
美德 282
翻过 282
艾达 282
苦头 282
试探 282
趕快 282
这事@@ 282
这篇 282
违抗 282
障@@ 282
高处 282
arrest 281
dit@@ 281
fi 281
flight 281
owe 281
peterson 281
secretary 281
stic 281
á 281
一条@@ 281
一言为定 281
专业人士 281
两下 281
之路 281
光滑 281
克鲁格 281
写出 281
出不去 281
别搞 281
吻@@ 281
圣洁 281
坟 281
大嫂 281
奥托 281
安稳 281
小气 281
尼诺 281
希瑟 281
底层 281
弗雷德里克 281
很慢 281
心声 281
技術 281
描绘 281
月经 281
木匠 281
條件 281
楼顶 281
權利 281
正派 281
残暴 281
毫克 281
氛围 281
油炸 281
海滨 281
番@@ 281
眶 281
耗子 281
聽過 281
虚拟 281
衵 281
贫民区 281
趁着 281
這場 281
鏡 281
雕@@ 281
饶@@ 281
麻雀 281
aw@@ 280
impre@@ 280
obviously 280
stole 280
yl 280
不忍心 280
不知不觉 280
之徒 280
你付 280
供应商 280
停住 280
克格勃 280
党员 280
出丑 280
别乱 280
南极 280
大嘴巴 280
小雪 280
布萊@@ 280
廠 280
开得 280
慢跑 280
我為 280
打高尔夫 280
找遍 280
拉娜 280
揪@@ 280
搞混 280
收视率 280
浏览 280
海域 280
溢@@ 280
澤@@ 280
特技 280
第一夫人 280
筑@@ 280
聖誕 280
興奮 280
蒙蔽 280
蓝图 280
蓬 280
運動 280
遗书 280
部隊 280
above 279
con 279
gle 279
kri@@ 279
reach 279
wers 279
Μ 279
万事 279
伽 279
保险库 279
儲@@ 279
冰雪 279
割伤 279
原创 279
可怜虫 279
咕噜 279
嚣张 279
地儿 279
基尔 279
寧 279
尽兴 279
强悍 279
悄悄地 279
戴娜 279
扛@@ 279
拉斯@@ 279
擾 279
收缩 279
有何@@ 279
枕 279
氮 279
没吃过 279
渺小 279
灌输 279
献身 279
甫 279
磨蹭 279
神情 279
第一眼 279
胜出 279
芬恩 279
萝卜 279
蒙特@@ 279
請問 279
護士 279
诈@@ 279
豬@@ 279
财宝 279
赚点 279
踢足球 279
酒后 279
钻进 279
镇里 279
雄性 279
驯鹿 279
ﻏ 279
carol 278
christian 278
holl@@ 278
kan@@ 278
ov 278
pleasure 278
pul@@ 278
ytet 278
下课 278
中立 278
偏执 278
兵力 278
击掌 278
列入 278
剃刀 278
前排 278
双脚 278
吹箫 278
帅呆了 278
开了个 278
弟@@ 278
情况@@ 278
戏院 278
戒掉 278
扣子 278
掃 278
施展 278
晶 278
服从命令 278
杰弗@@ 278
案发现场 278
泡菜 278
激動 278
激起 278
燕 278
犀牛 278
畢業 278
精神科 278
精通 278
能为 278
莎娜 278
装着 278
訂 278
豁免权 278
豹@@ 278
这歌 278
这瓶 278
进球 278
阿拉里克 278
马匹 278
 278
8.@@ 277
enti@@ 277
gel 277
mann 277
repor@@ 277
shepherd 277
tre 277
ttle 277
ユ 277
一言@@ 277
一路顺风 277
不放过 277
丝绸 277
从头到尾 277
何种 277
使唤 277
信服 277
储备 277
共舞 277
别笑 277
剪辑 277
加拉 277
千真万确 277
卸下 277
压制 277
只见 277
吹嘘 277
国会议员 277
坏主意 277
堵@@ 277
士官 277
大兵 277
奥马尔 277
布兰@@ 277
开刀 277
弄点 277
我待 277
手拿开 277
有把握 277
木马 277
机率 277
柯尔 277
梦想成真 277
毒害 277
沙皇 277
流淌 277
滑冰 277
煽动 277
犀利 277
異@@ 277
盯住 277
纱@@ 277
继母 277
罗德里@@ 277
藝術品 277
被遗弃 277
西藏 277
计算@@ 277
赶回 277
轨迹 277
过多 277
这使 277
隐秘 277
风度 277
麻烦事 277
＇ 277
aah 276
ash@@ 276
em@@ 276
english 276
figured 276
jump 276
level 276
machine 276
partic@@ 276
shel@@ 276
tee 276
tim 276
丛 276
中国@@ 276
之人 276
人种 276
以為 276
划船 276
到此结束 276
十字路口 276
命運 276
夕@@ 276
宋 276
差距 276
怀亚特 276
恩赐 276
恰恰相反 276
擋 276
擔@@ 276
株 276
梳 276
沸腾 276
注意安全 276
漫 276
無聊 276
现任 276
生日@@ 276
禁闭 276
科迪 276
纯净 276
绯闻 276
自從 276
药水 276
融洽 276
行行好 276
解决不了 276
討@@ 276
豪华轿车 276
贝里 276
赶去 276
轰动 276
追着 276
酿 276
顺路 276
飲@@ 276
arch@@ 275
bones 275
camp@@ 275
copy 275
dered 275
mos 275
九十 275
从头@@ 275
休闲 275
做好事 275
公文包 275
发牢骚 275
变回 275
口号 275
大话 275
太后 275
套装 275
妃 275
对头 275
带进来 275
广泛 275
强势 275
得体 275
愈来愈 275
所用 275
捆@@ 275
携@@ 275
更能 275
梭@@ 275
波克 275
烩 275
狱警 275
猛男 275
班级 275
皇后区 275
相应 275
窃贼 275
粗俗 275
虽@@ 275
說明 275
让路 275
话语 275
贯@@ 275
跑不了 275
防备 275
附 275
顺风 275
马尔 275
马铃薯 275
 275
1ch0042cc 274
beyond 274
def@@ 274
dia 274
dition 274
double 274
honest 274
kel@@ 274
swi@@ 274
zen 274
一楼 274
丢进 274
中间人 274
乔尔 274
亂@@ 274
事迹 274
会毁 274
养老金 274
匪徒 274
受宠若惊 274
同僚 274
听力 274
啥时候 274
声纳 274
大堂 274
娜娜 274
嫁給 274
感性 274
打入 274
撞车 274
敬酒 274
斌 274
斯考 274
晋升 274
条纹 274
橋 274
汤玛斯 274
波特兰 274
焊@@ 274
疗@@ 274
督 274
破坏@@ 274
究@@ 274
筹款 274
老伙计 274
聊得 274
肤浅 274
舞會 274
萤火虫 274
说不@@ 274
貼 274
转播 274
这全 274
郊 274
酬劳 274
重症 274
霉@@ 274
高興見 274
0% 273
ani@@ 273
base 273
tex@@ 273
一举 273
一輛 273
三只 273
买下来 273
人称 273
优惠 273
但現 273
免于 273
几号 273
半点 273
危急 273
吉奥 273
咕 273
响应 273
哥斯拉 273
型号 273
太平 273
安危 273
建成 273
打针 273
扣动 273
插管 273
救星 273
昭@@ 273
有理 273
来来来 273
检方 273
法尔 273
淋 273
滴答 273
用药 273
盒@@ 273
看样 273
福斯 273
移除 273
筹 273
肿@@ 273
胰@@ 273
自尊心 273
至死 273
蜘蛛侠 273
談話 273
走人 273
身影 273
运营 273
还用 273
這才 273
邮差 273
露露 273
 273
bird 272
caleb 272
haw@@ 272
lester 272
likes 272
lived 272
spot 272
tine 272
wol@@ 272
wyatt 272
一巴掌 272
三八 272
伯顿 272
偷懒 272
原型 272
向着 272
地中海 272
奥德 272
完后 272
宣扬 272
小木屋 272
已故 272
巴蒂 272
幾年 272
引领 272
打错 272
执行@@ 272
投给 272
拉丁文 272
撕掉 272
撞倒 272
暴风 272
未婚 272
杀过 272
某種 272
格特 272
测谎 272
润 272
渗透 272
犹太教 272
現在@@ 272
瞎扯 272
窍 272
笔录 272
米斯 272
纯属 272
羹 272
耿 272
肉桂 272
花光 272
蓖 272
表决 272
觉醒 272
讲究 272
车开 272
迎 272
送給 272
钮@@ 272
dd 271
jacob 271
jail 271
lab@@ 271
putting 271
scri@@ 271
ths 271
west@@ 271
whether 271
…. 271
の 271
一见钟情 271
上街 271
上車 271
上锁 271
不休 271
仆 271
他病 271
休庭 271
十倍 271
单一 271
嘣 271
回不去 271
埃利奥特 271
定性 271
少管所 271
廣@@ 271
徵@@ 271
我並 271
掺@@ 271
暗恋 271
权势 271
某种意义 271
桒 271
气概 271
海峡 271
渔夫 271
瑪麗 271
甘地 271
皮夹 271
科恩 271
經驗 271
肥胖 271
胡安 271
腕@@ 271
蛙 271
蟋蟀 271
触动 271
讚 271
说会 271
跳出 271
车窗 271
這條 271
遭殃 271
針 271
阅@@ 271
阴性 271
 271
130 270
2010 270
effe@@ 270
gemma 270
interested 270
listening 270
london 270
stin@@ 270
不早 270
信息@@ 270
倒塌 270
储 270
凯拉 270
剁 270
后边 270
執@@ 270
守口如瓶 270
封印 270
小菜一碟 270
少尉 270
巴赫 270
布罗@@ 270
慕 270
懲罰 270
抽空 270
拔出 270
探戈 270
擒 270
改了 270
最深 270
析 270
梦游 270
正往 270
比分 270
波斯@@ 270
煤气 270
爆破 270
瓦伦@@ 270
盧@@ 270
磕@@ 270
绳@@ 270
艾普丽尔 270
营销 270
裴@@ 270
襲擊 270
费劲 270
蹊跷 270
车轮 270
酒来 270
高空 270
bunch 269
christmas 269
johnson 269
rie 269
shop 269
swe@@ 269
主流 269
会以 269
会帮 269
伯德 269
停不下来 269
凡是 269
刑警 269
加尔@@ 269
卑微 269
印刷 269
四肢 269
坐稳 269
奎尔 269
奥克 269
对策 269
尼莫 269
平板 269
弘 269
性侵犯 269
掠夺 269
摘掉 269
改编 269
本应 269
梗 269
汉堡包 269
爱国者 269
磨坊 269
礼仪 269
翡翠 269
航海 269
虱子 269
视而不见 269
调头 269
谅 269
遗漏 269
鄰居 269
配得 269
银子 269
阿妈 269
预兆 269
预先 269
飞过来 269
 269
4000 268
air@@ 268
ately 268
const@@ 268
lucas 268
riley 268
whi@@ 268
书写 268
传出去 268
佐治 268
余下 268
再过 268
发射@@ 268
另一端 268
可愛的 268
咖啡吧 268
四名 268
實驗 268
开学 268
强度 268
很難 268
慶祝 268
打点 268
新任 268
更进一步 268
最烂 268
木乃伊 268
杏@@ 268
栗 268
梭 268
沙克 268
没有@@ 268
满身 268
火爆 268
爆料 268
爷们 268
狀態 268
猿 268
玉米@@ 268
疯人院 268
百合 268
禁区 268
罵 268
聋子 268
胜算 268
胡說 268
舍尔 268
菲茨 268
蒸汽 268
裁员 268
詹妮 268
語@@ 268
谜团 268
責 268
质问 268
赛场 268
赶着 268
蹩脚 268
运河 268
阿波罗 268
限度 268
鬼鬼祟祟 268
鲜 268
160 267
dies 267
fir@@ 267
foot 267
hundred 267
tial 267
tle 267
下船 267
交响@@ 267
代價 267
再加 267
垃圾堆 267
基斯 267
多些 267
天然气 267
嬰兒 267
密探 267
弹壳 267
徒步 267
得住 267
悉尼 267
意見 267
我够 267
抑或 267
护身符 267
拖走 267
捡@@ 267
放回 267
斯凯 267
旅途愉快 267
橱柜 267
洗衣店 267
激动人心 267
熬过 267
爱看 267
电话线 267
皱 267
直奔 267
私密 267
穆尔 267
空地 267
维吉尔 267
自杀@@ 267
臺 267
色情片 267
莫里森 267
袋鼠 267
谭@@ 267
走来走去 267
蹦 267
迁@@ 267
迷幻药 267
鞭打 267
韓@@ 267
颜料 267
首位 267
1944 266
author@@ 266
deser@@ 266
doubt 266
due 266
fe 266
letter 266
scofield 266
wait@@ 266
ç 266
一等 266
一马 266
举个 266
事项 266
做点事 266
创立 266
刽子手 266
印地安人 266
原话 266
取名 266
后会 266
埃米尔 266
塞满 266
失常 266
婚事 266
导游 266
慢走 266
抵制 266
捐给 266
揭示 266
摇篮 266
放荡 266
显眼 266
机械@@ 266
沦落 266
渍 266
献上 266
琍 266
疯女人 266
盖住 266
短期 266
砖@@ 266
穌 266
聖 266
萨米 266
讨人喜欢 266
过火 266
通话记录 266
逮捕令 266
邻居们 266
部件 266
野营 266
韵@@ 266
chen 265
christina 265
lewis 265
mum 265
nicole 265
tual 265
whoever 265
一夜情 265
一朵 265
主导 265
之际 265
几只 265
削@@ 265
办公@@ 265
卡伊 265
卡车司机 265
吸食 265
嗝 265
嗣 265
大蒜 265
头头 265
工钱 265
干员 265
弄湿 265
引人注目 265
得奖 265
忘却 265
懷 265
截肢 265
承担责任 265
时装 265
曦 265
果实 265
步伐 265
气疯 265
泣 265
盡力 265
移交 265
筋@@ 265
美好时光 265
装在 265
觅食 265
課@@ 265
说不清 265
蹄 265
钩子 265
阶层 265
顏色 265
6.@@ 264
access 264
ada@@ 264
dol@@ 264
mari@@ 264
pm 264
relax 264
sake 264
summer 264
一年级 264
一记 264
三人@@ 264
倉庫 264
做不来 264
充实 264
入伙 264
写得 264
冥想 264
凳子 264
击毙 264
切换 264
双臂 264
口令 264
基特 264
多纳 264
志愿 264
恐 264
惹事 264
愁@@ 264
慈 264
戈斯 264
所料 264
数据@@ 264
有多远 264
特有 264
理清 264
環 264
第一年 264
肺炎 264
萎 264
落得 264
警督 264
请进 264
責@@ 264
跟不上 264
近乎 264
这词 264
这鬼 264
违规 264
遗物 264
雪地 264
顶层 264
飞弹 264
黏 264
黑猩猩 264
ﾕ 264
charming 263
dor 263
ells 263
explo@@ 263
gives 263
glass 263
hm 263
organ@@ 263
os@@ 263
tel@@ 263
upset 263
vanessa 263
一如 263
不起作用 263
事实证明 263
亚特 263
價值 263
党卫军 263
到处跑 263
前程 263
取胜 263
变动 263
后裔 263
呈@@ 263
咖@@ 263
噓 263
四個 263
圣殿 263
圣父 263
巴洛 263
并肩作战 263
往下 263
很坏 263
快來 263
扫地 263
招数 263
排列 263
接头 263
擦屁股 263
智利 263
暮@@ 263
照镜子 263
牙买加 263
特性 263
窃@@ 263
站台 263
网页 263
翰@@ 263
胶水 263
脱衣舞娘 263
膽 263
自相残杀 263
蚀 263
起步 263
跑过来 263
迁徙 263
这枚 263
配对 263
难为情 263
颇@@ 263
饱受 263
鮑@@ 263
area 262
arri@@ 262
die@@ 262
ici@@ 262
ourselves 262
sad 262
visit@@ 262
◎ 262
七十 262
下一代 262
中間 262
丽斯 262
事事 262
例@@ 262
充满@@ 262
全球@@ 262
单元 262
发到 262
另一@@ 262
坐火车 262
埃斯特 262
塑胶 262
崽 262
干些 262
廷@@ 262
引以为@@ 262
慌张 262
拳手 262
放任 262
文档 262
日語 262
有別 262
本子 262
死亡@@ 262
残疾 262
没人敢 262
河水 262
活口 262
浓度 262
环绕 262
珍妮佛 262
算账 262
纳闷 262
藝術 262
衬 262
規矩 262
见解 262
记不住 262
超赞 262
蹄@@ 262
达尔文 262
那不勒斯 262
銀 262
队形 262
阿卡 262
阿基@@ 262
顽@@ 262
魔王 262
 262
carry 261
confi@@ 261
ends 261
final 261
mitch 261
sat 261
shine 261
track 261
wel@@ 261
不耐烦 261
乌克兰 261
交通工具 261
亲眼看见 261
仔細 261
体谅 261
倘若 261
兩天 261
再来点 261
卡斯特 261
古典 261
吃些 261
唇膏 261
坚固 261
备受 261
奎因 261
婚外情 261
层次 261
弟子 261
戏法 261
搬出 261
无条件 261
昨日 261
暴乱 261
杂碎 261
根源 261
橡树 261
深色 261
牙膏 261
王八 261
瓦格纳 261
盖子 261
眾@@ 261
石膏 261
碳 261
篡改 261
萌@@ 261
说声 261
車子 261
通心粉 261
邪教 261
重拾 261
飞行@@ 261
高中@@ 261
 261
ﻈ 261
angel@@ 260
ann@@ 260
davis 260
impossible 260
lun@@ 260
ping 260
realize 260
speaking 260
一倍 260
一连串 260
三十秒 260
下个星期 260
不为@@ 260
之光 260
传送门 260
佐拉 260
割掉 260
卖出去 260
博特 260
另一面 260
圍 260
大学毕业 260
布道 260
底片 260
开发@@ 260
心理治疗 260
忧伤 260
悦 260
慕尼黑 260
撕碎 260
敢动 260
晚一点 260
最新消息 260
格林@@ 260
欢呼声 260
毫无关系 260
況 260
波罗 260
渴求 260
献出 260
秃鹰 260
秒@@ 260
稍稍 260
穴@@ 260
窝囊废 260
竖 260
童话故事 260
肛门 260
莱斯利 260
萨利 260
補 260
西蒙@@ 260
許多 260
診@@ 260
赶回来 260
车程 260
间接 260
面向 260
饰@@ 260
高雅 260
鸭@@ 260
默斯 260
bin@@ 259
cake 259
justin 259
lunch 259
madam 259
marry 259
nan@@ 259
notice 259
┏ 259
中场 259
乔西 259
予@@ 259
二个 259
五十年 259
代尔 259
以内 259
会出 259
使馆 259
全场 259
八千 259
化合物 259
十八岁 259
十秒 259
发言人 259
吉布斯 259
咯咯 259
四射 259
太精彩 259
奈斯 259
奪 259
威尔森 259
尝过 259
平和 259
弥撒 259
恋童 259
我订 259
打字 259
打手 259
掏 259
摄像 259
数百@@ 259
新婚@@ 259
朝廷 259
李先生 259
格里芬 259
波波 259
溢 259
爱国 259
理发师 259
瑞娜 259
申 259
空闲 259
管事 259
绑住 259
舒 259
蕩 259
行列 259
褲 259
让人 259
贪心 259
购物中心 259
赵 259
这堆 259
追到 259
邮报 259
铁轨 259
马厩 259
马斯 259
abel 258
address 258
ctive 258
denny 258
favor 258
nature 258
tha 258
winter 258
丟了 258
住宿 258
兩位 258
兰尼 258
再婚 258
卡斯特罗 258
反对@@ 258
吠 258
大钱 258
好好@@ 258
安全套 258
宴@@ 258
岁数 258
布里@@ 258
庙 258
很忙 258
恢复@@ 258
悄@@ 258
想得美 258
战时 258
扫帚 258
接生 258
改名 258
格雷戈 258
洛特 258
狙击 258
生还者 258
由此 258
盼望 258
第一任 258
米莉 258
經濟 258
编码 258
脊 258
蔑 258
藐视 258
行人 258
装有 258
认证 258
训练有素 258
贝琪 258
踪 258
追随者 258
通奸 258
酷刑 258
钦@@ 258
长岛 258
ﻐ 258
ila 257
nine 257
presen@@ 257
tics 257
一千年 257
与我无关 257
买得起 257
二十五 257
二年级 257
傻话 257
切口 257
制造商 257
卖力 257
参战 257
受训 257
呈堂 257
品店 257
困難 257
大部份 257
妈会 257
小意思 257
山脊 257
巴格达 257
市场@@ 257
市里 257
广阔 257
录影 257
心智 257
惠特尼 257
慈善@@ 257
我將 257
我演 257
拖累 257
掀起 257
数以@@ 257
更强 257
欢迎您 257
残废 257
没去 257
淑 257
牵手 257
看些 257
砌 257
聽起 257
胸膛 257
貴@@ 257
这道 257
远走高飞 257
迪克斯 257
问到 257
随身带 257
马德里 257
 257
 257
belle 256
bury 256
butt@@ 256
mic 256
nel 256
sport 256
travis 256
whose 256
一二 256
两万@@ 256
伏击 256
侍者 256
入学 256
十块 256
博比 256
厨@@ 256
变为 256
哈姆雷特 256
图表 256
報紙 256
太帅 256
强项 256
战斗@@ 256
拆开 256
拭目以待 256
搜捕 256
敌机 256
有机@@ 256
沉没 256
法规 256
波多黎各 256
淸 256
爆炸案 256
爾斯 256
牺牲品 256
猜到 256
生锈 256
睲 256
礁 256
纳州 256
航空@@ 256
茜茜 256
莉莎 256
获得@@ 256
訴 256
試著 256
讲道理 256
贝多芬 256
贾斯@@ 256
重来 256
重聚 256
钱来 256
陪同 256
雪人 256
非同@@ 256
音符 256
骚动 256
鸦片 256
bauer 255
forgot 255
grow 255
hero 255
joy 255
lockhart 255
reli@@ 255
仇人 255
佳人 255
先走 255
共鸣 255
只为 255
名堂 255
向往 255
地點 255
复习 255
好意思 255
实里 255
小行星 255
我米 255
打個 255
捉迷藏 255
捎 255
普鲁@@ 255
未成年人 255
梅斯 255
毫不犹豫 255
源自 255
潜逃 255
煽@@ 255
甘心 255
皆知 255
直面 255
約會 255
般@@ 255
艰辛 255
蓝莓 255
角斗士 255
财务@@ 255
账@@ 255
输家 255
逾@@ 255
邀請 255
重大@@ 255
顶替 255
默默 255
﹋ 255
ald 254
choose 254
cting 254
dawn 254
fool 254
gged 254
infor@@ 254
orson 254
pack 254
ray@@ 254
vision 254
vito 254
上下@@ 254
上个星期 254
上边 254
丹娜 254
交了 254
做個 254
公式 254
共犯 254
冒險 254
削弱 254
劈@@ 254
哈根 254
嗅觉 254
嘻@@ 254
团团转 254
大笔 254
姿@@ 254
威尔斯 254
小把戏 254
帕里 254
微风 254
情不自禁 254
我作 254
挣脱 254
挺身而出 254
收场 254
放射@@ 254
数学@@ 254
数数 254
斯派克 254
朋克 254
查案 254
死党 254
毀@@ 254
消沉 254
消磨 254
消防队 254
深信 254
火箭@@ 254
爆炸@@ 254
狄克逊 254
相聚 254
老房子 254
耍花招 254
芒@@ 254
茱丽叶 254
菲律宾 254
蛾 254
誉@@ 254
赫拉 254
辖区 254
过关 254
还击 254
迹@@ 254
钱财 254
阿信 254
骡子 254
麋鹿 254
 254
 254
2004 253
350 253
bloody 253
joke 253
三十分钟 253
丝特 253
之火 253
二百@@ 253
亲眼目睹 253
伊桑 253
会先 253
低下 253
兩次 253
刀片 253
加利 253
动员 253
包厢 253
十五岁 253
华盛顿@@ 253
卷宗 253
厌@@ 253
叙述 253
太烂 253
失窃 253
妮丝 253
小溪 253
小猫咪 253
山区 253
干什 253
引渡 253
彬 253
德性 253
我定 253
我拉@@ 253
我該 253
战壕 253
才艺 253
打乱 253
披 253
排成 253
敬重 253
无论怎样 253
晚些时候 253
术后 253
款式 253
死光 253
毅 253
汪 253
波兰人 253
特制 253
王朝 253
省得 253
笔记本电脑 253
精采 253
繁忙 253
纷纷 253
纸杯 253
羘 253
菇 253
营养@@ 253
衬@@ 253
談過 253
记忆力 253
跟前 253
迪奥 253
那名 253
郁 253
靶子 253
马儿 253
骨肉 253
 253
amber 252
fscx50 252
fscy50 252
fucked 252
heads 252
lene 252
loo@@ 252
sammy 252
steven 252
wade 252
â 252
世事 252
侠@@ 252
停尸房 252
公务 252
农业 252
出走 252
列为 252
劳勃 252
區@@ 252
南茜 252
变好 252
呼呼 252
多丽丝 252
多长 252
头巾 252
妦 252
宿命 252
干不了 252
张床 252
快车 252
態 252
挽@@ 252
星期日 252
最合适 252
核磁共振 252
求生 252
污秽 252
特森 252
登记@@ 252
短短 252
第四个 252
罪魁祸首 252
胸前 252
能查 252
艾斯@@ 252
茉@@ 252
蒙娜 252
血脉 252
调动 252
谜题 252
迎来 252
问个 252
阿特 252
难以相信 252
80@@ 251
bright 251
camera 251
fitz 251
grac@@ 251
lou 251
loves 251
mountain 251
nah 251
phe@@ 251
woods 251
一贯 251
不佳 251
两把 251
主妇 251
之剑 251
交货 251
倾斜 251
假裝 251
先放 251
光速 251
共用 251
千人 251
升空 251
厨子 251
反叛 251
吵死 251
四千 251
外太空 251
奉承 251
媛 251
嬉皮士 251
守则 251
安静下来 251
带些 251
幣 251
弗拉@@ 251
录音机 251
往右 251
德福 251
情绪化 251
打折 251
拉吉 251
救命@@ 251
昆 251
是給 251
曼谷 251
机上 251
杂草 251
格罗斯 251
格雷@@ 251
步入 251
毕业典礼 251
派上用场 251
渡假 251
满脸 251
瑟斯 251
神庙 251
神經 251
糊糊 251
素描 251
緊急 251
纽扣 251
而过 251
舞蹈@@ 251
芙琳 251
蒟 251
蠢猪 251
行径 251
談論 251
认真对待 251
超級 251
过早 251
那车 251
重申 251
锁好 251
长成 251
闻闻 251
霹雳 251
颜@@ 251
颤@@ 251
饥@@ 251
马屁 251
199@@ 250
interest 250
marcus 250
myka 250
silas 250
spar@@ 250
μ 250
一大群 250
不复存在 250
不太会 250
不进 250
世紀 250
乔治亚 250
以來 250
伯利 250
光光 250
全套 250
击球 250
刹@@ 250
古斯 250
境内 250
大碍 250
威风 250
市政厅 250
开炮 250
很贵 250
忙活 250
忧虑 250
我接 250
推进器 250
搏@@ 250
数年 250
方圆 250
无名氏 250
日光 250
暫時 250
机智 250
欢喜 250
正规 250
死鬼 250
殊 250
每分钟 250
比得上 250
海啸 250
清新 250
爪@@ 250
版权 250
留神 250
直走 250
眼皮底下 250
笼罩 250
纪念@@ 250
老實 250
茧 250
衰老 250
覺@@ 250
见识一下 250
说个 250
返校 250
闺女 250
骑着 250
鱼子酱 250
25@@ 249
bir@@ 249
bullshit 249
deci@@ 249
ions 249
itor 249
marco 249
nelson 249
oli@@ 249
target 249
trick 249
type 249
your@@ 249
┦ 249
デ 249
一開始 249
一餐 249
上交 249
不愧 249
二十万 249
从今以后 249
从那时起 249
伤得 249
作物 249
养大 249
劳工 249
合法@@ 249
听不清 249
复兴 249
夸大 249
媒@@ 249
平分 249
平均@@ 249
开业 249
开膛手 249
当今 249
徑 249
拉斐尔 249
掀@@ 249
措 249
提尼 249
携手 249
敌对 249
整条 249
歷 249
毛毯 249
水沟 249
洗澡@@ 249
浮现 249
獄 249
生火 249
研 249
称作 249
練習 249
细心 249
绍@@ 249
职守 249
脉@@ 249
臭嘴 249
节食 249
萧@@ 249
议论 249
诸 249
诺维奇 249
贏@@ 249
赛昂 249
车去 249
门卫 249
雷特 249
马洛 249
高中毕业 249
鬥 249
3e@@ 248
arran@@ 248
bomb 248
cau@@ 248
clean@@ 248
college 248
computer 248
elli@@ 248
relationship 248
sheriff 248
shir@@ 248
thousand 248
不早了 248
两根 248
休战 248
何塞 248
信奉 248
做菜 248
光亮 248
公交 248
关怀 248
内线 248
出乎意料 248
判断力 248
制成 248
前夕 248
北境 248
厕 248
双份 248
反应@@ 248
召回 248
喜剧演员 248
垒@@ 248
太赞 248
失火 248
妮娅 248
射程 248
尉 248
开罗 248
拷 248
改过自新 248
教育@@ 248
斑点 248
斯托克 248
斯诺 248
无故 248
朱诺 248
极好 248
正是如此 248
玛格@@ 248
男主角 248
碗@@ 248
笨拙 248
纳什 248
老年 248
聯邦 248
艹 248
虑 248
蟲 248
被叫 248
调出 248
这待 248
长长的 248
阿尔弗雷 248
隨 248
难闻 248
雜 248
雷诺兹 248
革 248
风光 248
马科斯 248
高达 248
鲁本 248
books 247
calvin 247
cos 247
dreams 247
drunk 247
ene 247
fncomic 247
mber@@ 247
megan 247
oleg 247
roll@@ 247
site 247
twice 247
zz 247
三件 247
上百万 247
侯爵 247
先令 247
公墓 247
化成 247
十几岁 247
十次 247
厭@@ 247
另一头 247
可知 247
君主 247
咏@@ 247
嘲弄 247
奇普 247
奉陪 247
安检 247
完结 247
巴兹 247
幌子 247
廢話 247
弗拉 247
忽悠 247
扭转 247
探视 247
时才 247
曲线 247
机关枪 247
枪击案 247
每时每刻 247
海鸥 247
消息来源 247
生母 247
白日梦 247
盛宴 247
眼珠 247
碉堡 247
祖父母 247
禍 247
窮 247
罗盘 247
肌肤 247
胡须 247
裂开 247
装成 247
货色 247
进军 247
退房 247
道德@@ 247
锋@@ 247
陵@@ 247
难关 247
音樂@@ 247
饮酒 247
骨髓 247
 247
︺ 247
cristina 246
difference 246
lake 246
op 246
quit 246
stic@@ 246
turning 246
warren 246
不巧 246
不觉 246
个体 246
买不到 246
人身@@ 246
仓鼠 246
他醒 246
出个 246
利克 246
劳尔 246
口哨 246
右翼 246
吐口 246
吸尘器 246
回过 246
堵车 246
塘 246
太强 246
娥 246
学术 246
屏蔽 246
店铺 246
愣 246
慈善机构 246
我气 246
拉克斯 246
拌 246
挚友 246
掌权 246
擒@@ 246
新婚 246
會議 246
楠 246
歌星 246
每件 246
法拉 246
洗完 246
活泼 246
混凝土 246
满满 246
潛@@ 246
濑@@ 246
狝 246
狼群 246
疲劳 246
科里 246
窟 246
笨手笨脚 246
美好@@ 246
职业@@ 246
艾文 246
莱克斯 246
莱曼 246
要告 246
计数 246
谈心 246
貝 246
越大 246
踏进 246
身在 246
远古 246
迪兰 246
逃掉 246
郊@@ 246
金鱼 246
错觉 246
长袍 246
abi@@ 245
alle@@ 245
cir@@ 245
ease 245
favorite 245
involved 245
karev 245
los 245
loud 245
operation 245
partner 245
po 245
不及格 245
丰厚 245
从天而降 245
众神 245
佩内洛普 245
僚@@ 245
先锋 245
內心 245
公共汽车 245
兰达 245
兴致 245
別管 245
前才 245
卡爾 245
呼噜 245
响亮 245
圍@@ 245
多愁善感 245
够不够 245
大婶 245
奋 245
套餐 245
對方 245
帕迪 245
恶灵 245
挂出 245
收藏家 245
无谓 245
柠檬水 245
校车 245
榮 245
深爱着 245
珊瑚礁 245
班车 245
甜品 245
田地 245
电话亭 245
的關 245
盈 245
碱 245
维琪 245
良知 245
芝@@ 245
萨姆@@ 245
说辞 245
赫斯特 245
这群人 245
這都 245
酷哥 245
闲话 245
项圈 245
 245
ander 244
beginning 244
ctions 244
dam@@ 244
doc 244
ellen 244
fore@@ 244
hr 244
jenna 244
krist@@ 244
leslie 244
regi@@ 244
scienti@@ 244
teach 244
teresa 244
terry 244
united 244
usually 244
一寸 244
书包 244
人之@@ 244
住院医生 244
促进 244
克朗 244
内陆 244
军营 244
冰上 244
卡特里娜 244
各处 244
合唱 244
吉特 244
后期 244
告解 244
啤@@ 244
四分钟 244
坐船 244
堂兄 244
大妈 244
它自己 244
小鱼 244
平行 244
廣告 244
径 244
悼念 244
手足 244
斗牛@@ 244
时见 244
會來 244
杰拉德 244
男伴 244
町 244
留情 244
真好玩 244
绳之以法 244
耻@@ 244
臟 244
茫@@ 244
誠 244
贩 244
贫困 244
赖安 244
躺@@ 244
达伦 244
運氣 244
里森 244
错事 244
长途@@ 244
雅典 244
198@@ 243
bon 243
bridge 243
chin@@ 243
drug 243
ety 243
girlfriend 243
mason 243
nur@@ 243
prove 243
sight 243
torres 243
一集 243
不許 243
从头 243
促使 243
保时捷 243
債@@ 243
加工 243
好车 243
嬉@@ 243
底细 243
录音@@ 243
快上来 243
拍拖 243
搞垮 243
放射性 243
文物 243
方人 243
旋风 243
旗子 243
暴雨 243
標 243
權@@ 243
毒贩子 243
没用过 243
清扫 243
滞@@ 243
漂 243
点着 243
狄克 243
玛尔戈 243
生父 243
痣 243
祈@@ 243
禁忌 243
禽 243
米尔斯 243
粪@@ 243
结识 243
股市 243
腦子 243
装得 243
触犯 243
貨幣 243
赖瑞 243
身陷 243
逃兵 243
逆转 243
這張 243
郑 243
重启 243
铀 243
阿道夫 243
领事馆 243
颗@@ 243
驯@@ 243
 243
94 242
announ@@ 242
cbi 242
closed 242
fon@@ 242
ght@@ 242
kle 242
mcgee 242
neck 242
ously 242
preci@@ 242
problems 242
randall 242
tough 242
ず 242
一整@@ 242
一见 242
丁堡 242
临时@@ 242
人干 242
全垒打 242
兰顿 242
凿@@ 242
刑事@@ 242
发射器 242
台风 242
堪萨斯 242
塞拉 242
大哭 242
大巴 242
太扯 242
寂 242
小点 242
小麦 242
崇 242
幸运@@ 242
我来@@ 242
撬@@ 242
政变 242
更惨 242
档@@ 242
梅兰 242
楼里 242
樱@@ 242
没回 242
滚回 242
爱情故事 242
笷 242
篱笆 242
红魔 242
终将 242
背弃 242
脸红 242
莱赣 242
蛋卷 242
誤 242
记不起 242
赌局 242
越快越好 242
迪斯@@ 242
难不成 242
︰ 242
ﻖ 242
bart 241
clothes 241
difficult 241
idiot 241
judy 241
kick 241
major 241
radio 241
sloan 241
zy 241
上层 241
交付 241
仅存 241
佛斯 241
修建 241
停车位 241
健全 241
僅@@ 241
儡 241
内奸 241
分泌 241
分開 241
别忘记 241
参赛者 241
只手 241
吉儿 241
土星 241
在此期间 241
外壳 241
多夫 241
威斯康@@ 241
嬷嬷 241
安德 241
屏 241
左脚 241
已成 241
常用 241
幹得 241
幻影 241
弗里@@ 241
急于 241
惊艳 241
想方设法 241
攻势 241
普西 241
木屋 241
栗@@ 241
武器@@ 241
海登 241
游击队 241
漠@@ 241
牡蛎 241
琥珀 241
用得上 241
痉挛 241
秘密行动 241
耐性 241
耳语 241
芬兰 241
試過 241
警力 241
跳下来 241
醫 241
釋 241
铎 241
阴谋@@ 241
颠倒 241
飞越 241
香料 241
驚喜 241
魔女 241
ade 240
ara 240
reading 240
rying 240
steal 240
tain@@ 240
themselves 240
turner 240
victim 240
victoria 240
weapons 240
一角 240
义气 240
亚利桑那州 240
伊迪丝 240
入手 240
共和 240
削 240
十二年 240
变暖 240
后见 240
報警 240
处长 240
多疑 240
大有 240
太阳能 240
好了没 240
守规矩 240
安息日 240
寧@@ 240
崇拜者 240
庄严 240
店员 240
快餐 240
戚@@ 240
挂念 240
日语 240
早點 240
榘 240
歡 240
玩够 240
珍珠港 240
環@@ 240
用水 240
矿井 240
稻草 240
穩定 240
素材 240
终结者 240
罗曼@@ 240
老千 240
联想 240
联络人 240
腦 240
药剂 240
菠萝 240
讨人厌 240
说来听听 240
贵重 240
转机 240
轮不到 240
造访 240
霍顿 240
领队 240
飾 240
马西 240
高利 240
 240
2001 239
awesome 239
bigger 239
carla 239
clark 239
conversation 239
end@@ 239
everywhere 239
ounded 239
rush 239
skin 239
zzy 239
ヘ 239
三下 239
下一场 239
从今天起 239
体操 239
佛利 239
借来 239
償 239
内务部 239
出点 239
出马 239
分析师 239
告白 239
咖喱 239
嚣 239
外交官 239
夥計們 239
奥兹 239
好酷 239
宵禁 239
尔登 239
巡逻队 239
布兰达 239
帳@@ 239
弗洛 239
彼 239
心不在焉 239
悔恨 239
惊恐 239
惟@@ 239
慰@@ 239
我头 239
我姓 239
我無法 239
我爱@@ 239
拍卖会 239
招待会 239
捐献 239
掐@@ 239
接球 239
摆动 239
放在心上 239
文化@@ 239
斯卡@@ 239
无稽之谈 239
昵称 239
暴风雪 239
条线 239
栏杆 239
树丛 239
椎@@ 239
毫 239
汉密尔顿 239
点亮 239
烈火 239
熄火 239
特务 239
现出 239
瑕疵 239
發展 239
简称 239
精疲力尽 239
缺钱 239
船舱 239
草率 239
被车撞 239
趁现在 239
逃过 239
醫師 239
針@@ 239
關於@@ 239
闷死 239
顆 239
驻扎 239
龙哥 239
ano 238
aw 238
brennan 238
kee@@ 238
mili@@ 238
plo@@ 238
pour 238
rose@@ 238
shes 238
tation 238
waste 238
一查 238
下滑 238
两瓶 238
亿万富翁 238
他本 238
价值观 238
八百 238
冲向 238
去除 238
复印件 238
多得 238
大吼大叫 238
好谈 238
宜 238
岔子 238
帕姆 238
年紀 238
得起 238
性病 238
恶霸 238
懒惰 238
所謂 238
手术刀 238
扩展 238
抽搐 238
接线员 238
搶@@ 238
查不到 238
沫 238
法文 238
生还 238
电波 238
称职 238
算不算 238
绞刑 238
综@@ 238
缺口 238
罗根 238
老外 238
聘用 238
腌 238
获利 238
董 238
螺 238
螺旋 238
解读 238
说到底 238
软糖 238
输赢 238
迅@@ 238
這會 238
道尔顿 238
陶醉 238
2007 237
helped 237
innocent 237
mck@@ 237
video 237
vit@@ 237
世道 237
两枪 237
什麼@@ 237
伊夫 237
作何 237
几百年 237
匪@@ 237
卿 237
变异 237
另一回事 237
叼 237
吞下去 237
在生活中 237
圭@@ 237
威尔士 237
娘子 237
学来 237
宝物 237
审视 237
开价 237
悦@@ 237
惩 237
我发 237
我爹 237
打字机 237
拍拍 237
排出 237
无穷@@ 237
曾祖父 237
械 237
法老 237
漫画书 237
火器 237
献祭 237
白粉 237
移動 237
第一部 237
紧急事件 237
职业杀手 237
舞池 237
草药 237
行使 237
詹妮弗 237
論@@ 237
转接 237
金姆 237
金矿 237
雷尔 237
餐巾 237
骂人 237
 237
ﺯ 237
2011 236
39@@ 236
believ@@ 236
benjamin 236
cali@@ 236
danger 236
ille 236
kid@@ 236
liked 236
plac@@ 236
pon@@ 236
pse 236
robbie 236
vis 236
wards 236
不轻 236
体育场 236
作曲家 236
便条 236
保养 236
前景 236
印第安@@ 236
原样 236
可惡 236
史蒂@@ 236
后头 236
吸取 236
州立 236
悠着点 236
惶@@ 236
截然不同 236
挥舞 236
推荐信 236
插嘴 236
断裂 236
星空 236
曼纽尔 236
构 236
棄 236
每位 236
汝@@ 236
没人来 236
没动 236
流汗 236
炸飞 236
痙 236
真人秀 236
禄 236
秘鲁 236
精准 236
联合@@ 236
聞@@ 236
腸 236
腾出 236
舞女 236
裡的 236
译 236
说够 236
调戏 236
过滤 236
迫切 236
週 236
附带 236
风扇 236
驯服 236
龄@@ 236
＜ 236
2006 235
breaking 235
cing 235
enga@@ 235
exam@@ 235
frea@@ 235
juice 235
learned 235
mir@@ 235
nina 235
proce@@ 235
serv@@ 235
trea@@ 235
usual 235
wes 235
一则 235
一动 235
不平 235
中央公园 235
乱讲 235
伊利诺伊州 235
佔 235
佩德罗 235
决不能 235
半数 235
哮喘 235
喝个 235
圆形 235
大尉 235
大维 235
夺去 235
學會 235
導致 235
左撇子 235
布料 235
干洗 235
恐怖组织 235
恨不得 235
我养 235
抹掉 235
拉萨 235
数千 235
敷 235
斯派 235
无奈 235
有朝一日 235
来袭 235
活到 235
游说 235
溜冰 235
点菜 235
熔@@ 235
皮鞋 235
眼线 235
笛@@ 235
签下 235
结了 235
结婚戒指 235
羊毛 235
翼@@ 235
脱水 235
膀 235
英哩 235
菲利普斯 235
藝@@ 235
视角 235
请勿 235
贴着 235
越久 235
越共 235
越界 235
送上 235
遵@@ 235
那支 235
金星 235
鐵 235
针头 235
雌性 235
风琴 235
高温 235
黛安娜 235
accept 234
acting 234
au 234
bomb@@ 234
christopher 234
held 234
holly 234
how@@ 234
jud@@ 234
lane 234
skye 234
sle@@ 234
zing 234
一小部分 234
不见@@ 234
京城 234
人太多 234
做作业 234
儒@@ 234
光年 234
克利夫 234
剔@@ 234
动听 234
劳动@@ 234
包子 234
双面 234
同學 234
和玛丽 234
咳@@ 234
喝點 234
多拉 234
够呛 234
姥姥 234
富翁 234
專業 234
小钱 234
尖锐 234
崔西 234
已死 234
开机 234
强尼@@ 234
微波炉 234
手给 234
扔给 234
扭断 234
拉丁@@ 234
按摩师 234
斯特恩 234
无所不能 234
日历 234
时报 234
海格 234
漩涡 234
熟知 234
狂人 234
獵 234
用功 234
監視 234
真帅 234
瞪@@ 234
磁场 234
秃@@ 234
突 234
第七@@ 234
索菲娅 234
纤@@ 234
罗伯茨 234
聚餐 234
角度看 234
請求 234
记录@@ 234
豌豆 234
贾德 234
迪拜 234
退回 234
重塑 234
韦斯特 234
顺道 234
驾驭 234
鬼扯 234
鲍威尔 234
 234
allow 233
bow 233
chen@@ 233
fit@@ 233
helping 233
imag@@ 233
mandy 233
mia 233
om@@ 233
pants 233
picked 233
push 233
sat@@ 233
who@@ 233
wick 233
xed 233
yne 233
三份 233
专属 233
何事 233
作梦 233
便利店 233
写成 233
军用 233
别别 233
剧烈 233
動作 233
四位 233
国税局 233
基利 233
基本@@ 233
奢@@ 233
宠物@@ 233
客栈 233
將來 233
小人物 233
常来 233
开阔 233
弯腰 233
彰 233
感到遗憾 233
感应器 233
感興趣 233
抵 233
拳王 233
斯图 233
无与伦比 233
桥梁 233
此行 233
死期 233
炎@@ 233
申請 233
疯狗 233
窾 233
米基 233
線@@ 233
网路 233
苔 233
葉 233
蠉 233
表兄 233
要麼 233
计划@@ 233
责任感 233
越少 233
躯@@ 233
辉@@ 233
过些 233
还债 233
这关 233
道夫 233
铃木 233
阿尔特 233
霍克 233
音器 233
高峰 233
asshole 232
clear@@ 232
driving 232
kitty 232
laura 232
losing 232
philip 232
pierce 232
places 232
ひ 232
一刻起 232
不太想 232
享乐 232
伊迪 232
便利 232
促成 232
做起 232
兆头 232
八十年代 232
公共场合 232
冲刺 232
利亚@@ 232
勝利 232
卷进 232
发怒 232
周圍 232
哈斯 232
喇 232
埋怨 232
多一些 232
好运气 232
孩子气 232
对不住 232
导管 232
小鸡鸡 232
庞德 232
感觉@@ 232
我个 232
我军 232
我动 232
我和@@ 232
我永遠 232
摘下来 232
擺 232
放肆 232
斯蒂文 232
旷@@ 232
普罗 232
术@@ 232
条狗 232
构造 232
校友 232
格雷斯 232
橙 232
歌聲 232
殿@@ 232
理奇 232
生殖器 232
破译 232
磕 232
移民局 232
维生素 232
胸围 232
花儿 232
苏格@@ 232
蒋@@ 232
虐@@ 232
行进 232
西莉亚 232
览会 232
試圖 232
这出 232
进场 232
過得 232
還說 232
那该 232
闪闪 232
險@@ 232
饭菜 232
 232
ball@@ 231
cand@@ 231
chil@@ 231
confir@@ 231
emo@@ 231
ero 231
extra 231
jan 231
manu@@ 231
orders 231
pictures 231
syl@@ 231
tuc@@ 231
wondering 231
一幢 231
不时 231
二级 231
來點 231
到期 231
剑桥 231
史坦 231
后续 231
吳@@ 231
商务 231
地主 231
夥 231
头皮 231
孫@@ 231
宾州 231
小个子 231
小点声 231
屡@@ 231
微型 231
感觉得到 231
我病 231
担架 231
拉诺 231
挨打 231
文书 231
无时无刻 231
既然如此 231
曼迪 231
有水 231
来来@@ 231
波诺 231
清静 231
渣@@ 231
游戏规则 231
漏水 231
熄 231
王爷 231
生路 231
眼罩 231
突变 231
类固醇 231
繞 231
美术馆 231
美眉 231
聪@@ 231
自尽 231
自拔 231
萬一 231
装进 231
说到做到 231
赫里 231
跑来跑去 231
透顶 231
這有 231
里夫 231
閒@@ 231
頂@@ 231
驱 231
驱动器 231
鹅@@ 231
 231
 231
assa@@ 230
descri@@ 230
fs@@ 230
ot@@ 230
witness 230
き 230
一章 230
不尽然 230
主唱 230
仓促 230
他活 230
伞@@ 230
再給 230
凭空 230
利落 230
厮@@ 230
只求 230
呱 230
啄 230
商标 230
圣子 230
外地 230
大功告成 230
大拇指 230
大腦 230
好哇 230
宗教信仰 230
宣传@@ 230
帮不上 230
年青人 230
延 230
彻头彻尾 230
得通 230
心脏@@ 230
恼@@ 230
我变 230
换换 230
搞乱 230
放个 230
新生儿 230
无穷 230
朗尼 230
机师 230
林克 230
枫@@ 230
格兰 230
格洛 230
格鲁@@ 230
歐洲 230
毕业@@ 230
游戏机 230
漂亮@@ 230
现场直播 230
珍宝 230
皮革 230
盘旋 230
睡醒 230
确有 230
總有 230
缅因州 230
肴 230
能給 230
艾瑞@@ 230
菲奥娜 230
萨达姆 230
蝎子 230
讲理 230
诚挚 230
详细@@ 230
贬低 230
赶过去 230
轴@@ 230
道森 230
雇佣兵 230
afternoon 229
attac@@ 229
consider 229
crap 229
ex 229
exi@@ 229
knock 229
lawrence 229
plans 229
sky@@ 229
states 229
super 229
一再 229
一对一 229
七百 229
三百@@ 229
业绩 229
伊莉莎白 229
伟人 229
何时@@ 229
你闻 229
佩姬 229
全国@@ 229
六次 229
前進 229
加尔 229
单是 229
各国 229
哈蒙德 229
四年级 229
圣诞@@ 229
坡@@ 229
女人@@ 229
定论 229
屍 229
帕特@@ 229
心理学家 229
我醒 229
打官司 229
拐角 229
振奋 229
摇滚@@ 229
教友 229
斯科@@ 229
无处可去 229
无须 229
死法 229
死胡同 229
水母 229
沙丘 229
法典 229
泽尔 229
潜水员 229
物证 229
理想@@ 229
痒痒 229
空位 229
縫 229
纸牌 229
维德 229
缆@@ 229
罗马尼亚 229
職業 229
能别 229
脊髓 229
莫西 229
董事长 229
认识一下 229
记录在案 229
軟@@ 229
辅@@ 229
辰 229
送信 229
选错 229
郊外 229
酥@@ 229
雪瑞 229
靓 229
非称 229
高于 229
1% 228
gn@@ 228
hat 228
hil@@ 228
jennifer 228
lenny 228
match 228
print 228
qui 228
randy 228
shan@@ 228
willing 228
上吊 228
上映 228
二世 228
令尊 228
使人 228
健康@@ 228
偷车 228
傻笑 228
僵@@ 228
八婆 228
几根 228
出版商 228
判官 228
副总裁 228
加拿大人 228
勿 228
吃不下 228
各種 228
嘭 228
在心 228
塔利班 228
天氣 228
始于 228
娘家 228
小忙 228
布奇 228
常理 228
幅@@ 228
开船 228
必有 228
抵挡 228
推广 228
改装 228
时装@@ 228
時光 228
晋级 228
毒液 228
比方 228
浑身@@ 228
爛@@ 228
生机 228
研究生 228
破门而入 228
稻草人 228
绰@@ 228
艾滋病 228
花瓣 228
菌@@ 228
衰退 228
規定 228
说句 228
说话@@ 228
贝尔@@ 228
贩卖@@ 228
迈出 228
逢@@ 228
那架 228
阿帕@@ 228
雪儿 228
餐廳 228
马州 228
 228
 228
breath 227
communic@@ 227
craw@@ 227
files 227
fru@@ 227
heaven 227
ip地址 227
jin@@ 227
jordan 227
planning 227
program 227
provi@@ 227
sta 227
thers 227
thu@@ 227
tical 227
一点@@ 227
三万 227
下结论 227
为时@@ 227
交易@@ 227
佽 227
侵略@@ 227
准備 227
博士学位 227
去不去 227
发性 227
周刊 227
唤 227
喻 227
坴 227
大本营 227
家庭作业 227
尼克松 227
山米 227
工作者 227
帮凶 227
府@@ 227
彩色 227
很脏 227
心动 227
思索 227
慾 227
手下留情 227
扳手 227
提供@@ 227
放不下 227
数月 227
星球大战 227
映 227
春假 227
有染 227
查清 227
森家 227
歌舞 227
死路 227
油箱 227
海狸 227
热线 227
牽@@ 227
犯了错 227
独裁者 227
獵@@ 227
生不如死 227
真笨 227
破车 227
管不了 227
維奇 227
维吉尼亚 227
聪明@@ 227
芦@@ 227
賓 227
赛特 227
酱汁 227
铸@@ 227
长度 227
阿克 227
顽强 227
高利贷 227
鸿@@ 227
齿轮 227
2500 226
bella 226
develop@@ 226
dry 226
hoping 226
huge 226
ji 226
nt 226
radi@@ 226
snow 226
survi@@ 226
tman 226
¶ 226
不应 226
不符 226
五郎 226
伸进 226
兰特 226
几下 226
刁@@ 226
利亚人 226
别慌 226
勘 226
南斯拉夫 226
发出@@ 226
地爱 226
坚硬 226
太吵 226
奔波 226
奢华 226
存储 226
密度 226
寺@@ 226
很丑 226
感情用事 226
感染@@ 226
抱紧 226
控制权 226
放慢 226
施工 226
无形 226
曲奇 226
更难 226
机遇 226
极品 226
梦幻@@ 226
梵@@ 226
此后 226
比較 226
法兰@@ 226
洗劫 226
生物学家 226
盈利 226
石頭 226
税务 226
空姐 226
纨绔子弟 226
肇事 226
脸部 226
莫瑞 226
蠋 226
要挟 226
连个 226
野性 226
集装箱 226
驾到 226
apo@@ 225
bottom 225
brand 225
craig 225
cry 225
data 225
decide 225
foreign 225
fox 225
guer@@ 225
happ@@ 225
marriage 225
ox@@ 225
part@@ 225
quickly 225
suspect 225
terror@@ 225
一二三 225
一好 225
不买 225
主公 225
仨 225
伍德森 225
先例 225
关了 225
分割 225
切除术 225
办个 225
发表@@ 225
发邮件 225
号线 225
吉妮 225
失踪人口 225
婚戒 225
宝贝女儿 225
客戶 225
席位 225
废柴 225
弗吉尼亚州 225
张脸 225
徒劳 225
惊动 225
想个 225
截住 225
指手画脚 225
据点 225
机舱 225
梨@@ 225
火化 225
火炉 225
煞 225
猥亵 225
用车 225
福尔 225
空空 225
篝火 225
组员 225
罗马@@ 225
美國人 225
羶 225
舍弃 225
调皮 225
賤 225
车主 225
里会 225
關鍵 225
鮮@@ 225
齊 225
90% 224
assu@@ 224
crane 224
dest@@ 224
jamie 224
john@@ 224
teeth 224
不凡 224
二百 224
伊斯兰 224
信得过 224
俱樂部 224
倾 224
军事法庭 224
匡 224
吉普车 224
地来 224
城门 224
塞车 224
大半夜 224
孬种 224
小女生 224
布伦南 224
幸福@@ 224
张照 224
心肺 224
悲观 224
情緒 224
憤怒 224
扒@@ 224
技术人员 224
揣@@ 224
敬爱 224
斜坡 224
昨夜 224
晚飯 224
朗姆酒 224
棒棒糖 224
殡仪馆 224
水壶 224
油画 224
海克 224
温室 224
湯 224
爬山 224
狱@@ 224
盤@@ 224
系统@@ 224
纺@@ 224
维他命 224
绵羊 224
艾米@@ 224
芒 224
莫里 224
虐待狂 224
衷 224
记不得 224
记录下来 224
讲得 224
讲清楚 224
踏入 224
这桩 224
金属@@ 224
阿龙 224
马达 224
2005 223
ander@@ 223
apparently 223
bastard 223
cti@@ 223
gaby 223
ism 223
kic@@ 223
lights 223
pear@@ 223
promised 223
∕ 223
三百万 223
为傲 223
乐在其中 223
克林顿 223
刮目相看 223
发神经 223
受惊 223
喃@@ 223
嘟 223
外围 223
多想 223
多月 223
夾@@ 223
好时光 223
守护神 223
實在 223
少废话 223
干点 223
总而言之 223
所言 223
搅和 223
搬回来 223
敏宇 223
救回来 223
斧子 223
斯瓦@@ 223
日常生活 223
替补 223
梅西 223
武装@@ 223
比安卡 223
水龙头 223
没要 223
洛城 223
活埋 223
清清楚楚 223
滿意 223
烘焙 223
犯错误 223
玛琳 223
瘸子 223
破灭 223
碆 223
第一季 223
经由 223
编织 223
罗纳德 223
腫瘤 223
至於 223
苏利文 223
苹果@@ 223
莫顿 223
莽@@ 223
西海岸 223
详情 223
豐@@ 223
贺卡 223
超新星 223
还敢 223
这酒 223
退下 223
酶 223
采购 223
铬 223
霍普 223
面纱 223
颠@@ 223
account 222
ari 222
aten 222
brothers 222
duty 222
faith 222
horse 222
jonathan 222
kurt 222
local 222
tight 222
vac@@ 222
walked 222
一個@@ 222
不论是 222
两千万 222
中人 222
之主 222
二等兵 222
倾倒 222
克利夫兰 222
全速 222
凶残 222
剥削 222
劍 222
匹马 222
卡琳 222
去往 222
合照 222
听够 222
呐喊 222
咕@@ 222
哔声 222
哗@@ 222
喊叫 222
噗 222
地铁站 222
垂死 222
堤@@ 222
好几 222
妾 222
婚约 222
实用 222
对战 222
小不点 222
帶著 222
引爆器 222
惑@@ 222
慰藉 222
扭伤 222
振动 222
收割 222
朝下 222
朝鲜@@ 222
松树 222
格外 222
機場 222
波浪 222
溜出去 222
無辜 222
班人 222
监测 222
眷顾 222
终点@@ 222
能治好 222
脊柱 222
自保 222
臭名昭著 222
英语@@ 222
螺丝 222
表扬 222
训练营 222
讯问 222
词汇 222
贝托 222
费力 222
跑不掉 222
鉴 222
题材 222
 222
｡ 222
breathe 221
bringing 221
buffy 221
christine 221
clock 221
ctu 221
cup 221
garrett 221
karl 221
lauren 221
mont 221
ralph 221
ugh 221
ul 221
whoo 221
yle 221
主子 221
他來 221
侥幸 221
俄克拉@@ 221
倒地 221
关系@@ 221
兴奋剂 221
剪头发 221
力学 221
劣 221
半年前 221
即时 221
原地@@ 221
吹口哨 221
哈洛 221
善待 221
埃德蒙 221
夕 221
大福 221
失恋 221
妳有 221
媽咪 221
尝到 221
島@@ 221
市場 221
年间 221
床边 221
开展 221
心急 221
忒 221
惹恼 221
意料@@ 221
戴帽子 221
房门 221
托尼@@ 221
拖把 221
挫 221
捆绑 221
敷@@ 221
无所不知 221
最具 221
有场 221
沉迷于 221
炮火 221
现场@@ 221
生出 221
畅销 221
直升飞机 221
福勒 221
稀罕 221
维奥 221
维恩 221
著作 221
蔑视 221
说是 221
赝品 221
超乎 221
退路 221
遗愿 221
阴险 221
陶 221
雁 221
霍金斯 221
风吹 221
鲸@@ 221
 221
 221
50% 220
6000 220
allen 220
angry 220
dents 220
gi 220
guilty 220
hadn 220
often 220
surprised 220
一万块 220
不为 220
不服 220
专业@@ 220
二次 220
交涉 220
今儿 220
佛莱迪 220
俘@@ 220
光灯 220
冲进去 220
卷饼 220
只差 220
合得来 220
合適 220
呛 220
噴@@ 220
堵塞 220
夜空 220
天意 220
妮亚 220
寶 220
小心翼翼 220
小杰 220
帕特森 220
年份 220
很長 220
成全 220
扑克牌 220
挖苦 220
掘 220
搞鬼 220
收取 220
敢不敢 220
斧 220
旱@@ 220
普拉@@ 220
有句 220
木桩 220
泰森 220
焰 220
爱丽 220
特别是在 220
生动 220
癮 220
續 220
罗先生 220
羞 220
脈 220
艾利 220
葡萄干 220
表演@@ 220
观众们 220
规范 220
读懂 220
调节 220
谣传 220
谱@@ 220
辍学 220
递交 220
邀@@ 220
重写 220
重點 220
飞走 220
驕傲 220
马利亚 220
高价 220
鳍 220
 220
bert 219
blame 219
bodies 219
celebr@@ 219
checked 219
empty 219
fur@@ 219
ghter 219
ius 219
mention 219
murphy 219
pet@@ 219
policy 219
は 219
不倒 219
低劣 219
俏 219
信號 219
公分 219
公开@@ 219
共產@@ 219
凶猛 219
出车祸 219
双亲 219
吃點 219
喂养 219
圆满 219
圓@@ 219
垮@@ 219
多佛 219
大选 219
妻儿 219
嫁人 219
嬉皮 219
尼玛 219
屍@@ 219
左翼 219
形态 219
想个办法 219
意指 219
我方 219
我算 219
战神 219
手指头 219
挫@@ 219
支出 219
救济 219
无可 219
无话可说 219
更高 219
朝圣者 219
杭特 219
榮幸 219
毛茸茸 219
汜 219
熙@@ 219
百万年 219
瞴 219
粉刷 219
纳税人 219
纵火@@ 219
维京 219
蒜@@ 219
蔡@@ 219
講話 219
變態 219
贝贝 219
践踏 219
还来 219
逐出 219
逮@@ 219
邓菲 219
难缠 219
静止 219
马哈 219
驾驶舱 219
骄@@ 219
 219
aming 218
auto@@ 218
complete 218
confe@@ 218
dre 218
ever@@ 218
michelle 218
pregnant 218
publi@@ 218
tton 218
tty 218
wrote 218
一郎 218
三块 218
上涨 218
下落不明 218
不晚 218
买主 218
他出 218
休息时间 218
侵 218
偷渡 218
分身 218
别为 218
别逗 218
刺痛 218
医护人员 218
十一月 218
千金 218
变身 218
右舷 218
呜咽 218
喘@@ 218
嗜@@ 218
坏小子 218
多伦多 218
奥兰多 218
嫩@@ 218
岗@@ 218
崽子 218
开心@@ 218
往日 218
怕死 218
恥 218
悉@@ 218
慎@@ 218
所得 218
抛出 218
接个 218
撬开 218
改动 218
斑马 218
斯莱特 218
方程式 218
晾 218
替代品 218
有如 218
本想 218
束手无策 218
板球 218
楷@@ 218
活动@@ 218
炊 218
狱中 218
獻 218
登录 218
盖勒 218
盯紧 218
盾牌 218
私底下 218
称号 218
移走 218
筷子 218
缩短 218
自恋 218
般配 218
花掉 218
荷尔 218
蘋果 218
虚无 218
血样 218
行为@@ 218
詹姆 218
警察@@ 218
财物 218
赫伯特 218
赶路 218
起义 218
趋势 218
躯 218
转学 218
选个 218
逝@@ 218
速战速决 218
那算 218
长大成人 218
防火墙 218
阿吉 218
霍普金斯 218
静静地 218
鱼类 218
 218
apart 217
folks 217
foot@@ 217
lips 217
morse 217
ols 217
passed 217
seemed 217
sleeping 217
tab@@ 217
vier 217
wri@@ 217
万无一失 217
乎乎 217
些小 217
交际 217
人多 217
人道 217
偷拍 217
冰层 217
冰岛 217
发票 217
取暖 217
名單 217
听来 217
吸管 217
和善 217
圣战 217
夔 217
大熊 217
失血过多 217
好香 217
宗教@@ 217
平稳 217
当众 217
心率 217
惹人@@ 217
意念 217
愛人 217
戏服 217
战死 217
抽泣 217
教母 217
无名小卒 217
暑 217
有张 217
服饰 217
机密@@ 217
气愤 217
汽车@@ 217
沃尔夫 217
泰尔 217
流通 217
深受 217
溜进 217
牲畜 217
瓷 217
硕 217
稍候 217
米饭 217
糶 217
索尼娅 217
耸@@ 217
聯絡 217
莫利 217
誘@@ 217
貓@@ 217
購@@ 217
赎回 217
轻视 217
逃不了 217
释怀 217
镶@@ 217
阿奇 217
阿嬷 217
隔天 217
ﺿ 217
advan@@ 216
allowed 216
cay@@ 216
destroy 216
drugs 216
eng@@ 216
evil 216
flying 216
nam@@ 216
nash 216
ª 216
™ 216
一列 216
一千块 216
一般来说 216
万个 216
不明智 216
伊斯兰教 216
传话 216
借助 216
写些 216
写过 216
凯萨琳 216
分析@@ 216
劃 216
加满 216
北韩 216
協@@ 216
发热 216
吵闹 216
咋@@ 216
嘿咻 216
奥秘 216
尽早 216
彼德 216
後悔 216
手链 216
拖延时间 216
拴 216
指点 216
斯坦福 216
新泽西州 216
无可救药 216
春季 216
杜松子酒 216
栏@@ 216
树立 216
款机 216
正题 216
比武 216
没读 216
注射器 216
渺茫 216
灌木丛 216
火把 216
炭@@ 216
独眼 216
用词 216
瞧不起 216
礦 216
秋季 216
空間 216
綠@@ 216
翠 216
胡乱 216
良心@@ 216
装甲 216
觉着 216
谈完 216
车臣 216
这班 216
送出去 216
铁链 216
销量 216
面包店 216
飲 216
 216
base@@ 215
closer 215
comfortable 215
director 215
dr@@ 215
eating 215
enter@@ 215
fancy 215
glenn 215
gui@@ 215
non@@ 215
numbers 215
pir@@ 215
pulled 215
shi 215
spencer 215
wer@@ 215
不同寻常 215
两分 215
事業 215
代表@@ 215
低点 215
你试 215
保羅 215
僧 215
億 215
克雷斯 215
六小时 215
几星期 215
别停 215
受害 215
名言 215
呕 215
呵@@ 215
塔利 215
大理石 215
妒@@ 215
孕育 215
小麻烦 215
山丘 215
廚房 215
强劲 215
徹底 215
悉 215
政党 215
斥 215
日军 215
最能 215
歼灭 215
点名 215
点好 215
猫猫 215
琼恩 215
瑞典人 215
疗 215
突破@@ 215
算计 215
統 215
維克多 215
纽约州 215
缠身 215
缺失 215
脚步声 215
蒙大@@ 215
褲子 215
认清 215
费尔@@ 215
赤 215
身无分文 215
辛顿 215
过渡 215
逃到 215
逼真 215
重覆 215
随之 215
面目 215
食者 215
魔戒 215
鷹 215
2002 214
andre 214
ang 214
animals 214
beer 214
cc 214
chinese 214
ey@@ 214
list@@ 214
mani@@ 214
nose 214
staying 214
sum@@ 214
vie 214
woo@@ 214
一間 214
三杯 214
不值钱 214
不能自己 214
东海岸 214
严格@@ 214
乌尔 214
二手@@ 214
仰慕 214
任职 214
企业家 214
传讯 214
位数 214
体检 214
何故 214
佩顿 214
供词 214
保险金 214
凑合 214
出人意料 214
初衷 214
加冰 214
动画 214
勾结 214
发言权 214
名词 214
后要 214
呱@@ 214
在我心中 214
垫子 214
多克 214
夜夜 214
大亨 214
大約 214
头脑@@ 214
妞@@ 214
安葬 214
完完全全 214
布里斯托 214
快追 214
急诊 214
拋棄 214
拘束 214
挨着 214
新星 214
无从 214
椒@@ 214
波普 214
滿足 214
潔@@ 214
特蕾西 214
狙@@ 214
理事会 214
瞳孔 214
穗 214
耶维奇 214
胜者 214
致以 214
莫伊 214
藍色 214
计票 214
这药 214
逍遥 214
重量级 214
问个问题 214
雪糕 214
雯 214
霍夫曼 214
 214
 214
2ch111211 213
adri@@ 213
became 213
dare 213
dt 213
dust 213
exper@@ 213
fat 213
gon 213
responsible 213
roman@@ 213
suv 213
sweetheart 213
tells 213
上學 213
乱说话 213
倫敦 213
偷吃 213
兄长 213
兵器 213
切成 213
动脉瘤 213
单挑 213
卧槽 213
吴法 213
团圆 213
執行 213
大树 213
头来 213
妳@@ 213
害虫 213
家住 213
布里奇 213
序列 213
开胃菜 213
往外 213
惧 213
所要 213
打印机 213
撿 213
收不到 213
新家 213
旅行@@ 213
有余 213
架上 213
激 213
牵着 213
狭窄 213
矫@@ 213
禦 213
科罗拉多 213
笲 213
米德 213
精神分裂 213
繁衍 213
绽放 213
罢手 213
老老实实 213
脑残 213
脱落 213
脱逃 213
舍得 213
茹@@ 213
莫特 213
萨克@@ 213
裹@@ 213
请进来 213
踪影 213
轻轻地 213
连锁@@ 213
追溯到 213
通灵 213
還得 213
都柏林 213
鄙@@ 213
阑 213
难以想象 213
零下 213
页面 213
飞车 213
鲁兹 213
鸽 213
鼓起勇气 213
 213
bat 212
berry 212
caspere 212
experience 212
kra@@ 212
noah 212
pho@@ 212
survive 212
Г 212
а 212
ぺ 212
东北 212
中央@@ 212
中是 212
人中 212
付诸@@ 212
会会 212
何時 212
來給 212
信教 212
信里 212
倒退 212
候补 212
儿时 212
全副武装 212
前锋 212
加冕 212
匯@@ 212
可真@@ 212
咎 212
唱诗班 212
城区 212
塞缪尔 212
好似 212
宠@@ 212
宣读 212
小狗狗 212
异性恋 212
弥 212
强化 212
悍 212
拉登 212
推倒 212
教派 212
整栋 212
时要 212
暗面 212
最最 212
有所不同 212
服務@@ 212
未遂 212
橡皮 212
武术 212
毒枭 212
波利斯 212
洛德 212
火警 212
焕发 212
生理@@ 212
皱纹 212
看错 212
破例 212
第十@@ 212
精美 212
纷@@ 212
耍花样 212
背负 212
膀胱 212
自己的 212
艾斯 212
若有 212
變化 212
诀窍 212
诡 212
貧@@ 212
赖特 212
越远 212
输血 212
达拉 212
迈尔 212
锻@@ 212
面熟 212
食人魔 212
高估 212
2003 211
bed@@ 211
bee 211
eel 211
gru@@ 211
hiding 211
knife 211
mas 211
moi 211
otherwise 211
pootie 211
records 211
repe@@ 211
rise 211
sear@@ 211
shoes 211
sno@@ 211
thompson 211
一想 211
于世 211
伯里 211
但会 211
冒牌货 211
出行 211
别往 211
办妥 211
南京 211
回心转意 211
外交部 211
太天真 211
奶妈 211
好帅 211
威利斯 211
宫廷 211
家事 211
对着 211
尔巴 211
屋檐下 211
巡视 211
巴拿马 211
弄脏了 211
张纸 211
归功于 211
得主 211
得太快 211
心机 211
必将 211
性能 211
总说 211
我親 211
所爱 211
托克 211
拚命 211
挺酷 211
推车 211
攀 211
支柱 211
救生艇 211
无数@@ 211
杀人案 211
柯拉 211
格莱@@ 211
比克 211
氨@@ 211
汇合 211
没上 211
治病 211
法兰西 211
波西 211
淹 211
炙@@ 211
照常 211
疱疹 211
看上 211
祝愿 211
种马 211
窥探 211
笔钱 211
算上 211
纵容 211
经理人 211
缠住 211
翻天 211
行军 211
衣着 211
装上 211
访@@ 211
贩毒集团 211
走火 211
足球队 211
连锁 211
迪尔 211
铃铛 211
顶嘴 211
騙子 211
高端 211
 211
amelia 210
ani 210
bron@@ 210
common 210
equ@@ 210
hungry 210
lance 210
leg 210
reg@@ 210
shake 210
somehow 210
tele@@ 210
todd 210
u盘 210
ㄏ 210
一下下 210
不公 210
不象 210
[...]
