the 51819416
, 42053566
. 33253982
of 32831129
and 27140728
to 22192827
in 16016248
a 12027725
for 8383876
on 7086181
that 6835466
) 6809346
( 6751354
is 6605745
The 6414061
with 5253661
/ 4560852
by 4481173
: 4387011
as 4382575
be 4090489
" 3867674
or 3638579
was 3506361
are 3283495
from 3044468
at 2972890
you 2971523
's 2846629
it 2826051
; 2700435
I 2655292
not 2581177
an 2417528
its 2386806
have 2330210
this 2250671
all 1939807
has 1927467
United 1888718
which 1864599
will 1854292
their 1799693
In 1754284
- 1553941
also 1457655
Nations 1434146
other 1433071
had 1425566
your 1421042
can 1383982
A 1382217
were 1363426
been 1347227
his 1252196
? 1242714
he 1224200
Committee 1170016
States 1169998
It 1156903
more 1138408
any 1074113
1 1073808
international 1071873
one 1059706
would 1046712
should 1027593
such 1027366
we 1015014
development 1013498
but 1008603
they 986968
information 948035
including 896730
countries 892809
time 886656
out 886204
2 876898
into 872260
rights 869121
our 859549
This 855115
work 851864
use 835575
under 826735
Council 802221
about 800927
new 772840
do 766734
her 760782
may 749026
up 746840
report 746370
who 729279
support 720715
3 719945
people 711636
made 707987
there 703304
women 702692
human 701697
no 698390
through 691094
system 685808
He 678257
them 674941
so 671814
resolution 666169
We 662431
than 660868
between 660272
General 657399
' 657053
national 657031
only 651412
State 651019
my 633278
these 623306
4 618262
well 616010
when 612315
two 609877
if 607899
said 607380
shall 599839
some 593669
those 591667
International 588465
Assembly 586845
first 585648
over 572064
against 571910
s 565872
me 562304
per 560960
't 560280
$ 551410
services 547440
activities 545949
5 542733
law 541642
years 540018
implementation 538932
session 538660
could 533371
right 531233
-@@ 524764
Government 524577
country 524576
most 518309
Convention 517809
provide 512586
China 511681
order 500905
him 500789
You 499679
10 499369
number 496406
need 493092
! 487452
world 487201
she 485127
Commission 484705
what 480688
security 479068
children 476706
like 474593
make 472565
take 470856
must 465161
us 462611
process 459798
i 459388
6 458591
within 454906
see 454438
Republic 450415
meeting 449359
many 447342
To 445945
Secretary-General 443052
measures 440921
If 436207
used 435467
year 429409
S@@ 425945
economic 425924
after 424288
cooperation 422411
resources 420981
organizations 418647
As 416252
public 413788
data 413260
during 412988
management 409129
where 409120
For 408486
part 406210
7 405560
Conference 402346
efforts 399437
social 398518
very 398090
Development 397659
being 396841
Mr. 396665
financial 396330
way 394881
before 394569
b 394030
party 393272
level 391928
available 389715
ensure 386556
’ 385538
un@@ 383821
same 383666
And 383596
Group 382441
provided 381308
re@@ 380754
[ 378149
Security 377241
regional 376176
further 374781
8 373898
programme 373861
cent 373041
members 371248
access 370611
M@@ 370430
At 368563
both 368371
] 368134
issues 367878
Rights 365528
URL 365409
now 365309
areas 364741
important 363819
without 363416
P@@ 360680
New 360464
staff 359086
B@@ 358552
view 356289
set 354983
following 353524
service 350939
o 350447
D@@ 350183
assistance 349637
how 348262
period 345155
15 344299
G@@ 342686
Hotel 341733
just 341532
K@@ 341377
– 340709
draft 340174
each 340116
held 338944
Office 338818
relevant 336267
article 335875
T@@ 335657
There 335149
good 333909
9 333510
life 333178
area 332885
then 332709
12 330215
health 329944
But 329173
three 328270
particular 326620
education 326297
30 325609
Human 323781
December 323595
developing 323564
Special 322359
while 319774
On 319482
place 319480
day 318620
They 318602
found 318456
know 317881
in@@ 317613
paragraph 317289
20 316409
N@@ 315995
related 315764
policy 312032
political 311108
e 310487
training 307705
H@@ 307432
“ 306806
11 306083
protection 304772
L@@ 304585
among 304219
did 302421
legal 302079
action 301568
programmes 300537
review 300176
control 298635
because 298303
parties 296866
A@@ 296754
c 296675
special 296332
d 296322
R@@ 295996
persons 295812
World 294102
National 294072
change 293937
business 293680
end 293327
C@@ 293309
able 292887
F@@ 291250
high 291232
4@@ 290657
k@@ 289495
based 287077
get 286054
free 286049
taken 285534
What 284625
E@@ 284281
3@@ 282198
s@@ 281844
President 281009
continue 280357
account 279912
global 279307
help 279050
” 278837
man 278469
She 278279
local 278114
even 277818
& 277052
situation 275526
own 275147
working 274977
decision 274487
t 274476
water 273574
14 273345
established 273251
community 273216
Requested 271073
accordance 270590
case 269976
d@@ 269309
effective 269183
since 269043
adopted 268965
different 268494
full 268490
Working 268167
does 267541
Article 266875
role 266356
All 265260
include 265132
June 264928
% 264802
Africa 264642
map 264169
million 263284
want 263210
y@@ 262484
possible 262455
present 262175
group 261484
13 259777
18 259554
regard 259139
Organization 258401
go 256765
requested 256620
respect 256466
still 255346
best 255086
back 254726
16 254561
technology 253562
t@@ 251864
5@@ 251323
necessary 249962
upon 249427
technical 249311
government 247907
much 246839
21 246436
Programme 246423
needs 246361
S 246240
recommendations 245250
reports 245134
peace 245110
current 244181
Member 243936
2008 243613
project 243014
er 241652
field 240486
general 239970
With 239601
down 239229
required 239040
agenda 238303
July 238029
i@@ 238006
trade 237491
European 237438
2005 236359
When 236341
progress 235087
e@@ 234691
2006 234595
.@@ 234234
cases 233353
2010 232889
basis 232524
W@@ 231984
groups 230634
Chinese 229791
increase 229245
V@@ 229113
2009 228723
address 228693
E 228590
room 228029
May 227717
However 227518
17 226516
developed 226397
de 225684
25 225437
appropriate 225129
family 224971
region 224830
specific 224826
n@@ 224498
hours 224249
major 224228
conditions 223473
19 222470
future 222105
long 222076
products 222004
Board 221730
using 221133
ing 220372
market 220078
2007 220041
policies 219897
violence 219730
C 219556
various 219395
Â 219179
Service 219167
September 218962
institutions 218406
every 217955
budget 217657
last 217630
here 217523
24 216957
item 216306
quality 216136
great 216058
age 216001
October 215954
capacity 215901
don 215760
small 215188
name 214734
systems 214514
Social 214450
Please 214164
power 213760
company 213460
al@@ 212721
men 212432
given 212429
Economic 211866
means 211812
production 211758
hotel 211481
es 210844
site 210599
addition 210322
provisions 210314
2004 209937
Page 209920
person 209548
2011 209426
second 208677
B 208335
requirements 207956
November 207877
application 207575
am 206812
African 206596
22 206454
€ 206202
ed 205957
private 205792
plan 205658
6@@ 205535
J@@ 205125
South 204910
around 204400
God 204398
2012 204198
days 204193
p@@ 203942
form 203643
come 203626
details 203532
main 202925
issue 202885
society 202824
These 202567
Parties 202092
considered 202029
o@@ 201502
military 201352
result 201299
levels 201223
child 200875
... 200327
meetings 199718
31 199128
continued 198432
2000 197682
March 197195
food 197158
That 196372
give 196196
-- 195668
key 195540
property 195444
land 195289
example 195268
nuclear 195062
ate 194428
O@@ 194352
a@@ 194149
23 193376
Law 193235
total 192666
price 192496
another 192023
better 191485
less 191276
next 191256
* 191100
above 191087
数据表 190993
show 190857
large 190785
dis@@ 190466
terms 190290
hotels 190285
2003 190261
proposed 190192
b@@ 190149
g@@ 190057
concerned 189991
city 189664
find 189464
called 189415
projects 189230
off 189137
Court 188784
By 188778
promote 188620
7@@ 188422
Department 188284
whether 187472
member 187291
line 187121
population 187080
particularly 187021
ting 186806
become 186510
several 186507
think 186383
an@@ 186193
note 186150
research 186051
Information 186036
operations 185747
l@@ 185143
provides 185123
April 184979
km 184399
y 184077
fully 183972
_ 183648
How 182561
additional 182553
offers 182365
importance 182235
ch@@ 182184
environment 182137
state 182115
January 181796
Women 181640
consideration 181514
2002 181499
m@@ 180884
Union 180769
framework 180768
might 180702
results 180519
sector 180197
gender 179743
I@@ 179719
home 179161
non-@@ 178920
request 178495
m 178364
f@@ 178238
third 177866
noted 177732
light 177276
sustainable 177221
again 176951
â 176927
No 176484
One 176473
k 176375
Datasheet 176259
ers 176081
received 176074
experience 175807
design 175566
ation 175511
force 175252
2013 175157
Chapter 174901
due 174831
ferry 174797
took 174756
put 174545
Fund 174515
US 174492
rate 174345
Y@@ 174180
ts 173868
performance 173843
2001 173453
improve 173422
ar@@ 173312
8@@ 173246
away 173180
equipment 173136
always 173122
II 173095
civil 172777
bodies 172417
authorities 172397
too 172027
c@@ 171952
facilities 171948
His 171738
growth 171573
especially 171295
often 171248
content 170321
energy 169894
26 169834
four 169642
towards 169429
building 169275
impact 169239
z@@ 168984
say 168661
costs 167562
en@@ 167426
approach 167063
English 167034
common 166847
organization 166759
h@@ 166644
participation 166574
50 166494
together 166489
attention 166176
27 166166
included 165654
de@@ 165591
28 165515
body 165507
care 165502
Re@@ 165476
point 165378
详细搜索 165320
u@@ 164842
er@@ 164695
submitted 164162
risk 163794
University 163750
least 163326
n 163219
status 163142
Other 163046
Action 162741
agencies 162693
study 162646
r@@ 162550
police 162160
humanitarian 161289
subject 161133
type 161106
taking 160926
car 160921
space 160898
providing 160848
delegation 160809
Z@@ 160749
problems 160724
document 160595
few 160485
question 160093
existing 159983
little 159936
page 159773
already 159701
school 159557
America 159412
j@@ 159350
increased 159022
going 158774
18@@ 158492
fact 158012
Secretariat 157947
past 157739
making 157715
analysis 157703
ted 157576
u 157547
amount 157532
— 157525
agreed 157486
1999 157215
five 157095
conflict 157089
poverty 156937
August 156762
value 156455
old 156445
early 156341
weapons 156257
until 155753
rules 155570
al 155533
resolutions 155514
standards 155363
29 155101
visit 154731
@ 154417
Mission 154408
domestic 154033
consider 153969
am@@ 153781
left 153511
9@@ 153380
foreign 152816
position 152726
list 152695
open 152573
People 152071
therefore 151901
American 151763
My 151715
v@@ 151303
online 150380
book 150279
context 150251
monitoring 150030
meet 149913
Central 149850
air 149819
> 149582
responsibility 149418
responsible 149380
February 149124
en 148959
agreement 148862
others 148441
g 148275
establishment 148258
course 148222
representatives 148169
personnel 147870
Important 147794
Room 147759
problem 147664
D 147478
on@@ 147436
provision 147350
contained 147245
environmental 147204
Report 146596
comprehensive 146531
near 146512
never 146385
certain 146330
concern 146037
High 145763
1998 145726
After 145656
ticket 145378
2@@ 145264
Governments 145106
industry 144885
is@@ 144631
living 144607
East 144350
personal 143690
statement 143487
cost 143230
led 143068
office 143044
however 142979
treatment 142863
In@@ 142749
hand 142699
it@@ 142603
create 142566
offer 142540
w@@ 142412
'@@ 142274
response 142205
concerning 142183
recent 142013
investment 141867
material 141818
es@@ 141747
matter 141644
Israel 141146
effect 141087
laws 140961
team 140859
develop 140559
Affairs 140342
40 140246
Protocol 139813
Europe 139569
date 139436
Executive 139271
An 139265
Services 138979
came 138965
So 138909
Our 138687
product 138634
side 138550
interest 138509
practices 138378
France 138290
representative 138266
table 138190
No. 137883
funds 137833
look 137815
relating 137610
individual 137533
network 137517
Centre 137461
While 137141
reporting 137089
're 136989
procedures 136890
mandate 136757
justice 136750
decided 136629
Japan 136607
Show 136405
according 136377
60 136288
administrative 135967
significant 135936
cannot 135926
below 135828
York 135524
months 135209
Act 135052
strengthen 134956
U@@ 134952
regarding 134919
real 134881
reported 134716
criminal 134596
Declaration 134583
house 134563
paper 134428
legislation 134385
2014 134248
principles 134112
limited 134082
Canada 134003
range 133703
Rapporteur 133649
love 133529
l 133456
Asia 133340
implement 133318
needed 133212
discrimination 133041
City 132901
language 132793
things 132612
x 132507
practice 132119
companies 132037
natural 131955
Arab 131904
Some 131831
cultural 131789
expressed 131711
th@@ 131673
coordination 131669
Ministry 131621
as@@ 131579
materials 131517
media 131399
ability 131318
known 131196
challenges 131163
planning 131027
pay 130958
changes 130941
ti@@ 130806
ated 130720
later 130687
today 130472
located 130364
ating 130323
young 130178
armed 130155
yet 130054
having 129462
asked 129454
let 129365
close 129162
rule 129095
prices 129073
or@@ 129065
server 128398
availability 128223
ic@@ 128174
website 128169
strategy 127794
low 127737
mechanisms 127689
play 127517
done 127503
purpose 127377
100 127332
1@@ 127277
forces 127250
im@@ 127119
documents 127061
times 126897
interests 126798
entitled 126736
| 126715
face 126525
h 126409
Hong 126335
knowledge 126037
economy 125521
focus 125442
higher 125077
live 124937
'm 124904
section 124170
safety 124118
obligations 123930
partners 123927
whole 123867
THE 123755
ia 123714
please 123282
During 123126
far 123109
Kong 122831
decisions 122770
F 122767
Management 122701
actions 122553
Al@@ 122451
mission 122055
clear 122045
expected 121830
went 121587
el@@ 121393
official 121347
p 121333
lack 121094
money 121092
head 120917
basic 120660
exchange 120072
Kingdom 119748
rooms 119604
Russian 119570
prevent 119551
More 119346
software 119138
assessment 119094
ar 119065
call 119005
From 118951
regular 118924
nature 118768
son 118473
contributions 118432
OF 118320
f 117988
annual 117852
ab@@ 117845
forms 117483
death 116971
addressed 116776
Do 116556
features 116502
once 116445
'll 116224
achieve 116145
establish 116143
potential 115967
ro@@ 115858
ac@@ 115769
share 115612
rates 115416
ad@@ 115352
steps 115311
greater 115297
plans 115169
throughout 115114
communication 115093
complete 115066
strong 114997
+ 114960
students 114825
ic 114756
war 114754
North 114667
at@@ 114643
reform 114536
contact 114530
travel 114405
employment 114394
Free 114390
night 114314
income 114239
stay 114097
ter 114055
di@@ 113754
T 113732
Advisory 113522
involved 113439
adoption 113431
O 113382
Technology 113368
protect 113335
previous 113001
strengthening 112858
Agreement 112704
commitment 112612
author 112609
Your 112574
serious 112545
operation 112487
keep 112294
0@@ 112210
victims 112173
arms 112047
return 111992
model 111873
ag@@ 111658
Bank 111594
matters 111573
UNDP 111528
connection 111496
agree 111357
transfer 111242
missions 111212
king 111103
indigenous 110661
joint 110556
supported 110515
prevention 110484
believe 110111
.com 110076
bring 110032
workers 109874
text 109838
co@@ 109799
Palestinian 109734
le@@ 109733
TV 109580
10@@ 109549
across 109474
Minister 109355
top 109341
.aspx 109262
ways 109261
acts 109247
thus 108974
directly 108780
applications 108465
really 108299
R 108274
kind 108244
standard 108023
along 107908
t-@@ 107827
India 107486
initiatives 107403
parts 107392
users 107270
capital 107265
crime 107260
carried 107216
direct 107058
forward 106977
questions 106963
consultations 106961
medical 106919
court 106869
Germany 106830
behalf 106801
series 106777
te@@ 106687
six 106686
organized 106572
processes 106564
secretariat 106561
Party 106533
te 106385
Global 106130
equality 105857
Trade 105818
e-@@ 105814
term 105610
construction 105596
functions 105585
event 105468
requests 105280
1997 105028
2015 104860
act 104811
issued 104776
former 104630
principle 104563
understanding 104547
dialogue 104273
M 104082
promotion 103876
loss 103859
something 103805
words 103771
X@@ 103720
strategic 103536
heart 103507
Representative 103426
independent 103389
structure 103350
reduction 103331
got 103279
ta@@ 103231
miles 103228
Democratic 103132
benefits 103123
includes 103045
approved 103016
sexual 102953
Iraq 102901
priority 102890
activity 102767
reduce 102748
affected 102731
girls 102664
para 102620
opportunities 102591
continuing 102581
con@@ 102570
agreements 102490
essential 102469
1996 102413
Since 102412
designed 102376
views 102271
funding 102189
ant 102092
allow 101982
procedure 101960
statistics 101951
disarmament 101893
minutes 101794
35 101745
First 101733
committed 101650
recommended 101395
P 101376
CO 101348
source 101343
itself 101158
peoples 101151
enhance 101134
peacekeeping 101090
began 100813
Internet 100774
single 100747
currently 100746
lead 100721
experts 100626
operational 100565
stated 100426
Hotels 100369
increasing 100229
promoting 100229
V 100147
method 100107
effects 100068
climate 99958
notes 99954
Home 99933
red 99933
opportunity 99804
outside 99787
Ch@@ 99761
strategies 99730
crisis 99431
final 99405
test 99258
ations 99253
active 99218
ly 98953
Ms. 98912
Ar@@ 98826
trafficking 98719
either 98634
G 98560
Mar@@ 98529
similar 98507
non-governmental 98491
Division 98347
says 98269
Korea 98190
thought 98092
mind 98090
goods 97879
individuals 97760
remain 97719
art 97649
Beijing 97408
overall 97386
offices 97333
Co 97197
why 97194
post 97182
evaluation 97136
Director 97128
officials 97106
violations 97091
discussion 97061
became 97042
55 96939
Support 96937
written 96881
x@@ 96826
32 96803
statements 96780
instruments 96747
French 96565
mechanism 96530
integrated 96503
ol@@ 96457
annex 96357
rather 96352
prepared 96286
items 96267
accept 96012
images 95998
seen 95982
accommodation 95752
communities 95631
HIV 95505
presented 95428
ago 95351
Then 95222
em@@ 95147
manner 95087
L 95009
articles 94995
Italy 94660
Supplier 94634
ul@@ 94582
history 94538
events 94509
authority 94490
wish 94392
implemented 94383
conduct 94351
supply 94343
apply 94248
evidence 93933
III 93915
1994 93831
1995 93730
ine 93564
Con@@ 93533
brought 93513
posts 93459
points 93387
equal 93345
Public 93317
administration 93298
rural 93264
distribution 93240
goals 93206
33 93164
Health 93008
start 92992
game 92863
biennium 92818
terrorism 92794
difficult 92777
op@@ 92741
oil 92696
purposes 92656
objectives 92626
hard 92593
45 92590
assist 92506
remains 92450
ap@@ 92421
receive 92417
front 92414
regulations 92401
positive 92359
Download 92352
be@@ 92331
themselves 92294
z 92263
implementing 92200
aimed 92122
leave 92116
exercise 92112
reference 92096
Treaty 92080
An@@ 91961
soon 91877
According 91785
central 91774
treaty 91758
ever 91757
primary 91661
internal 91649
solution 91619
Institute 91593
machine 91507
Review 91491
facilitate 91444
delivery 91357
cause 91353
os@@ 91351
function 91232
der 91220
file 91192
methods 91130
job 91124
le 91121
Now 91091
West 90923
adequate 90688
ates 90652
aspects 90635
regions 90598
infrastructure 90527
freedom 90444
feel 90302
De@@ 90235
average 90170
57 90110
hold 90089
culture 90086
ous 90086
location 90050
wide 89920
80 89900
bl@@ 89895
read 89801
enjoy 89688
ensuring 89490
makes 89475
thing 89387
created 89381
traditional 89283
58 89248
communications 89238
looking 89235
Also 89214
conducted 89168
48 89082
month 89003
submit 88999
officers 88995
34 88925
arrangements 88877
00 88841
Australia 88830
over@@ 88813
36 88800
ad 88798
week 88648
Permanent 88610
65 88582
LTD 88572
demand 88569
N 88550
solutions 88519
om@@ 88478
Commissioner 88477
Ltd 88344
et 88066
types 88024
half 87891
Covenant 87751
introduced 87749
guidelines 87634
benefit 87557
64 87554
class 87554
sent 87545
Federation 87542
works 87517
poor 87514
informed 87443
sh@@ 87368
recognized 87323
build 87305
modern 87264
woman 87199
Code 86993
computer 86894
li@@ 86888
contract 86887
require 86826
referred 86815
17@@ 86635
Plan 86611
inter@@ 86557
ur@@ 86465
hope 86330
size 86227
os 86200
ground 86187
Company 86182
Geneva 86156
lot 86108
Forum 86029
2016 85999
proposals 85994
technologies 85960
Sh@@ 85925
physical 85807
59 85755
15@@ 85686
se@@ 85684
financing 85589
letter 85561
met 85548
Panel 85441
System 85441
61 85440
doing 85305
= 85288
integration 85278
elements 85267
contribute 85224
Chairman 85167
il@@ 85098
conference 85090
've 85069
maintenance 85062
53 84861
relations 84849
professional 84846
AIDS 84731
whose 84660
enough 84659
L.@@ 84602
efficiency 84552
tell 84550
ri@@ 84406
reason 84390
easy 84385
claims 84367
resource 84367
run 84207
37 84204
fundamental 84067
user 84020
schools 83927
Millennium 83876
deal 83810
circumstances 83769
1993 83647
sure 83512
tools 83493
almost 83422
AND 83335
claim 83311
relationship 83285
bed 83245
version 83186
Q@@ 83051
Tribunal 82936
associated 82918
52 82886
concerns 82855
understand 82795
62 82794
sub@@ 82765
56 82669
leading 82511
Agenda 82499
try 82492
Cooperation 82490
largest 82447
ha@@ 82397
proposal 82302
16@@ 82299
paid 82294
longer 82287
transport 82278
families 82156
X 82154
Protection 82071
damage 82056
prior 82030
awareness 81878
critical 81797
recommendation 81673
big 81657
states 81627
enable 81548
39 81532
sites 81401
us@@ 81401
tr@@ 81251
told 81207
effectively 81152
assets 81142
saw 80978
though 80974
Policy 80937
effort 80931
looked 80894
station 80854
Spain 80842
negotiations 80827
identified 80738
latest 80650
Justice 80628
markets 80621
labour 80570
lower 80473
Many 80326
Meeting 80297
apartment 80160
51 80065
undertaken 80044
Road 79985
compliance 79980
Criminal 79945
ing@@ 79935
ans 79909
achieved 79856
word 79721
contribution 79717
preparation 79681
units 79651
commercial 79558
Pro@@ 79554
short 79524
to@@ 79486
reached 79452
54 79393
sources 79391
options 79335
th 79274
Center 79035
Although 78966
ex@@ 78898
applied 78881
participate 78857
video 78824
ent 78802
Regional 78731
billion 78720
13@@ 78673
Implementation 78653
Lord 78639
dated 78514
Education 78461
road 78412
core 78373
factors 78334
vote 78137
drug 78055
r 78000
ten 77979
takes 77967
success 77961
1.@@ 77935
Is 77905
47 77883
pressure 77858
Of 77802
Foreign 77795
father 77772
territory 77716
customers 77663
eyes 77637
Section 77611
Sudan 77577
63 77524
Ireland 77498
guests 77468
66 77327
49 77254
move 77242
step 77209
pursuant 77179
operating 77165
otherwise 77155
Charter 77117
ist 77074
\ 77070
requires 76998
ton 76977
caused 76797
improving 76704
Unit 76631
A. 76609
38 76522
enforcement 76501
stage 76473
entities 76451
um 76369
mother 76259
centre 76241
Children 76188
San 76181
aid 75977
res@@ 75922
crimes 75876
choice 75873
sea 75830
la@@ 75812
turn 75754
Mexico 75719
balance 75660
44 75646
200 75625
Such 75619
Jesus 75567
completed 75543
delegations 75538
rest 75495
true 75401
Pacific 75373
recommends 75240
maintain 75008
Street 75007
published 74990
advance 74920
code 74914
41 74897
Le@@ 74890
growing 74784
board 74741
likely 74706
K 74643
Wikipedia 74612
added 74574
als 74551
detailed 74541
House 74532
century 74506
Force 74440
Airport 74401
Standard 74369
mo@@ 74343
applicable 74303
OR 74255
leaders 74252
Israeli 74243
selected 74219
started 74173
estimated 74153
drive 74116
70 74102
commitments 74074
safe 74033
refugees 73987
industrial 73898
42 73877
judicial 73877
detention 73779
uses 73760
successful 73748
gave 73706
stability 73669
improved 73521
religious 73494
dates 73472
ator 73371
ings 73369
won 73264
{ 73255
Park 73243
door 73237
sessions 73234
indicated 73018
14@@ 72969
external 72944
outcome 72928
Shanghai 72873
beginning 72750
ir@@ 72698
match 72686
heard 72674
Association 72546
places 72416
carry 72370
tions 72354
expert 72315
reach 72261
calls 72251
W 72249
objective 72171
Not 72126
governance 72095
nothing 72075
cookies 72068
H 72053
although 72020
studies 71976
Best 71971
processing 71921
v 71913
per@@ 71882
alia 71873
Summit 71739
signed 71735
46 71699
ou@@ 71636
participants 71629
lost 71573
cover 71485
comments 71437
sound 71423
credit 71416
unit 71395
immediately 71347
charge 71203
Agency 71191
43 71162
al-@@ 71083
Web 71057
goal 71025
original 71023
Great 70983
lo@@ 70963
En@@ 70940
multilateral 70925
himself 70908
debt 70861
late 70854
View 70824
follow-up 70783
scientific 70781
beyond 70763
67 70752
ongoing 70710
reasons 70710
serve 70425
etc 70348
scope 70315
tax 70175
ty 70166
} 70160
registration 70157
Second 70110
Western 70012
search 69946
id@@ 69901
entire 69887
res 69873
floor 69864
passenger 69804
pe@@ 69791
payment 69781
situations 69716
68 69682
inter 69661
extent 69639
identify 69548
institutional 69537
informal 69500
urban 69499
Business 69490
el 69475
guidance 69471
Constitution 69468
Most 69426
no@@ 69409
UNICEF 69378
positions 69335
Where 69323
program 69293
center 69265
tive 69259
described 69256
didn 69206
ec@@ 69162
mean 69010
fire 68961
tool 68934
London 68845
Questions 68832
ma@@ 68821
y-@@ 68812
Th@@ 68810
image 68796
collaboration 68754
tion 68722
sectors 68706
continues 68693
ra@@ 68674
discussions 68668
centres 68507
self-@@ 68486
base 68321
violation 68303
citizens 68269
si@@ 68247
Version 68154
practical 68148
gas 68140
90 68129
Political 68081
via 68007
science 67913
bank 67869
lives 67867
built 67857
Civil 67846
British 67832
movement 67795
obtain 67793
complex 67758
Se@@ 67753
relation 67742
0 67715
coming 67708
Use 67674
walk 67538
friends 67486
ds 67480
Co@@ 67462
collection 67461
housing 67452
town 67388
photos 67305
reviews 67299
ve@@ 67292
advice 67267
check 67266
enterprises 67240
he@@ 67240
shown 67220
Why 67185
music 67145
Di@@ 67126
pre@@ 67042
2.@@ 67041
pl@@ 66983
popular 66948
born 66902
net 66888
creation 66855
Congo 66756
generate 66743
usually 66724
recovery 66648
disabilities 66647
See 66587
UNCTAD 66585
um@@ 66574
record 66485
German 66429
card 66415
insurance 66400
comes 66370
long-term 66307
Asian 66305
ter@@ 66279
efficient 66227
raised 66176
U 66139
remained 66075
task 66040
majority 65972
Y 65897
combat 65884
Design 65869
st@@ 65799
supporting 65726
paragraphs 65723
placed 65702
Afghanistan 65696
allowed 65695
effectiveness 65679
Iran 65665
Crime 65580
avoid 65544
skills 65504
parents 65437
opened 65400
provisional 65399
ters 65295
Under 65289
substantive 65282
Research 65247
proceedings 65245
investigation 65234
express 65188
universal 65147
scale 65141
concept 65125
learning 65015
Brazil 64973
peaceful 64928
Environment 64892
film 64871
shows 64870
presence 64868
Islamic 64831
revised 64719
initial 64717
emergency 64703
encourage 64678
initiative 64599
Be@@ 64547
stakeholders 64495
UN@@ 64461
link 64456
elections 64408
send 64386
ta 64358
compared 64268
sale 64237
customer 64181
follows 64174
ON 64149
War 64144
covered 64113
Latin 64067
ch 64056
followed 64005
highest 63986
ies 63983
host 63966
resulting 63949
approval 63892
Administration 63881
John 63835
partnership 63782
choose 63770
daily 63765
bi@@ 63732
Note 63720
developments 63718
ask 63698
generally 63678
recently 63640
Peace 63630
opinion 63625
simple 63613
mainly 63557
Paris 63549
fund 63541
welcomed 63526
idea 63484
trust 63455
IN@@ 63436
civilian 63425
stop 63389
ke 63351
Ex@@ 63343
defined 63333
Administrative 63275
responsibilities 63275
seek 63198
Islands 63157
IV 63134
felt 63117
invited 63105
abuse 63077
ren@@ 63045
Site 63023
specialized 62943
ance 62941
Middle 62940
Caribbean 62878
electronic 62791
employees 62790
components 62788
discussed 62785
Furthermore 62784
follow 62776
ment 62766
threat 62748
Ferries 62694
ne@@ 62662
nor 62621
jobs 62615
ang 62546
mass 62540
List 62505
transition 62488
female 62480
ver@@ 62422
Secretary 62350
export 62325
indicators 62315
ding 62310
Here 62275
Data 62218
Apartment 62199
torture 62167
ed@@ 62162
sense 62134
sales 62066
Egypt 62009
seven 61998
pro@@ 61997
obligation 61978
enter 61975
IS@@ 61890
ten@@ 61883
produced 61868
achieving 61841
storage 61705
entry 61660
jurisdiction 61606
failure 61585
Japanese 61576
20@@ 61569
accepted 61559
device 61536
click 61494
navigation 61445
languages 61425
box 61391
Community 61364
leadership 61363
me@@ 61354
island 61258
ons 61256
permanent 61235
respective 61208
anything 61172
target 61138
priorities 61118
compensation 61087
intergovernmental 61069
vehicle 61048
ethnic 61014
web 61002
unique 60978
files 60938
enterprise 60902
School 60876
exist 60866
legislative 60818
contains 60554
challenge 60532
learn 60520
news 60517
press 60476
ally 60455
bo@@ 60441
debate 60425
Texas 60355
B. 60333
behind 60245
ge@@ 60243
separate 60229
Vienna 60206
Federal 60153
capacity-building 60140
election 60124
sex 60094
est 60063
IN 60006
fields 59968
Cuba 59944
monitor 59904
qu@@ 59842
economies 59793
rise 59777
Well 59771
ready 59727
morning 59702
pool 59668
75 59659
mobile 59592
UNEP 59546
se 59532
Russia 59518
Day 59514
br@@ 59505
highly 59497
educational 59445
Its 59432
round 59401
useful 59388
Goals 59380
ong 59370
wife 59352
Pakistan 59351
temperature 59348
car@@ 59318
vulnerable 59297
released 59288
clearly 59270
establishing 59255
values 59215
hands 59196
moment 59159
measure 59151
Financial 59130
surface 59118
mentioned 59109
USD 59093
la 59013
Joint 59009
wanted 58984
illegal 58971
District 58904
fall 58875
U.S. 58832
consultation 58788
69 58766
Sea 58724
AN@@ 58669
white 58665
beautiful 58663
1992 58601
offered 58582
Framework 58572
variety 58558
launched 58454
aircraft 58451
addressing 58405
phase 58385
listed 58325
AR@@ 58286
minimum 58271
tic 58270
shared 58264
improvement 58185
speed 58117
youth 57965
focused 57948
cities 57923
Singapore 57922
Syrian 57910
Website 57903
sufficient 57864
encouraged 57849
adopt 57773
Air 57759
ana 57757
consent 57694
reduced 57646
airport 57618
competition 57596
3.@@ 57549
Two 57530
release 57519
consistent 57505
voluntary 57496
percent 57382
77 57344
fight 57326
Food 57293
alone 57282
up@@ 57236
hour 57183
da 57147
interested 57107
determined 57060
quickly 57058
courts 57048
determine 57047
turned 57027
Car@@ 57004
periodic 56946
Headquarters 56931
actual 56931
protected 56923
Inn 56913
IC@@ 56907
elected 56906
Countries 56889
Sustainable 56860
intended 56839
worked 56805
flow 56792
girl 56757
registered 56745
su@@ 56739
setting 56699
committee 56604
1990 56599
UNHCR 56552
notice 56549
Annex 56531
chemical 56455
border 56453
Let 56418
Un@@ 56399
settlement 56393
ph@@ 56337
ig@@ 56332
aim 56300
dollars 56291
negative 56285
Moreover 56154
Each 56110
direction 56096
Search 55996
Child 55981
ES 55934
ary 55888
ness 55839
ian 55835
ling 55833
re-@@ 55821
mis@@ 55783
concluded 55758
quite 55666
and@@ 55655
district 55640
0.@@ 55599
Recalling 55576
degree 55564
style 55530
selection 55504
causes 55500
oc@@ 55499
deep 55482
writing 55466
ST@@ 55456
agricultural 55422
fourth 55353
UN 55352
lines 55342
produce 55271
ors 55258
duty 55191
é@@ 55169
appreciation 55157
destruction 55095
secure 55029
closed 54986
everything 54977
fl@@ 54957
tor 54956
# 54941
ite 54936
par@@ 54891
appointed 54888
Zealand 54870
Switzerland 54841
category 54841
consumption 54837
tes 54825
Ma@@ 54812
talk 54774
suggested 54766
temporary 54745
et@@ 54744
Technical 54636
ship 54618
Therefore 54603
hi@@ 54540
for@@ 54459
Par@@ 54436
Yes 54415
bilateral 54391
whom 54338
Control 54294
finance 54241
advanced 54215
trial 54187
Mo@@ 54129
Red 54124
Gu@@ 54121
sp@@ 54065
played 54056
gu@@ 54050
guarantee 54019
devices 54006
C. 53970
instrument 53969
ism 53944
2017 53926
`@@ 53924
disaster 53916
announced 53896
allows 53885
regime 53882
1991 53839
component 53768
bit 53752
blood 53724
reflected 53719
actors 53695
TO 53689
Persons 53684
'd 53645
easily 53557
Any 53555
approximately 53508
ah 53505
Microsoft 53489
experiences 53484
opening 53455
ators 53417
Legal 53377
welcome 53369
Chief 53342
ii 53315
ge 53298
closely 53285
independence 53277
inside 53243
a-@@ 53220
conferences 53194
Contact 53191
saying 53190
Thailand 53168
forced 53134
risks 53122
served 53116
accounts 53105
Spanish 53093
Eastern 53048
ity 53033
fine 53019
ni@@ 53013
Discrimination 53007
planned 53006
Inter@@ 52949
cut 52920
speak 52901
phone 52874
digital 52868
alternative 52784
Because 52752
tu@@ 52734
Turkey 52722
platform 52676
ak@@ 52655
terrorist 52616
treaties 52609
yourself 52602
Content 52595
achievement 52588
Indonesia 52574
bar 52566
waste 52521
UK 52511
respond 52500
Station 52483
Bar@@ 52433
man@@ 52424
IT@@ 52420
Disarmament 52415
possibility 52369
extended 52361
fuel 52334
disease 52314
Bo@@ 52299
entered 52278
displaced 52242
Prevention 52231
Li@@ 52181
vi@@ 52179
Her 52177
governments 52158
ka 52139
Training 52115
bad 52074
senior 52053
Table 52028
criteria 52007
Terms 51991
About 51990
cash 51976
trying 51973
Ro@@ 51928
consensus 51915
maximum 51915
tickets 51903
Lebanon 51880
prepare 51880
involving 51766
raise 51757
Can 51720
ful 51709
strength 51695
promise 51676
unless 51624
mon@@ 51620
we@@ 51620
perfect 51613
attacks 51588
Police 51581
banks 51574
giving 51550
weeks 51500
Christ 51488
multiple 51485
ve 51376
AM@@ 51360
Third 51359
Those 51349
actually 51329
expenditure 51324
videos 51263
remaining 51247
gr@@ 51246
fair 51226
department 51223
Congress 51192
sharing 51176
Optional 51175
Netherlands 51162
limit 51147
approaches 51102
500 51037
Further 51027
sometimes 50992
com@@ 50968
appeal 50963
Don 50962
AD@@ 50960
Product 50919
forest 50903
expertise 50829
Requests 50778
ones 50739
add 50734
arising 50693
marriage 50690
po@@ 50680
spirit 50591
formal 50545
p.m. 50544
out@@ 50530
recognition 50521
Windows 50515
creating 50511
hear 50511
consequences 50502
Instruments 50411
returned 50365
Man@@ 50340
Members 50337
voice 50322
email 50276
do@@ 50248
inform 50241
concrete 50227
except 50213
moved 50167
departments 50152
ke@@ 50093
knew 50080
broad 50052
Read 49981
hot 49973
instead 49941
networks 49941
deployment 49936
influence 49931
train 49931
Bureau 49929
plenary 49909
actively 49907
accountability 49906
judges 49831
Power 49808
ho@@ 49775
Island 49768
numbers 49765
les 49756
bathroom 49701
despite 49699
Type 49693
affect 49683
condition 49651
eight 49648
Authority 49626
ang@@ 49613
testing 49547
timely 49491
procurement 49476
Tr@@ 49472
id 49460
killed 49410
simply 49372
reflect 49339
attack 49320
properties 49304
® 49282
ology 49280
Beach 49275
represented 49270
RE@@ 49259
option 49233
so@@ 49233
CH@@ 49217
conflicts 49199
reducing 49196
cl@@ 49195
ks 49191
submission 49189
story 49109
ina 49091
Another 49069
audit 49069
Are 49066
observations 49044
increasingly 49023
Year 49022
plant 49012
Project 48997
AS@@ 48979
St@@ 48942
died 48935
relief 48931
Labour 48925
holding 48874
reasonable 48866
earlier 48858
Thus 48793
ins 48792
ical 48791
end@@ 48709
stock 48699
ay@@ 48697
implications 48688
Chair 48643
theory 48625
happy 48590
clean 48583
300 48507
changed 48493
partnerships 48470
under@@ 48470
ER 48467
Cultural 48459
For@@ 48457
names 48438
Space 48372
friend 48372
Mon@@ 48338
Am@@ 48332
generation 48242
CO@@ 48221
Even 48217
unto 48177
traffic 48170
everyone 48150
answers 48126
origin 48106
Their 48080
ker 48049
religion 48049
ice 48048
buy 48011
worldwide 47979
trans@@ 47969
discuss 47949
Me@@ 47939
Ad@@ 47912
message 47879
running 47874
formed 47873
advantage 47864
expression 47831
d-@@ 47799
survey 47798
Get 47795
12@@ 47770
conclusion 47764
UNFPA 47717
LORD 47636
definition 47631
EU 47611
specified 47596
excellent 47566
mutual 47563
prison 47524
anti-@@ 47504
exploitation 47496
ative 47482
speaking 47442
Taiwan 47387
desk 47372
der@@ 47365
IS 47283
sanctions 47270
black 47247
engaged 47229
granted 47220
Draft 47197
ale 47196
gives 47195
difficulties 47163
membership 47161
immediate 47144
Rules 47143
ked 47113
appear 47078
getting 47058
structures 47039
store 47001
fast 46936
sign 46905
comply 46901
edit 46857
mm 46836
someone 46829
ati@@ 46789
courses 46779
Sweden 46775
weight 46775
Coordination 46757
widely 46709
og@@ 46691
screen 46689
database 46653
democratic 46635
inclusive 46632
w 46588
grounds 46566
ay 46548
seems 46536
AC@@ 46530
No@@ 46488
campaign 46443
transparency 46439
capacities 46435
the@@ 46337
color 46320
cr@@ 46316
background 46288
learned 46286
obtained 46282
Qu@@ 46273
authorized 46273
green 46270
affairs 46267
Products 46266
Officer 46232
Norway 46231
wall 46223
Somalia 46221
Operations 46197
Family 46178
guide 46144
Northern 46135
object 46124
records 46106
King 46099
answer 46075
vehicles 46031
enhanced 46017
ics 46017
Science 46005
Argentina 45997
AL@@ 45985
ber@@ 45910
friendly 45902
documentation 45867
earth 45842
ER@@ 45834
links 45810
stand 45798
rich 45756
ence 45728
games 45717
purchase 45703
absence 45695
Mr 45681
offering 45628
previously 45626
Territory 45613
electric 45582
supports 45568
re 45550
La 45545
season 45529
cycle 45466
character 45463
iz@@ 45442
ded 45424
ideas 45419
ai 45356
occupied 45329
executive 45292
Elimination 45279
72 45271
zone 45260
emerging 45255
port 45237
track 45230
Line 45216
trading 45204
can@@ 45171
wood 45166
respectively 45150
Ab@@ 45140
AT@@ 45134
tasks 45063
lowest 45033
subsequent 45027
teams 45011
fish 45010
He@@ 45000
Part 44998
perform 44996
ves 44810
begin 44733
doesn 44727
illicit 44725
display 44699
passed 44685
enhancing 44680
stressed 44628
summary 44627
nations 44614
Ukraine 44589
factor 44585
mental 44568
partner 44549
save 44547
tried 44539
owing 44517
Britain 44474
mine 44470
Strategy 44431
specifically 44408
pre-@@ 44347
liability 44322
ie 44295
books 44285
Colombia 44241
News 44218
urgent 44214
recorded 44171
-based 44166
difference 44151
models 44140
Software 44122
steel 44082
representation 43988
normal 43978
Network 43972
ud@@ 43900
Kuwait 43891
95 43871
domain 43871
constitute 43870
civilians 43863
contain 43849
Saint 43842
men@@ 43813
tor@@ 43813
Com@@ 43811
gold 43803
decision-making 43790
subregional 43768
Su@@ 43748
Add.1 43745
profile 43706
reviewed 43684
4.@@ 43675
manufacturing 43653
Cyprus 43643
participated 43619
00@@ 43588
bar@@ 43581
categories 43552
delivered 43545
Inc 43520
television 43472
faith 43441
Find 43390
PR@@ 43373
feature 43355
star 43335
agency 43308
heavy 43298
migration 43290
involvement 43271
element 43259
Earth 43231
2018 43169
distance 43138
headquarters 43129
failed 43115
integrity 43111
indicate 43092
Sale 43087
Just 43056
Lo@@ 43043
organs 43041
av@@ 42966
workshops 42965
reservations 42949
stations 42943
Games 42933
numerous 42931
significantly 42908
anyone 42900
Water 42898
nearly 42875
s-@@ 42861
ya 42861
teaching 42850
truth 42795
examination 42790
accounting 42762
deliver 42721
manage 42707
nation 42691
in-@@ 42658
Only 42631
existence 42627
kept 42624
named 42607
democracy 42555
EN@@ 42542
IT 42512
ended 42512
Austria 42490
ma 42469
imposed 42417
Rwanda 42396
proper 42386
donors 42367
Energy 42353
e.g. 42348
1-@@ 42340
aware 42337
firm 42327
NGOs 42310
resulted 42308
Czech 42299
Prime 42275
competent 42267
welcomes 42264
Name 42262
Malaysia 42260
Per@@ 42246
ob@@ 42230
ish 42220
confidence 42218
Google 42208
characteristics 42208
AP@@ 42175
Pre@@ 42167
mandates 42166
assessments 42154
forth 42150
ven@@ 42139
racial 42114
theme 42108
Today 42095
perspective 42089
Ne@@ 42045
na 42045
observed 42033
reservation 42022
Br@@ 42013
update 41991
spoke 41975
Poland 41968
County 41960
requirement 41941
satellite 41933
marketing 41922
window 41909
completely 41898
master 41880
Oh 41877
Field 41854
User 41838
Old 41809
undertake 41794
USA 41789
Museum 41784
targets 41707
dealing 41695
select 41695
IP@@ 41693
mar@@ 41643
occupation 41632
ci@@ 41620
workshop 41599
El 41588
bus 41575
Ba@@ 41563
az@@ 41552
high-level 41542
ent@@ 41521
ying 41508
Q 41507
Har@@ 41493
Assistance 41479
Col@@ 41469
ys@@ 41465
instance 41460
secondary 41453
crucial 41437
estimates 41428
co-@@ 41410
ade 41394
outstanding 41393
transportation 41314
rapid 41303
corporate 41288
bu@@ 41277
99 41273
71 41213
Finally 41202
updated 41195
skin 41191
pass 41185
visits 41183
ep@@ 41179
Jerusalem 41163
As@@ 41149
decide 41119
else 41101
UNIDO 41097
85 41048
Private 41040
joined 41034
length 41030
linked 41029
cold 41015
equipped 40998
fees 40998
birth 40965
1,@@ 40959
sides 40954
accurate 40928
2,@@ 40926
rehabilitation 40911
engineering 40874
innovative 40814
Staff 40807
expansion 40799
output 40780
tri@@ 40776
Agriaffaires 40750
programs 40728
reliable 40712
Philippines 40693
76 40686
corruption 40684
conclusions 40668
race 40655
trends 40650
Ã 40644
seeking 40640
diseases 40595
des@@ 40570
boy 40553
strengthened 40553
Sierra 40535
encourages 40532
on-@@ 40528
Experts 40509
drugs 40492
coordinated 40483
Last 40463
liable 40450
ED 40432
losses 40429
containing 40427
sets 40426
Following 40420
becoming 40412
description 40412
Dis@@ 40399
° 40310
combined 40300
ized 40291
attempt 40277
Total 40265
changing 40258
faced 40253
Item 40241
meaning 40227
recruitment 40211
engage 40196
contracts 40150
innovation 40127
recognize 40105
Introduction 40076
3,@@ 40065
Wi-Fi 40054
alization 40014
double 39990
Palestine 39980
urged 39976
appears 39960
copy 39960
str@@ 39955
Resources 39935
assess 39907
draw 39904
ideal 39904
facing 39842
remove 39835
Finland 39803
die 39797
join 39775
Cor@@ 39772
hair 39735
ate@@ 39723
ble 39704
supplies 39682
River 39653
identification 39641
represent 39612
ach@@ 39607
inclusion 39594
3-@@ 39592
au@@ 39587
fifth 39581
S-@@ 39579
heat 39575
Status 39552
ise 39549
cooperate 39529
title 39520
ists 39518
connected 39502
Despite 39478
dead 39466
ev@@ 39458
ak 39449
ill 39443
eliminate 39439
uc@@ 39424
participating 39423
collect 39381
payments 39361
extend 39357
showed 39338
confirmed 39334
thinking 39324
spread 39309
fell 39306
eat 39291
threats 39289
Parliament 39230
street 39227
Industry 39218
Rome 39209
Online 39198
declaration 39198
dy 39194
wrong 39194
Georgia 39177
older 39177
unable 39171
namely 39169
6.@@ 39166
punishment 39161
Area 39153
ion 39149
memory 39149
collective 39136
sought 39114
ING 39112
Po@@ 39090
Ac@@ 39075
internationally 39073
agriculture 39066
sk@@ 39051
chapter 38996
Safety 38991
Book 38975
village 38974
sky 38970
Bosnia 38949
worth 38934
believed 38928
conventions 38905
church 38879
s.@@ 38832
PC 38829
ur 38814
all@@ 38813
86 38795
Building 38795
candidates 38789
ore 38789
ne 38777
fear 38770
24-hour 38762
famous 38754
50@@ 38751
D. 38742
booking 38732
El@@ 38729
400 38728
buildings 38721
president 38711
Greece 38710
contributed 38704
findings 38704
topic 38672
suitable 38671
brand 38670
volume 38649
moving 38631
privacy 38623
73 38620
species 38580
5.@@ 38577
regulation 38553
emphasis 38547
larger 38540
entity 38535
Fifth 38518
IC 38517
Sp@@ 38487
identity 38481
designated 38468
funded 38458
ley 38457
Liberia 38417
ages 38410
bound 38403
rental 38400
spent 38397
wh@@ 38376
goes 38371
bs 38321
cable 38317
Deputy 38298
Trust 38257
marine 38240
vision 38240
stars 38225
interpretation 38215
ir 38213
completion 38207
expenses 38206
minute 38175
emphasized 38167
appointment 38162
ce@@ 38158
maintained 38110
summer 38110
attended 38109
emissions 38067
outcomes 38059
write 38055
Once 38041
flowers 38024
restaurant 38003
territories 37980
.1 37962
regulatory 37945
Sch@@ 37942
player 37939
figure 37925
keeping 37918
25@@ 37914
powerful 37906
Morocco 37901
aged 37898
introduction 37890
Or@@ 37871
Ambassador 37864
organizational 37856
maintaining 37849
reforms 37842
David 37839
stable 37821
delay 37812
TR@@ 37810
shopping 37802
US@@ 37801
Weapons 37799
standing 37757
VI 37743
currency 37743
controlled 37740
des 37738
ard 37720
honour 37720
thousands 37697
Nigeria 37690
74 37689
dedicated 37649
teachers 37647
ments 37646
extensive 37643
Both 37596
glass 37588
freedoms 37584
ants 37560
tors 37546
j 37529
Fourth 37491
refugee 37487
helped 37481
high-@@ 37478
receiving 37467
Gender 37456
historical 37432
IP 37402
troops 37400
forum 37392
primarily 37373
83 37357
ps 37350
Guinea 37348
carrying 37324
acting 37313
statistical 37283
Number 37282
Haiti 37280
relatively 37237
differences 37232
grant 37183
Sal@@ 37175
password 37163
Several 37139
alleged 37135
declared 37133
sports 37118
Facebook 37117
career 37117
01 37106
78 37084
patients 37068
60@@ 37057
occurred 37023
extremely 37020
Kosovo 36984
radio 36962
agents 36953
orders 36946
leader 36944
break 36940
flows 36940
Lu@@ 36936
il 36920
leaving 36916
98 36901
Leone 36898
Supreme 36892
engagement 36887
tin@@ 36878
80@@ 36861
seem 36851
refer 36849
tour 36844
rec@@ 36838
capabilities 36831
I. 36813
Price 36813
Chile 36805
probably 36762
Gr@@ 36744
Ver@@ 36732
deals 36717
reading 36705
ca@@ 36693
percentage 36641
stress 36640
trend 36619
ye 36614
watch 36605
Territories 36582
ass@@ 36565
é 36565
square 36559
CD 36544
Population 36536
Nuclear 36534
responses 36531
lessons 36526
Herzegovina 36522
seemed 36498
heads 36497
charges 36476
appeared 36474
observers 36459
managed 36448
ically 36420
Guests 36414
pointed 36410
Regulations 36369
park 36358
performed 36327
substantial 36326
reality 36321
donor 36315
accessible 36303
starting 36299
amounts 36294
Society 36289
OHCHR 36274
non@@ 36241
publication 36227
nine 36225
gross 36214
ownership 36194
husband 36193
ES@@ 36182
garden 36178
5-@@ 36126
vital 36100
locations 36098
duties 36092
Indian 36082
latter 36062
combating 36059
path 36048
Chamber 36045
presentation 36044
tly 36040
col@@ 36021
technological 36016
rent 36015
Privacy 35995
satisfaction 35988
institution 35965
coverage 35958
offences 35947
Add.@@ 35927
Local 35918
Industrial 35889
powers 35881
co 35880
Bi@@ 35866
weather 35866
stood 35849
inspection 35842
thank 35837
sw@@ 35825
2-@@ 35797
J 35797
Army 35764
remote 35763
81 35755
Foundation 35754
pages 35753
88 35749
dr@@ 35744
middle 35721
sc@@ 35714
sold 35698
restrictions 35697
war@@ 35671
Belgium 35642
Washington 35621
600 35618
ung 35598
ls 35584
Jordan 35581
highlighted 35577
Life 35554
Through 35550
strongly 35540
fi@@ 35514
ys 35505
79 35502
har@@ 35469
chain 35468
Grand 35445
feet 35439
Objective 35393
dispute 35391
becomes 35386
Financing 35381
tic@@ 35377
ill@@ 35375
92 35373
Peacekeeping 35355
objects 35340
intellectual 35326
Good 35325
era 35318
st 35301
cur@@ 35279
College 35278
ties 35266
win 35257
army 35250
coffee 35249
ze 35210
experienced 35204
remember 35192
af@@ 35174
stone 35162
playing 35129
migrants 35126
du@@ 35116
ring 35114
ats 35103
Bid 35089
mark 35072
south 35049
Videos 35044
urges 35041
considering 35009
attend 35008
97 35005
iron 34997
advisory 34993
thy 34992
Portugal 34979
investigations 34977
Internal 34941
serving 34941
Based 34940
determination 34938
go@@ 34911
Main 34900
Professional 34900
populations 34900
examples 34880
techniques 34871
EM@@ 34862
Ministers 34859
finally 34846
Assistant 34818
Who 34808
Before 34789
plants 34773
post-@@ 34771
Ferry 34763
91 34753
format 34752
judge 34743
Letter 34733
Bu@@ 34724
q@@ 34719
ty@@ 34714
student 34707
30@@ 34704
Her@@ 34703
3D 34684
California 34673
bear 34671
controls 34666
university 34662
den@@ 34639
UR@@ 34636
panel 34627
industries 34625
investments 34600
Model 34592
Over 34587
rose 34586
Mal@@ 34567
Min@@ 34545
TA@@ 34532
Saudi 34512
Check 34448
Additional 34446
gl@@ 34442
ratification 34431
conditioning 34430
ler 34429
96 34409
o-@@ 34397
north 34396
defence 34392
considerable 34374
93 34373
regularly 34341
complaints 34333
Ethiopia 34298
decrease 34290
Monday 34289
increases 34282
functioning 34269
Croatia 34266
ships 34266
clients 34259
Kenya 34255
considers 34250
gone 34249
proportion 34240
ality 34222
Used 34221
command 34209
looks 34190
territorial 34189
Time 34181
minorities 34159
sta@@ 34158
ches 34151
Church 34141
Burundi 34124
ou 34121
enabling 34098
diplomatic 34096
visitors 34093
sovereignty 34065
Sri 34036
cancer 34024
AS 34012
preventing 34003
abroad 33995
dry 33985
84 33982
input 33982
launch 33962
St. 33955
mode 33954
minority 33934
Click 33932
den 33897
cell 33883
kitchen 33880
chance 33870
comfortable 33866
pa@@ 33866
Club 33864
businesses 33854
engine 33847
La@@ 33834
piece 33831
operate 33826
license 33816
Denmark 33797
gain 33795
Azerbaijan 33791
sell 33766
Military 33763
carbon 33762
,000 33759
targeted 33753
chief 33751
So@@ 33745
helps 33740
aims 33738
82 33727
Application 33711
arrival 33709
ents 33701
ai@@ 33669
PDF 33657
Country 33652
Yugoslavia 33638
Friday 33631
extra 33609
extension 33582
toward 33569
Small 33567
League 33543
package 33542
Thank 33538
picture 33533
cells 33482
explore 33481
pen@@ 33478
automatically 33469
Z 33425
40@@ 33422
28@@ 33420
expand 33410
ars 33402
lands 33381
EN 33377
ow@@ 33364
penalty 33360
myself 33358
flight 33350
wind 33347
Video 33344
bringing 33339
ment@@ 33333
Top 33325
outer 33316
ms 33304
ind@@ 33297
File 33270
Royal 33270
sentence 33238
productive 33234
Myanmar 33229
continuous 33222
OR@@ 33218
sensitive 33216
94 33205
87 33192
ra 33190
visited 33184
believes 33177
ver 33167
• 33157
lies 33153
grow 33151
Sa@@ 33133
mouth 33131
operators 33118
.. 33107
neither 33096
subsidiary 33095
sun 33067
Côte 33057
tree 33042
belief 33023
programming 33023
norms 32993
soldiers 32982
transactions 32955
allegations 32946
pres@@ 32938
recommend 32937
realization 32909
Change 32875
players 32869
Every 32845
multi-@@ 32836
ID 32826
ferries 32821
Young 32804
ahead 32788
Bel@@ 32787
successfully 32779
male 32770
severe 32763
comment 32757
letters 32751
Indigenous 32748
Go@@ 32744
Pe@@ 32736
dec@@ 32722
mer@@ 32714
Ste@@ 32712
frame 32711
convention 32706
bearing 32703
800 32699
Green 32696
resolve 32689
huge 32677
sion 32673
suggestions 32669
treated 32655
victim 32650
Summary 32632
Cal@@ 32621
Des@@ 32616
Humanitarian 32609
England 32596
ste@@ 32595
Province 32590
combination 32575
download 32575
Decides 32569
COP 32564
ba 32559
metal 32529
White 32523
Italian 32512
protecting 32512
breakfast 32508
portion 32505
commission 32481
Open 32468
correct 32459
ff@@ 32448
import 32444
Hu@@ 32441
tan@@ 32439
fixed 32420
Art 32417
electoral 32414
demands 32409
Peru 32405
nationality 32394
figures 32392
Bangladesh 32390
occur 32377
ki 32368
Costa 32366
distributed 32346
enjoyment 32342
Romania 32336
healthy 32333
binding 32332
tourism 32317
Team 32316
24@@ 32283
Algeria 32270
Southern 32256
governing 32251
convened 32246
EC@@ 32244
married 32244
Monitoring 32243
load 32219
AC 32215
Template 32215
allowing 32204
expanded 32182
aw@@ 32178
Rule 32169
ut@@ 32164
expenditures 32155
savings 32123
depending 32114
thereby 32101
FOR 32088
Semiconductor 32085
ery 32081
raising 32079
89 32077
Gaza 32071
scheduled 32070
brother 32041
principal 32029
managers 32027
Universal 32024
elimination 32018
Map 32010
preparing 32006
error 32002
Three 31999
register 31999
ization 31970
hit 31947
transferred 31933
Resort 31923
drawn 31896
suffering 31885
ru@@ 31881
5,@@ 31868
SA@@ 31836
wrote 31836
ving 31818
listening 31817
tw@@ 31816
directed 31812
represents 31789
meters 31767
southern 31762
Add 31758
happened 31756
4,@@ 31754
metres 31739
Jo@@ 31701
achievements 31686
wishes 31685
reserves 31678
Usage 31673
IL@@ 31666
sustained 31660
19@@ 31656
favorite 31656
Us 31622
decline 31621
Du@@ 31599
i.e. 31595
We@@ 31576
helping 31554
Ber@@ 31546
del@@ 31544
transmitted 31544
diversity 31539
transit 31524
pol@@ 31490
IAEA 31477
feeling 31465
limits 31461
IM@@ 31456
attached 31423
hearing 31422
chemicals 31417
internet 31404
gap 31389
flower 31371
Tri@@ 31360
translation 31346
Take 31336
cor@@ 31330
dark 31330
log 31327
Server 31322
ari@@ 31318
Uganda 31305
Dec@@ 31294
UNESCO 31287
explained 31285
facts 31284
kinds 31271
Mediterranean 31265
transparent 31242
200@@ 31234
formulation 31232
Right 31231
association 31227
--@@ 31206
e-mail 31206
covering 31205
academic 31197
Work 31182
Scientific 31178
Belarus 31171
ner 31158
foundation 31140
houses 31139
eye 31133
trained 31129
Holy 31120
investors 31120
reproductive 31120
resistance 31110
Cas@@ 31109
OP@@ 31107
jointly 31074
.jpg 31072
disasters 31057
wear 31050
Region 31041
'Ivoire 31028
Mor@@ 31014
Bur@@ 31007
ug@@ 31004
cre@@ 30997
valuable 30991
destination 30949
thematic 30935
Planning 30913
flexible 30900
greatest 30896
Soviet 30873
disputes 30870
accused 30864
11@@ 30848
Hungary 30838
a.m. 30816
dynamic 30797
officer 30791
micro@@ 30779
competitive 30777
charged 30775
speakers 30763
70@@ 30755
Non-@@ 30744
Prices 30741
legitimate 30739
exports 30712
sleep 30706
assessed 30705
mining 30693
Address 30691
ano 30691
thereof 30685
pending 30679
fit 30675
extreme 30668
committees 30667
structural 30652
decades 30635
Lanka 30626
quarter 30621
reserve 30616
dissemination 30615
architecture 30608
Greek 30603
channels 30576
investigate 30575
fe@@ 30573
27@@ 30572
teacher 30536
min@@ 30535
sive 30530
OS 30526
Avg 30514
constitutional 30511
amended 30500
fill 30496
covers 30493
offence 30486
endorsed 30480
Principles 30478
work@@ 30461
beach 30444
pursue 30441
carefully 30433
examine 30433
claimed 30429
outdoor 30423
Bay 30419
functional 30413
ong@@ 30409
Al-@@ 30387
Statistics 30381
corresponding 30367
Adoption 30365
assigned 30363
verification 30363
Olympic 30349
atmosphere 30345
ry 30341
boys 30338
Korean 30337
relative 30336
productivity 30332
er-@@ 30302
anti@@ 30288
measurement 30287
ist@@ 30265
suffered 30249
á@@ 30246
eg@@ 30242
fulfil 30235
equitable 30234
sustainability 30232
lived 30231
initiated 30228
substances 30226
ha 30202
ft 30177
mortality 30170
largely 30152
Have 30148
Ag@@ 30140
indeed 30140
reconciliation 30131
Pr@@ 30118
pollution 30109
Platform 30084
cas@@ 30079
tea 30071
fighting 30062
greatly 30056
subprogramme 30056
installation 30055
lay 30055
1st 30050
reintegration 30049
publications 30048
shape 30047
amendments 30045
interface 30039
© 30002
ica 30001
sole 29983
hospital 29969
ns 29963
non-proliferation 29957
photo 29926
Ros@@ 29924
Medical 29895
Be 29892
commissions 29891
requesting 29887
Dr. 29877
ation@@ 29876
encouraging 29869
posted 29867
oversight 29860
Decade 29856
hundred 29849
sa@@ 29846
PHP 29841
improvements 29832
providers 29820
Activities 29816
trip 29816
gets 29801
her@@ 29797
blue 29786
intention 29785
au 29775
daughter 29771
ning 29766
federal 29755
routes 29738
C-@@ 29733
Ge@@ 29731
Location 29701
western 29683
ure 29681
removed 29669
Cambodia 29651
favour 29649
Governing 29640
internally 29639
oral 29639
bridge 29628
90@@ 29622
paras 29610
Im@@ 29565
tics 29555
asset 29553
un 29545
indicates 29542
acceptance 29526
topics 29525
Movement 29514
arrest 29508
gi@@ 29504
tests 29485
fresh 29479
river 29459
6,@@ 29453
Forms 29452
iii 29451
ET@@ 29447
que 29440
t.@@ 29439
Si@@ 29421
ip@@ 29405
tro@@ 29401
speech 29382
pain 29381
flexibility 29379
Em@@ 29348
Initiative 29343
Developing 29339
pu@@ 29330
arrested 29319
Darfur 29316
SP@@ 29312
nice 29303
Promotion 29290
frameworks 29284
ned 29266
Lebanese 29265
systematic 29256
Expert 29236
shop 29235
ing-@@ 29207
laid 29197
enemy 29196
ky 29186
allocation 29168
Res@@ 29140
pattern 29140
papers 29137
studied 29133
globalization 29128
ial 29126
expect 29113
impacts 29113
air@@ 29111
Drugs 29097
manager 29097
BC 29078
1989 29076
ti 29076
facility 29055
alize 29054
valid 29038
pilot 29033
sections 29031
ess@@ 29014
Access 29012
suppliers 29004
Serbia 28998
disability 28992
Finance 28974
parking 28967
bottom 28952
Guatemala 28937
10.@@ 28932
AL 28930
humanity 28920
well-@@ 28904
transmission 28894
browser 28888
collected 28877
telephone 28872
contributing 28865
owned 28840
4-@@ 28836
concluding 28830
thanks 28817
tion@@ 28817
Forces 28813
customs 28802
Independent 28800
super@@ 28789
Having 28780
warning 28776
properly 28764
ratified 28756
west 28748
fishing 28747
dangerous 28725
ANY 28715
acquisition 28702
equity 28702
Sam@@ 28699
Paul 28696
certainly 28690
ane 28688
Square 28682
ize 28681
divided 28677
animals 28673
HTML 28659
Personal 28630
< 28629
cars 28627
qualified 28619
ber 28612
Chairperson 28611
sur@@ 28609
ens@@ 28608
prisoners 28607
row 28603
grave 28583
consumer 28582
founded 28571
replaced 28559
foot 28558
incidents 28556
ID@@ 28555
Sha@@ 28552
geographical 28552
identifying 28552
thousand 28546
homes 28545
roles 28545
sixth 28536
client 28535
unemployment 28528
29@@ 28521
ce 28513
ON@@ 28500
ts@@ 28499
ly@@ 28496
EC 28494
AN 28486
preliminary 28478
filled 28474
websites 28451
decade 28419
thou 28409
SM@@ 28382
calling 28365
coordinate 28352
Learn 28340
ICT 28293
amendment 28286
shot 28270
SH@@ 28266
consists 28265
wait 28247
permit 28238
rapidly 28233
perhaps 28228
sl@@ 28225
prosecution 28221
alized 28218
Ben@@ 28217
Nepal 28217
residents 28209
ah@@ 28201
ILO 28193
complainant 28179
conformity 28177
ey 28177
sister 28170
allocated 28166
breach 28149
ball 28116
spring 28116
formation 28115
lose 28107
ged 28103
affecting 28102
relationships 28098
prohibited 28068
realize 28065
acy 28058
province 28058
adjustment 28044
sing 28023
IA 28019
Er@@ 28001
CS@@ 27996
obstacles 27982
machines 27979
UNODC 27977
monthly 27975
Suites 27971
mines 27953
Prosecutor 27924
Corporation 27914
replace 27913
solid 27910
WHO 27909
sat 27909
director 27908
subsequently 27905
ast 27896
Bal@@ 27893
spend 27890
arm 27881
Noting 27871
finding 27858
permitted 27845
ching 27844
cards 27842
disabled 27839
Arabia 27833
Ecuador 27830
wants 27829
Strategic 27802
Euro@@ 27797
smaller 27789
handling 27775
adaptation 27755
governmental 27749
Vi@@ 27747
Christian 27737
arts 27732
Mu@@ 27730
agent 27726
GDP 27725
ses 27714
Ta@@ 27713
ran 27712
Welcome 27710
modify 27709
hoped 27705
touch 27693
FAO 27686
e.@@ 27680
reconstruction 27675
scheme 27674
Media 27652
button 27647
Climate 27646
removal 27642
doubt 27634
150 27631
talking 27626
aries 27625
desire 27625
execution 27621
nearby 27608
ering 27605
Resolution 27603
damages 27603
northern 27602
budgetary 27594
Environmental 27584
facilitating 27578
schedule 27575
ordered 27569
periods 27569
tur@@ 27566
overcome 27555
mostly 27554
eradication 27550
messages 27538
guarantees 27536
di 27534
om 27522
Refugees 27515
drink 27514
cu@@ 27509
Pan@@ 27504
Pol@@ 27504
Yet 27499
route 27496
ess 27481
award 27470
supervision 27461
Lake 27459
explain 27454
frequency 27454
9.@@ 27449
Series 27447
signal 27433
employed 27432
hand@@ 27430
gate 27418
finished 27416
examined 27408
CA 27407
Partnership 27407
warm 27407
ama 27400
ATION 27399
burden 27381
couple 27372
empowerment 27362
Tuesday 27358
authors 27356
understood 27349
tures 27336
ending 27334
ens 27334
Integrated 27331
residence 27322
driving 27316
ide 27314
equivalent 27303
yuan 27302
Communications 27301
composition 27291
wa@@ 27284
lin@@ 27282
Pen@@ 27271
advertising 27270
violated 27259
machinery 27254
professionals 27251
seriously 27241
Venezuela 27235
evening 27217
lie 27210
welfare 27206
Natural 27204
baby 27197
drafting 27197
Guide 27173
cutting 27167
Comprehensive 27164
Notes 27163
slow 27149
seat 27134
assembly 27132
� 27108
balanced 27099
owner 27091
2nd 27083
reply 27076
7.@@ 27073
Ru@@ 27066
ash@@ 27056
responded 27051
Pa@@ 27048
ko 27040
Taking 27037
racism 27034
destroyed 27031
ancient 27027
mainstreaming 27025
introduce 27020
Official 27014
refers 27014
Iraqi 27012
ada 27009
Mer@@ 26996
accuracy 26991
700 26988
soil 26987
opposition 26969
rising 26959
CE@@ 26955
capable 26953
showing 26952
Thursday 26944
print 26938
waiting 26934
secret 26928
ping 26918
index 26917
Mil@@ 26911
» 26909
Turkish 26899
ny 26895
pleased 26893
Among 26892
ao 26889
Travel 26879
-related 26871
cloud 26864
campaigns 26862
tons 26841
detail 26840
^ 26839
ological 26835
Gar@@ 26828
travelers 26812
che@@ 26805
WTO 26782
trees 26781
23@@ 26780
ass 26768
spending 26768
Rio 26767
talks 26767
generated 26763
Can@@ 26757
injury 26746
medium 26741
8-@@ 26740
multi@@ 26733
VII 26728
ton@@ 26726
els 26695
anniversary 26687
conventional 26683
frequently 26647
Pal@@ 26646
ata 26628
east 26625
Email 26612
Cha@@ 26609
gen@@ 26598
Peter 26589
refresh 26569
atic 26554
Rica 26546
1988 26545
bro@@ 26542
Kazakhstan 26529
automatic 26524
Trans@@ 26521
ie@@ 26509
household 26506
To@@ 26499
tel 26497
quote 26481
arrived 26479
deposit 26476
Val@@ 26473
Given 26466
Investment 26463
composed 26460
Angola 26457
7-@@ 26444
Manager 26442
Order 26431
bill 26429
contrary 26407
biological 26404
copyright 26387
Operation 26339
cleaning 26325
truly 26323
ann@@ 26318
Hall 26301
Pi@@ 26294
harm 26281
wealth 26275
Youth 26267
Wednesday 26264
constraints 26258
Town 26257
Budget 26232
utilization 26229
-up 26226
meant 26191
ash 26189
ov@@ 26189
division 26180
sed 26175
ville 26170
cast 26160
Black 26151
Spirit 26137
Bangkok 26124
Library 26106
constitutes 26106
Real 26105
8,@@ 26099
Property 26097
eventually 26097
ear@@ 26096
Academy 26093
TM 26093
Head 26089
dollar 26083
EL@@ 26079
vel@@ 26069
Mc@@ 26067
recalled 26063
if@@ 26056
back@@ 26051
quick 26050
CA@@ 26040
college 26026
Agriculture 26006
Is@@ 26006
pr@@ 26002
8.@@ 25997
labor 25994
ger 25973
behavior 25965
Statement 25964
remedies 25948
vulnerability 25944
ham 25936
Task 25933
firms 25927
Kar@@ 25915
doctor 25912
vis@@ 25888
drawing 25887
sight 25882
operator 25879
fiscal 25861
newly 25831
are@@ 25828
visiting 25822
parameters 25818
block 25811
settings 25808
copies 25804
Sta@@ 25803
Systems 25792
instructions 25792
De 25780
NE@@ 25773
oriented 25771
handle 25768
CR@@ 25749
bas@@ 25745
impossible 25729
installed 25721
Canadian 25709
Account 25701
Like 25692
sions 25692
easier 25691
comfort 25688
happen 25675
Cam@@ 25669
isn 25660
incorporated 25645
Australian 25642
9,@@ 25639
dignity 25634
biggest 25628
driven 25618
Te@@ 25610
seminars 25601
ines 25595
herself 25582
PL@@ 25581
fr@@ 25579
one-@@ 25577
constructive 25575
beat 25558
patterns 25551
Fi@@ 25550
constant 25544
default 25538
migrant 25536
conservation 25533
mal@@ 25526
stages 25519
k-@@ 25514
pi@@ 25512
TS 25507
Transport 25502
ell@@ 25501
History 25491
sanitation 25482
willing 25480
Ri@@ 25473
Process 25472
producing 25468
del 25452
tend 25443
fun 25434
guest 25421
integrate 25418
Accordingly 25413
Calls 25407
imprisonment 25406
marked 25393
Engineering 25371
travellers 25366
holiday 25358
acknowledge 25356
intelligence 25353
hu@@ 25352
focusing 25347
fee 25342
missing 25338
interim 25332
proof 25322
involve 25320
900 25319
Bas@@ 25317
weak 25299
spot 25293
Quick 25290
eng@@ 25283
low-@@ 25280
demonstrated 25279
7,@@ 25248
fitness 25247
ratio 25244
advantages 25229
RO@@ 25227
ban 25224
da@@ 25221
Shenzhen 25219
ki@@ 25204
por@@ 25203
root 25199
fu@@ 25196
promoted 25193
club 25182
safeguards 25180
Subcommittee 25167
v. 25165
eastern 25164
branch 25161
Measures 25160
120 25158
sub-@@ 25150
observer 25142
bur@@ 25137
lists 25132
IG@@ 25122
CEDAW 25114
medicine 25113
Limited 25107
Uruguay 25100
Treatment 25085
Located 25084
animal 25080
interesting 25073
Peoples 25060
bul@@ 25053
settlements 25052
Tunisia 25034
vast 25030
Land 25024
Next 25018
motion 25017
union 25007
plastic 24999
focal 24995
ances 24991
va 24991
ans@@ 24988
brain 24988
ched 24959
Blue 24957
revenue 24956
Rec@@ 24955
representing 24946
Go 24941
preventive 24940
water@@ 24940
tering 24936
repair 24934
ved 24930
deaths 24918
ba@@ 24917
io 24900
Eritrea 24887
05 24886
grade 24883
Bulgaria 24877
limitation 24870
reflects 24869
app 24855
alism 24852
legally 24849
Skip 24846
mountain 24841
mid-@@ 24832
Garden 24816
certificate 24814
evaluate 24814
band 24813
concerts 24811
Love 24810
interaction 24810
danger 24778
preparatory 24760
lift 24753
associations 24736
ely 24734
George 24730
izing 24712
deemed 24702
universities 24692
discovered 24691
cluster 24676
.wikipedia.org 24673
segment 24672
dream 24668
widespread 24663
guaranteed 24662
Ho@@ 24659
Armenia 24653
drop 24652
moral 24647
plays 24647
camera 24643
C.2 24642
Market 24637
top@@ 24623
WiFi 24622
Indeed 24615
applies 24615
proved 24608
Make 24604
Cross 24603
Villa 24602
ple@@ 24596
posed 24593
lasting 24591
reiterated 24582
Analysis 24577
hel@@ 24571
Salvador 24570
ali@@ 24568
noting 24568
permission 24568
ordinary 24567
arbitration 24565
song 24565
.2 24561
library 24549
Look 24544
channel 24537
rel@@ 24515
classes 24502
fac@@ 24488
restaurants 24483
CN.4 24482
historic 24481
mu@@ 24476
ming 24465
pas@@ 24458
yl@@ 24455
entering 24454
self-determination 24453
ot 24447
Ad 24442
edge 24435
premises 24435
sort 24431
owners 24430
Ha@@ 24429
occasion 24426
tered 24421
organize 24416
IR@@ 24412
ised 24398
movements 24398
exclusive 24396
deployed 24395
arbitrary 24392
hydro@@ 24392
Ke@@ 24389
E. 24384
head@@ 24378
resident 24338
strict 24338
Fr@@ 24330
TMs 24326
Santa 24324
Christmas 24322
shares 24314
define 24311
Ocean 24303
broader 24300
to-@@ 24279
soft 24277
wine 24272
Senegal 24267
sen@@ 24266
advocacy 24258
chosen 24257
aff@@ 24248
gar@@ 24233
proliferation 24232
sal@@ 24226
6-@@ 24219
26@@ 24196
Ra@@ 24180
ick@@ 24171
closer 24158
Pl@@ 24151
star@@ 24151
Which 24150
Guest 24146
electricity 24134
inter-@@ 24122
farmers 24115
Live 24109
33@@ 24107
Recognizing 24107
chair 24104
detection 24104
sol@@ 24103
Quality 24101
dog 24099
ders 24093
Cr@@ 24077
shipping 24070
rejected 24062
0.1 24055
perpetrators 24040
non 24035
PA 24024
add@@ 24021
millions 24015
consultative 24006
reaching 24003
exception 24001
printing 23977
74@@ 23971
intervention 23970
Torture 23968
organ 23965
stopped 23964
don@@ 23956
voting 23956
interactive 23954
contents 23946
transmit 23943
depends 23938
serves 23929
Tanzania 23928
assisting 23927
none 23922
grants 23917
sha@@ 23917
invitation 23905
configuration 23899
bel@@ 23895
CC@@ 23893
Nairobi 23890
Coordinator 23875
ani 23860
subjected 23843
Ap@@ 23833
hundreds 23809
vo@@ 23809
walking 23800
Game 23798
realized 23793
ick 23789
solve 23785
ous@@ 23781
Strengthening 23769
Moscow 23762
Representatives 23752
hoc 23751
Mag@@ 23750
sin 23749
clothes 23748
South-South 23743
broken 23734
outlined 23733
societies 23732
appearance 23727
suggest 23727
Budgetary 23720
OS@@ 23719
answered 23706
complaint 23704
incurred 23704
shower 23697
loans 23693
08 23689
Do@@ 23688
awarded 23678
an-@@ 23670
conducting 23670
ye@@ 23666
Source 23663
NPT 23655
ational 23641
Kyoto 23629
thee 23629
Mobile 23614
exists 23609
ably 23598
C.3 23591
na@@ 23591
salary 23587
inventory 23582
ends 23574
gre@@ 23573
driver 23567
managing 23563
Ghana 23561
transaction 23561
Last.fm 23559
mandated 23541
rain 23529
.NET 23503
Hostel 23503
substance 23499
virus 23496
Preparatory 23495
berg 23495
stocks 23494
duration 23485
methodology 23475
regardless 23475
regards 23448
exactly 23438
1,000 23434
Violence 23434
ging 23429
Informal 23426
Press 23420
ports 23418
winter 23418
ja 23396
Star 23393
ths 23391
Slovenia 23389
pieces 23389
afraid 23377
sons 23375
Avenue 23373
Increased 23368
trademark 23366
holds 23353
San@@ 23351
AG@@ 23343
Bra@@ 23342
mail 23336
Category 23329
acquired 23324
whatever 23318
ue 23313
At@@ 23290
patient 23257
judiciary 23246
gaps 23243
Within 23242
land@@ 23237
regarded 23237
resumed 23231
convenient 23223
ges 23209
witnesses 23203
ff 23183
aspect 23175
signs 23169
Ser@@ 23156
furniture 23153
Sur@@ 23152
hardware 23148
EX@@ 23146
STMicroelectronics 23146
Will 23143
consumers 23142
Guangzhou 23139
ades 23136
Did 23133
12.@@ 23117
false 23109
stats 23090
plus 23076
mer 23063
disposal 23062
audio 23056
zones 23054
cross 23046
Qatar 23044
AT 23040
couldn 23037
deeply 23033
Father 23025
IF@@ 23023
applying 23020
ther@@ 23006
camp 23004
Man 23000
filed 23000
Big 22999
wider 22989
Standing 22983
detained 22983
Cape 22977
SE@@ 22967
presidential 22964
drew 22945
estate 22935
Express 22925
mat@@ 22923
pos@@ 22919
faster 22912
dependent 22909
09 22906
Por@@ 22904
beauty 22900
seventh 22899
recognizes 22870
Annual 22867
3rd 22862
presents 22862
staffing 22860
ori@@ 22855
budgets 22841
E-@@ 22836
arrangement 22833
St 22828
Nevertheless 22818
derived 22818
atory 22807
Paragraph 22806
raw 22806
ets 22801
pension 22801
phenomenon 22801
Date 22800
protocol 22796
HRC 22795
za 22794
Lithuania 22792
Mechanism 22787
ot@@ 22776
dealt 22772
A-@@ 22758
gradually 22727
nationals 22723
iti@@ 22722
wi@@ 22721
electrical 22715
Award 22710
kill 22696
Ram@@ 22693
ol 22689
Breakfast 22683
Mac@@ 22680
gains 22679
shift 22679
layer 22677
boat 22676
OIOS 22662
Mali 22656
ll 22651
selling 22651
makers 22650
Statute 22649
鈥@@ 22645
kes 22631
dining 22628
inflation 22617
fruit 22616
capability 22614
LDCs 22605
bil@@ 22602
patent 22593
ü@@ 22591
wireless 22590
Pres@@ 22586
competence 22573
Tra@@ 22568
Bill 22564
Study 22564
formulated 22560
q 22559
James 22557
socio-economic 22552
situated 22551
250 22546
TH@@ 22544
coordinating 22540
Los 22537
loved 22530
sport 22530
signing 22527
Apple 22523
wished 22518
Emirates 22515
tables 22507
significance 22499
,0@@ 22496
forums 22492
equally 22490
Mat@@ 22489
roads 22478
Fe@@ 22472
fashion 22464
AF@@ 22460
paying 22453
High-level 22449
gained 22449
profit 22448
Music 22445
onboard 22442
soul 22423
incident 22409
contemporary 22401
seminar 22391
entirely 22390
flat-screen 22384
brings 22374
ino 22363
Roman 22346
Char@@ 22343
scene 22339
manufacture 22334
Fl@@ 22332
Key 22332
Berlin 22331
subjects 22326
Basic 22324
knows 22324
battle 22323
Mongolia 22314
mechanical 22312
Car 22311
integral 22306
withdrawal 22299
ire 22291
Bolivia 22258
directors 22251
twice 22242
ple 22233
P-3 22229
ED@@ 22217
im 22199
enables 22196
reaffirmed 22195
camps 22184
provinces 22171
P-4 22169
Ren@@ 22162
hal@@ 22161
foster 22160
explanation 22148
zed 22138
leads 22136
sit 22130
C.1 22123
Observer 22119
begun 22115
Equality 22111
Without 22100
ily 22095
Dr@@ 22092
ces 22089
adults 22082
barriers 22082
borders 22075
factory 22065
tips 22058
impunity 22051
ban@@ 22049
ish@@ 22048
noise 22043
Tokyo 22042
prove 22036
demonstrate 22031
revealed 22011
rape 22006
Ed@@ 22004
unlikely 22002
02 21987
journey 21981
headed 21967
val@@ 21958
char@@ 21940
liberty 21933
receipt 21923
Michael 21918
V. 21912
estimate 21907
gift 21899
forests 21894
oo@@ 21887
sorry 21884
waters 21882
yesterday 21882
rock 21879
ov 21860
LED 21848
finds 21848
sum 21847
Back 21842
characters 21840
ret@@ 21840
Capital 21838
Ko@@ 21834
accident 21827
separation 21821
Exchange 21817
Sun 21804
refused 21800
鈥 21799
Him 21798
coastal 21798
devoted 21795
expanding 21777
Light 21771
motor 21761
Armed 21754
ninth 21754
overseas 21752
viewed 21750
acknowledged 21748
ile 21743
solidarity 21733
Ministerial 21716
LE@@ 21705
stands 21695
mobilization 21693
overview 21692
requiring 21689
prostitution 21688
bright 21687
pan@@ 21685
termination 21676
transformation 21676
counter 21675
sample 21668
sitting 21668
notification 21654
ca 21651
Bed 21648
hom@@ 21643
minor 21640
solar 21622
Mary 21621
relevance 21610
exposure 21600
organic 21589
ford 21588
modalities 21580
struggle 21579
Machine 21574
od@@ 21572
Jamaica 21566
404 21555
walked 21554
certification 21551
Yemen 21548
concepts 21541
tomorrow 21539
Production 21527
banking 21522
Malta 21513
scientists 21513
violent 21509
Original 21504
Mauritius 21497
football 21494
Albania 21488
Slovakia 21477
pick 21474
suite 21473
Le 21469
votes 21450
acceptable 21448
contacts 21448
insufficient 21447
Guidelines 21440
treat 21435
manual 21427
Refresh 21417
ped 21413
coherence 21381
originally 21378
cal@@ 21364
Gen@@ 21339
Bor@@ 21334
saved 21334
lawyers 21331
Montenegro 21329
Manufacturer 21324
commit 21322
preparations 21310
vary 21310
100@@ 21302
attempts 21300
CP@@ 21291
operated 21288
bre@@ 21282
Panama 21262
Sub@@ 21260
normally 21252
Upon 21249
tom@@ 21249
Using 21247
Baltic 21243
virtual 21238
fin@@ 21236
enjoyed 21229
S. 21228
Str@@ 21214
Marketing 21210
hy@@ 21207
ain@@ 21202
Mi@@ 21199
ide@@ 21198
yn@@ 21196
stronger 21191
discretion 21189
dinner 21185
Hel@@ 21184
enabled 21180
Mas@@ 21179
poly@@ 21177
sailing 21172
NOT 21161
closing 21160
saving 21159
hi 21158
Senior 21151
adverse 21147
movie 21139
C.5 21133
acid 21130
sec@@ 21130
ingly 21124
drinking 21122
causing 21112
Post 21105
CL@@ 21104
wasn 21086
slightly 21082
bra@@ 21079
flat 21074
ture 21074
dimensions 21066
Four 21065
03 21047
parent 21024
parallel 21011
menu 21007
marks 21006
ine@@ 21000
leaves 20994
Del@@ 20972
Program 20966
packaging 20966
behaviour 20951
commodity 20950
swimming 20949
cul@@ 20940
p.m 20930
afternoon 20928
measuring 20922
Related 20919
researchers 20919
self 20918
themes 20905
count 20898
ASP.NET 20897
psychological 20886
Barcelona 20882
ase 20882
ministerial 20880
storm 20879
Mrs. 20861
proceed 20859
feedback 20857
Swiss 20856
connect 20856
contrast 20852
unity 20846
undertaking 20843
Nor@@ 20838
ath@@ 20836
Nicaragua 20834
bio@@ 20832
Queen 20831
heritage 20831
XHamster 20828
versions 20827
conversion 20824
coal 20821
equ@@ 20820
suffer 20815
asylum 20807
accompanied 20798
hidden 20795
households 20795
med 20786
well-being 20783
denied 20768
pace 20768
Up 20759
addresses 20756
Bre@@ 20753
Professor 20749
deliberations 20742
Hol@@ 20740
Chemical 20732
Luxembourg 20730
aging 20726
corner 20707
Palace 20706
expectations 20704
replacement 20700
lu@@ 20694
ular 20674
Customer 20673
AB@@ 20669
amenities 20669
DP 20668
07 20667
Exporter 20667
Ji@@ 20664
Equipment 20663
counsel 20663
Come 20650
1986 20647
~ 20644
a.@@ 20630
maternal 20628
reliability 20626
Hoc 20621
Sunday 20621
5,000 20616
Double 20601
install 20596
Libyan 20594
Assessment 20593
pleasure 20584
UNOPS 20583
brief 20582
transfers 20579
Employment 20577
kids 20573
quiet 20569
www.@@ 20565
OM@@ 20559
vocational 20555
ail@@ 20550
harmful 20549
em 20548
Construction 20542
plane 20538
eligible 20537
Cap@@ 20536
Tor@@ 20527
conclude 20526
201@@ 20519
politics 20519
straight 20516
annually 20512
i-@@ 20509
Defence 20507
Or 20503
determining 20498
NGO 20494
typically 20487
Session 20484
interventions 20480
adding 20476
CENTURY 20475
forget 20475
seats 20467
appeals 20466
bo 20465
degradation 20445
ara 20441
Atlantic 20432
adopting 20430
tar@@ 20429
Issues 20422
Follow-up 20421
110 20420
diverse 20420
confirmation 20418
resort 20408
Via 20407
sti@@ 20395
reaction 20388
Educational 20384
ished 20372
reg@@ 20370
lam@@ 20369
trouble 20368
Ti@@ 20366
Cl@@ 20361
Nam 20359
onto 20354
pur@@ 20346
Figure 20339
putting 20339
CD@@ 20328
Culture 20321
spiritual 20320
typical 20320
grateful 20312
revision 20311
sun@@ 20310
Macedonia 20307
belonging 20306
Apartments 20302
assisted 20300
212 20297
Sixth 20289
considerations 20283
third-party 20281
HYIP 20276
Language 20271
off@@ 20262
Sol@@ 20261
OL@@ 20240
pretty 20240
pose 20238
Enterprise 20237
incorporate 20233
fail 20230
ws 20226
Francisco 20210
Afghan 20209
conjunction 20209
06 20208
Digital 20204
IV@@ 20201
modified 20199
provider 20199
Bar 20185
ently 20182
Radio 20178
comparison 20172
wage 20171
Communication 20170
involves 20163
sa 20163
YOU 20152
surrounding 20151
commonly 20149
satisfied 20149
signature 20147
Li 20141
fa@@ 20140
negotiation 20138
advancement 20133
falling 20133
our@@ 20130
Articles 20128
Under-Secretary-General 20113
Americans 20112
Sun@@ 20111
Studies 20109
hosted 20106
holders 20066
liquid 20064
ins@@ 20059
crises 20056
coast 20049
logistics 20046
suggests 20042
municipal 20038
ourselves 20036
terminate 20028
unilateral 20027
tested 20026
tre@@ 20024
slowly 20023
zz@@ 20022
Port 20021
ously 20014
feed 20008
Between 20007
ours 20005
Wil@@ 19983
merely 19983
SA 19981
killing 19975
laser 19973
usage 19970
exchanges 19964
Rev.1 19961
massive 19960
allowance 19956
remedy 19951
listen 19950
beings 19943
Logistics 19940
grew 19926
Latvia 19925
tolerance 19924
Tu@@ 19923
turning 19913
Lesson 19912
9-@@ 19909
wonderful 19908
Je@@ 19898
ET 19897
Instead 19896
Resource 19892
witness 19891
Al 19882
1990s 19881
pers 19876
ads 19874
Cup 19868
suit 19865
ach 19858
loan 19851
Madrid 19850
Would 19848
Electronic 19842
she@@ 19841
101 19840
assume 19838
10-@@ 19837
Answers 19833
Roma 19821
defend 19818
taxes 19811
evil 19788
embargo 19786
Master 19780
measured 19779
Men 19777
din@@ 19772
Excellency 19770
P-@@ 19759
Procedure 19753
Sports 19752
A.@@ 19745
Place 19744
Dialogue 19742
class@@ 19742
LE 19738
technique 19734
necessarily 19733
down@@ 19725
han@@ 19713
tropical 19711
inadequate 19706
decides 19704
expensive 19702
fo@@ 19701
AR 19699
DC 19694
of@@ 19689
11.@@ 19686
í@@ 19680
outputs 19675
applicant 19674
36@@ 19673
transnational 19669
dic@@ 19666
ell 19665
Super@@ 19661
envisaged 19652
airspace 19648
bor@@ 19647
visible 19642
ious 19640
financed 19629
pictures 19627
smart 19619
Reaffirming 19616
manufacturers 19611
‘ 19611
Select 19608
ae 19606
railway 19606
stored 19605
Set 19599
computers 19596
Welcomes 19595
Uzbekistan 19593
autonomous 19588
restricted 19587
und@@ 19586
Cameroon 19585
tical 19584
rely 19580
ham@@ 19576
ore@@ 19574
ere 19571
radiation 19571
affordable 19565
wave 19562
Document 19552
discover 19550
alizing 19549
urge 19542
Alliance 19539
prescribed 19538
servants 19533
Times 19524
ocean 19523
heaven 19517
ken 19513
adult 19510
Reduction 19509
absolute 19507
1.2 19502
Peacebuilding 19499
UNRWA 19494
refuse 19493
SR.@@ 19486
depend 19477
designs 19475
Pas@@ 19466
two-@@ 19466
limitations 19465
Ca@@ 19455
module 19452
Vietnam 19450
Estonia 19444
squ@@ 19443
solely 19424
dropped 19420
Syria 19409
invite 19406
istic 19398
Zambia 19397
tal 19396
ium 19394
bal@@ 19393
upper 19391
shops 19386
jo@@ 19368
Current 19363
Intergovernmental 19360
caught 19358
so-called 19358
Similarly 19355
acc@@ 19334
inter-agency 19333
escape 19331
Corr.1 19318
ined 19316
restore 19316
stories 19310
Meanwhile 19294
1987 19290
Viet 19290
1980 19288
IB@@ 19288
ency 19280
runs 19275
Angeles 19274
expresses 19274
projected 19274
ser@@ 19270
Arts 19268
Fin@@ 19266
candidate 19266
seconds 19265
ace 19253
Zimbabwe 19248
seeing 19247
Overview 19245
exploration 19245
Burkina 19238
Branch 19235
Oversight 19233
maritime 19233
Auditors 19226
replied 19222
CRC 19221
Long 19220
ko@@ 19220
tional 19216
custody 19215
Guarantee 19214
continent 19210
1.5 19206
environments 19206
entrance 19199
ita 19194
mention 19194
inner 19193
Whether 19190
Sydney 19186
relate 19182
summit 19179
Sales 19174
Faso 19172
adjustments 19160
att@@ 19156
journalists 19147
resolved 19146
Android 19140
dly 19131
eighth 19129
injured 19123
year-old 19122
seeks 19121
adequately 19117
communicate 19113
000 19103
Relations 19103
ensures 19102
discharge 19101
lock 19097
accommodations 19094
wing 19094
surveys 19083
XX@@ 19077
milk 19077
Catholic 19076
1985 19063
ides 19058
circulated 19057
Son 19053
cer@@ 19048
helpful 19044
bri@@ 19037
difficulty 19020
ities 19014
Holland 19004
texts 19000
Gre@@ 18999
ini 18998
employee 18997
She@@ 18993
hor@@ 18986
enti@@ 18983
Final 18982
investigated 18968
observation 18967
county 18966
portfolio 18962
careful 18959
dress 18957
Suite 18950
clothing 18947
villages 18944
1,200 18943
Election 18942
Sar@@ 18942
AD 18940
outreach 18938
gates 18937
Ham@@ 18933
opinions 18933
F-@@ 18926
convinced 18923
planet 18922
1967 18918
Inspection 18908
faces 18908
smooth 18907
Restaurant 18904
citizen 18903
ese 18901
M. 18899
Iceland 18895
Ku@@ 18883
54@@ 18877
instances 18870
form@@ 18869
Drug 18860
interview 18859
bought 18854
strictly 18846
preferred 18844
ions 18843
Wall 18841
disclosure 18837
performing 18832
quantity 18832
initially 18829
publicly 18827
mitigation 18825
adapt 18822
Commercial 18818
de-@@ 18818
My@@ 18817
Encourages 18812
ji@@ 18809
1.1 18805
ministries 18799
describe 18791
Fu@@ 18788
sponsors 18781
schemes 18780
constantly 18766
possession 18754
Details 18748
tenth 18745
profits 18739
hopes 18728
Profile 18722
securities 18716
tle 18714
Registration 18713
accelerate 18710
Obama 18707
Commerce 18702
ain 18700
y.@@ 18692
Gold 18688
freely 18688
grown 18685
appreciate 18683
orientation 18683
Chad 18677
holder 18666
occurs 18666
cm 18659
passengers 18654
sensor 18654
Heads 18652
calendar 18648
ust 18647
creative 18642
zing 18642
underlying 18640
affiliates 18638
smile 18637
Due 18630
recognizing 18624
attitude 18617
busy 18616
officially 18610
Holiday 18599
infection 18593
Olympics 18589
bles 18586
discriminatory 18586
Arabic 18578
Pu@@ 18577
hazardous 18571
ris@@ 18565
Should 18564
Emergency 18562
Evaluation 18554
hol@@ 18539
luxury 18533
William 18529
Choose 18527
heating 18525
prohibition 18523
sheet 18516
accession 18515
Near 18514
Share 18511
Manufacturers 18510
Muslim 18498
exposed 18498
Bible 18497
ef@@ 18497
Ph@@ 18495
Wal@@ 18491
Player 18487
Moldova 18481
cooperative 18481
islands 18478
renewable 18469
Recommendation 18466
Hy@@ 18461
defense 18461
provincial 18448
Rem@@ 18447
sch@@ 18443
vessels 18442
mixed 18430
sovereign 18426
anywhere 18415
writer 18411
Tourism 18408
bag 18407
genuine 18381
hum@@ 18378
yes 18375
contractors 18373
Tom 18370
happiness 18368
you@@ 18368
invasion 18367
hunger 18362
iss@@ 18352
Doha 18350
lawyer 18350
tem@@ 18348
audience 18344
Linux 18342
1982 18337
vers 18335
onic 18331
array 18330
calculated 18328
Electric 18319
CON@@ 18313
unknown 18307
reviewing 18296
distinction 18295
briefing 18293
Trafficking 18291
Mel@@ 18286
accordingly 18279
observe 18274
inf@@ 18270
5th 18262
s.aspx 18261
monetary 18260
inputs 18259
ians 18256
cultures 18253
intolerance 18251
Dominican 18249
damaged 18239
seized 18237
Pursuant 18236
Case 18231
renewed 18231
Estate 18226
rare 18226
obvious 18224
notify 18222
three-@@ 18214
jpg 18210
displacement 18207
Bl@@ 18198
heading 18195
dimension 18187
liabilities 18184
Racial 18180
leg@@ 18173
Conventions 18167
dance 18155
aggression 18152
Bro@@ 18147
guided 18136
prospects 18129
Reports 18123
Customs 18119
Charles 18111
Conditions 18094
ST 18089
Acting 18083
Taxonomy 18083
enforced 18083
reiterates 18078
ums 18076
analytical 18067
guard 18065
Palestinians 18063
hole 18054
inhabitants 18053
ack@@ 18049
Decision 18046
Description 18033
comprising 18027
en-@@ 18027
immigration 18021
consultants 18010
fat 18010
filter 18010
USE 18008
consistently 18007
possibly 18006
consolidated 18004
105 17991
Sk@@ 17991
04 17986
Dem@@ 17983
cat@@ 17979
above-mentioned 17976
Contents 17963
.Â 17961
Common 17961
kg 17961
exceptional 17958
constituted 17957
.png 17956
arise 17955
encyclopedia 17955
til@@ 17953
Mozambique 17950
silver 17949
ceremony 17944
Urges 17941
ory 17939
precision 17934
floors 17924
MA 17922
Fre@@ 17921
Card 17916
Mac 17912
ign@@ 17908
delays 17906
tracking 17899
clinical 17898
ona 17891
gun 17889
fil@@ 17884
Hill 17883
degrees 17881
Works 17880
The@@ 17878
Vo@@ 17878
err@@ 17870
consolidation 17866
alternatives 17864
newspaper 17863
Stockholm 17854
Es@@ 17847
haven 17845
notably 17845
or-@@ 17844
reportedly 17843
OD@@ 17835
governed 17835
concentration 17833
DVD 17831
SU@@ 17813
Tur@@ 17806
tas@@ 17798
cross-@@ 17791
m2 17791
organizing 17791
suspected 17791
Progress 17782
Provisional 17769
adi@@ 17767
pal@@ 17753
fraud 17747
plate 17745
fly 17737
strike 17736
Sir 17730
ush@@ 17723
nutrition 17716
tal@@ 17712
Cu@@ 17708
fied 17708
Wang 17706
ap 17706
my@@ 17705
VIII 17704
employers 17702
ride 17694
iv 17693
Max 17690
mas@@ 17690
th-@@ 17689
SBI 17682
2.5 17681
7th 17676
-to-@@ 17673
suspension 17671
falls 17662
IX 17656
explosive 17656
anda 17653
Care 17651
flights 17637
detainees 17635
preserve 17634
displaystyle 17630
errors 17625
run@@ 17625
assumed 17623
Web@@ 17620
speaker 17619
SS@@ 17611
Constitutional 17598
anticipated 17598
Occupied 17589
publish 17588
Valley 17585
Gi@@ 17577
Chi@@ 17576
Ni@@ 17574
Rel@@ 17574
ac 17573
ISO 17570
deleted 17567
spare 17566
any@@ 17557
all-@@ 17552
mobility 17548
4th 17545
Anti-@@ 17543
ultimately 17539
taught 17537
bol@@ 17519
extradition 17517
films 17515
Developed 17511
stresses 17495
mi 17494
tradition 17491
SP 17487
2008-2009 17484
UNCITRAL 17473
sen 17472
recalls 17466
complexity 17464
recall 17461
catch 17460
environmentally 17455
hostels 17455
departure 17454
pertaining 17445
lets 17444
gathered 17441
Gal@@ 17438
precise 17437
enforce 17435
short-term 17433
Vol@@ 17432
respected 17430
Legislative 17429
reflecting 17427
mothers 17416
ron@@ 17414
Star@@ 17413
Da@@ 17405
updates 17403
doors 17394
submissions 17394
post-conflict 17391
meat 17389
accountable 17388
contractual 17387
secured 17383
tele@@ 17379
Me 17378
commodities 17374
opposite 17373
peacebuilding 17371
Chicago 17366
sir 17356
Coffee 17351
Journal 17345
loc@@ 17345
ultimate 17342
Festival 17340
Ger@@ 17337
phones 17337
Store 17335
editor 17334
literature 17332
hurt 17330
returns 17320
sentenced 17319
cap@@ 17317
voltage 17312
Mus@@ 17306
expressly 17305
Error 17302
delete 17300
evolution 17293
mercury 17292
ink 17287
tim@@ 17287
Jews 17285
tourist 17280
Standards 17279
exceed 17279
procedural 17276
8th 17275
by@@ 17274
Tajikistan 17270
necessity 17268
œ@@ 17262
generations 17261
F. 17259
hospitals 17251
Committees 17249
HD 17246
pregnant 17246
mos@@ 17244
repeated 17244
anger 17242
platforms 17241
linkages 17239
Yugoslav 17236
PC@@ 17232
ax@@ 17225
column 17223
Robert 17217
low@@ 17212
ox@@ 17211
beds 17204
Ban@@ 17201
soci@@ 17193
sil@@ 17192
walls 17184
minister 17183
mandatory 17181
lots 17178
ising 17164
Wh@@ 17163
Lines 17161
ung@@ 17159
finish 17154
Instagram 17150
Class 17144
Point 17144
unauthorized 17143
Reviews 17139
fisheries 17129
AV@@ 17122
tically 17116
neighbouring 17112
les@@ 17111
kers 17106
long@@ 17105
weapon 17104
commended 17103
judgment 17101
Benin 17089
smoking 17085
van 17083
mel@@ 17077
Consideration 17076
SD@@ 17071
sion@@ 17071
custom 17067
Zone 17064
sees 17064
ala 17059
zero 17059
heavily 17053
occasions 17053
confirm 17049
pursued 17047
Studio 17042
focuses 17035
ord@@ 17032
sel@@ 17029
switch 17028
familiar 17022
Jewish 17021
Thanks 17019
CN@@ 17017
ili@@ 17002
elderly 16999
broke 16998
empty 16997
Thomas 16991
MO@@ 16989
biodiversity 16982
windows 16982
excessive 16980
entertainment 16975
Watch 16967
passing 16962
forming 16959
template 16959
LT@@ 16956
pregnancy 16953
compulsory 16951
elsewhere 16947
refund 16930
radi@@ 16929
Admin 16927
MC@@ 16923
TO@@ 16922
ement 16921
birds 16919
argument 16917
opposed 16913
transmitting 16908
indirect 16906
advances 16905
Audit 16900
ices 16895
destroy 16888
ö@@ 16885
wan@@ 16872
Procurement 16869
Bridge 16866
spoken 16866
continuation 16865
displayed 16863
0.2 16859
Results 16859
settled 16854
pair 16845
Flash 16836
capture 16827
introducing 16827
earthquake 16821
34@@ 16820
distribute 16811
ira 16806
choices 16802
height 16798
responding 16795
gan@@ 16791
Montreal 16788
intensive 16788
Provision 16785
harassment 16782
mediation 16780
sending 16777
hall 16774
Habitat 16770
allegedly 16770
distinct 16770
Bahrain 16766
Question 16760
Solutions 16759
Major 16758
yp@@ 16758
Base 16755
Takes 16754
Joseph 16751
ware 16748
Communist 16746
Adviser 16736
proven 16735
defenders 16731
exclusion 16728
demobilization 16720
bid 16719
tube 16716
fur@@ 16715
ura 16715
boards 16711
thoughts 16705
ga 16704
trials 16695
C.@@ 16692
AM 16691
bedroom 16687
incentives 16684
mutually 16676
taste 16675
spacious 16667
listing 16663
happens 16656
usual 16652
ESCAP 16649
Dutch 16648
Intel 16644
Performance 16643
arrive 16639
EV@@ 16637
depth 16636
consequence 16635
inc@@ 16626
Prince 16613
ading 16611
SO@@ 16607
exhibition 16604
crossing 16592
apartments 16582
Applications 16581
FileHippo.com 16579
angle 16576
ity-@@ 16574
lim@@ 16573
convenience 16572
lan@@ 16572
Poverty 16565
info 16563
customary 16562
SBSTA 16558
assessing 16558
clock 16558
Former 16556
sick 16556
ose 16554
consisting 16550
ro 16550
recording 16546
Summer 16545
ammunition 16542
classification 16539
EM 16537
thr@@ 16536
Plaza 16534
Don@@ 16532
Puerto 16532
apart 16525
2010-2011 16524
gonna 16524
Regarding 16520
Restaurants 16515
Fer@@ 16507
yer 16502
Cloud 16498
Gra@@ 16494
circuit 16494
retain 16491
meaningful 16490
Basel 16488
administering 16484
Mom 16483
Modern 16482
.org 16481
ene 16479
mi@@ 16479
purchased 16479
2,000 16471
Lin@@ 16471
begins 16470
Rooms 16469
mor@@ 16469
Uni@@ 16466
le-@@ 16464
imports 16463
whenever 16463
balances 16461
111 16459
cheapest 16451
suddenly 16450
Arms 16449
Facilities 16448
Anti@@ 16443
surveillance 16443
T-@@ 16442
prosperity 16441
branches 16439
push 16439
watching 16437
ó@@ 16437
one@@ 16433
eating 16418
Does 16411
streets 16408
Mark 16406
Manual 16388
TM@@ 16388
Spa 16385
studying 16383
transitional 16380
Delegations 16376
worry 16376
Copyright 16370
native 16367
Consequently 16366
tric@@ 16365
Adobe 16363
indicator 16359
restructuring 16359
clearance 16357
promptly 16353
attractions 16341
lighting 16333
Survey 16329
9th 16328
Besides 16328
relates 16328
gen 16326
Sex 16325
leisure 16325
repatriation 16318
ben@@ 16316
formulate 16314
ari 16312
dering 16310
separated 16308
102 16305
Tax 16301
graphics 16301
evaluations 16300
threatened 16298
towns 16297
bling 16296
coherent 16291
Cur@@ 16289
Toilet 16287
ole 16286
compatible 16267
ji 16264
USB 16253
acquire 16244
Ur@@ 16239
codes 16234
tank 16234
Outer 16230
asking 16230
till 16227
therapy 16226
1984 16222
commerce 16219
farm 16216
amounted 16215
tis 16215
cheaper 16214
pon@@ 16210
pulled 16209
sufficiently 16207
facilitated 16206
balcony 16205
thermal 16205
Namibia 16203
Sim@@ 16197
negotiating 16197
eng 16195
worse 16190
ali 16189
Ka@@ 16188
ack 16182
Honduras 16181
venture 16181
Insurance 16173
bing 16172
Florida 16168
0-@@ 16166
Tar@@ 16157
warrant 16157
Marine 16153
disclose 16152
pump 16150
ek 16148
Railway 16134
aya 16132
impose 16131
survival 16131
130 16116
je@@ 16114
reverse 16112
sem@@ 16105
Sil@@ 16099
icon 16082
GA 16080
classified 16080
citizenship 16071
WFP 16063
Guinea-Bissau 16061
Tro@@ 16061
stores 16056
fault 16055
wastes 16055
BR@@ 16051
,@@ 16050
wor@@ 16050
AP 16049
fired 16039
Milan 16036
inequality 16036
wouldn 16035
MA@@ 16030
Yu@@ 16024
issuance 16022
propose 16022
H.E. 16019
borne 16018
Micro@@ 16015
TS@@ 16015
horse 16012
UC@@ 15998
199@@ 15990
ease 15990
obtaining 15987
4.0.30319 15981
flag 15980
Bri@@ 15979
moon 15976
Visit 15969
score 15968
Drive 15962
colour 15952
whereas 15952
attributable 15948
tus 15948
magazine 15947
visual 15946
Paraguay 15938
ney 15936
translated 15936
Commonwealth 15932
ought 15928
1978 15927
Rom@@ 15927
Dining 15925
potentially 15921
unlawful 15921
Dar@@ 15915
Sometimes 15915
laundry 15915
awards 15914
teach 15908
zhou 15905
OECD 15902
Popular 15902
Flower 15896
ales 15895
therein 15893
Prague 15888
cher 15887
lis@@ 15884
tage 15881
gas@@ 15875
favourable 15867
parliamentary 15865
bird 15861
describes 15853
victory 15853
blog 15852
pressing 15843
album 15841
guy 15841
Though 15838
modules 15836
FA@@ 15832
Against 15830
worst 15829
Full 15826
dia 15825
battery 15822
unions 15820
Invites 15818
desired 15813
dem@@ 15811
Director-General 15809
tra@@ 15807
declined 15806
consult 15804
ow 15803
Workers 15801
producers 15799
districts 15795
Ir@@ 15786
www.un.org 15782
Statements 15780
mountains 15778
indicating 15776
BY 15775
meets 15769
Found 15767
Martin 15764
Very 15752
Sorry 15750
adjusted 15750
biennial 15743
flying 15741
sectoral 15738
reserved 15737
Experience 15733
objection 15733
terrorists 15731
competitiveness 15728
mid@@ 15728
persistent 15722
MS 15719
counter-terrorism 15715
Appeals 15714
printed 15708
maps 15705
firmly 15701
AI 15695
Migration 15694
ski 15694
offset 15689
.html 15688
illa 15688
Regulation 15684
carrier 15684
dri@@ 15681
instant 15680
2.1 15679
UT@@ 15679
suspended 15678
Sy@@ 15676
Transitional 15676
gro@@ 15675
160 15672
certified 15672
processed 15667
Five 15661
attract 15661
anc@@ 15660
abuses 15658
exit 15658
Timor-Leste 15656
ado 15653
uniform 15653
decreased 15647
incomplete 15647
arr@@ 15646
J. 15640
May@@ 15639
NO@@ 15639
ministers 15636
wages 15636
CM@@ 15633
ju@@ 15625
struck 15623
hosts 15620
OEM 15618
gender-based 15615
residential 15614
Unfortunately 15609
SC 15605
Index 15603
vacancy 15599
Suppliers 15598
safeguard 15595
Interior 15593
wise 15586
s.com 15581
retirement 15578
Vis@@ 15577
pure 15576
LO@@ 15575
cool 15575
enc@@ 15574
Empire 15573
extrabudgetary 15572
continuously 15567
ena 15563
itation 15561
conducive 15559
Ordinance 15556
wild 15553
handed 15551
Cat@@ 15550
Play 15550
authorization 15550
facilitation 15548
Organizations 15543
advised 15542
RA@@ 15540
decent 15539
Las 15538
density 15529
deprived 15529
B-@@ 15527
FC 15524
Saturday 15523
MP@@ 15521
Madagascar 15521
terrace 15511
novel 15507
centers 15504
ich 15501
ids 15501
fan 15495
emerged 15492
superior 15489
Statistical 15488
External 15486
Tibet 15486
visa 15486
bath 15482
employer 15480
Poly@@ 15471
IA@@ 15466
networking 15463
1981 15462
Tower 15461
ros@@ 15457
Far@@ 15456
ils 15456
MDGs 15451
durable 15450
2006-2007 15449
fewer 15447
algorithm 15442
judgement 15441
laboratory 15438
flu@@ 15436
Budapest 15435
characterized 15435
operative 15435
partial 15432
specify 15421
I-@@ 15419
connections 15415
prejudice 15414
drivers 15412
Register 15410
Start 15410
Ensure 15407
chart 15397
interference 15393
valve 15393
Land@@ 15389
emphasize 15385
possibilities 15383
murder 15380
thin 15377
abl@@ 15372
colleagues 15372
App 15362
formally 15355
New@@ 15354
painting 15352
Organized 15345
Na@@ 15341
protocols 15339
ony 15336
Kyrgyzstan 15334
Tre@@ 15325
Exhibition 15321
duc@@ 15319
enormous 15315
invest 15314
mag@@ 15314
TA 15310
BO@@ 15309
Technologies 15308
Disabilities 15307
invites 15301
delayed 15300
IL 15296
Photo 15295
ays 15295
yard 15290
prime 15288
highlight 15286
constructed 15284
long-@@ 15284
CF@@ 15281
esti@@ 15279
ij@@ 15279
Body 15273
worker 15265
Gulf 15260
revolution 15260
Brussels 15258
Bush 15254
diamond 15253
manufacturer 15253
GEF 15252
complement 15246
optional 15241
Ju@@ 15239
humans 15237
103 15235
Parking 15235
discipline 15232
returning 15232
yellow 15232
executed 15230
oun@@ 15211
disk 15209
targeting 15208
tension 15208
sm@@ 15203
graphic 15202
verse 15202
Liechtenstein 15200
proceeds 15198
Least 15195
MAC 15193
existed 15193
feelings 15193
Portuguese 15189
Terrorism 15186
.The 15182
cuisine 15179
UL@@ 15176
eliminating 15169
reputation 15166
vin@@ 15165
Test 15164
municipalities 15164
1000 15160
Chat 15153
Recommendations 15146
surroundings 15145
approve 15144
acted 15143
Toronto 15131
aside 15129
Urban 15120
exercises 15120
philosophy 15118
Housing 15113
lying 15103
robust 15103
dies 15097
ners 15097
Paper 15094
Currently 15092
read@@ 15089
Protocols 15085
alities 15084
stipulated 15080
0.5 15079
lar@@ 15071
app@@ 15068
exclusively 15068
http 15066
Strip 15065
proud 15065
closure 15064
negotiated 15061
stream 15060
upgrade 15057
def@@ 15055
rap@@ 15053
restoration 15048
assurance 15043
awareness-raising 15040
separately 15040
web@@ 15026
partly 15019
Hor@@ 15017
thereto 15017
Discover 15015
inch 15015
sweet 15009
IMF 15008
engaging 15006
joy 15006
destinations 15001
cruel 14999
Greater 14997
xenophobia 14992
.... 14991
kettle 14990
Coast 14989
corporations 14989
Ash@@ 14979
emission 14964
translate 14962
cargo 14961
ette 14957
ruling 14955
conviction 14952
Microchip 14951
ams 14948
ishing 14947
ich@@ 14946
Lee 14944
UN-Habitat 14944
ric@@ 14944
occupying 14941
Syn@@ 14940
Additionally 14939
creates 14939
ee 14939
retained 14931
D-@@ 14927
experiment 14921
liaison 14921
confidential 14913
104 14907
gathering 14907
telling 14906
starts 14904
Reserve 14903
system-wide 14896
Oil 14895
Steam 14894
ze@@ 14892
Conduct 14884
mainstream 14882
wire 14881
ME@@ 14879
rating 14876
arranged 14873
1973 14865
Mount 14865
css 14865
kin@@ 14862
Swedish 14858
genetic 14856
Freedom 14853
Tutor 14853
beneficial 14853
ises 14851
mere 14846
doctors 14845
symbol 14845
dust 14844
Level 14843
mil@@ 14839
analyses 14838
Under@@ 14837
ASEAN 14829
FCCC 14827
lake 14826
1979 14824
encountered 14824
bread 14822
supposed 14821
consistency 14820
Help 14819
frequent 14809
reception 14806
bus@@ 14805
Send 14797
Air@@ 14796
Credit 14792
integrating 14792
P-5 14791
hill 14790
kilometres 14782
Sixty-@@ 14781
vol@@ 14780
Workshop 14773
Henry 14765
discount 14763
violate 14760
ening 14759
in-depth 14759
museum 14759
ome 14755
declarations 14754
relax 14753
simulation 14746
on-site 14738
iness 14735
Cos@@ 14727
at-@@ 14726
ab 14720
organisations 14720
cheap 14719
legs 14719
Wi@@ 14715
sugar 14709
enhancement 14702
supplier 14699
sharp 14697
prompt 14693
Sector 14692
momentum 14692
entr@@ 14688
1949 14687
attitudes 14683
aviation 14683
shelter 14681
shoes 14680
CC 14676
du 14673
ll@@ 14673
powder 14669
willingness 14667
forever 14666
reductions 14664
remarks 14661
Jamahiriya 14659
comprises 14657
dating 14657
Nature 14656
ard@@ 14655
10,000 14653
Tom@@ 14650
wisdom 14649
Sen@@ 14641
Reg@@ 14640
suspend 14640
Hospital 14639
teen 14636
30.00 14628
efficiently 14626
electro@@ 14626
Libya 14621
Recovery 14620
formula 14620
noticed 14620
hai 14616
ill-treatment 14616
ulation 14614
person@@ 14613
blocks 14611
Combat 14610
93@@ 14607
Moses 14607
mobilize 14607
Sec@@ 14606
excess 14605
Conclusion 14604
Melbourne 14604
sponsored 14600
lights 14598
arch@@ 14597
personally 14597
Cre@@ 14591
stayed 14590
symptoms 14588
Blog 14585
2.2 14582
appoint 14582
post@@ 14581
disseminate 14570
maintains 14568
recreational 14567
106 14563
alive 14562
sentences 14562
Ele@@ 14561
Ombudsman 14561
welcoming 14557
maybe 14541
ears 14536
ion@@ 14536
Djibouti 14534
administered 14533
adjust 14528
certificates 14524
ancy 14516
progressive 14515
ards 14511
automation 14511
S.@@ 14510
attractive 14509
zh@@ 14505
Interim 14504
cy@@ 14496
totally 14494
Non-Proliferation 14492
Participation 14492
Yeah 14491
fate 14478
Ter@@ 14477
exact 14474
Collection 14472
accommodate 14471
li 14468
inquiry 14466
Out 14465
logical 14465
winning 14462
iled 14459
fellow 14456
injuries 14455
wedding 14453
prevented 14447
temporarily 14444
Views 14434
nuclear-weapon 14432
calculation 14430
Box 14428
emphasizes 14427
aming 14422
explicitly 14422
justified 14421
pursuit 14413
Tim@@ 14412
alist 14410
partially 14407
Sahara 14404
guilty 14404
Asia-Pacific 14397
Hom@@ 14397
Voluntary 14397
variable 14397
constitution 14394
microwave 14393
brochure 14392
Penal 14390
2012-2013 14389
replies 14388
brothers 14387
108 14386
convicted 14386
counter@@ 14383
ä@@ 14377
temple 14373
ey@@ 14372
medium-term 14371
Golden 14367
narrow 14367
argued 14364
Records 14363
salt 14361
harmonization 14358
broadcast 14353
fore@@ 14352
fer@@ 14346
buying 14344
Fiji 14342
rice 14341
alists 14340
Early 14332
breaking 14332
meter 14330
Settlements 14326
extraordinary 14326
subsidies 14326
Lan@@ 14321
Mountain 14321
fulfilment 14321
references 14320
law@@ 14316
timetables 14314
EP 14313
Reform 14301
accomplishments 14298
genocide 14298
180 14297
juvenile 14295
cam@@ 14294
Biological 14292
withdraw 14291
Chang@@ 14284
marking 14280
1.3 14272
DA@@ 14270
Rate 14268
validity 14268
large-scale 14267
delivering 14264
RC 14260
recover 14259
P.@@ 14257
fying 14255
Independence 14253
Computer 14249
affects 14247
Florence 14246
chairman 14242
EA 14241
tribunal 14235
2019 14231
pleasant 14231
samples 14229
spo@@ 14228
hath 14227
severely 14227
Target 14224
elling 14214
optical 14214
ratify 14208
Miss 14204
Shi@@ 14201
Java 14199
minimize 14198
COM@@ 14191
preceding 14190
thereon 14183
younger 14181
hostel 14180
Dr 14178
sensors 14177
conversation 14176
ref@@ 14175
FDI 14172
prefer 14170
140 14167
apparent 14159
fallen 14156
tin 14156
alo@@ 14155
Mad@@ 14154
substantially 14148
2020 14147
Smith 14147
ath 14147
confident 14146
UM@@ 14138
hos@@ 14134
spa 14131
Sciences 14130
peak 14129
Film 14126
Log@@ 14126
Officers 14122
ille 14120
ops 14119
107 14117
ker@@ 14117
Hal@@ 14116
complimentary 14116
divisions 14116
G-@@ 14114
fails 14112
BlackBerry 14111
SC@@ 14109
keys 14107
literacy 14107
delegates 14104
implied 14093
submitting 14093
Opening 14090
Win@@ 14088
Facility 14087
sor@@ 14086
prisons 14080
landlocked 14077
diagnosis 14076
963-@@ 14070
prominent 14068
ola 14065
agu@@ 14062
penalties 14062
supplementary 14060
instruction 14059
attempted 14058
pm 14058
venue 14054
aring 14047
£ 14040
bars 14029
Save 14026
edition 14026
Op@@ 14024
Awards 14023
Togo 14022
Establishment 14021
holy 14019
Net@@ 14015
and-@@ 14014
rail 14014
Water@@ 14013
landscape 14013
vel 14012
Istanbul 14009
accounted 14001
chat 13999
PD@@ 13997
Word 13995
intensify 13991
PS 13989
un.org 13988
Welcoming 13982
emb@@ 13981
assignment 13973
eth@@ 13970
miss 13970
ray 13969
diet 13968
Botswana 13960
kingdom 13959
crops 13958
uck 13958
Seoul 13956
Learning 13954
complicated 13952
servers 13949
boost 13948
1983 13946
supplied 13946
lips 13943
optimal 13938
Iranian 13933
cou@@ 13932
retail 13928
inary 13927
tile 13927
Polish 13925
utility 13925
static 13924
Closed 13923
cuts 13918
erv@@ 13917
2004-2005 13916
Net 13905
Village 13903
Han@@ 13902
Overall 13897
repeatedly 13895
spite 13895
cited 13894
tings 13891
.3 13888
compilation 13888
Visa 13886
entrusted 13886
Maldives 13885
of-@@ 13883
tensions 13881
Jack 13875
rescue 13870
Round 13868
preservation 13864
hate 13863
Lao 13860
int 13860
6th 13859
ases 13859
stick 13857
mix 13854
ame@@ 13851
beneficiaries 13851
salaries 13845
vacation 13845
Niger 13843
telecommunications 13841
fairly 13839
ri 13837
desertification 13834
packages 13829
Tech 13823
nearest 13811
112 13810
35@@ 13810
interior 13807
childhood 13806
Single 13805
arm@@ 13803
book@@ 13802
100,000 13790
Pos@@ 13783
surprise 13783
verify 13783
BE 13782
Mul@@ 13781
hosting 13777
a.m 13773
Jan@@ 13772
greenhouse 13772
sand 13768
advise 13767
Non-Self-Governing 13758
challenging 13756
Knowledge 13755
ict 13752
Signed 13747
cup 13744
steady 13744
fiber 13739
clarify 13738
Pension 13736
Mir@@ 13734
disciplinary 13733
credibility 13725
excluded 13725
idi@@ 13725
monitored 13724
Durban 13723
capita 13718
rated 13718
Prohibition 13715
professor 13715
Perhaps 13713
tail 13713
outline 13712
characteristic 13711
Solomon 13708
ining 13708
absolutely 13707
Mother 13704
Barbados 13701
IO@@ 13698
Advanced 13694
fax 13694
neck 13692
servant 13690
Disaster 13688
Ki@@ 13687
Ak@@ 13683
Atomic 13680
115 13677
tangible 13677
Heritage 13673
reinforce 13672
imported 13671
zer 13670
PER@@ 13668
Size 13668
workplace 13666
incidence 13659
tine 13658
Cy@@ 13656
Administrator 13654
Cro@@ 13646
granting 13642
Little 13640
igh@@ 13634
orally 13627
convening 13626
Keep 13623
Pat@@ 13619
ight 13619
109 13613
van@@ 13611
00-@@ 13609
Luxury 13607
macroeconomic 13607
od 13607
Temple 13604
est@@ 13604
nuclear-weapon-free 13592
Later 13588
ora 13588
sounds 13586
fulfilled 13583
ner@@ 13582
tively 13575
wearing 13573
crew 13571
thesis 13570
ite@@ 13567
twentieth 13562
85@@ 13560
suggestion 13560
che 13559
declare 13556
maker 13554
regimes 13552
specialist 13549
unified 13548
Dubai 13547
War@@ 13539
Gallery 13538
SL@@ 13537
Electoral 13533
assure 13532
red@@ 13528
han 13523
TION 13517
logistical 13516
admitted 13511
has@@ 13511
imp@@ 13511
boo@@ 13510
Kal@@ 13509
SR@@ 13504
complementary 13504
osis 13500
1980s 13498
Az@@ 13495
Transnational 13487
enter@@ 13487
cho@@ 13486
modification 13484
ter-@@ 13479
Reaffirms 13476
wrought 13474
tired 13466
bit@@ 13457
html 13457
20th 13456
Plus 13455
bel 13455
pay@@ 13453
yield 13450
systematically 13447
Corruption 13444
skilled 13440
Maybe 13439
WITH 13438
confidence-building 13428
Effective 13425
admissibility 13423
LCD 13422
afford 13421
elaboration 13418
pa 13417
zation 13412
simultaneously 13409
roll 13407
magnetic 13406
sect 13405
sy 13405
kit 13404
Lastly 13403
buyer 13403
uni@@ 13401
intelligent 13398
thorough 13397
Samoa 13395
Den@@ 13394
ecological 13393
songs 13393
twenty 13390
establishments 13389
suspect 13389
feasible 13388
125 13386
Advancement 13385
ands 13383
permits 13381
designing 13380
net@@ 13377
elec@@ 13376
satisfy 13375
facto 13374
12-@@ 13370
deadline 13367
ences 13367
shut 13362
collecting 13358
universe 13356
Kr@@ 13354
relatives 13354
succeed 13354
ures 13351
kin 13347
l-@@ 13345
Lar@@ 13344
earned 13344
turns 13343
Egyptian 13342
Mur@@ 13342
puts 13341
EL 13340
correctly 13340
lion 13340
G. 13337
Trinidad 13334
Exporters 13330
Comments 13329
lunch 13326
burn 13325
terminal 13324
liberalization 13321
tra 13320
undermine 13320
Serv@@ 13317
Thai 13310
wonder 13309
subparagraph 13308
pul@@ 13307
Senate 13306
wil@@ 13306
whereby 13304
No.@@ 13299
fun@@ 13297
dro@@ 13295
ODA 13292
contracting 13289
strange 13288
accidents 13287
passage 13286
forthcoming 13284
port@@ 13283
inhuman 13278
updating 13278
somewhat 13271
detect 13269
resume 13269
snow 13266
Jin@@ 13264
Richard 13264
bun@@ 13264
dam@@ 13264
arian 13261
p-@@ 13260
Arbitration 13259
appropriation 13255
analyse 13250
eness 13249
testimony 13243
ethics 13242
health-care 13231
IM 13229
warranties 13229
hear@@ 13224
crowd 13222
meal 13212
age@@ 13207
controller 13206
tations 13203
Background 13200
circulation 13200
Monaco 13198
merits 13198
IPSAS 13197
38@@ 13190
coach 13189
Create 13188
HC@@ 13188
smoke 13187
emergencies 13186
bottle 13179
64@@ 13177
hr 13176
servicing 13175
captured 13173
HK@@ 13169
ounding 13169
twenty-first 13167
statute 13160
Shower 13155
Over@@ 13154
Super 13154
ecosystem 13153
viable 13151
DR@@ 13148
freight 13147
una 13147
Dating 13146
span 13143
Goal 13135
briefings 13132
tackle 13131
wet 13125
te-@@ 13124
Pro 13119
protein 13119
trains 13119
defining 13118
mineral 13118
realistic 13117
belong 13112
sin@@ 13111
converted 13109
considerably 13108
Future 13106
fix 13103
revenues 13102
Supply 13099
Electronics 13098
UNIFIL 13097
promised 13095
silence 13095
Monetary 13094
seller 13094
burg 13092
label 13090
traditions 13089
cat 13087
Sin@@ 13086
aren 13086
GR@@ 13081
Mos@@ 13077
Contracting 13076
degrading 13070
part@@ 13069
Ob@@ 13067
lin 13067
chi@@ 13064
Sm@@ 13062
placement 13058
NLB 13056
med@@ 13056
Counter-Terrorism 13046
ith 13046
rer 13046
phrase 13045
Mol@@ 13044
1970 13039
Gl@@ 13039
Fa@@ 13037
chap 13037
hot@@ 13036
attacked 13035
illness 13033
presidency 13033
skill 13032
arrange 13030
Islam 13024
114 13022
Age 13021
curriculum 13019
abilities 13018
Trial 13015
grand@@ 13007
Malawi 13006
adolescents 13006
ened 13004
ranging 13003
presentations 13002
Flowers 13001
tation 13001
alcohol 12996
116 12995
Mari@@ 12994
foundations 12994
ation-@@ 12992
plenty 12992
consolidate 12991
convene 12990
high-quality 12990
utilize 12988
ele@@ 12983
trac@@ 12983
Rural 12978
pipe 12978
gam@@ 12977
Material 12976
credible 12976
ERS 12967
lady 12965
counselling 12963
friendship 12962
initiate 12960
Ass@@ 12958
produces 12949
Saint-@@ 12943
Punishment 12942
releases 12942
Smart 12940
Consultative 12939
ink@@ 12938
Participants 12936
expulsion 12934
Mid@@ 12931
travelling 12931
Agricultural 12929
nit@@ 12926
evident 12923
imperative 12916
hire 12912
logic 12912
guess 12910
awa 12909
securely 12905
glory 12904
ame 12903
ace@@ 12900
ao@@ 12898
proprietary 12897
EF@@ 12896
featured 12895
promotes 12895
× 12895
113 12894
comparative 12894
gather 12894
Domestic 12893
globally 12890
pop@@ 12890
appointments 12889
iPhone 12888
19th 12887
fre@@ 12887
controlling 12886
Fac@@ 12881
analyzed 12881
Machinery 12878
Guyana 12876
everywhere 12874
personality 12872
recipient 12872
talent 12872
luggage 12870
37@@ 12861
sn@@ 12860
syn@@ 12859
weekend 12858
pe 12857
dear 12856
perceived 12855
0.3 12854
subregion 12854
toiletries 12853
amp@@ 12850
Relief 12848
protective 12847
semi-@@ 12846
Entertainment 12845
liver 12843
22@@ 12842
drought 12842
mankind 12841
receives 12841
cel@@ 12840
quar@@ 12837
memorandum 12832
vic@@ 12828
mus@@ 12827
ier 12824
ger@@ 12823
missile 12820
taiwantrade.com 12818
CONF.@@ 12815
poses 12815
council 12814
recruited 12814
methodologies 12811
TE@@ 12809
Bon@@ 12808
glad 12808
sy@@ 12807
Ze@@ 12805
logo 12802
oma 12802
pursuing 12801
Kam@@ 12797
hon@@ 12797
1975 12793
Cs 12793
prim@@ 12793
compromise 12788
burning 12781
launching 12779
Forest 12778
cultivation 12778
Hot 12775
Cuban 12771
ida 12771
Green@@ 12768
losing 12766
Harry 12764
pull 12764
ade@@ 12762
accessing 12761
owed 12759
acute 12758
inv@@ 12758
Decree 12747
punished 12738
calm 12736
fy 12736
specifications 12727
tells 12727
2.3 12726
Outdoor 12726
sign@@ 12724
Brown 12720
filling 12717
utilized 12716
operates 12712
chronic 12707
wheel 12706
Others 12703
21st 12701
HR 12701
shoulder 12698
forecast 12696
wa 12696
layout 12695
Transfer 12694
ester 12693
Amendment 12692
CAT 12692
Sem@@ 12692
FR@@ 12689
tower 12688
harmony 12687
Directorate 12686
blind 12685
ting@@ 12685
PO@@ 12684
essentially 12681
regulated 12680
shipment 12680
intends 12676
bat@@ 12675
rid 12670
hang 12665
sul@@ 12665
bonds 12663
Tools 12661
elegant 12660
prosecutors 12658
spaces 12657
cry 12654
toxic 12649
MONUC 12647
angry 12647
Proposed 12644
Tour 12642
accessibility 12640
Fifty-@@ 12639
Governor 12638
atives 12638
boundary 12638
Front 12637
compact 12632
disaggregated 12627
ENT 12625
extending 12625
Muslims 12624
ills 12621
oph@@ 12620
gran@@ 12618
honor 12618
uk@@ 12617
colors 12615
loading 12615
cost-effective 12605
Maria 12604
ecosystems 12604
CE 12597
linear 12597
movies 12596
Fun@@ 12595
ure@@ 12595
ude 12588
disadvantaged 12584
vessel 12584
OU@@ 12582
indirectly 12582
0.0 12580
hardly 12579
gratitude 12578
SS 12572
establishes 12570
attendance 12568
rendered 12567
comparable 12566
foods 12564
obliged 12564
Open-ended 12559
cross-border 12558
regret 12556
118 12548
yed 12547
referendum 12546
clarification 12545
budgeting 12544
marry 12543
auspices 12539
tie 12536
Scheme 12534
45@@ 12531
Could 12531
referring 12530
hen@@ 12528
hell 12523
mathematics 12523
consist 12520
boss 12519
databases 12519
placing 12519
32@@ 12516
Aviation 12512
ward 12509
1974 12508
indication 12506
fla@@ 12505
CN.9 12503
nights 12502
53@@ 12499
Vegas 12499
¢ 12499
Timor 12497
WINDOWS 12496
Accounting 12494
earn 12494
Tobago 12489
Turkmenistan 12482
satisfactory 12475
Wor@@ 12473
unprecedented 12473
spec@@ 12467
Judge 12461
signals 12461
vacuum 12457
win@@ 12457
GU@@ 12455
On@@ 12454
RIGHTS 12453
ero@@ 12453
Provide 12450
appreciated 12446
deprivation 12445
vertical 12443
Unity 12442
ka@@ 12439
log@@ 12439
Iron 12429
dered 12423
massage 12422
compare 12419
perspectives 12419
123 12417
Pla@@ 12417
Responsible 12417
PRO@@ 12416
underlined 12412
‚ 12412
Coun@@ 12409
sphere 12409
Tam@@ 12406
deposits 12405
orbit 12403
keeps 12402
graph 12400
enshrined 12399
full-@@ 12399
indoor 12399
Efforts 12398
Cra@@ 12392
H. 12392
new@@ 12392
CB@@ 12385
moves 12385
IF 12383
weekly 12376
teeth 12370
Welfare 12367
mitigate 12366
independently 12364
ites 12363
expense 12362
Out@@ 12361
concerted 12361
UNIFEM 12360
Rol@@ 12359
Ms 12358
3.5 12347
Open@@ 12343
ax 12343
117 12342
tia 12340
WH@@ 12338
continuity 12338
wal@@ 12333
eless 12331
sing@@ 12331
autonomy 12328
economics 12326
reflection 12321
cri@@ 12320
shortly 12320
bert 12317
immunity 12316
set@@ 12315
Sign 12314
Hand@@ 12313
occupational 12313
guiding 12311
amend 12310
actor 12308
split 12305
HR@@ 12301
possess 12301
innocent 12300
Matters 12299
DE@@ 12297
arguments 12294
Copenhagen 12293
artists 12292
real@@ 12289
displays 12287
Still 12286
si 12279
aling 12274
brands 12270
Louis 12269
joining 12267
yl 12266
Sel@@ 12264
expressing 12264
temperatures 12264
Ci@@ 12262
play@@ 12262
nominated 12260
hereby 12259
inspired 12257
malaria 12257
strive 12256
plan@@ 12252
Pool 12251
Tel 12251
refrain 12250
Hague 12245
Continue 12243
rac@@ 12242
122 12241
contributes 12241
perfectly 12238
Practice 12233
knowing 12231
amazing 12228
seating 12225
d.@@ 12220
enacted 12217
Bath 12215
nose 12215
engineers 12210
surplus 12210
fol@@ 12207
ed-@@ 12206
Pri@@ 12202
Mauritania 12201
mp@@ 12197
prevailing 12197
confidentiality 12196
twelve 12194
vi 12191
uncertainty 12186
rubber 12183
.5 12181
Sand@@ 12181
locally 12181
1,0@@ 12177
earnings 12175
mistake 12174
shareholders 12171
concentrated 12164
desktop 12161
CEO 12160
ION 12159
Ali 12158
Bolivarian 12158
upgrading 12156
honest 12151
Daily 12150
reaffirms 12150
phases 12148
fathers 12146
visibility 12146
gifts 12144
bled 12138
cease 12138
interpreted 12133
thro@@ 12132
cooling 12130
ough@@ 12128
chose 12127
wards 12124
bes@@ 12122
OK 12121
ew 12119
tongue 12116
directions 12114
png 12113
profound 12111
bility 12110
welding 12107
Institutions 12106
Victoria 12102
Au@@ 12100
artist 12095
cons@@ 12095
bases 12094
highlights 12094
las@@ 12093
1977 12092
Prize 12092
tears 12088
Met@@ 12087
Maritime 12079
advancing 12079
lit@@ 12079
stuff 12079
20-@@ 12076
stones 12074
waves 12072
ank@@ 12071
Lam@@ 12070
1976 12058
seed 12056
Smoking 12055
infant 12054
Defense 12049
classic 12049
disclosed 12049
NEPAD 12047
breath 12043
clo@@ 12042
grace 12042
hur@@ 12041
admission 12038
non-discrimination 12035
statutory 12035
min 12032
ome@@ 12032
troop-contributing 12031
sible 12025
condemned 12022
remuneration 12021
disappearance 12019
claimant 12018
1972 12016
predic@@ 12006
Amsterdam 12005
hood 12005
specialists 12005
voters 12005
fulfilling 11999
tens 11998
Bol@@ 11993
Football 11993
Jun@@ 11991
tone 11991
TC 11990
advisers 11989
generating 11988
ve-@@ 11988
mann 11980
reiterate 11980
PM 11978
aps 11978
explains 11972
half-@@ 11970
adapted 11968
descent 11966
NO 11960
Nothing 11958
surgery 11958
newspapers 11957
boxes 11956
DM@@ 11955
feasibility 11954
pri@@ 11951
atr@@ 11950
attending 11950
Castle 11948
TripAdvisor 11948
Papua 11945
nevertheless 11938
Bali 11936
ately 11936
circle 11935
workload 11933
Students 11930
roof 11926
Athens 11923
emotional 11923
1971 11922
maximize 11921
Maintenance 11920
tight 11920
Conflict 11919
combine 11918
duplication 11914
definitions 11911
eradicate 11902
48@@ 11897
Hilton 11896
questionnaire 11895
mes 11894
panels 11889
Organisation 11886
Av@@ 11885
bigger 11884
wishing 11882
1960 11881
ket 11881
parliament 11880
ALL 11875
Cel@@ 11875
fas@@ 11875
spectrum 11875
collaborative 11873
ques 11873
experimental 11867
HK 11863
SecretaryGeneral 11862
washing 11861
ATE 11860
graduate 11860
insecurity 11856
Television 11854
comp@@ 11854
qualifications 11853
Battle 11850
Equal 11846
campsite 11845
198@@ 11844
bet 11843
cock 11843
á 11835
fans 11832
ify 11832
locked 11827
Shopping 11824
settle 11824
giant 11821
with@@ 11820
Che@@ 11811
ail 11810
prosecute 11805
Corporate 11804
Liu 11804
PAR@@ 11804
Supplement 11804
ok 11803
qui@@ 11803
sake 11803
2.4 11801
erry 11795
isolated 11794
precious 11794
sequence 11794
Bahamas 11793
economically 11792
PS@@ 11789
dom 11788
taxi 11783
Posted 11774
inaccurate 11766
nu@@ 11766
cour@@ 11764
portal 11764
FOR@@ 11762
bone 11761
sustain 11761
automated 11760
119 11758
AC.@@ 11757
documented 11757
wherever 11757
15-@@ 11756
Petersburg 11754
Unless 11750
hat 11747
Spring 11744
cope 11744
licence 11739
Goods 11738
ik@@ 11737
pillars 11732
锛 11729
attributed 11727
routine 11726
religions 11725
China-@@ 11723
MAR@@ 11723
apps 11723
Trump 11722
birthday 11722
remarkable 11722
Increase 11721
reimbursement 11721
registry 11720
Integration 11714
Comp@@ 11708
demonstration 11704
infected 11704
coordinator 11703
liked 11703
readiness 11703
leg 11702
ethical 11700
acks 11699
offensive 11699
wake 11699
DS 11697
continental 11697
urgently 11690
voted 11689
Oman 11687
abandoned 11687
Christians 11684
submits 11684
Companies 11681
Tea 11678
prevalence 11678
slavery 11678
Give 11677
ga@@ 11677
− 11677
75@@ 11676
Concerning 11670
discovery 11670
PA@@ 11666
influenced 11660
drafted 11659
Boutique 11654
Rose 11654
gy 11654
ex 11653
tied 11649
UN-Women 11647
associate 11647
Previous 11643
Multi@@ 11640
50,000 11637
observance 11637
grain 11636
centuries 11634
backup 11633
purchasing 11633
shan 11633
1.6 11632
Promoting 11632
Ol@@ 11631
sle@@ 11627
Ltd. 11624
emp@@ 11622
intensity 11621
UNAMID 11619
CAD 11618
anch@@ 11616
Residence 11615
ven 11615
aki 11614
benefited 11614
Somali 11612
Leg@@ 11606
silent 11603
functionality 11599
Certain 11597
criticism 11597
FROM 11596
air-conditioned 11591
ensured 11589
isting 11585
picked 11585
string 11583
dreams 11582
lab@@ 11574
reaffirm 11574
intent 11573
prohibit 11570
fitted 11568
ute 11567
sub-item 11566
tened 11565
Being 11562
XI 11559
Add.2 11558
geographic 11555
affiliated 11553
Hello 11552
Cla@@ 11550
Fo@@ 11550
troop 11548
clause 11546
assumption 11543
assured 11543
Verde 11542
minors 11540
es.@@ 11537
first-@@ 11537
earliest 11535
Offering 11532
1.4 11530
› 11530
aces 11529
coat 11529
pet 11528
Economy 11526
Casino 11525
Situation 11525
trademarks 11525
Vice 11524
customized 11523
Scotland 11520
Mis@@ 11519
Aid 11517
clubs 11517
GB 11516
utmost 11514
ington 11513
Made 11508
bis 11507
contractor 11506
indispensable 11506
bond 11505
motor@@ 11505
deficit 11504
urgency 11501
Risk 11500
onal 11499
Kor@@ 11496
ater@@ 11493
epidemic 11492
coun@@ 11491
CT@@ 11484
fal@@ 11480
Response 11479
bon@@ 11479
Expresses 11473
assurances 11470
impartial 11469
colonial 11467
Ho 11464
recovered 11464
tiny 11464
stating 11463
mut@@ 11459
Recent 11457
MD@@ 11455
oms 11455
ols 11454
TE 11452
immigrants 11447
Much 11446
announcement 11446
renew 11446
rotation 11444
tries 11440
deploy 11437
HO@@ 11435
inherent 11435
Mes@@ 11434
fies 11434
feels 11433
shaped 11431
gent 11428
instability 11427
Registry 11424
census 11422
regulate 11420
surprised 11420
ech@@ 11416
0.4 11414
tech 11414
GM 11411
Form 11409
aire 11409
enemies 11409
valuation 11409
oring 11408
copper 11404
tru@@ 11402
divorce 11401
genital 11401
bin 11399
collectively 11399
threatening 11398
virtually 11397
tory 11396
Fire 11395
sudden 11393
Request 11390
participatory 11390
demographic 11387
Bou@@ 11385
Volunteers 11384
check-in 11383
priest 11382
ren 11379
shell 11378
icity 11372
render 11368
Competition 11367
gear 11365
121 11364
fleet 11364
computing 11357
wan 11355
Amateur 11353
theoretical 11352
watched 11351
precisely 11350
reminded 11350
elaborate 11349
bi 11344
photo@@ 11340
Regular 11339
ination 11338
Ben 11337
cancellation 11337
hard@@ 11336
ishes 11335
worship 11335
examining 11332
suicide 11332
Premier 11328
engines 11326
frames 11326
ella 11323
SE 11319
compound 11319
Vice-President 11317
sizes 11314
crop 11313
vit@@ 11311
Fil@@ 11310
oning 11310
pen 11309
solving 11308
drives 11306
leather 11302
breast 11301
ho 11300
money-laundering 11300
Looking 11298
single-@@ 11296
cos@@ 11294
Buy 11291
campus 11291
shi@@ 11291
ICRC 11288
Users 11288
Af@@ 11287
Link 11286
payable 11286
hence 11284
ography 11280
adds 11278
Bhutan 11277
Ang@@ 11275
3.1 11273
dol@@ 11273
grass 11273
Appeal 11272
beliefs 11272
threshold 11270
elect 11266
Contributions 11264
cy 11264
subsistence 11260
terrible 11260
mentary 11259
preparedness 11259
Operational 11257
guys 11256
distinguished 11255
Chen 11253
Dun@@ 11251
results-based 11250
MIN@@ 11249
newer 11249
NATO 11248
Cou@@ 11247
popul@@ 11246
izes 11241
Solar 11240
tonight 11240
Hon@@ 11238
eling 11238
sins 11236
Bearing 11233
GE 11225
Miami 11225
pornography 11223
survive 11223
tourists 11222
High@@ 11221
herein 11220
regrets 11220
ECA 11219
tar 11219
Girls 11218
shock 11216
Reference 11212
foreigners 11206
128 11201
mol@@ 11199
producer 11199
Sul@@ 11197
interviews 11195
truck 11191
UNMIK 11190
developers 11184
hearts 11182
dy@@ 11180
itated 11178
injection 11177
Large 11174
executions 11173
Happy 11172
belt 11171
organisation 11171
diamonds 11168
pot 11166
structured 11166
imagine 11164
Danish 11162
86@@ 11158
real-time 11158
desirable 11155
restored 11155
TECHNOLOGY 11154
studio 11153
ut 11153
definitely 11150
s. 11150
qualification 11147
eu@@ 11145
plot 11145
Cities 11142
ster@@ 11140
peace-keeping 11137
contingent 11134
vs 11134
formats 11133
hostilities 11131
pricing 11125
Loc@@ 11124
E-mail 11123
electronics 11123
Revolution 11117
titles 11117
chem@@ 11115
summarized 11115
installations 11114
talked 11114
0,@@ 11113
sk 11109
lease 11107
rig@@ 11106
Dol@@ 11104
Non-Aligned 11100
artificial 11100
DNA 11098
pt 11097
smuggling 11097
mirror 11096
notion 11095
commun@@ 11094
publishing 11088
Violations 11087
E.@@ 11086
è@@ 11086
Satellite 11082
IES 11080
BS 11079
handled 11073
3,000 11071
by-@@ 11069
lifting 11068
Title 11065
bin@@ 11061
ruled 11059
disappeared 11058
TL@@ 11054
EUR 11053
convert 11052
everyday 11051
proceeding 11050
collapse 11037
Methods 11036
pushed 11032
lic@@ 11030
container 11029
chaired 11028
flesh 11027
cried 11026
Materials 11024
lifted 11023
nes 11023
resolving 11023
but@@ 11022
ered 11020
premium 11020
particles 11019
excluding 11017
Phone 11016
finalized 11012
succeeded 11011
ock 11006
seasonal 11006
tured 11005
pil@@ 11000
fluid 10999
formulating 10999
IONS 10997
pat@@ 10995
Debt 10994
Multi-@@ 10992
Hos@@ 10991
tes@@ 10991
transform 10991
black@@ 10990
fostering 10986
tag 10986
Dublin 10982
reinforced 10980
Americas 10979
physics 10979
predictable 10978
mers 10977
sophisticated 10977
Twitter 10974
wounded 10973
Inter-Agency 10970
maternity 10969
gases 10967
negotiate 10966
thick 10966
smiled 10965
QU@@ 10961
righ@@ 10958
intense 10957
une 10957
housekeeping 10956
tobacco 10956
Ah 10955
cotton 10955
Hostels 10954
Self-@@ 10954
featuring 10954
jiang 10952
matrix 10952
lending 10950
screening 10949
ceiling 10947
Xi 10946
Immigration 10944
individually 10944
wind@@ 10941
fores@@ 10940
forestry 10940
agrees 10939
Phuket 10937
cia 10932
prayer 10932
quantities 10931
assistant 10930
firearms 10930
guns 10930
practitioners 10930
abide 10928
responsive 10928
Ky@@ 10926
underground 10926
， 10926
deb@@ 10925
metric 10924
Rue 10922
abortion 10922
accomplished 10919
wooden 10919
parks 10917
securing 10917
analyze 10916
evolving 10915
consulting 10914
UNM@@ 10913
ECE 10907
Step 10907
golf 10907
retention 10907
Lesotho 10905
Until 10905
Navy 10903
Mine 10902
20,000 10901
Moon 10899
Produc@@ 10897
viewing 10897
budgeted 10896
Irish 10894
dian 10894
marginalized 10893
stainless 10892
Rock 10891
Taliban 10890
upcoming 10890
mate 10889
Bul@@ 10888
ups 10887
feeding 10884
illing 10882
exciting 10881
neutral 10881
sia 10879
synergies 10879
ceasefire 10878
R. 10876
Zhang 10876
1961 10874
filing 10873
compatibility 10872
Booking.com 10870
redress 10870
Venice 10868
Bedroom 10865
Gabon 10863
appraisal 10863
Belize 10861
3.2 10859
Envoy 10859
stro@@ 10859
unusual 10856
ble@@ 10848
tec@@ 10848
Money 10846
Twenty-@@ 10846
tum@@ 10845
gers 10844
essence 10840
ni 10840
dogs 10839
Judicial 10838
SCO 10837
enrolment 10834
gs 10834
formerly 10832
Sus@@ 10828
measurements 10824
harmless 10823
sum@@ 10823
88@@ 10822
licensing 10820
Cairo 10819
shed 10818
Everyone 10816
drinks 10816
.6 10813
impl@@ 10813
1373 10809
oxygen 10808
11-@@ 10807
expired 10805
bes 10804
explicit 10804
Ay@@ 10801
path@@ 10796
cream 10795
seas 10795
gy@@ 10785
rarely 10784
invested 10783
es-@@ 10782
Daniel 10781
sad 10781
monitors 10780
Income 10777
rein@@ 10777
coating 10775
detected 10774
tun@@ 10771
oned 10770
AG 10764
deeper 10762
Returns 10760
retired 10758
1969 10757
Brazilian 10757
accessories 10757
nity 10752
oldest 10752
44@@ 10749
mented 10748
templates 10748
Men@@ 10747
Conclusions 10744
tol@@ 10743
Golf 10742
mounted 10741
reveal 10741
medi@@ 10739
0.7 10738
births 10737
favor 10736
break@@ 10735
Pur@@ 10734
YOUR 10734
hatred 10732
tanks 10729
itting 10726
politicians 10726
SITE 10721
cop@@ 10717
rou@@ 10715
specially 10715
bury 10710
Six 10707
tracks 10706
PP@@ 10705
Johannesburg 10703
gn@@ 10695
roughly 10689
cra@@ 10688
Elizabeth 10687
aux 10687
closet 10685
mar 10682
Registrar 10681
Living 10680
124 10678
ashed 10677
supportive 10676
Upper 10675
KB 10671
volunteers 10671
Sexual 10667
chamber 10667
Stock 10666
Hen@@ 10664
courage 10664
promises 10656
Kitchen 10655
ageing 10654
alien 10654
SQL 10651
Dor@@ 10650
throw 10650
Steel 10648
alled 10645
Sub-Commission 10642
dual 10642
munitions 10642
Prior 10641
55@@ 10639
· 10638
Alexander 10637
directory 10637
minim@@ 10637
capit@@ 10635
Low 10634
ila 10634
ime 10634
manufactured 10634
oli@@ 10632
API 10631
chi 10631
shadow 10630
jurisdictions 10625
I.@@ 10623
Sw@@ 10623
experiments 10623
golden 10621
Ale@@ 10609
Ticket 10608
mapping 10608
Embassy 10605
Higher 10605
adherence 10604
depression 10604
reduces 10601
void 10599
Architecture 10596
discussing 10596
day@@ 10592
limiting 10589
pray 10588
ster 10588
poorest 10587
winner 10587
investigating 10586
endeavour 10585
fuck 10583
Cab@@ 10582
Ga@@ 10582
.4 10581
deny 10580
tening 10580
ano@@ 10576
scenario 10572
3-star 10571
UNMIL 10571
Value 10564
mainland 10563
policymakers 10563
presenting 10562
generator 10560
WARRANTIES 10558
virtue 10558
gravity 10554
Documentation 10553
Abu 10552
carries 10552
modernization 10552
mod@@ 10548
tain 10547
tier 10547
Dan@@ 10546
MB 10546
pledged 10546
duly 10545
ond@@ 10545
Os 10544
buried 10543
alarm 10541
briefly 10539
apparently 10536
fa 10534
Ty@@ 10533
Diversity 10532
script 10532
avoiding 10531
intend 10531
ml 10531
oceans 10526
sofa 10526
Work@@ 10523
removing 10523
tall 10520
GS 10518
opens 10516
Nan@@ 10515
cro@@ 10515
99@@ 10514
clu@@ 10514
aga 10512
medicines 10512
summits 10511
bly 10506
lifetime 10506
IDB.@@ 10505
nat@@ 10504
Vincent 10500
applicants 10500
proposes 10500
Families 10499
UNOCI 10499
naturally 10499
cost-@@ 10498
LLC 10496
reliance 10494
Together 10493
assault 10490
checks 10489
nia 10489
stairs 10487
optimization 10483
darkness 10482
liber@@ 10482
Antonio 10470
Serious 10470
sig@@ 10468
surrounded 10468
isation 10463
Outcome 10462
exceptions 10461
Off@@ 10460
TD 10460
Bah@@ 10459
demanding 10459
completing 10458
que@@ 10456
evaluated 10454
subsidiaries 10454
135 10452
atively 10451
Cabinet 10450
magnitude 10445
Personnel 10444
hide 10444
withdrawn 10443
workforce 10442
Plan@@ 10437
connectivity 10437
isolation 10435
GL@@ 10431
eas@@ 10431
WordPress 10429
preferences 10428
shuttle 10422
Friends 10421
cooking 10421
ix 10421
Co-@@ 10420
138 10419
Secondly 10419
flash 10418
NY 10417
Chi 10416
ounds 10411
succession 10411
Powers 10410
2007-@@ 10403
no-@@ 10402
Lim@@ 10401
legitimacy 10400
Victims 10392
identical 10390
paint 10390
-1 10389
dynamics 10386
supplement 10385
鈥檚 10385
Long@@ 10384
aspirations 10384
Nu@@ 10381
ori 10381
ime@@ 10380
linking 10380
worthy 10380
Call 10379
lounge 10378
allocate 10376
IE@@ 10374
PH@@ 10374
Manufacturing 10370
tough 10369
Remember 10368
eggs 10367
ear 10366
Narcotic 10363
elle 10363
connecting 10360
invalid 10359
reasonably 10358
inspections 10357
Liberation 10354
plas@@ 10352
witnessed 10351
Metro 10350
debates 10346
Key@@ 10345
ity@@ 10341
oming 10338
metals 10332
Close 10330
accurately 10330
1945 10329
Conferences 10326
Virgin 10324
L. 10322
2002-2003 10320
Rob@@ 10320
nie 10318
Lucia 10314
aka 10313
Night 10312
Treasury 10308
unt 10308
attracted 10307
rack 10307
bow 10305
introduces 10304
ok@@ 10303
standardized 10301
P-2 10300
passport 10300
Lisbon 10299
Hey 10298
draws 10298
77@@ 10290
engineer 10288
Spec@@ 10278
centr@@ 10276
ologist 10274
tian 10274
aligned 10273
132 10271
motivated 10271
ologists 10269
46@@ 10268
Locality 10268
X-@@ 10267
Antigua 10266
tle@@ 10264
prize 10261
ico 10260
Ferryto.com 10259
alongside 10258
okay 10257
Vote 10255
tre 10255
Improved 10254
punish 10254
fold 10253
accelerated 10252
Gam@@ 10251
Inc. 10251
Mexican 10251
diameter 10250
Bay@@ 10249
Sites 10249
BA 10247
unnecessary 10245
ves@@ 10244
speci@@ 10243
chains 10239
Intellectual 10237
¬ 10235
licensed 10232
tery 10228
57@@ 10227
bags 10226
mad@@ 10225
offenders 10225
Warsaw 10222
boundaries 10222
SW@@ 10218
consciousness 10218
evaluating 10218
decisive 10217
153 10216
Reporting 10216
vice 10216
RES@@ 10214
3.3 10211
Kim 10210
hun@@ 10210
everybody 10209
tness 10208
let@@ 10204
varied 10204
sof@@ 10203
valued 10203
SN@@ 10199
happening 10197
thereafter 10193
Acts 10190
ón 10190
compounds 10189
Illinois 10187
dic 10184
aci@@ 10183
mon 10183
ECOWAS 10179
Jobs 10178
belongs 10178
io@@ 10178
Pon@@ 10176
cycles 10175
investing 10174
B.@@ 10171
brown 10170
likes 10170
radioactive 10170
timing 10170
sty@@ 10168
Edinburgh 10167
rolling 10167
tennis 10167
fire@@ 10165
holidays 10161
shooting 10158
96@@ 10157
resistant 10155
disciples 10154
Mainland 10149
aj@@ 10146
arbitral 10141
Forests 10138
sword 10138
nic@@ 10133
scre@@ 10132
fuels 10129
moder@@ 10128
mouse 10128
Aqu@@ 10124
ais 10124
normative 10123
advocate 10119
Bus 10118
refusal 10114
Fresh 10111
Hence 10108
ep 10108
invention 10108
aspx 10107
lat@@ 10107
rob@@ 10104
united 10104
ENTERPRISE 10103
gun@@ 10103
Available 10098
Investigation 10090
Export 10088
pharmaceutical 10088
exercising 10087
justify 10087
furnished 10085
substitute 10085
End 10081
Core 10080
ck@@ 10077
socialist 10077
1.8 10075
shore 10074
Med@@ 10069
Columbia 10067
hydraulic 10065
obstacle 10063
pupils 10063
tender 10063
Subsequently 10062
Bat@@ 10061
illed 10058
sheets 10057
rank 10051
time@@ 10050
pin 10049
warranty 10048
Labels 10047
magic 10045
Groups 10044
Connec@@ 10042
Devices 10042
doc@@ 10040
embedded 10040
impressive 10039
restrict 10038
tent 10036
exp@@ 10035
thi@@ 10035
n-@@ 10033
OSCE 10032
pack 10029
TER@@ 10028
Wales 10027
appropriately 10027
defines 10024
Delhi 10023
verified 10023
Stresses 10022
rough 10021
cen@@ 10019
LL@@ 10017
classical 10016
credentials 10015
pping 10013
LIMITED 10012
tenure 10012
Commander 10010
﻿ 10010
Documents 10008
INFORMATION 10008
fled 10008
Role 10006
nationally 10006
custom@@ 10004
differential 10004
tan 10001
dishes 10000
unemployed 10000
checked 9999
Desertification 9996
Soci@@ 9996
AK@@ 9994
seal 9992
BE@@ 9991
sincere 9991
nes@@ 9989
ther 9989
59@@ 9988
Dong@@ 9985
sized 9983
secretary 9982
shirt 9981
entrepreneurs 9979
pic@@ 9979
diabetes 9977
dil@@ 9976
exploring 9974
img 9972
defeat 9971
inheritance 9971
asp@@ 9970
fingers 9965
fication 9960
yan 9960
beside 9959
reproduced 9957
126 9952
sim@@ 9952
exercised 9950
lovely 9949
surely 9949
Course 9948
curricula 9947
vegetables 9947
designer 9945
four-@@ 9942
fissile 9940
Illicit 9937
Monterrey 9937
acqu@@ 9937
pledges 9935
cancel 9933
78@@ 9932
Registrant 9932
spl@@ 9932
debris 9931
obviously 9929
chest 9927
127 9926
author@@ 9926
flood 9926
spar@@ 9926
shr@@ 9925
Specific 9922
Delivery 9921
derivative 9921
Up@@ 9919
Virginia 9919
tendency 9918
vil@@ 9918
Listen 9916
traditionally 9913
Dou@@ 9912
pour 9912
Governance 9911
jump 9910
optimize 9909
reinforcing 9908
134 9907
extr@@ 9907
decree 9904
1970s 9903
flo@@ 9903
alloy 9898
fragile 9895
lec@@ 9895
hyper@@ 9894
tos@@ 9893
sensitivity 9891
Cable 9890
Features 9890
Try 9890
tion-@@ 9890
argue 9887
mur@@ 9886
Cheap 9885
LM@@ 9885
Civilian 9883
INCLUDING 9883
Meetings 9882
Things 9881
finger 9878
Woods 9875
BL@@ 9874
Tags 9873
till@@ 9868
mature 9864
passes 9862
Johnson 9859
divide 9859
Analy@@ 9857
bulk 9855
undertook 9853
warned 9852
missiles 9851
high@@ 9846
cle@@ 9845
compl@@ 9844
Death 9843
wars 9843
Nice 9842
⁄ 9840
blow 9838
aching 9837
Tickets 9836
56@@ 9834
artistic 9833
posting 9832
notified 9831
denial 9830
ket@@ 9830
renewal 9830
Southeast 9829
iously 9829
Brunei 9828
Jud@@ 9828
dismissed 9825
landing 9825
touched 9824
Bus@@ 9823
failing 9823
Prosecution 9820
login 9820
conform 9818
TC@@ 9813
row@@ 9810
dramatic 9809
Organizational 9807
DC@@ 9805
repeat 9805
pressed 9804
ram@@ 9804
manifestations 9803
NP@@ 9801
CAR@@ 9797
infections 9795
66@@ 9790
diversification 9789
farming 9789
Enter 9788
Medicine 9788
eliminated 9788
esses 9787
conf@@ 9786
ert 9786
show@@ 9786
58@@ 9783
infl@@ 9783
variables 9782
wash 9782
atten@@ 9781
produc@@ 9780
1968 9778
Minimum 9778
Telephone 9778
adhere 9774
casualties 9773
readily 9773
Kuwaiti 9772
Mit@@ 9771
livelihoods 9771
Wa@@ 9769
tz 9765
ron 9764
shortage 9763
Recognizes 9762
thanked 9762
Fair 9761
rational 9757
mount 9756
corporation 9753
amongst 9751
Kur@@ 9750
Macao 9750
Norwegian 9750
Gor@@ 9748
iro 9747
AU 9745
currencies 9745
exceeding 9745
Back@@ 9743
compete 9742
steam 9742
tribute 9741
god 9740
horizontal 9739
inability 9739
39@@ 9738
issuing 9738
zy 9738
permanently 9737
Theatre 9736
plain 9736
deterioration 9735
segments 9733
Cli@@ 9731
Intelligence 9728
Pra@@ 9727
wel@@ 9727
reproduce 9725
aria 9723
Kh@@ 9721
creditors 9720
Pic@@ 9719
ples 9718
outs 9716
INDUSTRIAL 9714
idity 9709
institutes 9707
globe 9706
ress 9703
Allah 9702
prof@@ 9702
claiming 9701
Way 9700
Brand 9697
UNDCP 9696
associates 9696
Consensus 9693
Channel 9691
Boston 9690
onia 9690
explo@@ 9687
separ@@ 9687
conscious 9686
sixtieth 9686
Advertisement 9684
Consider 9684
Andorra 9682
Develop 9681
Golan 9681
decolonization 9681
Cle@@ 9677
CO2 9676
Converter 9676
sauna 9674
19.@@ 9673
Effects 9673
gri@@ 9673
baseline 9672
ami 9671
Colonial 9669
jus@@ 9668
ARY 9667
cross-cutting 9667
profession 9665
ato 9664
inal 9663
ranked 9661
margin 9659
libraries 9657
comm@@ 9654
offerings 9649
Tell 9645
captain 9645
choosing 9644
adjacent 9639
Channels 9637
trips 9636
Discussion 9632
Again 9631
dar@@ 9630
perception 9630
WE@@ 9629
SMEs 9628
Blogger 9623
justification 9620
ole@@ 9620
quantitative 9620
CRP.@@ 9618
yi 9616
angel 9614
mentation 9612
participant 9606
129 9605
Rad@@ 9601
Login 9599
open-ended 9598
them@@ 9598
Redirecting 9597
dish 9597
Rico 9596
anti-personnel 9596
Lakes 9593
ood 9593
breakdown 9586
unacceptable 9586
kets 9585
Tem@@ 9582
ministry 9582
remind 9581
protest 9578
hin@@ 9577
celebrate 9576
argues 9575
survivors 9575
Pass@@ 9574
U. 9574
fron@@ 9573
Enhanced 9570
aves 9570
realities 9570
Len@@ 9569
P. 9569
gender-@@ 9568
awa@@ 9567
eline 9566
Featuring 9565
Socialist 9565
municipality 9563
incorporating 9562
itate 9561
Ul@@ 9557
ODM 9552
matches 9544
killings 9539
mistakes 9539
volumes 9538
solved 9535
thoroughly 9534
Parts 9533
comprise 9533
itor 9533
trusted 9532
Tak@@ 9531
Lodge 9530
WG@@ 9528
churches 9528
conscience 9527
tment 9527
successor 9526
couples 9522
K. 9521
staying 9521
piracy 9519
respects 9515
30-@@ 9514
Programmes 9514
tag@@ 9514
EU@@ 9513
lesson 9513
Guangdong 9510
Indiana 9510
Bil@@ 9509
tial 9509
dium 9508
Marino 9507
Buenos 9506
ility 9506
teenth 9506
avi@@ 9505
the-@@ 9505
notable 9504
AW@@ 9503
mixture 9502
arose 9501
Traffic 9500
shar@@ 9496
Return 9494
Sup@@ 9492
thirty 9492
UD@@ 9491
euro 9491
wondered 9490
HS 9488
conver@@ 9485
350 9483
Cams 9481
founding 9480
None 9478
fruits 9478
stand@@ 9476
outset 9475
Changes 9474
.net 9473
1.7 9473
utilizing 9472
Manchester 9471
133 9470
Tibetan 9470
females 9470
nongovernmental 9470
yr@@ 9469
romantic 9467
communicated 9466
asks 9464
ela 9464
pun@@ 9464
Innovation 9462
oven 9462
ling@@ 9460
vacancies 9458
sely 9457
checking 9454
Ow@@ 9453
iting 9450
Compare 9447
Trading 9447
occurring 9447
powered 9446
EP@@ 9445
backed 9445
post-2015 9445
aqu@@ 9444
U-@@ 9442
commenced 9441
Chemicals 9440
Democracy 9439
num@@ 9439
Places 9437
photographs 9436
Mah@@ 9435
fabric 9435
ironing 9435
fed 9434
chemistry 9433
emergence 9433
10th 9432
stem 9431
LA 9428
SERVICES 9427
differ 9427
impression 9427
Sc@@ 9426
combatants 9426
it-@@ 9426
sid@@ 9425
47@@ 9420
san@@ 9420
OM 9419
elaborated 9418
ranks 9418
eli@@ 9416
preference 9416
automotive 9414
Eas@@ 9413
demanded 9410
Multilateral 9409
sacrifice 9409
Aires 9407
spr@@ 9406
UNCCD 9405
coordinates 9405
pillar 9405
Amazon 9404
tissue 9404
Making 9403
Sum@@ 9403
BD@@ 9402
aforementioned 9401
INTERNATIONAL 9399
License 9399
ound@@ 9399
tonnes 9397
Certificate 9395
Ly@@ 9395
Throughout 9395
ough 9394
Republican 9392
Less 9387
Wel@@ 9387
ained 9386
Conservation 9385
Munich 9385
Comm@@ 9384
Virtual 9383
recycling 9382
hem@@ 9381
bills 9380
Primary 9379
lawful 9377
mood 9377
alling 9376
prop@@ 9376
ual 9375
Storage 9372
aggregate 9371
ues 9371
Ken@@ 9366
Lab@@ 9365
interactions 9364
ush 9364
beer 9363
insolvency 9363
SD 9361
spouse 9361
Apart 9360
IND@@ 9359
inequalities 9359
tioning 9359
Paragraphs 9356
multi-year 9352
preferential 9352
civilization 9350
stereotypes 9348
accorded 9347
fought 9347
incompatible 9345
plasma 9344
ambitious 9341
FREE 9336
Subject 9336
vendors 9336
tated 9334
grand 9330
tac@@ 9327
mal 9326
plo@@ 9323
ump@@ 9322
avoided 9321
accepting 9319
clim@@ 9319
deputy 9319
modes 9319
vo 9317
consecutive 9315
Direct 9314
WebResource.axd 9312
Compliance 9311
yah 9310
healthcare 9305
boats 9303
untrue 9300
suff@@ 9296
201 9295
Yang 9292
JIU 9286
182 9282
uan 9282
Unlike 9281
ort 9280
Jersey 9278
appealed 9277
festival 9276
hub 9276
2014-2015 9275
redeployment 9275
pped 9274
ENTS 9272
ication 9271
mill 9271
Nov@@ 9270
cameras 9266
counterparts 9266
folder 9266
Congolese 9264
Judah 9262
Contract 9261
Stadium 9261
scenarios 9259
Towels 9256
bal 9252
C.4 9250
portable 9250
All@@ 9249
indemnify 9247
Cypriot 9246
170 9245
steadily 9242
ials 9241
username 9241
privileges 9240
harder 9236
threaten 9235
220 9232
Featured 9230
clarity 9229
IO 9225
attain 9225
Certification 9224
managerial 9223
viol@@ 9222
praise 9219
1963 9218
minimal 9218
155 9217
asing 9216
4.5 9212
chron@@ 9212
stu@@ 9212
PM@@ 9211
IMPLIED 9209
cookie 9209
Flo@@ 9208
Wat@@ 9208
js 9208
Rotterdam 9207
consu@@ 9207
promulgated 9206
royal 9206
freeze 9205
alignment 9204
anal 9202
holistic 9201
loaded 9201
scholars 9201
vector 9201
alike 9200
Homes 9199
ESCWA 9197
Van 9196
EST 9192
insul@@ 9192
Gambia 9191
Jones 9191
TP 9190
ky@@ 9190
highway 9189
profiles 9189
restriction 9187
High-@@ 9186
Ps 9186
stepped 9186
pho@@ 9185
zes 9184
Provisions 9182
uck@@ 9181
ez 9180
politically 9179
chip 9178
sheep 9177
tape 9177
convey 9175
tail@@ 9175
TH 9174
Casa 9172
II@@ 9172
parameter 9172
Gener@@ 9171
amounting 9171
favourite 9170
journal 9166
ratifying 9160
UNC@@ 9159
Maps 9158
kiss 9157
Refrigerator 9156
spots 9154
Heating 9153
intensified 9152
Traditional 9149
aug@@ 9148
grid 9148
bn 9147
stipulates 9147
concentrate 9143
uphold 9143
short@@ 9141
Sofa 9139
ck 9137
axis 9135
Def@@ 9133
0.6 9128
ATIONS 9128
Detailed 9127
Accounts 9126
selecting 9126
twenty-@@ 9125
141 9123
Kon@@ 9123
exhausted 9122
loves 9122
enjoying 9121
pan 9120
questioned 9120
L-@@ 9119
Seminar 9118
Various 9118
pin@@ 9116
innovations 9113
spokesman 9111
abolition 9109
assumptions 9108
reject 9107
writers 9105
CP.@@ 9104
Schools 9101
Train 9101
clicking 9099
autumn 9098
Economics 9095
commentary 9095
Janeiro 9094
refrigerator 9094
pac@@ 9093
meals 9092
episode 9090
regulating 9088
IR 9087
kindly 9085
tribunals 9085
dont 9084
sensing 9084
tabl@@ 9079
psych@@ 9076
son@@ 9073
Ma 9071
pride 9071
Controller 9069
endorse 9066
Safe 9063
š@@ 9060
Peaceful 9059
FD@@ 9056
rows 9056
rup@@ 9056
sponsor 9055
tip 9050
alternate 9049
ENT@@ 9046
accredited 9044
full-time 9041
ova 9041
audits 9038
desert 9038
uring 9037
2.0 9035
amed 9035
gang 9034
patrol 9032
vely 9032
Linen 9031
ree 9029
Fairchild 9028
alls 9028
inte@@ 9027
allowances 9026
131 9024
antly 9024
sus@@ 9023
dying 9022
promising 9021
14.@@ 9017
FS 9016
tours 9014
ration@@ 9011
1951 9010
enjoys 9010
theatre 9010
verbale 9010
OL 9009
ke-@@ 9008
admit 9007
threw 9007
Boo@@ 9006
PN@@ 9006
139 9005
analysed 9004
dominant 9004
rs 9004
Database 9002
clean@@ 9002
Suriname 8999
Rab@@ 8998
recurrent 8998
INF 8997
Promote 8997
drove 8997
97@@ 8995
Nobel 8995
luck 8995
67@@ 8994
145 8993
Oc@@ 8991
Cathedral 8990
glasses 8990
Impact 8989
1948 8986
Never 8986
bomb 8985
founder 8985
jurisprudence 8985
Lau@@ 8982
4.2 8977
Century 8977
mathematical 8977
elled 8975
eration 8975
ú@@ 8974
Phoenix 8972
Cho@@ 8970
Archives 8968
Average 8968
fic@@ 8968
patri@@ 8968
well-known 8968
ty-@@ 8967
Shop 8963
Tal@@ 8961
strain 8960
Color 8959
Gas 8956
Projects 8956
exceeded 8956
itor@@ 8955
seeds 8955
sleeping 8955
sup@@ 8955
sla@@ 8954
prospect 8953
ave 8952
construct 8951
Finnish 8950
Hi@@ 8950
Sport 8950
craft 8950
Event 8948
Winter 8947
alisation 8944
dig@@ 8941
Haitian 8939
aks 8936
ero 8934
ship@@ 8934
Stu@@ 8933
holes 8933
val 8930
prolonged 8926
tailored 8926
thinks 8924
maj@@ 8923
gardens 8921
Swaziland 8920
eleventh 8919
18th 8918
Fish 8918
fantastic 8918
ographic 8918
Abraham 8917
ingredients 8917
Dev@@ 8916
administrator 8916
eds 8916
missed 8915
tariff 8914
resilience 8913
Estimate 8912
THIS 8912
fiftieth 8912
clouds 8911
harmonized 8911
musical 8911
concert 8908
nationwide 8904
sively 8899
ables 8891
inadmissible 8890
slide 8890
hurricane 8888
tax@@ 8887
time-@@ 8885
ignored 8884
p.@@ 8884
Motor 8882
terror 8881
fifty 8880
synthesis 8879
um-@@ 8878
Method 8876
turing 8876
searching 8875
lacking 8874
oul@@ 8874
carriage 8873
HUMAN 8871
Sky@@ 8869
immune 8868
pressures 8868
foot@@ 8867
nan@@ 8865
roots 8864
Kat@@ 8862
stimulate 8862
minds 8860
Writing 8859
composite 8859
Sub-@@ 8858
sey 8858
43@@ 8855
Bio@@ 8855
sman 8855
Suppression 8853
marital 8853
Spe@@ 8851
tionally 8851
Processing 8850
Six@@ 8849
rub@@ 8848
concludes 8846
IVE 8844
Ou@@ 8843
mo 8843
ially 8839
second-@@ 8839
JS@@ 8837
whatsoever 8837
authorize 8836
high-speed 8836
Taiwantrade 8835
benchmarks 8833
el-@@ 8833
graduates 8832
warming 8832
M-@@ 8831
incorporation 8831
DIS@@ 8828
ater 8827
Everything 8822
reward 8821
coalition 8820
15.@@ 8817
Chan 8816
itable 8816
sexually 8816
diplomacy 8815
five-year 8815
olu@@ 8807
tha 8807
D-1 8806
explored 8805
Bec@@ 8804
educated 8804
decorated 8803
slave 8803
stabilization 8803
Peninsula 8799
doctrine 8799
over-@@ 8798
broadly 8794
beg@@ 8792
Physical 8789
fulness 8789
1966 8788
136 8782
Barbuda 8782
Javascript 8780
Examples 8779
lamp 8779
ibid 8778
ld@@ 8778
dominated 8775
Photos 8773
OF@@ 8769
apped 8768
elevator 8768
mit@@ 8768
dose 8766
Domain 8765
alle@@ 8765
SK@@ 8764
expects 8764
ly-@@ 8764
fertility 8762
rey 8762
milit@@ 8761
irrespective 8759
Notice 8756
rivers 8755
69@@ 8754
varying 8751
govern 8750
anno@@ 8749
eries 8749
prosecuted 8748
Brun@@ 8746
timetable 8746
consultant 8745
taxation 8745
08@@ 8744
approached 8744
gener@@ 8744
itary 8740
CN.@@ 8738
ITS 8736
passion 8734
eternal 8733
executives 8733
Log 8731
suited 8730
Points 8729
designation 8729
chances 8728
Rather 8727
â@@ 8727
Pul@@ 8724
remainder 8724
169 8723
tide 8723
habits 8722
crossed 8720
4-star 8719
gue 8718
MIS@@ 8717
investor 8717
po 8717
Growth 8716
confusion 8716
gaining 8715
fears 8714
mobilizing 8712
fulfill 8711
Marshall 8709
curve 8708
medium-sized 8708
Rd 8707
Testing 8707
Tree 8707
consequently 8707
dioxide 8707
Genocide 8706
Vari@@ 8706
soldier 8706
interfere 8705
Auto@@ 8702
ran@@ 8702
moments 8700
Edward 8699
sponsoring 8699
DL@@ 8697
OAU 8697
But@@ 8695
Days 8695
worried 8695
age-@@ 8694
ESA 8690
bers 8690
120@@ 8688
guaranteeing 8688
Maj@@ 8687
periodically 8687
Capacity 8686
Coordinating 8685
risen 8684
roc@@ 8682
Hum@@ 8681
mul@@ 8681
nar@@ 8681
satellites 8680
forgotten 8679
sequ@@ 8679
retro@@ 8674
Nat@@ 8671
chairs 8671
frozen 8668
winds 8668
Edit 8667
Muhammad 8667
.gif 8666
Speed 8662
dre@@ 8662
cement 8661
Considering 8660
commencement 8660
UNITAR 8657
scal@@ 8657
tremendous 8656
cake 8654
imposition 8654
Frank 8653
aches 8653
cap 8652
hired 8650
oper@@ 8649
FL@@ 8647
pocket 8646
expressions 8645
ank 8644
Cop@@ 8639
pumps 8639
stance 8639
Sab@@ 8637
Top@@ 8637
sciences 8637
lif@@ 8636
Jul@@ 8635
Stone 8634
Agent 8632
Partners 8631
sand@@ 8630
blame 8629
pend@@ 8629
Options 8625
oug@@ 8625
linguistic 8624
recession 8621
bra 8618
Emperor 8614
yers 8614
defeated 8613
impartiality 8613
commanded 8610
raises 8610
implies 8609
Parliamentary 8605
Providing 8605
Black@@ 8604
Steering 8604
West@@ 8604
projec@@ 8604
protects 8603
evolved 8602
spheres 8602
Hairdryer 8600
Events 8599
rings 8597
realizing 8596
CS 8595
Silver 8594
Percentage 8593
exploited 8593
Dam@@ 8589
Austrian 8588
jet 8588
Principal 8584
Gibraltar 8581
auction 8579
debts 8579
tract 8579
Princess 8578
tak@@ 8578
Addis 8576
contest 8576
acceded 8575
smell 8572
basically 8571
modest 8569
readers 8569
166 8568
cing 8568
reaches 8568
Wan 8567
Phil@@ 8566
bike 8566
credits 8566
DE 8565
Marriott 8565
exploit 8564
Compact 8563
Electrical 8563
width 8561
dependence 8559
IBM 8557
congratulate 8556
experiencing 8555
halt 8555
peer 8549
safely 8549
legacy 8545
shoot 8545
endorsement 8544
AU@@ 8543
THAT 8543
barrier 8543
Image 8541
itch 8541
daughters 8539
har 8539
98@@ 8535
DA 8535
Whatever 8534
op 8534
stroke 8533
contingency 8532
institute 8532
rocket 8532
wives 8532
GmbH 8530
aluminum 8529
favorites 8529
lucky 8529
ator@@ 8528
auto 8528
tina 8528
torate 8528
wording 8528
Directors 8527
positively 8527
162 8526
137 8525
Tw@@ 8524
commander 8524
examinations 8524
Adam 8522
Carolina 8520
Highway 8520
OTHER 8518
assign 8518
Ple@@ 8517
stake 8516
intimidation 8514
protests 8514
ø@@ 8514
MP 8513
weaknesses 8513
Ali@@ 8512
500@@ 8511
Inhuman 8511
liquidation 8511
ius 8510
treatments 8510
broadcasting 8508
determines 8508
hydrogen 8507
sex@@ 8507
upload 8506
tel@@ 8505
chapters 8504
nam@@ 8504
accomplish 8503
Jam@@ 8502
GE@@ 8501
generous 8500
kn@@ 8498
2.6 8496
cell@@ 8496
proactive 8495
random 8495
Committed 8494
af 8493
Enjoy 8491
berry 8491
Degrading 8490
Tribunals 8490
lobby 8489
extraction 8488
revise 8488
cum@@ 8487
Update 8486
burned 8486
habit 8486
Substantive 8483
nation@@ 8483
adap@@ 8482
proceeded 8481
leaf 8478
processor 8478
swe@@ 8477
hygiene 8476
Decolonization 8474
Minh 8474
phenomena 8473
diesel 8471
males 8471
priests 8471
militia 8469
Township 8468
Opportunities 8467
Son@@ 8466
ía 8465
allocations 8462
dryer 8462
employ 8460
13.@@ 8459
colleges 8459
nomination 8458
noon 8458
gradual 8456
noble 8456
resettlement 8455
theories 8455
270 8453
bits 8453
143 8450
FA 8449
WP.@@ 8449
hua 8449
inger 8449
Presidential 8448
Song 8447
bathrooms 8447
Tokelau 8443
three-year 8443
142 8441
Bos@@ 8441
Lady 8441
cloth 8440
plates 8438
IMO 8437
beaches 8437
HP 8436
accessed 8436
rep@@ 8432
unpaid 8432
ç@@ 8431
OC@@ 8430
18-@@ 8428
ballot 8427
attempting 8425
riding 8423
recalling 8422
Fair@@ 8421
school@@ 8421
visitor 8420
yen 8420
Fish@@ 8419
repe@@ 8419
remembered 8418
Style 8417
main@@ 8417
157 8416
4.1 8415
aiming 8415
Fort 8414
Outlook 8414
pp. 8412
transboundary 8412
life-@@ 8411
irregular 8410
Jacob 8409
less@@ 8409
Pre-@@ 8407
Sor@@ 8405
Ababa 8404
arity 8404
Policies 8403
Ric@@ 8401
Fif@@ 8399
malnutrition 8399
Desk 8395
vid@@ 8395
Racism 8394
decentralization 8394
Jean 8390
castle 8389
Except 8388
beam 8388
exam 8388
iter@@ 8387
Continental 8383
tended 8381
UND@@ 8380
00,000 8376
Stre@@ 8374
shelf 8373
singing 8373
Ari@@ 8371
fusion 8370
layers 8370
Rus@@ 8367
corrections 8367
low-income 8366
ula 8366
pel@@ 8365
interact 8364
Mandate 8363
PE 8361
ceased 8361
tioned 8360
free@@ 8359
25-@@ 8358
nos@@ 8355
UNAIDS 8354
Improving 8352
DO@@ 8350
clarified 8349
shortcomings 8346
Automatic 8343
moderate 8343
revol@@ 8343
Ful@@ 8342
excited 8342
iring 8342
occurrence 8340
preserved 8339
Airlines 8338
1964 8336
counter-@@ 8336
Resident 8334
prosecutor 8334
rejection 8334
dangers 8332
mentally 8329
ram 8329
respondents 8329
ican 8327
publicity 8325
¡ 8325
disparities 8324
gay 8324
′ 8324
ati 8323
1540 8321
midst 8321
tro 8321
Pun@@ 8319
Vice-@@ 8319
consisted 8318
supporters 8318
demonstrates 8317
prompted 8312
Macau 8311
Ve@@ 8308
D.@@ 8304
MySQL 8304
Guam 8302
correspondence 8301
aving 8300
sor 8298
quarters 8297
transformed 8297
Cruel 8296
Student 8296
Ye@@ 8296
ñ@@ 8296
360 8295
dressed 8295
oxide 8294
Vision 8293
xing 8293
buttons 8292
dra@@ 8292
incomes 8292
specification 8291
florist 8289
tends 8286
exclude 8283
gle 8283
revolutionary 8283
Baghdad 8281
Girl 8281
m-@@ 8280
yours 8280
Infrastructure 8279
ate-@@ 8279
neighbours 8279
Rev@@ 8278
eller 8278
excellence 8278
valley 8277
Similar 8276
did@@ 8276
tives 8274
W. 8271
licenses 8271
trace 8270
charging 8269
ana@@ 8268
materi@@ 8268
guards 8267
Has 8265
Okay 8264
activated 8264
inconsistent 8264
Dom@@ 8263
Ten 8262
correction 8262
edi@@ 8261
ICC 8260
IE 8259
meantime 8254
spe@@ 8254
151 8253
Cer@@ 8253
Hangzhou 8251
use@@ 8250
Naz@@ 8249
Rap@@ 8248
cabinet 8248
accord 8247
locks 8245
there@@ 8244
Dra@@ 8243
horses 8243
Plant 8240
ound 8240
ch-@@ 8238
containers 8236
16th 8234
Areas 8234
WIPO 8234
bears 8234
16-@@ 8232
16.@@ 8231
Fol@@ 8230
accumulation 8229
coupled 8229
livelihood 8229
ulate 8229
x-@@ 8229
144 8228
Links 8228
Seven 8228
community-based 8228
induced 8227
tain@@ 8227
qualities 8226
var@@ 8226
XV 8224
extends 8224
gram 8222
Guard 8221
aggressive 8219
COM 8218
Porto 8218
declining 8217
1965 8216
ges@@ 8216
inten@@ 8213
ashes 8212
Sto@@ 8209
alliance 8209
ogy 8209
Offices 8208
attainment 8208
crystal 8208
styles 8208
anna 8207
graduated 8207
los@@ 8207
LA@@ 8206
hazards 8206
kar@@ 8206
Likewise 8204
Ds 8203
Indonesian 8203
Seating 8203
underscored 8201
Organic 8200
analysing 8199
Fle@@ 8198
SI 8198
affirmed 8198
lo 8198
compiled 8197
aded 8196
ced 8196
debtor 8196
singer 8195
marriages 8191
yn 8191
oid 8190
resumption 8190
PR 8189
combining 8189
purchases 8188
relaxed 8187
ulated 8187
147 8186
ule 8186
Inter-@@ 8184
distinguish 8184
tunnel 8184
Ukrainian 8183
comprised 8183
performances 8183
Hot@@ 8182
Van@@ 8181
illegally 8180
ECLAC 8178
revisions 8178
sav@@ 8177
buyers 8176
abolished 8174
ador@@ 8173
editing 8173
210 8171
physically 8168
five-@@ 8167
imply 8167
pro-@@ 8167
ym@@ 8166
.js 8165
Non@@ 8164
hu 8164
nor@@ 8164
Hamburg 8163
Ten@@ 8160
UNMIS 8160
aliens 8160
FO@@ 8159
irr@@ 8159
CP 8158
slight 8158
surge 8158
bet@@ 8156
penal 8156
modifications 8155
Red@@ 8154
explosion 8154
somewhere 8154
pers@@ 8151
entrepreneurship 8150
secretariats 8149
mill@@ 8148
pounds 8148
Situated 8147
banned 8147
Subprogramme 8144
Presidency 8142
Phase 8141
clusters 8141
commented 8141
incentive 8139
viruses 8139
crash 8137
hearings 8137
nobody 8135
Mak@@ 8133
1950 8130
Doctor 8130
here@@ 8130
organ@@ 8130
vibration 8130
DATING 8129
dimensional 8128
Kids 8126
Laser 8125
MR@@ 8125
mg 8125
filters 8124
challenged 8123
Arch@@ 8122
156 8121
shook 8121
Tropical 8119
ification 8119
descriptions 8117
pensions 8117
rests 8117
Reiterates 8116
10-minute 8115
Som@@ 8115
Frankfurt 8113
Cambridge 8108
non-State 8108
ender 8107
commissioned 8106
rear 8105
rolled 8104
ic-@@ 8103
governor 8102
fle@@ 8101
Ban 8099
Command 8099
credited 8099
off-@@ 8098
tap 8097
lob@@ 8096
unlike 8095
IK@@ 8094
attach 8094
ranking 8094
dramatically 8092
fortune 8092
investigative 8091
mother@@ 8089
ranges 8088
128@@ 8087
Cash 8086
ONG 8086
pertinent 8086
Granting 8085
MINUSTAH 8084
Graphic 8082
Hollywood 8081
program@@ 8081
Bun@@ 8079
rers 8079
proximity 8077
Ori@@ 8076
surfaces 8076
gene 8075
ScriptResource.axd 8073
criterion 8071
Coalition 8070
Comoros 8069
Ker@@ 8069
bom@@ 8067
cancelled 8067
iz 8067
pp@@ 8067
hybrid 8066
matching 8065
minibar 8065
rence 8065
tags 8063
tting 8062
Border 8059
mont 8057
SERVICE 8056
mortgage 8056
Nar@@ 8055
Certified 8054
wings 8054
trigger 8052
road@@ 8051
failures 8050
alised 8048
ential 8048
parental 8048
consulted 8044
enquiry 8044
terr@@ 8044
tual 8044
abo@@ 8042
ailing 8042
reads 8042
bids 8041
TT 8040
year@@ 8040
zi 8040
kins 8039
CCW 8038
Cham@@ 8038
pros@@ 8038
stomach 8037
ante 8036
leverage 8036
Dur@@ 8035
Inte@@ 8032
salvation 8031
respecting 8030
cali@@ 8029
Labor 8026
deserve 8025
olog@@ 8025
Passenger 8024
„ 8024
demonstrations 8023
disseminated 8020
RM@@ 8019
rid@@ 8019
valves 8015
diver@@ 8012
Eradication 8010
creditor 8010
socially 8010
DO 8009
thread 8009
TER 8008
inviting 8008
twin 8006
loop 8005
alty 8001
Dragon 7998
index@@ 7997
brush 7996
Kun@@ 7995
thers 7994
adversely 7993
annexed 7993
dé@@ 7993
Mike 7992
Heart 7991
Stay 7991
tub 7991
Citizens 7989
17th 7988
varies 7986
mom 7983
palace 7981
positioning 7981
eous 7975
strikes 7973
INDUSTRY 7971
adi 7971
atin@@ 7971
etc. 7971
organisms 7971
developmental 7970
quanti@@ 7970
aking 7967
violating 7967
Distribution 7966
Grenada 7966
sto@@ 7966
traveling 7966
carriers 7965
ison 7965
prohibits 7964
hereinafter 7963
aster 7962
casting 7959
develops 7959
colon@@ 7958
Ce@@ 7954
tains 7954
yang 7951
exported 7950
146 7944
archives 7944
folk 7942
Browse 7941
Memorial 7940
Metal 7939
terminated 7939
Power@@ 7938
Sudanese 7937
acti@@ 7936
Andre@@ 7934
UNFCCC 7934
2.7 7933
sho@@ 7933
shire 7932
aters 7930
harsh 7930
49@@ 7927
Liaison 7927
reck@@ 7927
stolen 7926
Transportation 7925
call@@ 7923
warehouse 7922
Fal@@ 7920
dal 7919
somebody 7918
exemption 7917
Kir@@ 7916
guides 7916
Bretton 7915
alter 7908
nervous 7908
pets 7908
reconnaissance 7906
designate 7905
fi 7904
Zhejiang 7903
Uses 7901
shapes 7901
Nuclear-Test-Ban 7899
chicken 7899
ez@@ 7897
CM 7895
eth 7895
jo 7894
Presidents 7893
house@@ 7892
esh 7891
swee@@ 7889
Movie 7888
ONE 7888
Rwandan 7888
Tit@@ 7888
extrajudicial 7888
igh 7888
ML@@ 7887
circular 7887
4.3 7886
Hungarian 7886
stan@@ 7885
countering 7884
organised 7884
renovation 7881
pixels 7880
qualitative 7877
allies 7876
001 7875
Procedures 7872
rapporteurs 7871
bonus 7870
briefed 7869
airline 7867
defendant 7867
hostile 7866
non-compliance 7866
Morgan 7863
URE 7861
Mall 7860
objections 7860
recep@@ 7859
GENERAL 7858
basketball 7858
ex-@@ 7856
zi@@ 7855
1958 7853
Oxford 7852
under-@@ 7852
shorter 7851
ume 7850
planets 7848
Tru@@ 7846
ented 7846
guideline 7844
amp 7843
Resid@@ 7842
up-to-date 7842
240 7839
Bab@@ 7839
Cold 7839
CERD 7838
Inter-American 7837
Understanding 7836
equation 7836
hazard 7832
prohibiting 7831
18.@@ 7830
gol@@ 7828
Commun@@ 7827
hil@@ 7826
Tag 7824
arch 7824
ice@@ 7823
Advice 7822
ae@@ 7822
per-@@ 7822
Gol@@ 7821
collaborate 7821
oom 7821
distant 7818
costly 7817
lah 7817
Position 7816
bacteria 7814
ald 7812
packing 7809
saith 7809
Better 7808
ario 7808
safeguarding 7805
ERP 7803
speaks 7802
sou@@ 7801
activists 7799
grades 7799
mercy 7798
Importer 7797
ROC 7797
alert 7797
offshore 7797
urbanization 7797
assumes 7794
Addendum 7793
13th 7792
Sav@@ 7792
Stop 7792
Jim 7791
muscle 7789
clearing 7788
sli@@ 7786
15th 7782
Kan@@ 7781
CDM 7779
buses 7778
accreditation 7776
sound@@ 7776
stat@@ 7774
Wine 7772
harvest 7772
tability 7770
Week 7769
unclear 7768
Has@@ 7767
TC1303B-@@ 7767
Twin 7766
alleviate 7766
Prevent 7765
Was 7765
iga 7765
lens 7765
neighborhood 7765
и@@ 7765
152 7763
popularity 7763
stops 7762
acknowledges 7761
seekers 7760
Jan 7758
spouses 7757
Fas@@ 7756
discusses 7755
Helsinki 7753
bos@@ 7753
laugh 7753
Conventional 7752
tos 7752
persecution 7751
conten@@ 7750
AMISOM 7743
5-minute 7742
Stra@@ 7742
1962 7741
wheat 7741
competing 7740
tex@@ 7740
Fast 7739
Behance 7738
Distr 7735
compliant 7735
Password 7732
suspects 7732
Darussalam 7730
Dispute 7730
shaft 7730
funny 7729
cher@@ 7728
human@@ 7728
lab 7727
node 7727
systemic 7727
cessation 7726
kan 7726
165 7724
Heaven 7724
supervisory 7724
TP@@ 7723
Bonn 7721
Equatorial 7721
promotional 7721
ground@@ 7718
Flat-screen 7717
legality 7716
Industries 7715
cooperating 7715
Jackson 7714
t-based 7713
replacing 7712
dor@@ 7711
Hur@@ 7710
hes@@ 7710
vul@@ 7709
Joe 7708
pools 7708
Chin@@ 7705
Opera 7704
coordinators 7704
encounter 7702
incumbent 7699
ows 7699
158 7697
Client 7696
bridges 7696
loving 7696
Compensation 7695
UNITED 7695
annexes 7694
190 7692
CB 7692
urs 7692
Albert 7691
misconduct 7691
unanimously 7691
corrosion 7690
bab@@ 7687
Buddhist 7686
tox@@ 7686
emer@@ 7685
inj@@ 7685
loo@@ 7685
receivable 7683
Simple 7682
nas@@ 7682
overwhelming 7682
preserving 7682
Municipal 7681
identifies 7681
outbreak 7681
Glass 7680
Pierre 7680
UN-@@ 7678
ull 7678
attaches 7677
1.9 7676
acies 7675
vendor 7675
inform@@ 7670
suits 7670
mutilation 7667
Expressing 7662
Clinton 7661
Bad@@ 7660
Camp 7660
0.8 7659
GC.@@ 7658
cure 7658
reader 7658
Practices 7657
2.8 7656
contributors 7656
developer 7656
Paulo 7655
corrupt 7655
t. 7655
Tool 7653
delivers 7653
Almost 7652
Remote 7651
museums 7648
accelerating 7645
defects 7645
148 7644
235 7644
Campaign 7644
contr@@ 7644
gods 7644
initi@@ 7644
twelfth 7644
154 7642
audi@@ 7642
Les 7640
com 7638
Kin@@ 7637
Recently 7637
appearing 7636
Comment 7635
Optoway 7635
auto@@ 7634
ses@@ 7634
je 7633
airports 7632
combines 7631
Ah@@ 7629
Plenary 7629
piano 7629
reactions 7628
corn 7627
3.4 7626
Easy 7626
celebration 7626
CIS 7625
intermediate 7623
criminals 7622
year-@@ 7622
Ethics 7620
livestock 7620
toilet 7619
South-East 7618
voices 7616
kings 7615
neuro@@ 7615
rays 7615
suppose 7612
Microwave 7611
hospitality 7610
downtown 7609
2016-@@ 7607
enters 7607
rel 7607
throne 7606
herewith 7604
anymore 7603
proclaimed 7603
corrected 7602
GP@@ 7601
VMware 7601
merged 7601
ests 7600
uk 7600
Religious 7599
XII 7599
ounded 7598
circled 7597
Years 7596
classroom 7595
lifestyle 7595
Along 7593
weakness 7593
ui 7592
shots 7591
hungry 7590
nineteenth 7590
smartphone 7590
Nas@@ 7589
4,000 7588
fer 7588
stamp 7588
predecessor 7587
Entry 7586
Female 7585
MAN@@ 7585
aying 7585
nings 7585
relaxation 7585
volunteer 7585
TMt 7584
¦ 7584
2005-@@ 7580
inging 7580
ally-@@ 7575
explanations 7575
owns 7575
wai@@ 7573
destructive 7570
tern 7569
5.2 7567
kno@@ 7566
likewise 7566
aw 7565
deciding 7565
harmonious 7565
Redirected 7564
variance 7562
Pel@@ 7561
factories 7560
1960s 7558
Dat@@ 7557
egg 7556
Put 7553
AB 7552
scenes 7552
Os@@ 7551
lord 7551
loud 7550
treating 7550
GO@@ 7548
atomic 7548
execute 7548
gh@@ 7548
Dear 7546
Stri@@ 7545
rocks 7544
2008-@@ 7543
Release 7540
Job 7539
ignore 7538
collections 7537
mile 7536
asting 7535
tab 7535
thor@@ 7534
Serbian 7531
universality 7530
crazy 7529
Vietnamese 7528
north-@@ 7527
ARE 7524
Harvard 7524
Franc@@ 7522
burst 7522
ange 7521
lip 7521
Grenadines 7516
ries 7515
traders 7515
ook 7514
seven@@ 7514
Vic@@ 7513
contingent-owned 7513
obl@@ 7513
committing 7512
Expo 7511
explosives 7511
child-@@ 7510
Sect 7509
Captain 7505
residual 7504
fifty-eighth 7503
flow@@ 7503
tai 7501
accumulated 7500
infringement 7500
fix@@ 7499
Accommodation 7497
hou@@ 7497
inated 7497
Hai@@ 7496
hero 7496
licensors 7495
relocation 7495
ump 7495
lit 7494
recipients 7493
Four@@ 7491
Ann@@ 7490
subscription 7490
Juan 7489
stein 7489
preambular 7487
GC 7486
cus@@ 7486
10,@@ 7484
Translation 7484
Shar@@ 7483
icate 7483
deposited 7481
68@@ 7480
Skype 7479
prisoner 7479
robot 7479
Gall@@ 7478
naval 7477
Taylor 7476
hoping 7475
bie 7474
bedrooms 7473
naked 7473
intersessional 7470
ng 7469
Treaties 7468
heated 7468
continually 7467
Ep@@ 7466
suites 7466
pled 7465
Lev@@ 7464
wed 7464
Benefits 7463
Cases 7463
Tex@@ 7463
DAMAGES 7462
loose 7462
án 7462
wanting 7460
pass@@ 7459
creativity 7457
disorder 7457
uranium 7457
projections 7455
petroleum 7453
aders 7452
230 7451
ICA 7451
'S 7450
José 7450
Tours 7450
steering 7450
ysis 7450
Cost 7449
esh@@ 7449
multinational 7448
Prison 7447
variation 7446
175 7445
149 7444
ip 7442
anyway 7439
tism 7439
Ask 7437
fro@@ 7437
thrown 7437
Croatian 7436
ometer 7436
empower 7435
marble 7435
depend@@ 7434
py 7434
voluntarily 7434
Pin@@ 7433
nominations 7429
racist 7428
bookings 7427
con 7427
notices 7427
recourse 7426
SAP 7425
hair@@ 7425
skip 7425
stuck 7425
Sound 7424
Individual 7423
jury 7421
badly 7420
fifty-ninth 7420
state@@ 7420
activation 7418
capac@@ 7418
bay 7417
gg@@ 7417
planted 7417
rounds 7417
COMMITTEE 7416
chocolate 7415
wore 7415
Hostelworld.com 7414
knife 7414
Championship 7412
probability 7412
abstentions 7411
origin@@ 7411
centred 7410
AA 7409
bold 7409
Deluxe 7408
Simon 7407
Shan@@ 7404
imaging 7404
athletes 7403
ind 7402
Around 7401
selec@@ 7400
Solution 7399
Wol@@ 7399
disappearances 7399
fra@@ 7399
ually 7399
Lower 7398
Mand@@ 7398
bic@@ 7397
imposing 7397
graphy 7396
Grand@@ 7395
representations 7395
PE@@ 7394
invoked 7394
cleared 7393
inevitable 7393
programmatic 7391
Jun 7390
beaten 7390
Neither 7389
Managing 7388
Sam 7384
Route 7383
conceptual 7383
extract 7383
lik@@ 7382
Navigation 7381
anz@@ 7381
foregoing 7381
inalienable 7378
pop 7378
SAR 7376
fifty-seventh 7374
ligh@@ 7374
pledge 7374
eye@@ 7373
167 7372
way@@ 7371
30,000 7369
emphasizing 7368
infectious 7368
Din@@ 7366
Migrant 7364
prerequisite 7363
Hun@@ 7361
Jac@@ 7358
align 7358
basket 7358
variations 7357
dad 7355
Chambers 7354
161 7352
discontinue 7351
Consumer 7350
Emphasizes 7350
ros 7350
CEB 7349
aus@@ 7346
bb@@ 7346
6.5 7344
mounting 7344
announce 7343
generic 7341
13-@@ 7339
remo@@ 7339
spreading 7339
brac@@ 7338
devastating 7338
contamination 7337
get@@ 7336
interdependence 7336
Lane 7335
direc@@ 7335
Explore 7332
attributes 7332
magazines 7332
particle 7331
scales 7331
2011-@@ 7328
vac@@ 7328
was@@ 7327
sam@@ 7324
personalize 7323
Jane 7322
rem@@ 7322
arrears 7321
CSS 7318
Payment 7317
pdf 7317
Diego 7316
symbols 7316
CMP 7315
Superb 7315
behold 7315
minerals 7315
shelters 7315
farms 7314
365 7313
night@@ 7312
simplified 7309
insights 7307
volatile 7307
Overseas 7305
literary 7305
specialty 7305
Held 7304
delicious 7304
Houston 7303
contracted 7303
diagnostic 7302
Oslo 7301
Der@@ 7300
erosion 7299
Partner 7298
Yahweh 7298
commence 7297
definitive 7297
.I 7296
Orlando 7295
earmarked 7295
helicopter 7294
1946 7293
Enforcement 7293
5.1 7291
repl@@ 7291
stor@@ 7291
cleaner 7290
councils 7290
Destruction 7289
Mai 7289
Membership 7289
neglect 7289
theft 7289
251 7288
thickness 7288
sub-Saharan 7287
luxurious 7286
ouse 7286
hat@@ 7282
arriving 7281
Seychelles 7276
may@@ 7276
Thir@@ 7275
safer 7274
commands 7273
relaxing 7267
sharply 7267
aked 7266
inception 7266
apple 7265
vulnerabilities 7262
Yuan 7261
documentary 7261
rainfall 7261
Autonomous 7259
celebrated 7258
fts 7257
lover 7257
tric 7257
anti 7256
spatial 7256
Pil@@ 7255
208 7254
notifications 7254
Matthew 7253
unfair 7253
vian 7253
expiration 7252
secrets 7252
Especially 7250
liquidity 7250
league 7249
Observatory 7247
servic@@ 7246
Pearl 7244
pays 7244
endeavours 7241
inappropriate 7240
persistence 7240
197@@ 7239
kil@@ 7239
syndrome 7239
Plastic 7238
Pop@@ 7238
dom@@ 7238
76@@ 7237
cab@@ 7237
rebel 7237
Generally 7236
expedite 7236
OG@@ 7235
14-@@ 7233
Wardrobe 7233
Stephen 7232
analysts 7232
apping 7232
itz 7232
Euro 7231
Downtown 7230
loads 7230
Baby 7229
emerge 7229
Enterprises 7228
fos@@ 7228
small-scale 7228
yo@@ 7228
attorneys 7223
EG@@ 7222
Pressure 7222
eligibility 7221
outlook 7221
unlimited 7219
192 7218
Cir@@ 7218
tragic 7218
radical 7217
tragedy 7217
São 7216
unde@@ 7215
know-how 7214
Eng@@ 7213
dial 7212
ek@@ 7212
besides 7210
Andrew 7209
Kowloon 7209
quo@@ 7209
incitement 7208
teries 7208
quota 7207
confined 7206
contexts 7206
breaks 7205
terri@@ 7204
kilometers 7201
SEO 7200
ician 7200
appropriations 7198
itude 7198
Bed@@ 7197
Bir@@ 7195
GPS 7194
Yan@@ 7193
dges 7193
absorption 7192
motivation 7191
nec@@ 7190
breaches 7189
facilitates 7189
qualify 7189
sisters 7188
Cancer 7187
controversial 7187
returnees 7187
11th 7186
750 7186
Bob 7186
compensate 7185
Bet@@ 7184
trainers 7184
Beauty 7181
mini 7181
shut@@ 7180
XXX 7178
part-time 7178
Agreements 7177
alleviation 7177
waited 7177
RES 7175
Wu 7175
disputed 7175
Catal@@ 7174
inserted 7173
450 7172
claimants 7170
mach@@ 7170
attained 7169
Fam@@ 7168
Active 7167
Beyond 7166
perpetrated 7166
Aspects 7164
counties 7164
Jer@@ 7161
Adopted 7160
Import 7160
You@@ 7159
kid@@ 7159
Follow 7158
tho@@ 7158
nursing 7157
stressing 7157
asleep 7156
postal 7156
Attorney 7155
deliberate 7155
prevents 7155
Credentials 7153
Gate 7152
dealings 7152
strip 7152
ashing 7150
altern@@ 7149
snow@@ 7147
Eight 7146
draw@@ 7145
him@@ 7145
abstract 7144
taining 7144
accepts 7143
Marina 7142
extensively 7141
striking 7141
validation 7141
liberal 7140
15-minute 7139
Gil@@ 7139
kissed 7139
Hay@@ 7137
Kas@@ 7137
anded 7135
Les@@ 7133
contaminated 7132
designers 7132
punishable 7132
grinding 7130
doubts 7129
reveals 7129
12th 7127
Funds 7126
Need 7126
Different 7125
nets 7125
renowned 7124
Sho@@ 7122
open@@ 7121
serial 7121
Periodic 7120
Fine 7119
postponed 7119
Ny@@ 7117
experi@@ 7117
praised 7117
sixty-first 7117
BBC 7116
Fon@@ 7115
Motel 7115
NEW 7114
highlighting 7114
NS@@ 7111
fires 7111
ounce 7111
Approach 7108
Shel@@ 7108
locate 7108
micro-@@ 7108
uncertain 7108
los 7107
Photo@@ 7106
tournament 7106
reparation 7105
Poor 7104
super 7103
excuse 7102
ulating 7102
300@@ 7101
asse 7101
diligence 7101
altered 7100
optimized 7100
Tan@@ 7099
igns 7099
Sao 7098
smo@@ 7098
tiv@@ 7098
Tel@@ 7097
accede 7097
calculate 7096
waiver 7096
Minorities 7094
gently 7094
aba 7093
iding 7093
ive 7093
159 7092
clips 7092
patrols 7092
anni@@ 7090
six-@@ 7087
deferred 7086
importantly 7086
adventure 7082
ester@@ 7080
tungsten 7080
acquiring 7078
walks 7078
Centres 7077
ku@@ 7077
corporal 7076
Lou@@ 7074
timber 7073
Ford 7070
occasionally 7070
1954 7068
3.0 7068
ANG 7068
top-@@ 7068
oling 7067
wid@@ 7066
icons 7065
rum@@ 7065
system@@ 7065
vacant 7064
expedi@@ 7062
185 7061
Add.3 7061
Arm@@ 7061
painful 7061
fare 7060
repairs 7060
hunting 7059
Mars 7058
talents 7058
anti-corruption 7057
describing 7056
insight 7056
ua 7056
absorbed 7053
ima 7053
roster 7052
velocity 7051
ied 7050
ment-@@ 7050
laboratories 7048
Revised 7047
TN@@ 7046
anim@@ 7046
neutr@@ 7046
Kis@@ 7045
tops 7045
hop@@ 7042
Pay 7041
Secondary 7041
cler@@ 7041
entries 7040
quarterly 7040
tles 7040
Truth 7039
asis 7039
Patent 7038
t.aspx 7037
pipeline 7036
vy 7036
scan 7033
vent 7032
Augus@@ 7031
Samsung 7030
Stand 7030
irs 7030
merger 7030
shells 7029
undertakings 7029
settlers 7028
Challenges 7027
ele 7026
Booking 7025
packed 7025
quest 7025
graduation 7024
gym 7024
omissions 7024
HD@@ 7023
Nur@@ 7023
bearings 7023
Han 7022
Mont@@ 7022
Nation@@ 7022
departmental 7022
ge-@@ 7021
akh@@ 7020
thirteenth 7020
ent-@@ 7019
Author 7016
SB@@ 7015
bones 7015
juice 7015
1955 7014
5.5 7013
alistic 7013
exc@@ 7013
humor 7009
shalt 7009
VR 7007
Operating 7004
Pap@@ 7003
middle-income 7003
emotions 7002
xed 7001
turn@@ 7000
for-@@ 6999
twenty-third 6999
168 6998
Auto 6998
Arctic 6997
Argentine 6997
Hydro@@ 6997
Magazine 6997
Tips 6995
Volume 6995
Qi@@ 6994
Arrival 6993
14th 6992
Engine 6992
Xi@@ 6992
icts 6992
resist 6992
imin@@ 6991
anga 6989
Faculty 6988
cord 6987
drama 6986
Verification 6985
fairness 6983
favorable 6983
tuberculosis 6983
confiscation 6982
disseminating 6982
improves 6981
ffs 6976
freezing 6976
Counsel 6975
techn@@ 6974
211 6973
Mail 6973
Squ@@ 6970
inventories 6970
Bs 6969
Departure 6969
notwithstanding 6969
pes@@ 6968
1,500 6966
artillery 6965
AF 6963
1.15 6962
ANCE 6962
Vanuatu 6961
ared 6959
cut@@ 6958
inquiries 6958
Wall@@ 6957
painted 6957
bre 6956
flame 6956
lasted 6956
és 6952
Ball@@ 6951
tivity 6951
tless 6951
Zurich 6950
rendering 6950
strengths 6950
chair@@ 6948
ope 6948
hardship 6947
predicted 6947
violates 6947
242 6946
fever 6946
Analog 6945
policymaking 6944
125@@ 6942
Weather 6939
omin@@ 6939
DR 6938
N. 6938
Terminal 6936
domin@@ 6935
derog@@ 6934
ér@@ 6934
cru@@ 6933
ill-@@ 6932
vor@@ 6932
183 6931
double-@@ 6930
dat@@ 6929
tex 6927
entail 6926
stic@@ 6926
AC.109 6924
WA 6924
scar@@ 6924
laying 6923
insert 6921
pit 6920
Yam@@ 6919
Flight 6918
eve 6918
rain@@ 6918
lung 6917
dozen 6915
Initial 6914
breeding 6914
essed 6914
lend 6914
predict 6914
afterwards 6913
cook 6913
columns 6912
Liberian 6909
Preparation 6909
hanging 6909
aftermath 6908
Diamond 6907
optimum 6907
anne 6905
scanning 6905
Fashion 6904
Menu 6903
NATIONS 6903
mad 6903
mas 6903
posing 6902
sightseeing 6902
0s 6901
COP.@@ 6899
liness 6899
ago@@ 6898
hung 6898
Think 6895
in-house 6895
crude 6893
fighters 6893
marke@@ 6893
ook@@ 6893
2000-2001 6892
Fore@@ 6889
misuse 6889
charts 6887
rights-based 6885
inspiration 6883
Corps 6882
tifying 6882
Reconciliation 6879
Duke 6877
accomplishment 6877
6,000 6875
Add.4 6875
pushing 6874
Requirements 6873
shouldn 6873
spra@@ 6873
actu@@ 6872
Temperature 6871
sens@@ 6870
RA 6868
cattle 6866
printer 6866
Nor 6865
Ended 6864
arities 6864
faithful 6864
Lyn@@ 6863
sional 6863
irrigation 6862
differently 6860
helicopters 6860
Ensuring 6859
Day@@ 6858
dos 6858
Establish 6857
unexpected 6857
influences 6856
clinics 6855
HA 6853
architectural 6851
open-@@ 6851
memories 6850
blessed 6848
Courts 6847
yo 6847
matic 6846
intentions 6845
UNFICYP 6844
bouquets 6844
counts 6844
racing 6843
kov 6842
Bom@@ 6841
keyboard 6841
213 6840
Fax 6840
Partnerships 6840
226 6839
Gro@@ 6839
booked 6839
breathing 6839
Kelowna 6838
dev@@ 6838
m.@@ 6838
uma 6838
Languages 6835
hang@@ 6834
ING@@ 6833
aran@@ 6833
ferryto.com 6832
PRST 6830
dge 6830
rush 6830
Audi@@ 6829
CPC 6828
ambi@@ 6827
oh 6827
Print 6826
dale 6825
tieth 6825
Bow@@ 6823
ited 6822
pir@@ 6822
Strengthen 6820
pit@@ 6820
260 6819
锛@@ 6819
Message 6818
long-standing 6818
consolidating 6817
Junior 6815
forcing 6815
Mic@@ 6814
dging 6814
kie 6814
yards 6814
drag 6813
euros 6813
landmines 6813
Crown 6812
Fab@@ 6811
ailed 6811
civilizations 6811
dancing 6811
purely 6811
Decisions 6810
Ontario 6810
awaiting 6810
mation 6810
oo 6808
Imperial 6807
diversion 6807
renovated 6804
ased 6803
wrongful 6802
accompanying 6801
Kit@@ 6800
influential 6800
cad@@ 6799
Hills 6798
remnants 6798
boarding 6796
Otherwise 6795
Securities 6794
grows 6794
Gas@@ 6793
Manhattan 6793
ACT@@ 6790
arization 6789
recognised 6789
Us@@ 6788
gar 6788
ud 6788
indicative 6787
jun@@ 6787
ition 6786
ologically 6785
Forex 6784
Sou@@ 6783
blade 6783
junior 6783
189 6782
advocated 6782
Ven@@ 6781
conservative 6779
Excellent 6778
Lincoln 6777
Mohamed 6775
journalist 6774
buffer 6773
non-nuclear-weapon 6772
unchanged 6772
199 6771
approaching 6771
Y-@@ 6770
Harbour 6769
opt 6769
Explo@@ 6768
Vir@@ 6768
mic@@ 6768
Historical 6764
Laws 6764
shocks 6764
BM@@ 6763
ig 6763
switching 6762
Paul@@ 6761
renamed 6761
ug 6761
Rehabilitation 6758
counted 6758
grav@@ 6758
RMB 6757
commend 6756
sel 6755
tled 6753
arises 6750
matched 6750
beneath 6748
Build 6747
delicate 6747
Allow 6746
Elections 6745
debu@@ 6745
restrictive 6744
tible 6744
essing 6741
thrust 6741
03@@ 6737
gospel 6737
termin@@ 6737
G4 6736
evacuation 6736
YouTube 6733
Connect 6732
Crescent 6729
Liber@@ 6727
Soon 6727
contingents 6727
exchanged 6727
posi@@ 6726
query 6723
Gardens 6722
Hi 6722
Comfort 6721
Leave 6721
usefulness 6721
WS 6720
HE@@ 6719
employing 6719
Appointment 6717
hap@@ 6717
IG 6716
TED 6716
Chris 6714
boot 6714
centralized 6714
vicinity 6713
est-@@ 6712
Generator 6710
paren@@ 6709
encouragement 6708
shoulders 6707
Mountains 6706
ails 6706
arrests 6706
kid 6706
plug@@ 6706
stic 6706
schooling 6705
apportionment 6702
selective 6701
Guadeloupe 6700
Islam@@ 6699
164 6698
1956 6698
Complete 6698
Im 6698
chr@@ 6698
1959 6697
constitu@@ 6697
toll 6697
speeds 6696
Audio 6695
babies 6695
Associate 6694
Free@@ 6694
CRM 6692
Depending 6691
Lis@@ 6691
ing.@@ 6690
scr@@ 6690
Delta 6689
positioned 6689
Jos@@ 6686
deck 6685
Sky 6684
ā@@ 6684
Cat 6683
Chain 6682
atics 6681
xi@@ 6681
ather 6680
believing 6680
ITC 6679
VER@@ 6678
consequential 6678
Nanjing 6677
bidding 6677
china 6676
2006-@@ 6674
Hope 6673
ania 6673
4.4 6672
Arthur 6672
King@@ 6672
Chiang 6671
boasts 6671
dou@@ 6671
hiring 6671
illustrated 6671
ja@@ 6671
Mam@@ 6670
wildlife 6670
dictionary 6669
elementary 6669
Owing 6668
mold 6668
Doc@@ 6667
wit@@ 6667
'an 6666
Detention 6661
impetus 6661
glob@@ 6657
7.5 6656
anal@@ 6656
expectation 6656
Ear@@ 6655
concentrations 6654
fifteenth 6654
industrialized 6654
successive 6654
winners 6652
configured 6651
laptop 6650
deficiencies 6649
Blood 6648
bis@@ 6647
surrender 6647
authentication 6646
batteries 6646
gio 6646
molecular 6646
amen@@ 6644
synthetic 6644
Nonetheless 6643
criticized 6642
refined 6642
bour@@ 6641
pairs 6640
xes 6638
1957 6636
Santiago 6635
stra@@ 6635
spi@@ 6634
CONFERENCE 6633
passive 6633
repu@@ 6632
countryside 6631
fossil 6631
vic 6631
Georgian 6630
Lat@@ 6630
urus 6629
privately 6628
Stressing 6627
mem@@ 6627
ICE 6626
wound 6626
Designed 6625
Trademark 6625
promotions 6625
timeline 6625
hypo@@ 6623
gallery 6620
iPod 6620
fits 6619
Ther@@ 6618
confused 6618
trus@@ 6618
LY 6617
subprogrammes 6617
Armenian 6616
laughed 6616
prevail 6616
Disability 6615
ITY 6615
phased 6615
streamline 6614
drilling 6613
universally 6613
Al-Qaida 6611
6.2 6609
suspicious 6607
Cook 6605
South@@ 6603
а@@ 6603
cere@@ 6601
encies 6601
illiteracy 6601
assuming 6600
UNU 6599
sym@@ 6599
trucks 6599
worn 6599
need@@ 6598
Jiangsu 6597
Stabilization 6597
Wilson 6597
strongest 6595
о@@ 6595
Scope 6593
iso@@ 6593
paths 6593
simul@@ 6593
insured 6592
Magic 6591
nal 6591
tern@@ 6591
visions 6591
roller 6590
ce-@@ 6589
Optim@@ 6588
suppression 6588
zo@@ 6587
Listings 6586
jan 6586
Editor 6584
kel 6584
shop@@ 6584
world@@ 6584
Tol@@ 6583
parti@@ 6582
two-year 6582
163 6580
blocked 6580
orph@@ 6579
Responsibility 6578
care@@ 6578
exhibit 6578
vers@@ 6578
petition 6577
honey 6576
morph@@ 6575
Temporary 6573
biology 6570
fort 6570
12,@@ 6568
forensic 6568
ulous 6568
Kol@@ 6565
dynam@@ 6565
lectures 6565
Institu@@ 6563
Suzhou 6563
seize 6563
tiles 6563
Down@@ 6562
Mass 6562
ifying 6561
paintings 6561
sends 6561
Books 6558
Superior 6558
hills 6558
instalment 6555
screw 6554
Mun@@ 6553
cin@@ 6552
exceeds 6552
revitalization 6552
Lang@@ 6551
Du 6550
ea 6550
scores 6549
Pay@@ 6546
Transit 6546
devote 6546
Automation 6543
reproduction 6543
248 6542
amending 6542
ool 6542
whis@@ 6542
D.C. 6541
lessly 6541
throat 6541
Fox 6540
Shu@@ 6540
Wireless 6540
STA@@ 6539
Blu@@ 6538
adolescent 6538
fav@@ 6536
pointing 6536
400@@ 6534
1.0 6533
Classification 6532
References 6531
expectancy 6531
jer@@ 6530
202 6528
gel 6528
Improve 6527
OP 6526
1947 6525
Arizona 6525
exhaust 6524
fat@@ 6524
listened 6524
correlation 6523
17.@@ 6522
calcul@@ 6522
coins 6522
enh@@ 6522
enrolled 6522
Haw@@ 6521
jumped 6519
bell 6517
Vie@@ 6514
negatively 6513
trillion 6512
Var@@ 6509
commends 6509
'clock 6507
develop@@ 6507
Enforced 6506
harmonize 6506
BU@@ 6505
scop@@ 6504
gence 6503
Disney 6502
Yellow 6502
decentralized 6502
non-discriminatory 6502
benchmark 6499
categor@@ 6499
Reservations 6497
advocates 6496
flew 6495
dedication 6494
Institutional 6493
tious 6493
anxiety 6492
Liverpool 6489
MT@@ 6489
Deposit 6488
covenant 6488
Had@@ 6487
Teacher 6487
floods 6487
transferring 6487
Combating 6486
Judges 6486
ature 6486
shipped 6486
keen 6485
pandemic 6485
gra@@ 6484
moisture 6484
Behold 6483
forty 6483
beneficiary 6482
sacred 6482
fab@@ 6481
Towards 6480
JP@@ 6479
zo 6478
Lec@@ 6477
attraction 6477
nel 6477
serv@@ 6477
65@@ 6472
lacked 6472
FL 6470
Farm 6470
Pages 6470
dirty 6470
restraint 6470
CARICOM 6469
spectacular 6469
even@@ 6468
Device 6465
Far 6465
attracting 6465
radar 6465
circum@@ 6463
ote 6463
Fran@@ 6462
dam 6461
ef 6461
Speci@@ 6460
bureau 6460
sealed 6460
sixty-second 6460
atal 6459
caring 6457
doubled 6457
CH 6456
itis 6456
moratorium 6456
Integr@@ 6455
T. 6455
oop 6454
start-up 6454
20.@@ 6453
Hus@@ 6453
INE 6453
Laboratory 6453
iti 6453
RF 6452
Scott 6452
planes 6452
tant 6452
ffe@@ 6451
posters 6451
itch@@ 6449
SM 6448
Schedule 6448
Canal 6447
Refugee 6447
tren@@ 6447
173 6446
Tai 6446
clauses 6446
COR@@ 6445
TOS 6444
mercenaries 6444
merit 6443
Developer 6442
pink 6442
view@@ 6442
Friendly 6441
screens 6441
observ@@ 6439
Beautiful 6438
advertisements 6438
flowing 6437
206 6436
Benjamin 6435
arer 6435
data-@@ 6435
venues 6435
Yi 6434
deepen 6434
Clean 6433
cents 6431
fiction 6430
interfaces 6430
Colorado 6427
Albanian 6426
LI@@ 6426
Sichuan 6426
masses 6425
prince 6425
tt@@ 6425
disorders 6424
bombs 6423
ique 6423
Ry@@ 6422
asion 6421
95@@ 6418
Carlos 6417
Practical 6417
fier 6416
stylish 6416
az 6414
Travel@@ 6412
executing 6411
mou@@ 6411
reign 6411
Jean-@@ 6410
EE 6409
erie 6409
itte@@ 6409
ural 6408
Components 6407
cli@@ 6407
Premium 6406
amid 6406
divine 6405
bore 6404
versus 6404
Bang@@ 6402
gal@@ 6402
Dec 6401
Units 6401
50-@@ 6400
Often 6400
kh@@ 6400
EX 6399
menting 6399
mic 6399
UV 6397
Angel@@ 6396
TERMS 6396
ached 6396
ary-@@ 6395
cycl@@ 6395
exporting 6395
cus 6393
ACC 6391
acked 6391
bent 6391
Alternative 6390
Vista 6388
assignments 6388
opol@@ 6387
ots 6387
eves 6386
205 6385
Wish 6385
Porn 6384
bot 6383
gentle 6383
visas 6383
Extension 6382
Supporting 6382
civic 6382
DV@@ 6381
Side 6381
adviser 6381
ika 6381
Notwithstanding 6378
fastest 6378
modeling 6378
oes 6377
sh 6377
tling 6376
coin 6375
0.9 6374
ANT 6374
similarly 6374
successes 6374
24-@@ 6373
Vel@@ 6372
upgraded 6372
perpetual 6371
rebels 6371
214 6368
lows 6368
Kaz@@ 6367
fifty-sixth 6367
AND@@ 6366
oni 6366
strip@@ 6366
lining 6365
som 6365
CT 6364
Pennsylvania 6363
absent 6363
mayor 6363
right-@@ 6363
Palau 6362
Tenth 6362
Fel@@ 6361
clos@@ 6361
Ball 6360
basin 6360
retrieved 6360
SO 6358
camp@@ 6358
CST 6357
asts 6357
wr@@ 6356
Wildlife 6355
ques@@ 6355
brilliant 6354
socioeconomic 6354
Lif@@ 6352
eda 6352
Tai@@ 6351
bowl 6348
sors 6348
225 6347
Solidarity 6347
227 6345
MINURSO 6345
frag@@ 6345
iling 6344
audited 6343
empowered 6343
liberation 6343
Valencia 6342
clam@@ 6342
introductory 6342
imag@@ 6340
abe@@ 6339
borrowing 6339
PB@@ 6338
adequacy 6337
Ok@@ 6335
alk@@ 6335
quoted 6335
stre@@ 6335
O-@@ 6334
Sher@@ 6334
enactment 6334
complemented 6333
mission@@ 6333
conce@@ 6331
devil 6331
pig@@ 6331
tackling 6331
andy 6330
Prin@@ 6329
Sing@@ 6328
asylum-seekers 6328
tariffs 6328
distinctive 6327
firing 6327
discounts 6325
escaped 6325
Steve 6324
man-@@ 6324
nt 6323
analytics 6322
rooted 6322
narrative 6321
charming 6320
cables 6318
chlor@@ 6317
Hil@@ 6315
originated 6315
Direc@@ 6314
band@@ 6314
insisted 6313
barrel 6312
charity 6312
stupid 6312
Cleaning 6311
baggage 6310
WE 6309
crying 6308
fluctuations 6308
Author@@ 6306
isi 6306
Sha 6305
assembled 6305
Whole 6304
attorney 6303
priv@@ 6303
Dal@@ 6302
Floor 6301
INC 6300
Vil@@ 6300
calculations 6300
installing 6300
Gri@@ 6299
proc@@ 6298
ager 6297
aud@@ 6297
catalyst 6296
distress 6295
residing 6295
short-@@ 6294
Contracts 6292
fifty-fifth 6292
embrace 6291
hast 6291
built-in 6290
copied 6290
erc@@ 6289
keeper 6289
bec@@ 6288
educate 6287
queries 6287
aned 6286
reli@@ 6285
undoubtedly 6285
diag@@ 6283
workplan 6283
Mod@@ 6281
las 6281
Supplementary 6279
absorb 6279
openness 6279
TX 6278
plastics 6277
floating 6276
other@@ 6276
280 6275
disciplines 6275
good-@@ 6273
buffet 6272
zers 6272
Buddha 6271
Memory 6271
rene 6270
umps 6270
overcoming 6269
pulse 6269
171 6268
Recalls 6268
restoring 6267
WR@@ 6265
downloaded 6264
wo@@ 6264
thir@@ 6263
Jing@@ 6262
LC@@ 6262
ratings 6262
compile 6261
dare 6261
ements 6261
automobile 6260
Equ@@ 6259
burnt 6259
c-@@ 6259
Crisis 6258
ny@@ 6258
suggesting 6258
volatility 6257
IZ@@ 6256
finishing 6256
hydr@@ 6256
oured 6256
ria 6256
cribed 6255
interviewed 6255
humankind 6254
pollutants 6254
Uk 6253
eled 6253
likelihood 6252
umbrella 6252
Kennedy 6251
Luc@@ 6251
sis 6251
atmospheric 6250
sters 6250
Lost 6249
machining 6249
catering 6248
Actions 6247
seasons 6247
Sak@@ 6246
oss@@ 6246
Cologne 6245
nut 6244
transported 6243
bou@@ 6242
referral 6242
economists 6241
Abstract 6240
Wood 6240
ku 6240
ser 6238
Precision 6237
Subsidiary 6236
combustion 6236
pec@@ 6235
ICAL 6234
tribe 6232
titled 6231
129@@ 6230
charter 6230
fitting 6230
flooding 6230
Gir@@ 6229
competitors 6229
iss 6229
ul 6228
see@@ 6226
17-@@ 6225
mixing 6225
Christianity 6224
itter 6224
sail@@ 6224
Samuel 6223
ar-@@ 6223
Emphasizing 6222
foremost 6222
itted 6222
prin@@ 6222
stretched 6222
aa 6221
Edition 6220
dental 6220
icing 6220
Beirut 6219
Description@@ 6219
litigation 6219
races 6219
Excel 6218
distor@@ 6218
enthusiasm 6216
Capacity-building 6215
directives 6215
balls 6214
cart 6214
Enhancing 6212
deliberately 6212
inches 6212
lap@@ 6212
instrumental 6211
181 6210
bow@@ 6210
Identification 6208
eta 6208
plug 6208
Tianjin 6207
SAS 6206
Ran@@ 6205
Ice 6204
Interest 6202
plat@@ 6202
rad@@ 6202
uncle 6200
ric 6199
Zoo 6198
cheese 6198
Module 6197
switches 6197
proposing 6195
Kuala 6193
True 6193
undermined 6193
Yu 6192
builds 6192
textile 6192
financially 6191
forgive 6190
Monte@@ 6189
Monte 6188
Xia@@ 6188
z-@@ 6188
manifest 6187
Guiding 6186
th-century 6186
vaccine 6185
2.9 6184
prints 6183
Inquiry 6182
appliances 6182
identifiable 6182
Fron@@ 6181
extensions 6181
vibrant 6181
generators 6179
wee@@ 6179
Scottish 6178
Governmental 6177
Ox@@ 6176
Includes 6175
218 6174
mb@@ 6174
Atlas 6173
DP@@ 6173
power@@ 6172
autom@@ 6171
enses 6170
ball@@ 6169
circles 6169
fifteen 6169
investigators 6169
meth@@ 6169
olo 6169
theater 6169
oping 6168
coup 6165
uri 6165
ceramic 6164
172 6161
cylinder 6161
miscellaneous 6161
Philip 6160
propaganda 6160
Belgrade 6159
Hawaii 6159
Kitchenware 6159
incoming 6159
kits 6158
Romanian 6156
ader 6156
warfare 6156
incidental 6154
oe 6153
regul@@ 6153
finalize 6152
1952 6151
ME 6150
champion 6150
ideally 6150
Aaron 6148
Book@@ 6147
CER@@ 6146
Caledonia 6146
Moder@@ 6146
audiences 6143
registr@@ 6143
operation@@ 6142
eri 6141
medal 6141
5-star 6140
Radisson 6140
queen 6140
recosting 6140
ão 6140
convergence 6139
ires 6139
TF@@ 6138
norm 6138
sexy 6138
auditing 6137
prosperous 6137
reunification 6137
Creative 6136
Hurricane 6136
ODS 6136
oration 6136
downloads 6135
recruit 6135
rises 6135
Relationship 6134
aled 6133
departed 6133
setup 6133
Ivorian 6132
ani@@ 6132
ordin@@ 6131
Dynasty 6129
Factory 6129
coercive 6128
Mogadishu 6127
wholly 6126
withdrew 6126
8.2 6125
inst@@ 6125
phen@@ 6125
wicked 6125
finite 6124
500,000 6121
Classic 6121
disrup@@ 6121
vered 6121
Inspectors 6120
Pope 6120
rigorous 6120
ylene 6119
Testament 6118
imagination 6118
icks 6117
Calcul@@ 6116
Publ@@ 6116
altar 6116
consumed 6116
dorf 6116
stretch 6116
wealthy 6115
Bam@@ 6114
Model@@ 6114
ferryto.net 6113
ast@@ 6112
ox 6110
209 6109
5.3 6109
habitat 6109
exemptions 6108
centrally 6107
plun@@ 6107
parity 6106
tribes 6106
eved 6105
knees 6105
numbered 6105
fel@@ 6103
prophet 6103
emo@@ 6102
1944 6097
donations 6097
orderly 6097
healing 6096
lac@@ 6096
sampling 6095
Cul@@ 6093
Martin@@ 6093
drying 6093
MS@@ 6092
confiscated 6091
fiers 6090
iser 6090
Sony 6089
DPRK 6088
1940 6087
Flu@@ 6087
Mar 6087
fence 6086
pro 6086
Lic@@ 6085
Hours 6083
C.6 6082
Pass 6082
ane@@ 6082
Tian@@ 6081
methodological 6081
Sl@@ 6080
Zhu@@ 6080
crowded 6079
linkage 6079
POR@@ 6078
Want 6078
avail 6078
PV.@@ 6077
batch 6077
Dream 6076
isa 6076
unwind 6076
broaden 6075
vitamin 6074
von 6074
surprising 6073
3.6 6072
quietly 6072
Vice-Chairman 6071
Yang@@ 6070
174 6069
thirds 6069
ights 6068
iner 6067
righteousness 6067
tune 6066
underlines 6065
totalling 6064
vement 6064
Bot@@ 6062
Rent 6062
condemn 6061
illary 6061
backs 6060
charm 6060
outlines 6060
79@@ 6059
aer@@ 6058
gif 6057
paste 6057
undergo 6057
load@@ 6055
177 6054
inity 6054
tortured 6054
Camera 6053
ayed 6053
chat@@ 6052
projection 6052
Programming 6050
RF@@ 6049
Run 6049
tress 6049
Chron@@ 6048
OIC 6048
obey 6048
184 6046
sixty-third 6046
II.@@ 6045
Post@@ 6045
Quick@@ 6045
Seattle 6045
gauge 6045
Umoja 6044
communal 6044
thouse 6044
Massachusetts 6043
187 6042
Nav@@ 6042
sewage 6042
Anna 6041
Cluster 6040
disc 6040
reporters 6040
Anne 6039
Meg@@ 6039
Mining 6039
attachment 6039
conceived 6038
controversy 6037
fri@@ 6036
numerical 6036
Fir@@ 6035
ICS 6033
boom 6033
All-@@ 6032
counting 6032
Currency 6031
Banking 6030
confrontation 6030
react 6030
overdue 6026
Installation 6024
→ 6024
UM 6023
asser@@ 6023
oli 6023
Remove 6022
ación 6021
aint 6021
232 6020
gotten 6020
lia 6020
treasure 6020
Focus 6019
embodied 6019
tablet 6019
hard-@@ 6018
pile 6018
89@@ 6017
Vill@@ 6017
dd@@ 6017
writes 6016
203 6014
Contro@@ 6014
best-@@ 6014
21@@ 6013
2014-@@ 6012
Deb@@ 6012
Been 6011
ECT@@ 6011
Contin@@ 6010
critics 6010
decoration 6010
polar 6010
travelled 6008
barely 6005
Crimes 6004
INTER@@ 6004
stimulus 6004
varieties 6004
psychology 6003
186 6002
Investigations 5999
Nam@@ 5999
lers 5999
frac@@ 5998
« 5997
faculty 5995
parliamentarians 5995
mighty 5993
eighteenth 5992
Bour@@ 5991
balancing 5991
hid 5990
streamlining 5990
urging 5990
Accep@@ 5989
jacket 5989
ushing 5989
IDE 5988
Las@@ 5988
UNITA 5988
osa 5988
retreat 5988
swing 5987
Ohio 5986
LD 5985
rod 5985
incorrect 5984
Ageing 5983
su 5983
Khan 5982
mud 5982
rez 5981
casino 5980
seventeenth 5980
temp@@ 5980
countermeasures 5979
lecture 5979
multilateralism 5979
sixteenth 5978
Sla@@ 5977
fruitful 5977
Brindisi 5976
furnace 5975
partition 5975
statutes 5975
upset 5975
Michigan 5972
consultancy 5972
Medi@@ 5971
Particip@@ 5971
ci 5971
his@@ 5970
oversee 5970
Tuvalu 5969
217 5968
Presentation 5967
ür@@ 5967
crown 5966
unforgettable 5966
Officials 5964
tribal 5964
Lag@@ 5963
GH@@ 5962
aven@@ 5962
bands 5962
cd 5961
photography 5961
instituted 5960
orange 5960
Fabulous 5959
terminology 5959
END@@ 5958
PRESIDENT 5958
bombing 5958
fucking 5958
genes 5958
quad@@ 5957
Publications 5956
CRIC 5955
Sub.2 5955
pole 5954
Directory 5953
Tas@@ 5953
Tonga 5953
immunities 5953
Sti@@ 5952
í 5952
peacekeepers 5951
Cell 5950
IMIS 5950
gaz@@ 5949
typ@@ 5949
vable 5948
calibration 5947
umped 5946
Evidence 5945
Tang 5945
performs 5942
shipments 5942
ark 5941
ken@@ 5941
deportation 5940
pris@@ 5940
villa 5940
benefiting 5939
complications 5938
wrong@@ 5938
UP@@ 5937
Write 5937
critic@@ 5937
oblig@@ 5937
Globalization 5936
aver@@ 5936
logging 5935
manuals 5935
methyl 5934
UF@@ 5933
inos 5933
free-@@ 5932
muscles 5932
delegate 5931
quantum 5931
Fan 5928
Francis 5927
ema 5927
Bak@@ 5926
Apply 5925
agendas 5923
13,@@ 5922
178 5922
shame 5922
sian 5922
sar@@ 5921
shake 5921
domains 5920
tor-@@ 5920
xxx 5920
Display 5919
certainty 5919
lear@@ 5919
disappointed 5918
gall@@ 5918
et-@@ 5916
scattered 5916
SN74AHC@@ 5915
smallest 5915
Micronesia 5914
deficiency 5914
Items 5913
Plurinational 5913
SR 5913
poetry 5913
222 5912
Human@@ 5912
Tourist 5911
tear 5911
Lumpur 5908
len 5908
sixty-fifth 5907
Falls 5905
understands 5905
forwarded 5904
0.00 5903
resour@@ 5903
207 5902
Andr@@ 5902
Communities 5902
UNDAF 5902
compression 5902
crack 5902
TIC@@ 5901
inspectors 5901
maturity 5901
Lounge 5900
Marriage 5900
BUT 5899
Mess@@ 5899
cleansing 5899
signatories 5899
Tehran 5897
administer 5897
Filter 5896
Ja@@ 5896
Tour@@ 5896
e. 5896
impede 5896
itory 5896
voc@@ 5896
Collec@@ 5895
chairmanship 5895
deletion 5895
profitable 5895
pronounced 5895
XIII 5894
buil@@ 5894
g-@@ 5894
176 5893
ever-@@ 5892
heim 5892
informing 5892
py@@ 5891
Info 5889
infrared 5889
Monitor 5887
level@@ 5887
Hu 5886
wheels 5885
Animal 5883
Mines 5883
lodging 5883
Christ@@ 5882
abundant 5880
neighbourhood 5880
198 5879
design@@ 5879
vin 5879
188 5878
Mach@@ 5878
relied 5878
Ahmed 5877
lacks 5876
specif@@ 5876
DG@@ 5875
SOL@@ 5874
sided 5874
Relevant 5873
abil@@ 5873
cooperatives 5873
storms 5873
erated 5872
WILL 5871
ethnicity 5871
prosecutions 5871
IONAL 5870
porn 5870
200,000 5869
undergoing 5869
farmer 5868
followers 5868
Head@@ 5867
commits 5867
allo@@ 5866
ood@@ 5866
Paradise 5865
millennium 5865
progressively 5865
viewer 5865
wastewater 5865
creatures 5864
licences 5864
94@@ 5863
iOS 5863
OC 5862
shoo@@ 5862
215 5861
anybody 5861
auditors 5861
upward 5861
COMPANY 5860
tool@@ 5860
affirmative 5859
incredible 5859
Ec@@ 5858
Ya@@ 5858
diving 5858
drops 5858
line@@ 5858
traction 5858
Missions 5856
washed 5856
04@@ 5854
Adri@@ 5854
HOME 5854
Photoshop 5854
entitlements 5854
escalation 5854
akes 5853
gray 5852
toys 5852
abad 5850
intake 5850
arena 5849
animation 5848
eon 5848
thly 5848
wer 5848
M.@@ 5846
č@@ 5846
somehow 5845
uation 5845
NASA 5844
il-@@ 5844
struggling 5843
bitter 5842
Maker 5841
tch 5840
Donald 5839
anic 5839
MC 5838
Manila 5835
Ã@@ 5835
climb 5834
Ethernet 5833
decreasing 5833
Wood@@ 5832
hand-@@ 5832
inders 5832
14,@@ 5831
Starting 5831
interpret 5831
izer 5831
nitrogen 5830
probe 5830
aquarium 5828
feared 5827
reas@@ 5827
itors 5826
logos 5825
landed 5824
measurable 5824
Adult 5823
Buff@@ 5823
Nazi 5823
233 5822
lock@@ 5822
Fed 5821
Hong@@ 5821
Visual 5821
hadn 5821
commensurate 5820
bud@@ 5819
Sac@@ 5818
eager 5818
intervals 5818
POL@@ 5817
2009-@@ 5816
Ks 5816
slip 5816
ITU 5815
fifty-third 5815
tom 5815
191 5814
ACT 5814
NBA 5814
ozone 5814
6.3 5812
UNCDF 5812
economical 5812
configure 5811
V-@@ 5810
explaining 5810
acknowledging 5809
colored 5809
iPad 5809
pitch 5808
altogether 5806
prone 5806
imprisoned 5805
Dig@@ 5804
spirits 5804
Thousands 5803
communiqué 5803
nurse 5803
Nic@@ 5802
ska 5802
CPU 5801
immer@@ 5801
Technological 5800
occupy 5800
Aud@@ 5799
advertisers 5799
embr@@ 5798
importing 5798
seizure 5798
Xin@@ 5797
applicability 5797
analyzing 5796
dness 5796
magnificent 5796
tum 5795
fifty-fourth 5794
É@@ 5794
TV@@ 5793
geo@@ 5793
instructed 5792
CRE@@ 5791
quotas 5791
paramount 5790
schedules 5790
CORPORATION 5789
streams 5789
Cam 5788
Oceans 5788
administrators 5787
DB@@ 5786
Lack 5786
fullest 5786
ć 5784
Ind@@ 5782
legislature 5782
paper@@ 5782
Eli@@ 5780
complied 5779
stamps 5779
se-@@ 5778
home@@ 5777
water-@@ 5777
utilities 5776
Ethiopian 5775
patents 5775
xx@@ 5775
dozens 5772
immigrant 5772
silk 5772
alties 5771
b-@@ 5771
chy 5770
cumulative 5768
quer@@ 5768
Executives 5766
Hanzi 5765
tertiary 5765
ret 5764
gender-sensitive 5763
Pac@@ 5762
bia 5762
crimin@@ 5762
Belgian 5761
grey 5761
guardian 5760
demonstrating 5759
intervene 5758
lively 5758
264 5757
jac@@ 5757
Azure 5756
LV@@ 5756
UNAMA 5756
emia 5756
Kabul 5755
Roc@@ 5755
algorithms 5755
construc@@ 5754
righteous 5754
laundering 5753
aerial 5752
bicycle 5752
spacecraft 5751
suc@@ 5751
F.@@ 5750
Gran@@ 5750
Dollar 5748
rev@@ 5748
serviced 5748
243 5747
foo@@ 5746
peri@@ 5746
Ming 5745
arized 5745
blessing 5743
collabor@@ 5742
scored 5742
garage 5741
mac@@ 5741
Abyei 5740
Posts 5740
damaging 5740
DB 5739
Dro@@ 5739
TR 5739
fridge 5739
panic 5739
Coc@@ 5738
differentiated 5738
gging 5738
ister 5738
chan@@ 5737
monopoly 5737
Stanley 5736
Del 5735
Blo@@ 5734
Fundamental 5734
necess@@ 5734
survived 5734
shortages 5733
spray 5733
minded 5732
à 5732
four-year 5731
surprises 5731
Cookies 5730
Indicators 5730
K-@@ 5730
pick@@ 5729
scarce 5729
Ottawa 5727
Plans 5727
authentic 5727
scientist 5727
XP 5726
collec@@ 5726
console 5726
misleading 5726
DES@@ 5725
tis@@ 5725
tsunami 5725
Ev@@ 5724
convictions 5724
team@@ 5724
Ara@@ 5723
FM 5723
affair 5723
train@@ 5723
yearly 5723
hectares 5722
wich 5722
zy@@ 5722
Interface 5721
Waste 5721
manually 5721
Fisheries 5720
abandon 5720
eman 5719
human-@@ 5719
yu 5719
aired 5718
Cour@@ 5717
Kitts 5717
ower 5715
WM@@ 5714
Williams 5714
suspicion 5714
237 5713
Dj@@ 5712
substantiated 5712
tages 5712
din 5711
ult 5711
confront 5710
gal 5710
restitution 5708
traded 5708
SMS 5707
WC 5707
regretted 5707
tigh@@ 5707
Bud@@ 5706
humidity 5706
persist 5706
reside 5706
Sarah 5703
ascertain 5703
84@@ 5702
yu@@ 5702
REG@@ 5700
OUR 5699
judgements 5699
observing 5699
Transparency 5698
hs 5698
maxim@@ 5698
och@@ 5698
shield 5696
Spon@@ 5695
ishment 5695
simplify 5695
Exp@@ 5693
Lun@@ 5693
insist 5693
construed 5692
dialog 5692
dialogues 5692
effected 5692
nov@@ 5692
jec@@ 5691
alis 5690
bath@@ 5690
foreseen 5690
ht 5690
insulation 5690
uality 5690
big@@ 5689
impressed 5689
Dad 5687
agging 5687
bottles 5687
Lom@@ 5686
ō@@ 5685
Non-Governmental 5684
practically 5684
refuge 5684
stunning 5684
South-@@ 5682
SG@@ 5681
Turn 5681
bankruptcy 5680
itating 5680
addendum 5679
agg@@ 5679
stays 5678
Landlocked 5677
Nation 5676
anced 5676
elo@@ 5676
expelled 5676
agr@@ 5675
exhibitions 5675
openly 5675
possessed 5675
participates 5674
simultaneous 5674
patience 5673
с@@ 5673
0,000 5672
ference 5672
mechanics 5672
tang@@ 5671
optim@@ 5670
literally 5669
fresh@@ 5668
opponents 5668
souls 5668
longest 5667
Structure 5666
diff@@ 5666
sessional 5666
253 5665
Post-@@ 5665
eping 5665
manages 5665
1939 5664
Suc@@ 5664
connector 5664
63@@ 5663
uous 5662
Lima 5661
Tony 5660
Broad@@ 5659
altitude 5659
prestigious 5659
weakened 5659
Max@@ 5658
geometry 5658
stadium 5658
Kos@@ 5657
Nevis 5657
Orthodox 5657
oz 5657
smiling 5655
bian 5654
trick 5653
Exercise 5652
end-@@ 5652
Dan 5651
efficacy 5651
Host 5650
standardization 5650
overlooking 5649
Hua 5648
Pan 5648
ance@@ 5648
state-owned 5648
Quin@@ 5647
ant@@ 5647
demining 5647
natur@@ 5647
textbooks 5647
asserted 5645
mystery 5645
MHz 5644
Teaching 5644
inver@@ 5644
atically 5643
determin@@ 5643
origins 5642
solo 5640
anism 5639
indications 5639
sustaining 5639
NY@@ 5638
Stat@@ 5638
Strategies 5638
impe@@ 5638
isc@@ 5638
whilst 5638
194 5637
Boulevard 5637
unencumbered 5637
Run@@ 5636
iri 5636
requisite 5636
destroying 5634
249 5633
MON@@ 5633
deem 5633
attribute 5632
pap@@ 5632
Mechanical 5631
Inv@@ 5630
Motor@@ 5630
akers 5630
laun@@ 5630
Organ@@ 5629
disposition 5629
marginalization 5629
mir@@ 5629
gir@@ 5628
Angel 5626
Centr@@ 5626
internation@@ 5626
elders 5624
Sheikh 5623
nerve 5623
Alb@@ 5620
child@@ 5620
Adventure 5619
L.1 5619
ston 5618
uro@@ 5618
es.aspx 5617
Option 5616
orate 5616
rant 5616
Woman 5615
cohesion 5615
forgot 5615
metro 5615
supplemented 5615
meg@@ 5614
roy@@ 5614
21-@@ 5611
Putin 5611
undermining 5609
RAM 5608
admin 5608
hr@@ 5608
Funding 5607
Text 5607
id-@@ 5607
poorly 5607
Disabled 5606
Vehicle 5606
decor@@ 5606
excav@@ 5606
oils 5605
Provincial 5604
eventual 5604
SADC 5603
diffusion 5603
robbery 5601
legisl@@ 5600
small@@ 5600
remin@@ 5599
† 5598
nutritional 5597
Sear@@ 5596
appreciates 5596
cs 5596
Dil@@ 5595
Wild 5593
innov@@ 5593
rot@@ 5593
surgical 5593
deepening 5592
Asset 5591
Shandong 5590
airlines 5590
judged 5590
privatization 5590
searches 5589
GO 5588
Lor@@ 5588
Short 5588
Effect 5587
Experi@@ 5587
Priority 5587
Submission 5587
sympathy 5587
portions 5586
Adjus@@ 5585
Mom@@ 5585
anny 5585
interven@@ 5585
nominal 5585
dys@@ 5584
Clear 5583
7,000 5582
immense 5581
rus@@ 5581
subway 5581
15,@@ 5580
Secure 5578
Vin@@ 5578
bandwidth 5578
reco@@ 5578
tablets 5578
H-@@ 5577
Historic 5577
Processor 5577
Rati@@ 5577
Images 5576
Rental 5576
day-to-day 5576
imper@@ 5576
inevitably 5575
Ton@@ 5574
Custom@@ 5573
Repair 5573
supplements 5573
agreeing 5572
Qingdao 5571
ety 5571
Range 5570
hip 5569
lor@@ 5569
Galaxy 5568
Kil@@ 5568
episodes 5568
secret@@ 5567
Nik@@ 5566
ession 5565
Gross 5564
PLC 5564
Wan@@ 5564
CHAPTER 5562
Colonel 5561
UNDOF 5561
eaten 5561
lun@@ 5561
204 5560
aim@@ 5560
instantly 5560
BA@@ 5559
Good@@ 5559
Comb@@ 5558
cent@@ 5558
industrialization 5558
ock@@ 5558
trap 5558
e-commerce 5557
processors 5557
br 5556
fast-@@ 5556
acceding 5555
breath@@ 5555
grow@@ 5554
hn 5554
unfortunately 5554
Explorer 5552
Older 5552
fon@@ 5552
shifting 5551
Turning 5550
assed 5550
outlets 5550
HU@@ 5549
asha 5549
sink 5548
Program@@ 5547
volunte@@ 5547
gly@@ 5546
sibility 5546
8,000 5545
confronted 5545
fined 5545
Heat 5544
offs 5543
sie 5543
Stovetop 5542
relies 5542
tifications 5541
05@@ 5539
Maximum 5539
Pow@@ 5539
rations 5539
roll@@ 5539
Storm 5537
competitions 5537
cruise 5537
ancer 5536
girlfriend 5536
ordering 5536
und 5536
1941 5535
Bai@@ 5534
ction 5534
ackers 5533
twenty-fourth 5533
IH 5532
Subtotal 5532
stranger 5532
MONUSCO 5531
Sweet 5530
expeditiously 5529
apparatus 5528
interpretative 5528
nan 5528
overnight 5528
pussy 5528
lengthy 5527
geared 5525
kind@@ 5524
tted 5524
bulletin 5523
Fro@@ 5522
aids 5521
atin 5521
lad@@ 5521
third-@@ 5521
Combined 5520
XML 5520
comb@@ 5520
high-tech 5519
onian 5518
hiding 5517
oppose 5515
Specifically 5514
ler@@ 5514
memorial 5514
reaffirming 5514
Am 5513
Quar@@ 5513
deserves 5513
mins 5513
onom@@ 5513
rigid 5513
fatigue 5512
conditional 5510
dumping 5510
competencies 5509
privilege 5508
221 5507
retaining 5506
Monthly 5505
Reading 5505
hasn 5505
ller 5505
bias 5504
friction 5504
interregional 5504
27.@@ 5503
induction 5503
recruiting 5503
tici@@ 5503
Some@@ 5502
bed@@ 5501
blockade 5501
Buildings 5500
ache 5499
mail@@ 5499
Banner 5498
Da 5498
ango 5498
destiny 5498
sooner 5498
thered 5497
Il@@ 5496
19-@@ 5495
195 5495
Deep 5495
Khal@@ 5495
32-@@ 5494
Contemporary 5494
Gospel 5494
poet 5494
wallpaper 5494
curtain 5493
masters 5493
span@@ 5492
dawn 5491
uals 5491
Dark 5489
TL 5489
letting 5489
oz@@ 5489
Kansas 5487
guilt 5487
AUD 5486
segregation 5486
Saul 5485
blo@@ 5485
conception 5485
slaves 5485
heav@@ 5484
Ancient 5483
country-specific 5483
Steps 5482
Story 5482
EG 5481
OV@@ 5481
chro@@ 5481
Actually 5480
Shipping 5480
atis@@ 5479
gor@@ 5478
Acc@@ 5477
communicating 5477
colours 5476
sincerely 5476
valu@@ 5476
Whenever 5475
assists 5475
commen@@ 5475
intentionally 5475
swim 5475
Mark@@ 5474
vol 5474
Abuse 5473
Turks 5473
Cher@@ 5472
ê@@ 5471
prospective 5470
Ministries 5469
hex@@ 5468
plight 5468
wilderness 5468
Om@@ 5467
vegetable 5467
acker 5465
self-defence 5465
Perfect 5464
excitement 5464
fourteenth 5464
UNV 5463
enact 5463
cements 5462
Prim@@ 5461
dem 5461
Philadelphia 5459
GM@@ 5457
dwell 5457
loyalty 5457
Issue 5455
augh@@ 5455
ello 5455
far@@ 5455
sights 5455
8.5 5454
GB@@ 5453
closest 5453
dos@@ 5453
follow@@ 5453
EF 5452
Ground 5452
confirms 5452
269 5451
aster@@ 5451
tooth 5451
woods 5451
10-year 5450
kel@@ 5450
technically 5450
oot 5449
supervise 5449
consular 5448
Kevin 5447
flat@@ 5447
presently 5447
wins 5447
y.aspx 5447
Cojak 5446
acceleration 5446
.css 5445
curb 5445
mask 5445
otic 5445
quit 5445
ratios 5445
ured 5445
tural 5444
24.@@ 5440
key@@ 5440
Offer 5439
Implementing 5438
nos 5438
Alice 5436
cit@@ 5436
labels 5435
stopping 5435
-in 5434
7.2 5434
shade 5434
216 5432
6.1 5432
deadly 5432
deeds 5432
Talk 5431
1325 5430
241 5429
ART 5429
Accessories 5429
R-@@ 5429
politician 5429
196 5428
admissible 5428
Customers 5427
prioritize 5427
Comple@@ 5426
WHETHER 5426
grati@@ 5426
irrevocable 5426
ée 5426
Compared 5425
Plat@@ 5425
family-@@ 5424
opposing 5424
therapeutic 5424
lodged 5423
HL 5422
Nep@@ 5422
boy@@ 5422
Terrace 5421
06@@ 5420
entitlement 5420
Accel@@ 5419
micro 5419
eradicating 5418
longer-term 5418
multimedia 5418
D-2 5417
femin@@ 5417
membrane 5417
1953 5416
Eg@@ 5416
intim@@ 5416
orn 5416
rage 5416
repository 5416
turnover 5416
agen 5414
hrs 5414
Liberty 5413
overlap 5413
-General 5412
grasp 5410
imbalances 5410
CORP 5409
microfinance 5409
pus 5409
3.7 5407
Guil@@ 5406
maid 5406
bid@@ 5405
gig@@ 5403
sixty-fourth 5403
xi 5402
Lind@@ 5401
dependency 5401
photograph 5400
tments 5400
ample 5399
neighbors 5398
Chap@@ 5397
adul@@ 5397
comment@@ 5396
Guesthouse 5394
ove 5394
shifted 5394
GHz 5393
actress 5393
allegation 5393
nodes 5393
debut 5392
ideological 5392
administrations 5391
opera 5391
Consulting 5390
Dri@@ 5389
Inten@@ 5389
mark@@ 5389
ESS 5387
dle 5387
RAN@@ 5386
Ron@@ 5386
resin 5386
defending 5385
Goddess 5384
ims 5383
deadlines 5382
populated 5382
rebuild 5382
Damascus 5381
asses 5380
ashi 5379
conducts 5379
179 5378
Creating 5378
interrelated 5377
mes@@ 5376
agged 5375
remittances 5375
brethren 5374
entails 5374
scourge 5374
1942 5371
LIN@@ 5371
pale 5371
mond 5370
supreme 5369
triggered 5368
wick 5368
Cros@@ 5367
ong-@@ 5367
Term 5366
Wes@@ 5365
agon 5365
ina@@ 5364
Aer@@ 5363
MIME 5363
256 5362
eh 5359
Respect 5358
smen 5357
virtu@@ 5357
Improvement 5356
Nap@@ 5356
228 5355
Rou@@ 5355
angels 5355
glance 5355
issu@@ 5355
6.4 5354
COMP@@ 5354
Empowerment 5354
tec 5354
Flow 5353
adopts 5353
Min 5352
offender 5352
BT 5351
Clar@@ 5351
KS 5351
Leader 5351
Main@@ 5351
contacted 5351
creature 5351
flex@@ 5351
vie@@ 5351
Automotive 5350
Grant 5350
Arabs 5349
Nordic 5349
SI@@ 5349
infrastructures 5349
prob@@ 5349
cha 5347
gaming 5346
unavailable 5346
193 5345
parliaments 5345
reactor 5345
texture 5345
AV 5344
aser 5344
accompany 5343
ister@@ 5343
mobilized 5343
Instrument 5342
congress 5342
mour@@ 5342
struc@@ 5341
Di 5339
ape 5339
speedy 5338
XX 5337
realm 5337
fai@@ 5336
tactics 5336
Secret 5335
ost 5335
trig@@ 5335
ENG 5334
Swimming 5334
Transl@@ 5334
vice-@@ 5334
hairdryer 5333
xy 5333
Bluetooth 5332
2,500 5331
Cheng 5331
11,@@ 5330
complained 5330
convince 5330
edy 5330
enders 5330
ilia 5330
ouring 5330
Determin@@ 5329
holdings 5329
Anyone 5328
Names 5328
87@@ 5327
Desktop 5327
cinema 5326
elite 5326
exacerbated 5326
App@@ 5325
Jab@@ 5325
Taipei 5325
Thematic 5325
emails 5325
moreover 5325
peace-building 5325
5.4 5324
Luke 5324
blank 5324
brigh@@ 5324
proteins 5324
porter 5323
ture@@ 5323
Bermuda 5322
inmates 5322
appendix 5321
bble 5321
Sig@@ 5320
Worldwide 5320
as-@@ 5320
COUNCIL 5319
DD 5317
Lin 5317
Commitment 5316
Federated 5316
WA@@ 5315
dissolution 5315
ile@@ 5315
sanc@@ 5315
8.4 5314
ags 5314
commerci@@ 5313
compromised 5313
geological 5313
inherited 5313
Leadership 5310
ony@@ 5310
Mohammed 5309
troubled 5309
SN74AHCT@@ 5307
encing 5307
intr@@ 5307
Dre@@ 5306
IPCC 5306
PURPOSE 5306
mos 5306
self@@ 5306
tour@@ 5306
Mrs 5305
owe 5305
ub@@ 5305
Marie 5303
Techn@@ 5303
factual 5303
16,@@ 5302
abundance 5301
Patrick 5300
RI 5300
forbidden 5300
locking 5300
ev 5299
beating 5298
CAN@@ 5297
Expenditure 5297
Logo 5297
aud 5297
flour 5296
prototype 5296
JO@@ 5295
variant 5295
trem@@ 5294
15,000 5290
Leaders 5290
academia 5290
co-operation 5290
Jiang 5289
tu 5288
bubble 5287
drunk 5287
iner@@ 5287
Bit@@ 5286
ight@@ 5286
Aboriginal 5285
Liability 5285
Moroccan 5284
amateur 5284
Mayor 5283
ia@@ 5283
Dictionary 5282
VA 5282
4.0 5281
adjusting 5281
bare 5280
ei 5280
policing 5280
upheld 5280
Lu 5278
Packaging 5278
ORS 5277
Semiconductors 5277
UB 5276
drawings 5276
Seventh 5275
Taxi 5275
flies 5275
dismissal 5274
lamps 5274
Bac@@ 5273
militias 5273
Failure 5272
GHG 5272
xx 5272
phy@@ 5271
asa 5270
complain 5270
aggres@@ 5269
demo@@ 5269
lovers 5269
veto 5269
Gy@@ 5268
PW@@ 5268
Poin@@ 5268
stakeholder 5268
Accord 5267
anj@@ 5267
bbed 5267
circumstance 5267
wrapped 5267
Cayman 5266
Kab@@ 5266
nutri@@ 5266
Religion 5265
enforcing 5265
func@@ 5264
mph 5264
two-thirds 5264
PRC 5262
Claims 5261
Wars 5261
ake 5261
mine-@@ 5261
Chu@@ 5260
Multiple 5260
avo@@ 5260
pragmatic 5260
scenery 5260
Hop@@ 5259
mess@@ 5258
Edge 5257
SF@@ 5257
apar@@ 5257
的@@ 5257
4.6 5256
Grande 5256
bush 5256
eleven 5256
ik 5256
MACHINERY 5255
North@@ 5255
faults 5254
[...]
